{
  "version": "1.0",
  "truncation": null,
  "padding": null,
  "added_tokens": [
    {
      "id": 0,
      "content": "[UNK]",
      "single_word": false,
      "lstrip": false,
      "rstrip": false,
      "normalized": false,
      "special": true
    }
  ],
  "normalizer": {
    "type": "Sequence",
    "normalizers": [
      {
        "type": "NFKC"
      },
      {
        "type": "Replace",
        "pattern": {
          "Regex": "[^\\p{L}\\p{M}\\p{N}]+"
        },
        "content": " "
      }
    ]
  },
  "pre_tokenizer": {
    "type": "Whitespace"
  },
  "post_processor": null,
  "decoder": null,
  "model": {
    "type": "BPE",
    "dropout": null,
    "unk_token": "[UNK]",
    "continuing_subword_prefix": null,
    "end_of_word_suffix": null,
    "fuse_unk": false,
    "byte_fallback": false,
    "ignore_merges": false,
    "vocab": {
      "[UNK]": 0,
      "0": 1,
      "1": 2,
      "2": 3,
      "3": 4,
      "4": 5,
      "5": 6,
      "6": 7,
      "7": 8,
      "8": 9,
      "9": 10,
      "A": 11,
      "B": 12,
      "C": 13,
      "D": 14,
      "E": 15,
      "F": 16,
      "G": 17,
      "H": 18,
      "I": 19,
      "J": 20,
      "K": 21,
      "L": 22,
      "M": 23,
      "N": 24,
      "O": 25,
      "P": 26,
      "Q": 27,
      "R": 28,
      "S": 29,
      "T": 30,
      "U": 31,
      "V": 32,
      "W": 33,
      "X": 34,
      "Y": 35,
      "Z": 36,
      "a": 37,
      "b": 38,
      "c": 39,
      "d": 40,
      "e": 41,
      "f": 42,
      "g": 43,
      "h": 44,
      "i": 45,
      "j": 46,
      "k": 47,
      "l": 48,
      "m": 49,
      "n": 50,
      "o": 51,
      "p": 52,
      "q": 53,
      "r": 54,
      "s": 55,
      "t": 56,
      "u": 57,
      "v": 58,
      "w": 59,
      "x": 60,
      "y": 61,
      "z": 62,
      "Ö": 63,
      "ß": 64,
      "á": 65,
      "â": 66,
      "æ": 67,
      "ç": 68,
      "è": 69,
      "é": 70,
      "ë": 71,
      "í": 72,
      "ñ": 73,
      "ö": 74,
      "ú": 75,
      "ü": 76,
      "ā": 77,
      "ī": 78,
      "İ": 79,
      "Ś": 80,
      "ś": 81,
      "ū": 82,
      "ș": 83,
      "ɑ": 84,
      "ə": 85,
      "ɦ": 86,
      "ɪ": 87,
      "ɾ": 88,
      "ʊ": 89,
      "ʌ": 90,
      "ʼ": 91,
      "ˈ": 92,
      "ː": 93,
      "́": 94,
      "̪": 95,
      "Ι": 96,
      "ί": 97,
      "α": 98,
      "δ": 99,
      "θ": 100,
      "ν": 101,
      "ο": 102,
      "π": 103,
      "ς": 104,
      "ό": 105,
      "ا": 106,
      "ب": 107,
      "ت": 108,
      "ر": 109,
      "ھ": 110,
      "ँ": 111,
      "ं": 112,
      "ः": 113,
      "अ": 114,
      "आ": 115,
      "इ": 116,
      "ई": 117,
      "उ": 118,
      "ऊ": 119,
      "ऋ": 120,
      "ऍ": 121,
      "ए": 122,
      "ऐ": 123,
      "ऑ": 124,
      "ओ": 125,
      "औ": 126,
      "क": 127,
      "ख": 128,
      "ग": 129,
      "घ": 130,
      "ङ": 131,
      "च": 132,
      "छ": 133,
      "ज": 134,
      "झ": 135,
      "ञ": 136,
      "ट": 137,
      "ठ": 138,
      "ड": 139,
      "ढ": 140,
      "ण": 141,
      "त": 142,
      "थ": 143,
      "द": 144,
      "ध": 145,
      "न": 146,
      "प": 147,
      "फ": 148,
      "ब": 149,
      "भ": 150,
      "म": 151,
      "य": 152,
      "र": 153,
      "ल": 154,
      "ळ": 155,
      "व": 156,
      "श": 157,
      "ष": 158,
      "स": 159,
      "ह": 160,
      "़": 161,
      "ा": 162,
      "ि": 163,
      "ी": 164,
      "ु": 165,
      "ू": 166,
      "ृ": 167,
      "े": 168,
      "ै": 169,
      "ॉ": 170,
      "ॊ": 171,
      "ो": 172,
      "ौ": 173,
      "्": 174,
      "०": 175,
      "१": 176,
      "२": 177,
      "३": 178,
      "४": 179,
      "५": 180,
      "६": 181,
      "७": 182,
      "८": 183,
      "९": 184,
      "ত": 185,
      "ভ": 186,
      "র": 187,
      "া": 188,
      "ৰ": 189,
      "ਤ": 190,
      "ਭ": 191,
      "ਰ": 192,
      "ਾ": 193,
      "ત": 194,
      "ભ": 195,
      "ર": 196,
      "ા": 197,
      "ତ": 198,
      "ଭ": 199,
      "ର": 200,
      "ା": 201,
      "இ": 202,
      "த": 203,
      "ந": 204,
      "ய": 205,
      "ா": 206,
      "ி": 207,
      "்": 208,
      "ం": 209,
      "ః": 210,
      "అ": 211,
      "ఆ": 212,
      "ఇ": 213,
      "ఈ": 214,
      "ఉ": 215,
      "ఋ": 216,
      "ఎ": 217,
      "ఏ": 218,
      "ఐ": 219,
      "ఒ": 220,
      "ఓ": 221,
      "ఔ": 222,
      "క": 223,
      "ఖ": 224,
      "గ": 225,
      "ఘ": 226,
      "చ": 227,
      "ఛ": 228,
      "జ": 229,
      "ఞ": 230,
      "ట": 231,
      "ఠ": 232,
      "డ": 233,
      "ఢ": 234,
      "ణ": 235,
      "త": 236,
      "థ": 237,
      "ద": 238,
      "ధ": 239,
      "న": 240,
      "ప": 241,
      "ఫ": 242,
      "బ": 243,
      "భ": 244,
      "మ": 245,
      "య": 246,
      "ర": 247,
      "ల": 248,
      "ళ": 249,
      "వ": 250,
      "శ": 251,
      "ష": 252,
      "స": 253,
      "హ": 254,
      "ా": 255,
      "ి": 256,
      "ీ": 257,
      "ు": 258,
      "ూ": 259,
      "ృ": 260,
      "ె": 261,
      "ే": 262,
      "ై": 263,
      "ొ": 264,
      "ో": 265,
      "ౌ": 266,
      "్": 267,
      "ತ": 268,
      "ಭ": 269,
      "ರ": 270,
      "ಾ": 271,
      "ം": 272,
      "ത": 273,
      "ഭ": 274,
      "ര": 275,
      "ാ": 276,
      "ṅ": 277,
      "ṇ": 278,
      "Ṛ": 279,
      "ṣ": 280,
      "ṭ": 281,
      "Ἰ": 282,
      "ki": 283,
      "wi": 284,
      "wiki": 285,
      "ia": 286,
      "dia": 287,
      "or": 288,
      "tt": 289,
      "htt": 290,
      "http": 291,
      "pe": 292,
      "https": 293,
      "org": 294,
      "pedia": 295,
      "wikipedia": 296,
      "te": 297,
      "in": 298,
      "en": 299,
      "an": 300,
      "hi": 301,
      "on": 302,
      "ti": 303,
      "ार": 304,
      "ar": 305,
      "In": 306,
      "20": 307,
      "er": 308,
      "th": 309,
      "India": 310,
      "re": 311,
      "्र": 312,
      "al": 313,
      "es": 314,
      "भार": 315,
      "भारत": 316,
      "్ర": 317,
      "is": 318,
      "la": 319,
      "tion": 320,
      "ci": 321,
      "of": 322,
      "it": 323,
      "ed": 324,
      "ార": 325,
      "and": 326,
      "के": 327,
      "om": 328,
      "्य": 329,
      "cite": 330,
      "the": 331,
      "रा": 332,
      "19": 333,
      "as": 334,
      "ic": 335,
      "ra": 336,
      "मे": 337,
      "ou": 338,
      "um": 339,
      "no": 340,
      "ాల": 341,
      "201": 342,
      "ान": 343,
      "र्": 344,
      "్య": 345,
      "स्": 346,
      "ac": 347,
      "200": 348,
      "का": 349,
      "us": 350,
      "et": 351,
      "oo": 352,
      "భార": 353,
      "భారత": 354,
      "le": 355,
      "దే": 356,
      "ri": 357,
      "OT": 358,
      "में": 359,
      "దేశ": 360,
      "స్": 361,
      "क्": 362,
      "at": 363,
      "ent": 364,
      "am": 365,
      "సా": 366,
      "lin": 367,
      "id": 368,
      "या": 369,
      "ర్": 370,
      "की": 371,
      "న్": 372,
      "ag": 373,
      "ing": 374,
      "ref": 375,
      "ीय": 376,
      "ad": 377,
      "प्र": 378,
      "note": 379,
      "ate": 380,
      "वि": 381,
      "red": 382,
      "li": 383,
      "link": 384,
      "ों": 385,
      "ook": 386,
      "edit": 387,
      "action": 388,
      "ang": 389,
      "redlink": 390,
      "com": 391,
      "ति": 392,
      "ur": 393,
      "10": 394,
      "से": 395,
      "ना": 396,
      "ation": 397,
      "lo": 398,
      "ve": 399,
      "न्": 400,
      "है": 401,
      "లు": 402,
      "78": 403,
      "त्र": 404,
      "రా": 405,
      "क्ष": 406,
      "ప్ర": 407,
      "st": 408,
      "ww": 409,
      "सं": 410,
      "we": 411,
      "భారతదేశ": 412,
      "pg": 413,
      "राज": 414,
      "లో": 415,
      "ला": 416,
      "ेश": 417,
      "IS": 418,
      "un": 419,
      "ist": 420,
      "िया": 421,
      "और": 422,
      "सा": 423,
      "ter": 424,
      "978": 425,
      "ch": 426,
      "ता": 427,
      "00": 428,
      "ory": 429,
      "fi": 430,
      "త్ర": 431,
      "BN": 432,
      "ial": 433,
      "to": 434,
      "ాలు": 435,
      "ISBN": 436,
      "tic": 437,
      "ul": 438,
      "भा": 439,
      "రి": 440,
      "12": 441,
      "క్": 442,
      "ver": 443,
      "he": 444,
      "ంద": 445,
      "FO": 446,
      "पु": 447,
      "NOT": 448,
      "OTNOT": 449,
      "FOOTNOT": 450,
      "FOOTNOTE": 451,
      "ंग": 452,
      "ని": 453,
      "ons": 454,
      "As": 455,
      "ro": 456,
      "web": 457,
      "ce": 458,
      "पर": 459,
      "ाल": 460,
      "ల్": 461,
      "Sou": 462,
      "chi": 463,
      "భారతదేశం": 464,
      "भारतीय": 465,
      "्रे": 466,
      "jpg": 467,
      "िक": 468,
      "di": 469,
      "ంగ": 470,
      "enti": 471,
      "13": 472,
      "देश": 473,
      "mp": 474,
      "ol": 475,
      "for": 476,
      "ने": 477,
      "me": 478,
      "ni": 479,
      "त्": 480,
      "book": 481,
      "il": 482,
      "pu": 483,
      "को": 484,
      "age": 485,
      "identi": 486,
      "de": 487,
      "50": 488,
      "राज्य": 489,
      "fier": 490,
      "identifier": 491,
      "res": 492,
      "न्द": 493,
      "ment": 494,
      "18": 495,
      "ీయ": 496,
      "ha": 497,
      "14": 498,
      "ము": 499,
      "ండ": 500,
      "books": 501,
      "india": 502,
      "202": 503,
      "con": 504,
      "err": 505,
      "षा": 506,
      "मा": 507,
      "15": 508,
      "स्त": 509,
      "सि": 510,
      "సి": 511,
      "ष्": 512,
      "हि": 513,
      "ma": 514,
      "Indian": 515,
      "ig": 516,
      "cial": 517,
      "జ్య": 518,
      "De": 519,
      "CI": 520,
      "angu": 521,
      "्व": 522,
      "17": 523,
      "26": 524,
      "go": 525,
      "TE": 526,
      "తా": 527,
      "The": 528,
      "16": 529,
      "RE": 530,
      "ces": 531,
      "199": 532,
      "నా": 533,
      "వి": 534,
      "CITE": 535,
      "CITERE": 536,
      "తి": 537,
      "్ట": 538,
      "सू": 539,
      "CITEREF": 540,
      "ab": 541,
      "ir": 542,
      "ay": 543,
      "ateg": 544,
      "Categ": 545,
      "Spe": 546,
      "up": 547,
      "umb": 548,
      "वा": 549,
      "भाषा": 550,
      "error": 551,
      "se": 552,
      "ion": 553,
      "త్": 554,
      "ity": 555,
      "हा": 556,
      "www": 557,
      "har": 558,
      "था": 559,
      "Har": 560,
      "णी": 561,
      "Category": 562,
      "जा": 563,
      "पा": 564,
      "ची": 565,
      "fn": 566,
      "కు": 567,
      "Special": 568,
      "ational": 569,
      "late": 570,
      "tu": 571,
      "archi": 572,
      "ड़": 573,
      "Book": 574,
      "Uni": 575,
      "ट्र": 576,
      "30": 577,
      "सम": 578,
      "యా": 579,
      "री": 580,
      "oun": 581,
      "दि": 582,
      "Asia": 583,
      "archive": 584,
      "ind": 585,
      "po": 586,
      "ly": 587,
      "ను": 588,
      "ld": 589,
      "cal": 590,
      "langu": 591,
      "Re": 592,
      "श्रे": 593,
      "ens": 594,
      "श्रेणी": 595,
      "rces": 596,
      "ew": 597,
      "ष्ट्र": 598,
      "im": 599,
      "తం": 600,
      "ले": 601,
      "विश": 602,
      "ంది": 603,
      "చి": 604,
      "fr": 605,
      "कर": 606,
      "क्षे": 607,
      "28": 608,
      "कि": 609,
      "rit": 610,
      "40": 611,
      "జ్యం": 612,
      "क्षेत्र": 613,
      "her": 614,
      "्या": 615,
      "by": 616,
      "नि": 617,
      "ित": 618,
      "25": 619,
      "జా": 620,
      "పూ": 621,
      "వా": 622,
      "ిక": 623,
      "ज़": 624,
      "్రా": 625,
      "2011": 626,
      "Sources": 627,
      "errors": 628,
      "Ch": 629,
      "BookSources": 630,
      "మా": 631,
      "22": 632,
      "ली": 633,
      "comm": 634,
      "mplate": 635,
      "जन": 636,
      "Harv": 637,
      "ak": 638,
      "ress": 639,
      "భా": 640,
      "ులు": 641,
      "Ar": 642,
      "ct": 643,
      "बा": 644,
      "ib": 645,
      "मि": 646,
      "arg": 647,
      "Sfn": 648,
      "कार": 649,
      "ती": 650,
      "ved": 651,
      "ద్": 652,
      "Met": 653,
      "हिन्द": 654,
      "des": 655,
      "ary": 656,
      "ana": 657,
      "calf": 658,
      "23": 659,
      "tr": 660,
      "ht": 661,
      "Metcalf": 662,
      "px": 663,
      "मु": 664,
      "gov": 665,
      "लि": 666,
      "मी": 667,
      "language": 668,
      "ंड": 669,
      "be": 670,
      "est": 671,
      "mb": 672,
      "ica": 673,
      "ta": 674,
      "र्व": 675,
      "चि": 676,
      "media": 677,
      "ge": 678,
      "సం": 679,
      "राष्ट्र": 680,
      "ther": 681,
      "vers": 682,
      "21": 683,
      "29": 684,
      "కా": 685,
      "రు": 686,
      "భారతీయ": 687,
      "मन": 688,
      "मान": 689,
      "ాం": 690,
      "ex": 691,
      "goo": 692,
      "ata": 693,
      "24": 694,
      "शा": 695,
      "load": 696,
      "pp": 697,
      "gle": 698,
      "उत्": 699,
      "wikimedia": 700,
      "upload": 701,
      "ub": 702,
      "orld": 703,
      "प्रदेश": 704,
      "ష్ట": 705,
      "ార్": 706,
      "క్ష": 707,
      "वर्": 708,
      "commons": 709,
      "South": 710,
      "thumb": 711,
      "दी": 712,
      "కి": 713,
      "పా": 714,
      "हैं": 715,
      "ast": 716,
      "చరి": 717,
      "పు": 718,
      "స్థ": 719,
      "చరిత్ర": 720,
      "డి": 721,
      "हु": 722,
      "google": 723,
      "సామ": 724,
      "सी": 725,
      "ार्": 726,
      "mo": 727,
      "तर": 728,
      "47": 729,
      "Po": 730,
      "ted": 731,
      "యి": 732,
      "వం": 733,
      "న్న": 734,
      "with": 735,
      "यु": 736,
      "nd": 737,
      "ल्": 738,
      "ff": 739,
      "les": 740,
      "ud": 741,
      "ort": 742,
      "सूची": 743,
      "गर": 744,
      "म्": 745,
      "Com": 746,
      "AA": 747,
      "హి": 748,
      "Sing": 749,
      "Ind": 750,
      "भि": 751,
      "from": 752,
      "स्थ": 753,
      "11": 754,
      "tri": 755,
      "Ma": 756,
      "नी": 757,
      "List": 758,
      "मू": 759,
      "अन": 760,
      "2007": 761,
      "27": 762,
      "ish": 763,
      "ది": 764,
      "పాల": 765,
      "tern": 766,
      "Te": 767,
      "पू": 768,
      "2009": 769,
      "template": 770,
      "2014": 771,
      "Ste": 772,
      "ng": 773,
      "आध": 774,
      "ंग्रे": 775,
      "versity": 776,
      "ష్ట్ర": 777,
      "సామ్రా": 778,
      "coun": 779,
      "Pra": 780,
      "aj": 781,
      "PA": 782,
      "na": 783,
      "inal": 784,
      "2006": 785,
      "par": 786,
      "lation": 787,
      "थि": 788,
      "2018": 789,
      "టి": 790,
      "నే": 791,
      "St": 792,
      "conom": 793,
      "Singh": 794,
      "भी": 795,
      "ेष": 796,
      "targ": 797,
      "target": 798,
      "Press": 799,
      "మి": 800,
      "వర్": 801,
      "iv": 802,
      "ंध": 803,
      "द्": 804,
      "मेला": 805,
      "Stein": 806,
      "und": 807,
      "ते": 808,
      "bo": 809,
      "ంచ": 810,
      "श्": 811,
      "per": 812,
      "co": 813,
      "ho": 814,
      "पुरा": 815,
      "lig": 816,
      "ap": 817,
      "अभि": 818,
      "धान": 819,
      "ages": 820,
      "భాష": 821,
      "Se": 822,
      "196": 823,
      "Ro": 824,
      "ensus": 825,
      "uc": 826,
      "जि": 827,
      "ाना": 828,
      "33": 829,
      "Pa": 830,
      "గం": 831,
      "లీ": 832,
      "्रा": 833,
      "विशेष": 834,
      "सर": 835,
      "र्म": 836,
      "స్తా": 837,
      "రాష్ట్ర": 838,
      "University": 839,
      "लेख": 840,
      "ans": 841,
      "hal": 842,
      "2004": 843,
      "ong": 844,
      "द्व": 845,
      "54": 846,
      "qu": 847,
      "మూ": 848,
      "our": 849,
      "ंत्र": 850,
      "el": 851,
      "log": 852,
      "कृ": 853,
      "हिन्दी": 854,
      "సామ్రాజ్యం": 855,
      "Hist": 856,
      "80": 857,
      "ोग": 858,
      "orig": 859,
      "ys": 860,
      "జి": 861,
      "ాన": 862,
      "దేశ్": 863,
      "अंग्रे": 864,
      "एक": 865,
      "िण": 866,
      "स्तान": 867,
      "Hind": 868,
      "गु": 869,
      "తీయ": 870,
      "ore": 871,
      "ers": 872,
      "Prades": 873,
      "ard": 874,
      "ut": 875,
      "గా": 876,
      "जी": 877,
      "दक्ष": 878,
      "34": 879,
      "ts": 880,
      "77": 881,
      "av": 882,
      "ke": 883,
      "స్తాన్": 884,
      "ai": 885,
      "cy": 886,
      "pulation": 887,
      "मूल": 888,
      "दक्षिण": 889,
      "pro": 890,
      "90": 891,
      "120": 892,
      "iss": 893,
      "Go": 894,
      "ori": 895,
      "original": 896,
      "गमन": 897,
      "टी": 898,
      "दे": 899,
      "धर्म": 900,
      "కే": 901,
      "గు": 902,
      "డు": 903,
      "्रो": 904,
      "ae": 905,
      "land": 906,
      "ates": 907,
      "bl": 908,
      "टि": 909,
      "तथा": 910,
      "द्य": 911,
      "पी": 912,
      "are": 913,
      "तिथि": 914,
      "National": 915,
      "man": 916,
      "ంట": 917,
      "లి": 918,
      "్రీ": 919,
      "రాజ": 920,
      "gra": 921,
      "36": 922,
      "ँच": 923,
      "ंद": 924,
      "हो": 925,
      "राष्ट्रीय": 926,
      "गण": 927,
      "हर": 928,
      "eral": 929,
      "ine": 930,
      "History": 931,
      "his": 932,
      "డ్": 933,
      "ంగా": 934,
      "2010": 935,
      "वं": 936,
      "ढ़": 937,
      "35": 938,
      "Min": 939,
      "umm": 940,
      "ంలో": 941,
      "రాజ్యం": 942,
      "భారతదేశంలో": 943,
      "titu": 944,
      "port": 945,
      "pd": 946,
      "70": 947,
      "ोल": 948,
      "vern": 949,
      "राज्यों": 950,
      "अभिगमन": 951,
      "ian": 952,
      "ence": 953,
      "पुर": 954,
      "ism": 955,
      "sh": 956,
      "తర": 957,
      "స్త్ర": 958,
      "स्रो": 959,
      "आधार": 960,
      "स्रोत": 961,
      "ru": 962,
      "ance": 963,
      "artic": 964,
      "try": 965,
      "ear": 966,
      "ss": 967,
      "కో": 968,
      "ణా": 969,
      "దక్ష": 970,
      "ధిక": 971,
      "వ్య": 972,
      "శ్": 973,
      "సియా": 974,
      "జాతీయ": 975,
      "बर": 976,
      "2016": 977,
      "अनु": 978,
      "मह": 979,
      "ews": 980,
      "2C": 981,
      "eng": 982,
      "publ": 983,
      "Mo": 984,
      "1998": 985,
      "महा": 986,
      "रू": 987,
      "्री": 988,
      "पूर्व": 989,
      "ll": 990,
      "stan": 991,
      "ండి": 992,
      "indi": 993,
      "htm": 994,
      "pdf": 995,
      "Gu": 996,
      "खाना": 997,
      "पुस्त": 998,
      "द्ध": 999,
      "पुस्तक": 1000,
      "56": 1001,
      "Del": 1002,
      "der": 1003,
      "2019": 1004,
      "ంబ": 1005,
      "లా": 1006,
      "ప్రాం": 1007,
      "వర్గం": 1008,
      "ज़ी": 1009,
      "tries": 1010,
      "rie": 1011,
      "tes": 1012,
      "ank": 1013,
      "icial": 1014,
      "कु": 1015,
      "सरकार": 1016,
      "దక్షి": 1017,
      "mu": 1018,
      "off": 1019,
      "ust": 1020,
      "संघ": 1021,
      "विश्व": 1022,
      "gen": 1023,
      "Cons": 1024,
      "దీ": 1025,
      "పే": 1026,
      "ిల్": 1027,
      "స్త": 1028,
      "74": 1029,
      "CS": 1030,
      "ann": 1031,
      "op": 1032,
      "रे": 1033,
      "बाद": 1034,
      "ारा": 1035,
      "ue": 1036,
      "46": 1037,
      "Archi": 1038,
      "ప్రదేశ్": 1039,
      "इस": 1040,
      "ज्": 1041,
      "वी": 1042,
      "पुरालेख": 1043,
      "mar": 1044,
      "vernment": 1045,
      "tim": 1046,
      "ture": 1047,
      "do": 1048,
      "ile": 1049,
      "38": 1050,
      "ध्य": 1051,
      "చే": 1052,
      "ట్": 1053,
      "మత": 1054,
      "मिल": 1055,
      "र्थ": 1056,
      "संस्": 1057,
      "ाली": 1058,
      "अंग्रेज़ी": 1059,
      "पुरालेखित": 1060,
      "nic": 1061,
      "territ": 1062,
      "udd": 1063,
      "చ్": 1064,
      "దా": 1065,
      "Asher": 1066,
      "min": 1067,
      "Is": 1068,
      "au": 1069,
      "ik": 1070,
      "For": 1071,
      "एश": 1072,
      "यों": 1073,
      "Ret": 1074,
      "Ed": 1075,
      "Econom": 1076,
      "all": 1077,
      "PD": 1078,
      "World": 1079,
      "mber": 1080,
      "BA": 1081,
      "vi": 1082,
      "ines": 1083,
      "countries": 1084,
      "39": 1085,
      "mi": 1086,
      "wer": 1087,
      "వే": 1088,
      "59": 1089,
      "ya": 1090,
      "प्": 1091,
      "सार": 1092,
      "चित्र": 1093,
      "pri": 1094,
      "QBA": 1095,
      "ani": 1096,
      "QBAJ": 1097,
      "फ़": 1098,
      "बी": 1099,
      "ब्": 1100,
      "लो": 1101,
      "प्रा": 1102,
      "वे": 1103,
      "cont": 1104,
      "ఆర్": 1105,
      "ధ్య": 1106,
      "ంద్ర": 1107,
      "స్త్రం": 1108,
      "rieved": 1109,
      "Retrieved": 1110,
      "En": 1111,
      "48": 1112,
      "2012": 1113,
      "ations": 1114,
      "तक": 1115,
      "ical": 1116,
      "सेना": 1117,
      "ँचा": 1118,
      "एशिया": 1119,
      "दा": 1120,
      "000": 1121,
      "स्थान": 1122,
      "rid": 1123,
      "cul": 1124,
      "కాల": 1125,
      "త్య": 1126,
      "బె": 1127,
      "AAQBAJ": 1128,
      "kistan": 1129,
      "Cent": 1130,
      "Cam": 1131,
      "ब्र": 1132,
      "मो": 1133,
      "Ne": 1134,
      "रु": 1135,
      "its": 1136,
      "Lib": 1137,
      "ట్ట": 1138,
      "శా": 1139,
      "ైన": 1140,
      "ంగ్": 1141,
      "ద్ధ": 1142,
      "मुख": 1143,
      "హింద": 1144,
      "1947": 1145,
      "37": 1146,
      "ction": 1147,
      "Archived": 1148,
      "Intern": 1149,
      "tics": 1150,
      "ati": 1151,
      "ry": 1152,
      "world": 1153,
      "GD": 1154,
      "sv": 1155,
      "ties": 1156,
      "hel": 1157,
      "was": 1158,
      "ंदि": 1159,
      "ें": 1160,
      "PDF": 1161,
      "पं": 1162,
      "ug": 1163,
      "చె": 1164,
      "జీ": 1165,
      "ప్": 1166,
      "మీ": 1167,
      "మే": 1168,
      "యు": 1169,
      "హా": 1170,
      "lop": 1171,
      "census": 1172,
      "so": 1173,
      "svg": 1174,
      "Raj": 1175,
      "has": 1176,
      "io": 1177,
      "भू": 1178,
      "व्य": 1179,
      "क्त": 1180,
      "क्षा": 1181,
      "सूच": 1182,
      "संस्कृ": 1183,
      "fe": 1184,
      "च्": 1185,
      "dis": 1186,
      "Sh": 1187,
      "Comm": 1188,
      "bot": 1189,
      "Par": 1190,
      "ty": 1191,
      "An": 1192,
      "ంచి": 1193,
      "కూ": 1194,
      "పాలి": 1195,
      "ain": 1196,
      "अध": 1197,
      "रो": 1198,
      "वन": 1199,
      "१९": 1200,
      "स्व": 1201,
      "साँचा": 1202,
      "किस्तान": 1203,
      "Ox": 1204,
      "ford": 1205,
      "cl": 1206,
      "ame": 1207,
      "Hindu": 1208,
      "Mar": 1209,
      "गया": 1210,
      "त्य": 1211,
      "पश्": 1212,
      "కృ": 1213,
      "తో": 1214,
      "బ్": 1215,
      "ash": 1216,
      "ాల్": 1217,
      "International": 1218,
      "पश्चि": 1219,
      "चल": 1220,
      "250": 1221,
      "2003": 1222,
      "su": 1223,
      "ber": 1224,
      "तु": 1225,
      "स्था": 1226,
      "ज्ञ": 1227,
      "national": 1228,
      "pr": 1229,
      "ीप": 1230,
      "2008": 1231,
      "Wi": 1232,
      "ph": 1233,
      "ach": 1234,
      "help": 1235,
      "Kul": 1236,
      "జన": 1237,
      "reg": 1238,
      "తంత్ర": 1239,
      "Pradesh": 1240,
      "దక్షిణ": 1241,
      "pur": 1242,
      "ण्": 1243,
      "1950": 1244,
      "2005": 1245,
      "engal": 1246,
      "rou": 1247,
      "Pakistan": 1248,
      "E0": 1249,
      "PP": 1250,
      "war": 1251,
      "ओं": 1252,
      "किया": 1253,
      "मै": 1254,
      "ही": 1255,
      "ten": 1256,
      "सित": 1257,
      "पाकिस्तान": 1258,
      "ंद्र": 1259,
      "उत्तर": 1260,
      "द्वीप": 1261,
      "Edit": 1262,
      "Pro": 1263,
      "lish": 1264,
      "ral": 1265,
      "Off": 1266,
      "ఆసియా": 1267,
      "పంచ": 1268,
      "బి": 1269,
      "మధ్య": 1270,
      "వు": 1271,
      "శం": 1272,
      "ష్": 1273,
      "ాన్": 1274,
      "nolog": 1275,
      "కేంద్ర": 1276,
      "ప్రాంత": 1277,
      "ిల్లీ": 1278,
      "उप": 1279,
      "मंदि": 1280,
      "रि": 1281,
      "सु": 1282,
      "Singh2009": 1283,
      "Stein1998": 1284,
      "मंदिर": 1285,
      "tal": 1286,
      "2017": 1287,
      "Oxford": 1288,
      "Bengal": 1289,
      "data": 1290,
      "tra": 1291,
      "ven": 1292,
      "ord": 1293,
      "aman": 1294,
      "MetcalfMetcalf": 1295,
      "Mal": 1296,
      "Wiki": 1297,
      "बे": 1298,
      "यू": 1299,
      "नाम": 1300,
      "05": 1301,
      "57": 1302,
      "Co": 1303,
      "पंजा": 1304,
      "cre": 1305,
      "మొ": 1306,
      "ారి": 1307,
      "ారు": 1308,
      "Tal": 1309,
      "Libr": 1310,
      "mus": 1311,
      "news": 1312,
      "sub": 1313,
      "andhi": 1314,
      "58": 1315,
      "gh": 1316,
      "html": 1317,
      "IN": 1318,
      "ख्या": 1319,
      "न्या": 1320,
      "रब": 1321,
      "सब": 1322,
      "क्ति": 1323,
      "मध्य": 1324,
      "mund": 1325,
      "కొ": 1326,
      "దు": 1327,
      "ధాన": 1328,
      "మ్": 1329,
      "thermund": 1330,
      "Rothermund": 1331,
      "49": 1332,
      "Hindi": 1333,
      "mer": 1334,
      "तट": 1335,
      "पाल": 1336,
      "सद": 1337,
      "orum": 1338,
      "साम": 1339,
      "सम्": 1340,
      "Kulke": 1341,
      "सबसे": 1342,
      "Langu": 1343,
      "BR": 1344,
      "whi": 1345,
      "Constitu": 1346,
      "Talbot": 1347,
      "GDP": 1348,
      "Con": 1349,
      "ण्ड": 1350,
      "ari": 1351,
      "Reg": 1352,
      "Gandhi": 1353,
      "contin": 1354,
      "बंध": 1355,
      "माल": 1356,
      "ంధ": 1357,
      "క్రీ": 1358,
      "ఖ్య": 1359,
      "ఢిల్లీ": 1360,
      "మె": 1361,
      "ర్య": 1362,
      "न्न": 1363,
      "देशों": 1364,
      "न्द्र": 1365,
      "United": 1366,
      "పాకి": 1367,
      "వంశం": 1368,
      "మూస": 1369,
      "వ్యవ": 1370,
      "71": 1371,
      "Res": 1372,
      "Sans": 1373,
      "si": 1374,
      "sfn": 1375,
      "53": 1376,
      "relig": 1377,
      "शि": 1378,
      "२०": 1379,
      "केंद्र": 1380,
      "स्ट": 1381,
      "चीन": 1382,
      "ब्रि": 1383,
      "summ": 1384,
      "जरा": 1385,
      "तमिल": 1386,
      "Indiae": 1387,
      "ase": 1388,
      "cent": 1389,
      "తు": 1390,
      "2023": 1391,
      "ck": 1392,
      "public": 1393,
      "times": 1394,
      "New": 1395,
      "ire": 1396,
      "43": 1397,
      "आई": 1398,
      "यह": 1399,
      "velop": 1400,
      "सागर": 1401,
      "रूप": 1402,
      "wn": 1403,
      "No": 1404,
      "ran": 1405,
      "णा": 1406,
      "And": 1407,
      "out": 1408,
      "ఉత్": 1409,
      "టు": 1410,
      "టె": 1411,
      "దస్త్రం": 1412,
      "ప్రధాన": 1413,
      "2021": 1414,
      "Union": 1415,
      "akh": 1416,
      "సంస్": 1417,
      "పాలిత": 1418,
      "కేంద్రపాలిత": 1419,
      "ms": 1420,
      "खा": 1421,
      "टे": 1422,
      "ैन": 1423,
      "साथ": 1424,
      "mil": 1425,
      "mir": 1426,
      "बंग": 1427,
      "litic": 1428,
      "107": 1429,
      "Delhi": 1430,
      "च्च": 1431,
      "lia": 1432,
      "population": 1433,
      "ridge": 1434,
      "Eur": 1435,
      "ions": 1436,
      "ope": 1437,
      "end": 1438,
      "articles": 1439,
      "2013": 1440,
      "ign": 1441,
      "87": 1442,
      "Mad": 1443,
      "गा": 1444,
      "जु": 1445,
      "वरी": 1446,
      "युक्त": 1447,
      "గో": 1448,
      "డా": 1449,
      "బ్ర": 1450,
      "సు": 1451,
      "ange": 1452,
      "languages": 1453,
      "tive": 1454,
      "velopment": 1455,
      "riti": 1456,
      "pend": 1457,
      "521": 1458,
      "arum": 1459,
      "Template": 1460,
      "territori": 1461,
      "Me": 1462,
      "Page": 1463,
      "bridge": 1464,
      "that": 1465,
      "88": 1466,
      "अरब": 1467,
      "दू": 1468,
      "पे": 1469,
      "संख्या": 1470,
      "2024": 1471,
      "जिस": 1472,
      "अनुसार": 1473,
      "Civ": 1474,
      "कश्": 1475,
      "बि": 1476,
      "250px": 1477,
      "कश्मी": 1478,
      "81": 1479,
      "San": 1480,
      "गढ़": 1481,
      "Cambridge": 1482,
      "roup": 1483,
      "which": 1484,
      "ath": 1485,
      "51": 1486,
      "గణ": 1487,
      "తే": 1488,
      "వర": 1489,
      "సభ": 1490,
      "రాజ్య": 1491,
      "ప్రపంచ": 1492,
      "రాష్ట్రాలు": 1493,
      "మతము": 1494,
      "ప్రాంతాలు": 1495,
      "వ్యవస్థ": 1496,
      "Nar": 1497,
      "BRI": 1498,
      "Ge": 1499,
      "Asian": 1500,
      "120px": 1501,
      "ric": 1502,
      "ज्य": 1503,
      "टन": 1504,
      "तंत्र": 1505,
      "बहु": 1506,
      "तिहा": 1507,
      "100": 1508,
      "संग": 1509,
      "ंग्": 1510,
      "पर्य": 1511,
      "िकार": 1512,
      "शास": 1513,
      "Minist": 1514,
      "प्त": 1515,
      "EditPage": 1516,
      "गो": 1517,
      "cons": 1518,
      "ous": 1519,
      "ames": 1520,
      "dom": 1521,
      "econom": 1522,
      "01": 1523,
      "Tim": 1524,
      "ritann": 1525,
      "Population": 1526,
      "Sansk": 1527,
      "Sik": 1528,
      "గి": 1529,
      "పె": 1530,
      "లం": 1531,
      "une": 1532,
      "త్రి": 1533,
      "Official": 1534,
      "Dw": 1535,
      "एवं": 1536,
      "शी": 1537,
      "काल": 1538,
      "ियाँ": 1539,
      "ज्ञान": 1540,
      "तिहास": 1541,
      "दिल्": 1542,
      "दिल्ली": 1543,
      "Dys": 1544,
      "led": 1545,
      "umber": 1546,
      "Dyson": 1547,
      "Sanskrit": 1548,
      "2015": 1549,
      "orth": 1550,
      "ration": 1551,
      "MetcalfMetcalf2006": 1552,
      "air": 1553,
      "lang": 1554,
      "नगर": 1555,
      "andard": 1556,
      "ड़ा": 1557,
      "्राज्य": 1558,
      "लोक": 1559,
      "साम्राज्य": 1560,
      "गुजरा": 1561,
      "ission": 1562,
      "నల్": 1563,
      "బడి": 1564,
      "మార్": 1565,
      "రై": 1566,
      "ree": 1567,
      "Island": 1568,
      "బెంగ": 1569,
      "సంస్కృ": 1570,
      "ttar": 1571,
      "hist": 1572,
      "alis": 1573,
      "BRICS": 1574,
      "Or": 1575,
      "A4": 1576,
      "val": 1577,
      "ined": 1578,
      "dern": 1579,
      "os": 1580,
      "एं": 1581,
      "दान": 1582,
      "बै": 1583,
      "लु": 1584,
      "वै": 1585,
      "िका": 1586,
      "माण": 1587,
      "नीति": 1588,
      "न्याया": 1589,
      "पर्यटन": 1590,
      "Eng": 1591,
      "कर्": 1592,
      "Briti": 1593,
      "ome": 1594,
      "British": 1595,
      "Act": 1596,
      "East": 1597,
      "330": 1598,
      "Census": 1599,
      "తమి": 1600,
      "పం": 1601,
      "పతి": 1602,
      "న్ని": 1603,
      "న్నా": 1604,
      "dition": 1605,
      "నుండి": 1606,
      "తమిళ": 1607,
      "Fr": 1608,
      "Pub": 1609,
      "इंड": 1610,
      "क्र": 1611,
      "घा": 1612,
      "डी": 1613,
      "मंत्र": 1614,
      "ins": 1615,
      "केन्द्र": 1616,
      "लाई": 1617,
      "बांग्": 1618,
      "शासन": 1619,
      "बांग्ला": 1620,
      "So": 1621,
      "uk": 1622,
      "amil": 1623,
      "Chin": 1624,
      "isher": 1625,
      "pura": 1626,
      "60": 1627,
      "68": 1628,
      "Emp": 1629,
      "Uttar": 1630,
      "ated": 1631,
      "country": 1632,
      "Bang": 1633,
      "vis": 1634,
      "DwAAQBAJ": 1635,
      "2001": 1636,
      "Government": 1637,
      "med": 1638,
      "Budd": 1639,
      "धी": 1640,
      "सभा": 1641,
      "అధిక": 1642,
      "ద్ర": 1643,
      "పి": 1644,
      "పార": 1645,
      "ఫ్": 1646,
      "మం": 1647,
      "विज्ञान": 1648,
      "క్కు": 1649,
      "ंगा": 1650,
      "्वर": 1651,
      "वर्ष": 1652,
      "टिश": 1653,
      "హిందూ": 1654,
      "सूचना": 1655,
      "పాకిస్తాన్": 1656,
      "ब्रिटिश": 1657,
      "న్నాయి": 1658,
      "aw": 1659,
      "ne": 1660,
      "असम": 1661,
      "ult": 1662,
      "उत्त": 1663,
      "गणराज्य": 1664,
      "महारा": 1665,
      "KulkeRothermund": 1666,
      "महाराष्ट्र": 1667,
      "Gen": 1668,
      "Oc": 1669,
      "ah": 1670,
      "oria": 1671,
      "depend": 1672,
      "79": 1673,
      "bar": 1674,
      "od": 1675,
      "pa": 1676,
      "agar": 1677,
      "72": 1678,
      "ass": 1679,
      "matics": 1680,
      "je": 1681,
      "lic": 1682,
      "pib": 1683,
      "जय": 1684,
      "थी": 1685,
      "Indi": 1686,
      "128": 1687,
      "नेमा": 1688,
      "सिनेमा": 1689,
      "शासित": 1690,
      "द्योग": 1691,
      "जुलाई": 1692,
      "cia": 1693,
      "31": 1694,
      "Col": 1695,
      "usines": 1696,
      "ling": 1697,
      "usiness": 1698,
      "Kash": 1699,
      "ఆఫ్": 1700,
      "కార": 1701,
      "క్య": 1702,
      "నాలు": 1703,
      "భూ": 1704,
      "య్య": 1705,
      "రే": 1706,
      "దేశాల": 1707,
      "File": 1708,
      "du": 1709,
      "tem": 1710,
      "not": 1711,
      "lion": 1712,
      "108": 1713,
      "76": 1714,
      "Ara": 1715,
      "Sch": 1716,
      "2022": 1717,
      "Indo": 1718,
      "Indus": 1719,
      "continent": 1720,
      "ca": 1721,
      "ele": 1722,
      "pal": 1723,
      "एस": 1724,
      "जो": 1725,
      "बई": 1726,
      "बो": 1727,
      "मार्": 1728,
      "त्व": 1729,
      "जाति": 1730,
      "Standard": 1731,
      "व्यव": 1732,
      "संस्कृत": 1733,
      "Empire": 1734,
      "ack": 1735,
      "region": 1736,
      "BC": 1737,
      "int": 1738,
      "Summ": 1739,
      "va": 1740,
      "Pradesa": 1741,
      "Commission": 1742,
      "Europe": 1743,
      "89": 1744,
      "Vi": 1745,
      "cu": 1746,
      "one": 1747,
      "uring": 1748,
      "cies": 1749,
      "ice": 1750,
      "ఒరి": 1751,
      "చూ": 1752,
      "ణం": 1753,
      "ధీ": 1754,
      "మైన": 1755,
      "యం": 1756,
      "వీ": 1757,
      "వులు": 1758,
      "సంగ": 1759,
      "హార": 1760,
      "నాగ": 1761,
      "కాశ్": 1762,
      "కాశ్మీ": 1763,
      "cc": 1764,
      "RC": 1765,
      "Th": 1766,
      "ंप": 1767,
      "अप": 1768,
      "इतिहास": 1769,
      "चे": 1770,
      "श्री": 1771,
      "ून": 1772,
      "aste": 1773,
      "प्रधान": 1774,
      "विका": 1775,
      "ड़ी": 1776,
      "समय": 1777,
      "अन्य": 1778,
      "English": 1779,
      "55": 1780,
      "anda": 1781,
      "article": 1782,
      "पश्चिम": 1783,
      "कश्मीर": 1784,
      "Geo": 1785,
      "44": 1786,
      "Apri": 1787,
      "eb": 1788,
      "April": 1789,
      "99": 1790,
      "2020": 1791,
      "Development": 1792,
      "government": 1793,
      "kim": 1794,
      "ania": 1795,
      "gar": 1796,
      "Ling": 1797,
      "ंक": 1798,
      "अन्": 1799,
      "पार्": 1800,
      "मल": 1801,
      "शक्ति": 1802,
      "िकी": 1803,
      "ority": 1804,
      "erv": 1805,
      "विधान": 1806,
      "निर्": 1807,
      "वंश": 1808,
      "मुख्य": 1809,
      "स्वतंत्र": 1810,
      "व्यवस्था": 1811,
      "mal": 1812,
      "दर": 1813,
      "ఉప": 1814,
      "క్ర": 1815,
      "ణి": 1816,
      "తె": 1817,
      "రో": 1818,
      "లే": 1819,
      "ైనా": 1820,
      "Infor": 1821,
      "ండ్": 1822,
      "జాబి": 1823,
      "तीस": 1824,
      "पंजाब": 1825,
      "Language": 1826,
      "cri": 1827,
      "ep": 1828,
      "phi": 1829,
      "pla": 1830,
      "ister": 1831,
      "Guj": 1832,
      "CS1": 1833,
      "ritannica": 1834,
      "thnolog": 1835,
      "thnologue": 1836,
      "sou": 1837,
      "alth": 1838,
      "ury": 1839,
      "AsherTalbot": 1840,
      "Economy": 1841,
      "Economic": 1842,
      "Constitution": 1843,
      "religion": 1844,
      "Ministry": 1845,
      "sy": 1846,
      "rig": 1847,
      "75": 1848,
      "bet": 1849,
      "Fisher": 1850,
      "ite": 1851,
      "jab": 1852,
      "larg": 1853,
      "कल": 1854,
      "दो": 1855,
      "लग": 1856,
      "िय": 1857,
      "भाग": 1858,
      "FOOTNOTESingh2009": 1859,
      "FOOTNOTEStein1998": 1860,
      "जनसंख्या": 1861,
      "330px": 1862,
      "विकास": 1863,
      "Lingu": 1864,
      "Bi": 1865,
      "टक": 1866,
      "ालय": 1867,
      "States": 1868,
      "official": 1869,
      "बंगाल": 1870,
      "Do": 1871,
      "Him": 1872,
      "mple": 1873,
      "isation": 1874,
      "Goa": 1875,
      "sys": 1876,
      "జనా": 1877,
      "పరి": 1878,
      "బా": 1879,
      "మహా": 1880,
      "వె": 1881,
      "వచ్": 1882,
      "స్వా": 1883,
      "సాం": 1884,
      "ండు": 1885,
      "భాషలు": 1886,
      "రాజవంశం": 1887,
      "Bihar": 1888,
      "42": 1889,
      "van": 1890,
      "part": 1891,
      "mula": 1892,
      "All": 1893,
      "Ur": 1894,
      "41": 1895,
      "85": 1896,
      "year": 1897,
      "politic": 1898,
      "publica": 1899,
      "airs": 1900,
      "KulkeRothermund2004": 1901,
      "duc": 1902,
      "इन": 1903,
      "एँ": 1904,
      "जल": 1905,
      "ारी": 1906,
      "uman": 1907,
      "प्रति": 1908,
      "संविधान": 1909,
      "ेश्वर": 1910,
      "umbai": 1911,
      "45": 1912,
      "96": 1913,
      "Lo": 1914,
      "ama": 1915,
      "state": 1916,
      "subcontinent": 1917,
      "32": 1918,
      "dex": 1919,
      "ound": 1920,
      "Sep": 1921,
      "were": 1922,
      "kno": 1923,
      "inf": 1924,
      "lim": 1925,
      "Relig": 1926,
      "Be": 1927,
      "bined": 1928,
      "Times": 1929,
      "500": 1930,
      "Tamil": 1931,
      "auth": 1932,
      "Formula": 1933,
      "SAA": 1934,
      "ఇండ": 1935,
      "ఉంది": 1936,
      "దం": 1937,
      "ధి": 1938,
      "నగ": 1939,
      "నై": 1940,
      "పో": 1941,
      "దేశం": 1942,
      "దేశాలు": 1943,
      "ప్రా": 1944,
      "నికి": 1945,
      "సింధ": 1946,
      "aya": 1947,
      "ఆర్ధిక": 1948,
      "sula": 1949,
      "సంగీ": 1950,
      "జాబితా": 1951,
      "జనాభా": 1952,
      "SAARC": 1953,
      "Sin": 1954,
      "ail": 1955,
      "this": 1956,
      "ये": 1957,
      "रक्षा": 1958,
      "नाथ": 1959,
      "संयुक्त": 1960,
      "Republic": 1961,
      "देव": 1962,
      "lass": 1963,
      "1994": 1964,
      "Cong": 1965,
      "ala": 1966,
      "stat": 1967,
      "2025": 1968,
      "how": 1969,
      "Congress": 1970,
      "men": 1971,
      "pul": 1972,
      "Kashmir": 1973,
      "91": 1974,
      "yan": 1975,
      "fir": 1976,
      "have": 1977,
      "ayan": 1978,
      "Bh": 1979,
      "line": 1980,
      "lium": 1981,
      "censusindia": 1982,
      "Combined": 1983,
      "doi": 1984,
      "Di": 1985,
      "Pe": 1986,
      "ef": 1987,
      "report": 1988,
      "ffairs": 1989,
      "dy": 1990,
      "चु": 1991,
      "दरा": 1992,
      "पति": 1993,
      "वार्": 1994,
      "सैन": 1995,
      "aria": 1996,
      "वायु": 1997,
      "जाता": 1998,
      "कार्य": 1999,
      "पूर्वी": 2000,
      "ople": 2001,
      "मैदान": 2002,
      "स्वतंत्रता": 2003,
      "णि": 2004,
      "general": 2005,
      "67": 2006,
      "Ag": 2007,
      "Coun": 2008,
      "Tr": 2009,
      "during": 2010,
      "oh": 2011,
      "ఉన్న": 2012,
      "ఉన్నాయి": 2013,
      "చు": 2014,
      "చల్": 2015,
      "చైనా": 2016,
      "నీ": 2017,
      "భి": 2018,
      "మతం": 2019,
      "యన్": 2020,
      "యాలు": 2021,
      "రీ": 2022,
      "శ్రీ": 2023,
      "షు": 2024,
      "ాయి": 2025,
      "ant": 2026,
      "ali": 2027,
      "civ": 2028,
      "ర్వ": 2029,
      "ముంబ": 2030,
      "సిన": 2031,
      "్టీ": 2032,
      "నేష": 2033,
      "Stein2010": 2034,
      "రాష్ట్రపతి": 2035,
      "జినల్": 2036,
      "ఉత్తర": 2037,
      "తేదీ": 2038,
      "బడింది": 2039,
      "సంస్కృతి": 2040,
      "పార్టీ": 2041,
      "ఒరిజినల్": 2042,
      "hru": 2043,
      "uly": 2044,
      "graphi": 2045,
      "Central": 2046,
      "Nehru": 2047,
      "Mani": 2048,
      "af": 2049,
      "act": 2050,
      "abad": 2051,
      "93": 2052,
      "Affairs": 2053,
      "pan": 2054,
      "than": 2055,
      "edi": 2056,
      "ico": 2057,
      "indus": 2058,
      "Library": 2059,
      "Ad": 2060,
      "Nations": 2061,
      "ley": 2062,
      "Andaman": 2063,
      "bb": 2064,
      "cra": 2065,
      "cat": 2066,
      "Islands": 2067,
      "Afr": 2068,
      "hat": 2069,
      "अग": 2070,
      "अम": 2071,
      "अर्थ": 2072,
      "आर्थ": 2073,
      "उद्य": 2074,
      "गंगा": 2075,
      "पो": 2076,
      "पर्व": 2077,
      "योग": 2078,
      "रवरी": 2079,
      "संसद": 2080,
      "Ass": 2081,
      "ड़े": 2082,
      "वीं": 2083,
      "अधिक": 2084,
      "न्यायाल": 2085,
      "मंत्री": 2086,
      "आर्थिक": 2087,
      "उद्यान": 2088,
      "98": 2089,
      "pt": 2090,
      "राजस्थान": 2091,
      "दीव": 2092,
      "rum": 2093,
      "shi": 2094,
      "lam": 2095,
      "Arab": 2096,
      "Aug": 2097,
      "hya": 2098,
      "cient": 2099,
      "uss": 2100,
      "union": 2101,
      "semb": 2102,
      "sulae": 2103,
      "08": 2104,
      "Jam": 2105,
      "July": 2106,
      "han": 2107,
      "ise": 2108,
      "states": 2109,
      "162": 2110,
      "langoff": 2111,
      "Commissioner": 2112,
      "bu": 2113,
      "గాం": 2114,
      "జ్": 2115,
      "జమ్": 2116,
      "తూ": 2117,
      "నె": 2118,
      "పశ్": 2119,
      "వరి": 2120,
      "నిస్తాన్": 2121,
      "ల్ల": 2122,
      "నులు": 2123,
      "ద్ద": 2124,
      "స్థాన్": 2125,
      "నేపాల": 2126,
      "పేజీ": 2127,
      "Centre": 2128,
      "బ్రి": 2129,
      "అధికార": 2130,
      "చూసిన": 2131,
      "జమ్మూ": 2132,
      "పశ్చి": 2133,
      "పేజీని": 2134,
      "Af": 2135,
      "Ram": 2136,
      "spe": 2137,
      "king": 2138,
      "ork": 2139,
      "lades": 2140,
      "119": 2141,
      "orities": 2142,
      "94": 2143,
      "ंति": 2144,
      "डु": 2145,
      "दिया": 2146,
      "सो": 2147,
      "नाव": 2148,
      "राजनीति": 2149,
      "माज": 2150,
      "पाद": 2151,
      "दिसम्": 2152,
      "क्षेत्रों": 2153,
      "ctor": 2154,
      "उत्पाद": 2155,
      "हुई": 2156,
      "mocra": 2157,
      "प्राचीन": 2158,
      "Number": 2159,
      "Pr": 2160,
      "png": 2161,
      "जम्": 2162,
      "नाग": 2163,
      "cum": 2164,
      "time": 2165,
      "enses": 2166,
      "Bra": 2167,
      "ledge": 2168,
      "Car": 2169,
      "Mumbai": 2170,
      "cap": 2171,
      "Chr": 2172,
      "ourt": 2173,
      "summit": 2174,
      "system": 2175,
      "Africa": 2176,
      "China": 2177,
      "rish": 2178,
      "vir": 2179,
      "asp": 2180,
      "124": 2181,
      "other": 2182,
      "esia": 2183,
      "Chand": 2184,
      "Banglades": 2185,
      "65": 2186,
      "95": 2187,
      "Al": 2188,
      "News": 2189,
      "cb": 2190,
      "ंबई": 2191,
      "ईसा": 2192,
      "उर्": 2193,
      "बढ़": 2194,
      "सफ": 2195,
      "ोड़": 2196,
      "ఒక": 2197,
      "కై": 2198,
      "కర్": 2199,
      "నో": 2200,
      "నది": 2201,
      "రె": 2202,
      "వార": 2203,
      "సము": 2204,
      "సమా": 2205,
      "హ్": 2206,
      "ుత్": 2207,
      "eration": 2208,
      "ाने": 2209,
      "स्त्र": 2210,
      "राजवंश": 2211,
      "निर": 2212,
      "लिए": 2213,
      "राष्ट्रपति": 2214,
      "हुआ": 2215,
      "युद्ध": 2216,
      "स्थल": 2217,
      "महासागर": 2218,
      "దీవులు": 2219,
      "పేరు": 2220,
      "रेल": 2221,
      "फ़रवरी": 2222,
      "भूमि": 2223,
      "संस्कृति": 2224,
      "కూడా": 2225,
      "క్రీడ": 2226,
      "शिक्षा": 2227,
      "Dyson2018": 2228,
      "द्योगिकी": 2229,
      "ఇండో": 2230,
      "न्यायालय": 2231,
      "उर्दू": 2232,
      "हार": 2233,
      "itas": 2234,
      "उत्तरा": 2235,
      "first": 2236,
      "जम्मू": 2237,
      "class": 2238,
      "fon": 2239,
      "non": 2240,
      "ood": 2241,
      "territories": 2242,
      "June": 2243,
      "ini": 2244,
      "Dece": 2245,
      "73": 2246,
      "Aus": 2247,
      "ban": 2248,
      "ves": 2249,
      "yana": 2250,
      "las": 2251,
      "fore": 2252,
      "March": 2253,
      "Austr": 2254,
      "Am": 2255,
      "Data": 2256,
      "Op": 2257,
      "Specialis": 2258,
      "Modern": 2259,
      "Ludd": 2260,
      "ahar": 2261,
      "ern": 2262,
      "FOOTNOTEMetcalfMetcalf2006": 2263,
      "music": 2264,
      "Jammu": 2265,
      "Ludden": 2266,
      "ofindia": 2267,
      "area": 2268,
      "ankar": 2269,
      "219": 2270,
      "ंस": 2271,
      "जून": 2272,
      "पार": 2273,
      "बल": 2274,
      "भो": 2275,
      "लं": 2276,
      "शु": 2277,
      "onment": 2278,
      "प्रे": 2279,
      "संबंध": 2280,
      "ेशिया": 2281,
      "पुरी": 2282,
      "परि": 2283,
      "परमाण": 2284,
      "ष्ण": 2285,
      "Report": 2286,
      "जनगण": 2287,
      "most": 2288,
      "पूर्": 2289,
      "ंधी": 2290,
      "ोलन": 2291,
      "्रीका": 2292,
      "पश्चिमी": 2293,
      "tent": 2294,
      "यूनि": 2295,
      "Librorum": 2296,
      "history": 2297,
      "मार्च": 2298,
      "प्रधानमंत्री": 2299,
      "Doi": 2300,
      "दिसम्बर": 2301,
      "vironment": 2302,
      "fontes": 2303,
      "परमाणु": 2304,
      "जनगणना": 2305,
      "63": 2306,
      "att": 2307,
      "back": 2308,
      "रल": 2309,
      "त्रि": 2310,
      "minist": 2311,
      "गुजरात": 2312,
      "II": 2313,
      "Pres": 2314,
      "खण्ड": 2315,
      "unjab": 2316,
      "liament": 2317,
      "years": 2318,
      "Cor": 2319,
      "Mus": 2320,
      "ket": 2321,
      "కత": 2322,
      "కళ": 2323,
      "టక": 2324,
      "మన": 2325,
      "మై": 2326,
      "రం": 2327,
      "సై": 2328,
      "్యం": 2329,
      "్యా": 2330,
      "స్ట": 2331,
      "anges": 2332,
      "ural": 2333,
      "రియా": 2334,
      "map": 2335,
      "thern": 2336,
      "Temple": 2337,
      "Hindust": 2338,
      "cyc": 2339,
      "904": 2340,
      "వ్యా": 2341,
      "హిందీ": 2342,
      "చెయ్య": 2343,
      "గణతంత్ర": 2344,
      "లంక": 2345,
      "మంత్రి": 2346,
      "వచ్చి": 2347,
      "సంగీతం": 2348,
      "ముంబై": 2349,
      "గాంధీ": 2350,
      "పశ్చిమ": 2351,
      "చెయ్యబడింది": 2352,
      "69": 2353,
      "Bhar": 2354,
      "ater": 2355,
      "ters": 2356,
      "Madhya": 2357,
      "Informatics": 2358,
      "118": 2359,
      "istic": 2360,
      "cid": 2361,
      "life": 2362,
      "230": 2363,
      "Bar": 2364,
      "col": 2365,
      "fic": 2366,
      "been": 2367,
      "sembly": 2368,
      "group": 2369,
      "lum": 2370,
      "anu": 2371,
      "Ins": 2372,
      "ade": 2373,
      "AsherTalbot2008": 2374,
      "right": 2375,
      "tw": 2376,
      "खंड": 2377,
      "टा": 2378,
      "दश": 2379,
      "दर्": 2380,
      "नव": 2381,
      "पह": 2382,
      "बन": 2383,
      "बौ": 2384,
      "बना": 2385,
      "मरा": 2386,
      "र्य": 2387,
      "सर्व": 2388,
      "िर": 2389,
      "ैंड": 2390,
      "्यता": 2391,
      "them": 2392,
      "रान": 2393,
      "121": 2394,
      "148": 2395,
      "CITEREFSingh2009": 2396,
      "CITEREFStein1998": 2397,
      "भाषाओं": 2398,
      "पात": 2399,
      "हिन्दू": 2400,
      "मुंबई": 2401,
      "मानव": 2402,
      "ंग्रेस": 2403,
      "द्वारा": 2404,
      "logy": 2405,
      "इसके": 2406,
      "वेबै": 2407,
      "हीं": 2408,
      "पर्वत": 2409,
      "बौद्ध": 2410,
      "वेबैक": 2411,
      "Ca": 2412,
      "Oce": 2413,
      "dance": 2414,
      "get": 2415,
      "tz": 2416,
      "ora": 2417,
      "tember": 2418,
      "ics": 2419,
      "2000": 2420,
      "क्कि": 2421,
      "सिक्कि": 2422,
      "Environment": 2423,
      "September": 2424,
      "सिक्किम": 2425,
      "04": 2426,
      "Ex": 2427,
      "ond": 2428,
      "न्ध": 2429,
      "Man": 2430,
      "ls": 2431,
      "ark": 2432,
      "adi": 2433,
      "ween": 2434,
      "chnolog": 2435,
      "here": 2436,
      "Gujar": 2437,
      "Rout": 2438,
      "ncl": 2439,
      "als": 2440,
      "1996": 2441,
      "election": 2442,
      "Routledge": 2443,
      "nclm": 2444,
      "Tri": 2445,
      "br": 2446,
      "eri": 2447,
      "omen": 2448,
      "def": 2449,
      "August": 2450,
      "Ethnologue": 2451,
      "gan": 2452,
      "కం": 2453,
      "కీ": 2454,
      "జో": 2455,
      "తల": 2456,
      "తీ": 2457,
      "దార": 2458,
      "బంగ్": 2459,
      "రహ": 2460,
      "రంగ": 2461,
      "సరి": 2462,
      "tex": 2463,
      "encies": 2464,
      "tio": 2465,
      "ర్పు": 2466,
      "urr": 2467,
      "లోక్": 2468,
      "క్క": 2469,
      "త్స": 2470,
      "స్థాన": 2471,
      "pert": 2472,
      "లాదేశ్": 2473,
      "స్తు": 2474,
      "ఆర్కై": 2475,
      "ంచిన": 2476,
      "మొద": 2477,
      "పెద్ద": 2478,
      "స్వాతంత్ర": 2479,
      "శ్రీలంక": 2480,
      "తూర్పు": 2481,
      "బ్రిటి": 2482,
      "దారులు": 2483,
      "బంగ్లాదేశ్": 2484,
      "ఆర్కైవు": 2485,
      "hindi": 2486,
      "iz": 2487,
      "cience": 2488,
      "their": 2489,
      "rag": 2490,
      "tain": 2491,
      "Mahar": 2492,
      "80904": 2493,
      "64": 2494,
      "cro": 2495,
      "अफ": 2496,
      "कटि": 2497,
      "गोल": 2498,
      "डिया": 2499,
      "दृ": 2500,
      "मौ": 2501,
      "वेश": 2502,
      "शता": 2503,
      "ौद्योगिकी": 2504,
      "peri": 2505,
      "lead": 2506,
      "प्रमुख": 2507,
      "प्रौद्योगिकी": 2508,
      "नाडु": 2509,
      "files": 2510,
      "हिमाल": 2511,
      "अंग्रेजी": 2512,
      "ब्दी": 2513,
      "स्थाप": 2514,
      "पालिका": 2515,
      "Summit": 2516,
      "अगस्त": 2517,
      "December": 2518,
      "शताब्दी": 2519,
      "Mic": 2520,
      "mon": 2521,
      "बार": 2522,
      "मणि": 2523,
      "old": 2524,
      "हिमा": 2525,
      "Wikipedia": 2526,
      "Chi": 2527,
      "Mug": 2528,
      "Punjab": 2529,
      "caste": 2530,
      "oon": 2531,
      "lear": 2532,
      "adu": 2533,
      "indiatimes": 2534,
      "2905": 2535,
      "11162": 2536,
      "Encyc": 2537,
      "Hinduism": 2538,
      "882905": 2539,
      "03": 2540,
      "300": 2541,
      "52": 2542,
      "TR": 2543,
      "tel": 2544,
      "1960": 2545,
      "Christ": 2546,
      "Qu": 2547,
      "over": 2548,
      "ple": 2549,
      "into": 2550,
      "tober": 2551,
      "1990": 2552,
      "October": 2553,
      "European": 2554,
      "garh": 2555,
      "Cy": 2556,
      "Cul": 2557,
      "IM": 2558,
      "JP": 2559,
      "Sri": 2560,
      "more": 2561,
      "ally": 2562,
      "ita": 2563,
      "omin": 2564,
      "entalis": 2565,
      "chin": 2566,
      "Dellium": 2567,
      "Nepal": 2568,
      "Unionis": 2569,
      "politicum": 2570,
      "Opus": 2571,
      "Mughal": 2572,
      "Mon": 2573,
      "lal": 2574,
      "new": 2575,
      "page": 2576,
      "son": 2577,
      "also": 2578,
      "ide": 2579,
      "122": 2580,
      "row": 2581,
      "hatt": 2582,
      "awahar": 2583,
      "awaharlal": 2584,
      "07": 2585,
      "135": 2586,
      "mbol": 2587,
      "between": 2588,
      "Day": 2589,
      "Ti": 2590,
      "WE": 2591,
      "business": 2592,
      "jo": 2593,
      "अव": 2594,
      "अप्र": 2595,
      "अल्": 2596,
      "कन्न": 2597,
      "धा": 2598,
      "लों": 2599,
      "हन": 2600,
      "ृत्य": 2601,
      "ैल": 2602,
      "१८": 2603,
      "र्ड": 2604,
      "igh": 2605,
      "वादी": 2606,
      "आधिकार": 2607,
      "तेलु": 2608,
      "पंजाबी": 2609,
      "२००": 2610,
      "२०१": 2611,
      "articleshow": 2612,
      "गांधी": 2613,
      "Uttarakh": 2614,
      "पार्टी": 2615,
      "चुनाव": 2616,
      "वार्ता": 2617,
      "मराठ": 2618,
      "आधिकारिक": 2619,
      "Dav": 2620,
      "Ha": 2621,
      "छत्": 2622,
      "निक": 2623,
      "ूह": 2624,
      "ఇతర": 2625,
      "గల": 2626,
      "టీ": 2627,
      "టాన్": 2628,
      "పద": 2629,
      "పీ": 2630,
      "పట్ట": 2631,
      "బీ": 2632,
      "రణ": 2633,
      "వల": 2634,
      "estern": 2635,
      "్రె": 2636,
      "స్వ": 2637,
      "ప్రత్య": 2638,
      "Assembly": 2639,
      "ముఖ్య": 2640,
      "సిని": 2641,
      "తావర": 2642,
      "నాడు": 2643,
      "समूह": 2644,
      "వాతావర": 2645,
      "ణాసియా": 2646,
      "కాలం": 2647,
      "టెడ్": 2648,
      "ప్రధానమంత్రి": 2649,
      "మార్గ": 2650,
      "రైలు": 2651,
      "పంజా": 2652,
      "ఆఫ్ఘ": 2653,
      "భూటాన్": 2654,
      "నేపాల్": 2655,
      "రహదారులు": 2656,
      "hattis": 2657,
      "छत्तीस": 2658,
      "వాతావరణం": 2659,
      "bas": 2660,
      "fer": 2661,
      "sp": 2662,
      "105": 2663,
      "geo": 2664,
      "known": 2665,
      "CO": 2666,
      "He": 2667,
      "ao": 2668,
      "but": 2669,
      "cms": 2670,
      "gy": 2671,
      "ham": 2672,
      "shar": 2673,
      "ure": 2674,
      "rate": 2675,
      "onsoon": 2676,
      "uclear": 2677,
      "Jawaharlal": 2678,
      "had": 2679,
      "sch": 2680,
      "ince": 2681,
      "Insulae": 2682,
      "tionary": 2683,
      "2002": 2684,
      "change": 2685,
      "tura": 2686,
      "endra": 2687,
      "David": 2688,
      "Su": 2689,
      "og": 2690,
      "203": 2691,
      "132": 2692,
      "largest": 2693,
      "86": 2694,
      "Sy": 2695,
      "ze": 2696,
      "FOOTNOTEStein2010": 2697,
      "que": 2698,
      "Buddhis": 2699,
      "Allchin": 2700,
      "Austral": 2701,
      "Ocean": 2702,
      "113": 2703,
      "Kar": 2704,
      "Nico": 2705,
      "Sub": 2706,
      "War": 2707,
      "bal": 2708,
      "lag": 2709,
      "181": 2710,
      "tradition": 2711,
      "Ak": 2712,
      "At": 2713,
      "Nadu": 2714,
      "Plate": 2715,
      "Ri": 2716,
      "cs": 2717,
      "vo": 2718,
      "ंट": 2719,
      "उच्च": 2720,
      "एन": 2721,
      "पि": 2722,
      "रण": 2723,
      "हरी": 2724,
      "ृत": 2725,
      "र्ट": 2726,
      "achal": 2727,
      "तिक": 2728,
      "नाटक": 2729,
      "हैदरा": 2730,
      "able": 2731,
      "करने": 2732,
      "वर्ग": 2733,
      "हुए": 2734,
      "सीमा": 2735,
      "युग": 2736,
      "तुल": 2737,
      "पेक्ष": 2738,
      "कर्नाटक": 2739,
      "इंडिया": 2740,
      "श्रीलं": 2741,
      "after": 2742,
      "निरपेक्ष": 2743,
      "श्रीलंका": 2744,
      "Cra": 2745,
      "Court": 2746,
      "Fund": 2747,
      "Pur": 2748,
      "झार": 2749,
      "onesia": 2750,
      "केरल": 2751,
      "1971": 2752,
      "harma": 2753,
      "Indonesia": 2754,
      "cog": 2755,
      "economic": 2756,
      "Manipur": 2757,
      "industry": 2758,
      "nam": 2759,
      "por": 2760,
      "vement": 2761,
      "266": 2762,
      "1997": 2763,
      "pos": 2764,
      "ext": 2765,
      "php": 2766,
      "1200": 2767,
      "83": 2768,
      "97": 2769,
      "Terr": 2770,
      "UN": 2771,
      "ee": 2772,
      "who": 2773,
      "ident": 2774,
      "olk": 2775,
      "imf": 2776,
      "Assam": 2777,
      "Territ": 2778,
      "Joh": 2779,
      "Pal": 2780,
      "To": 2781,
      "Tur": 2782,
      "అతి": 2783,
      "అయి": 2784,
      "అత్య": 2785,
      "ఇన్": 2786,
      "ఇరా": 2787,
      "ఇంగ్": 2788,
      "ఒడి": 2789,
      "కీయ": 2790,
      "గలు": 2791,
      "జె": 2792,
      "జరా": 2793,
      "నాల": 2794,
      "భుత్": 2795,
      "మాల": 2796,
      "మన్": 2797,
      "లలో": 2798,
      "లకు": 2799,
      "లక్ష": 2800,
      "వై": 2801,
      "శతా": 2802,
      "సె": 2803,
      "ియా": 2804,
      "ేక": 2805,
      "దేశంలో": 2806,
      "ada": 2807,
      "103": 2808,
      "ప్రభుత్": 2809,
      "top": 2810,
      "నిక": 2811,
      "ంగ్రె": 2812,
      "త్వ": 2813,
      "పూర్": 2814,
      "2011census": 2815,
      "కాంగ్రె": 2816,
      "పాలన": 2817,
      "సామ్రాజ్య": 2818,
      "గుజరా": 2819,
      "రాజకీయ": 2820,
      "శాస్త్రం": 2821,
      "ంచింది": 2822,
      "Meg": 2823,
      "బెంగాల్": 2824,
      "తమిళనాడు": 2825,
      "సముద్ర": 2826,
      "ప్రత్యేక": 2827,
      "శతాబ్": 2828,
      "Nat": 2829,
      "Pri": 2830,
      "bn": 2831,
      "det": 2832,
      "PPP": 2833,
      "Gujarat": 2834,
      "detail": 2835,
      "074": 2836,
      "Pers": 2837,
      "hind": 2838,
      "ace": 2839,
      "century": 2840,
      "Brah": 2841,
      "06": 2842,
      "ii": 2843,
      "len": 2844,
      "ंह": 2845,
      "इस्": 2846,
      "ऊर्": 2847,
      "ओड़": 2848,
      "कई": 2849,
      "गान": 2850,
      "घरेल": 2851,
      "तन": 2852,
      "नौ": 2853,
      "नहीं": 2854,
      "नृत्य": 2855,
      "पान": 2856,
      "मशी": 2857,
      "यार": 2858,
      "रक्ष": 2859,
      "रहा": 2860,
      "लोग": 2861,
      "शहर": 2862,
      "सकल": 2863,
      "हरा": 2864,
      "ीत": 2865,
      "ोच्च": 2866,
      "दिव": 2867,
      "करण": 2868,
      "करोड़": 2869,
      "जनजाति": 2870,
      "द्वार": 2871,
      "कुल": 2872,
      "minister": 2873,
      "प्राप्त": 2874,
      "Languages": 2875,
      "तमिलनाडु": 2876,
      "Sikkim": 2877,
      "प्रेस": 2878,
      "सर्वोच्च": 2879,
      "हिमालय": 2880,
      "WEO": 2881,
      "Nicobar": 2882,
      "इस्ला": 2883,
      "ऊर्जा": 2884,
      "घरेलू": 2885,
      "मशीन": 2886,
      "Bib": 2887,
      "Human": 2888,
      "my": 2889,
      "डि": 2890,
      "दु": 2891,
      "ert": 2892,
      "using": 2893,
      "बिहार": 2894,
      "गोआ": 2895,
      "हिमाचल": 2896,
      "Br": 2897,
      "Taj": 2898,
      "art": 2899,
      "ess": 2900,
      "atum": 2901,
      "104": 2902,
      "igar": 2903,
      "Compan": 2904,
      "territorium": 2905,
      "Civit": 2906,
      "84": 2907,
      "AC": 2908,
      "Janu": 2909,
      "Nag": 2910,
      "leg": 2911,
      "Artic": 2912,
      "From": 2913,
      "Public": 2914,
      "January": 2915,
      "kh": 2916,
      "rd": 2917,
      "estim": 2918,
      "ortal": 2919,
      "dependencies": 2920,
      "status": 2921,
      "Nav": 2922,
      "Val": 2923,
      "sar": 2924,
      "tur": 2925,
      "wing": 2926,
      "amb": 2927,
      "idd": 2928,
      "logo": 2929,
      "IMF": 2930,
      "River": 2931,
      "Fir": 2932,
      "hy": 2933,
      "oram": 2934,
      "aland": 2935,
      "ese": 2936,
      "tions": 2937,
      "aspx": 2938,
      "1962": 2939,
      "Modi": 2940,
      "chnology": 2941,
      "First": 2942,
      "2F": 2943,
      "app": 2944,
      "hra": 2945,
      "name": 2946,
      "pol": 2947,
      "ఆగ": 2948,
      "ఇండి": 2949,
      "గఢ": 2950,
      "గంగా": 2951,
      "చర్": 2952,
      "పట": 2953,
      "పార్": 2954,
      "బహ": 2955,
      "బౌ": 2956,
      "మల": 2957,
      "మౌ": 2958,
      "లను": 2959,
      "ళు": 2960,
      "షన్": 2961,
      "సమ": 2962,
      "సూ": 2963,
      "ciet": 2964,
      "ాలీ": 2965,
      "లుగు": 2966,
      "term": 2967,
      "విస్త": 2968,
      "వాణా": 2969,
      "ికి": 2970,
      "ucation": 2971,
      "దక్షిణాసియా": 2972,
      "ద్ధం": 2973,
      "ద్ధి": 2974,
      "యునై": 2975,
      "ష్ణ": 2976,
      "Andhra": 2977,
      "బెంగాలీ": 2978,
      "General": 2979,
      "కాశ్మీరు": 2980,
      "సమాఖ్య": 2981,
      "ఇంగ్లీ": 2982,
      "శతాబ్దం": 2983,
      "గఢ్": 2984,
      "బౌద్ధ": 2985,
      "యునైటెడ్": 2986,
      "317": 2987,
      "B0": 2988,
      "Ganges": 2989,
      "May": 2990,
      "Science": 2991,
      "ft": 2992,
      "gl": 2993,
      "work": 2994,
      "ईरान": 2995,
      "ओर": 2996,
      "कम": 2997,
      "कॉ": 2998,
      "कंप": 2999,
      "चार": 3000,
      "चंड": 3001,
      "जैन": 3002,
      "तीय": 3003,
      "धार": 3004,
      "मत": 3005,
      "मार": 3006,
      "मन्द": 3007,
      "यर": 3008,
      "समाज": 3009,
      "peration": 3010,
      "arch": 3011,
      "asht": 3012,
      "icy": 3013,
      "स्वा": 3014,
      "न्ह": 3015,
      "78074": 3016,
      "संस्थान": 3017,
      "सां": 3018,
      "साल": 3019,
      "123": 3020,
      "राज्यक्षेत्र": 3021,
      "न्दा": 3022,
      "स्तर": 3023,
      "सिटी": 3024,
      "सिंह": 3025,
      "सून": 3026,
      "वाद": 3027,
      "power": 3028,
      "लेट": 3029,
      "कारण": 3030,
      "मानसून": 3031,
      "वर्सिटी": 3032,
      "भीम": 3033,
      "होता": 3034,
      "महाद्वीप": 3035,
      "gency": 3036,
      "बीच": 3037,
      "Wikidata": 3038,
      "जिसमें": 3039,
      "गुजराती": 3040,
      "मलया": 3041,
      "सैन्य": 3042,
      "अर्थव्यवस्था": 3043,
      "यूनिवर्सिटी": 3044,
      "अफ्रीका": 3045,
      "JPG": 3046,
      "मराठी": 3047,
      "मन्दिर": 3048,
      "ashtra": 3049,
      "Britannica": 3050,
      "CE": 3051,
      "Du": 3052,
      "Wol": 3053,
      "ced": 3054,
      "ीगढ़": 3055,
      "come": 3056,
      "low": 3057,
      "tica": 3058,
      "222": 3059,
      "extern": 3060,
      "erala": 3061,
      "ismus": 3062,
      "उत्तराखण्ड": 3063,
      "Bharat": 3064,
      "Have": 3065,
      "Wolpert": 3066,
      "Bio": 3067,
      "Dic": 3068,
      "OL": 3069,
      "dr": 3070,
      "lan": 3071,
      "nor": 3072,
      "var": 3073,
      "vol": 3074,
      "berg": 3075,
      "crease": 3076,
      "02": 3077,
      "Sharma": 3078,
      "Ved": 3079,
      "came": 3080,
      "em": 3081,
      "hen": 3082,
      "hou": 3083,
      "tec": 3084,
      "liz": 3085,
      "Harle": 3086,
      "gram": 3087,
      "aint": 3088,
      "BCE": 3089,
      "Craven": 3090,
      "Ga": 3091,
      "Jhar": 3092,
      "Pet": 3093,
      "bes": 3094,
      "jan": 3095,
      "lu": 3096,
      "ton": 3097,
      "people": 3098,
      "eds": 3099,
      "istan": 3100,
      "127": 3101,
      "hak": 3102,
      "territory": 3103,
      "view": 3104,
      "raglia": 3105,
      "Petraglia": 3106,
      "BBC": 3107,
      "pres": 3108,
      "way": 3109,
      "tter": 3110,
      "lio": 3111,
      "CITEREFKulkeRothermund2004": 3112,
      "Carna": 3113,
      "two": 3114,
      "66": 3115,
      "Bah": 3116,
      "West": 3117,
      "ious": 3118,
      "via": 3119,
      "ont": 3120,
      "ict": 3121,
      "ough": 3122,
      "ool": 3123,
      "str": 3124,
      "halaya": 3125,
      "many": 3126,
      "Indira": 3127,
      "shared": 3128,
      "Meghalaya": 3129,
      "iddle": 3130,
      "Miz": 3131,
      "Pages": 3132,
      "ped": 3133,
      "140": 3134,
      "Rajas": 3135,
      "Fisher2018": 3136,
      "Valley": 3137,
      "It": 3138,
      "तृ": 3139,
      "तो": 3140,
      "पक": 3141,
      "पट": 3142,
      "पत्": 3143,
      "फा": 3144,
      "भग": 3145,
      "भ्यता": 3146,
      "रिया": 3147,
      "लिया": 3148,
      "सभ्यता": 3149,
      "ोन": 3150,
      "city": 3151,
      "्यू": 3152,
      "used": 3153,
      "विजय": 3154,
      "तिब्": 3155,
      "न्स": 3156,
      "क्षर": 3157,
      "राजधान": 3158,
      "ेशन": 3159,
      "ताज": 3160,
      "षाण": 3161,
      "सिंध": 3162,
      "imha": 3163,
      "क्षेत्रीय": 3164,
      "ज़ा": 3165,
      "anath": 3166,
      "modern": 3167,
      "ल्स": 3168,
      "1965": 3169,
      "जिन": 3170,
      "Islam": 3171,
      "Pakistania": 3172,
      "wartz": 3173,
      "सुरक्षा": 3174,
      "तटीय": 3175,
      "मालदीव": 3176,
      "संगीत": 3177,
      "घाट": 3178,
      "Occid": 3179,
      "Schwartz": 3180,
      "अन्तर": 3181,
      "जलवायु": 3182,
      "राजनीतिक": 3183,
      "दशक": 3184,
      "अप्रैल": 3185,
      "हैदराबाद": 3186,
      "चंडीगढ़": 3187,
      "Dictionary": 3188,
      "तिब्ब": 3189,
      "सिंधु": 3190,
      "Schwartzberg": 3191,
      "Daman": 3192,
      "Fl": 3193,
      "emp": 3194,
      "number": 3195,
      "oor": 3196,
      "theast": 3197,
      "मेघ": 3198,
      "126": 3199,
      "ight": 3200,
      "ज़ो": 3201,
      "मिज़ो": 3202,
      "mania": 3203,
      "हरिया": 3204,
      "titution": 3205,
      "Diu": 3206,
      "Tripura": 3207,
      "छत्तीसगढ़": 3208,
      "Articles": 3209,
      "Bank": 3210,
      "britannica": 3211,
      "ds": 3212,
      "అస్": 3213,
      "అరు": 3214,
      "ఇస్": 3215,
      "ఇది": 3216,
      "కన్న": 3217,
      "కలి": 3218,
      "కరణ": 3219,
      "ఖండ": 3220,
      "గ్ర": 3221,
      "చా": 3222,
      "డీ": 3223,
      "డే": 3224,
      "తరా": 3225,
      "తులు": 3226,
      "ద్య": 3227,
      "ద్రా": 3228,
      "పండు": 3229,
      "బాం": 3230,
      "బడ్": 3231,
      "మాల్": 3232,
      "రవాణా": 3233,
      "ళ్": 3234,
      "సార": 3235,
      "ానికి": 3236,
      "ాలో": 3237,
      "న్స్": 3238,
      "lobal": 3239,
      "ప్రదా": 3240,
      "రికత": 3241,
      "క్నాల": 3242,
      "ross": 3243,
      "138": 3244,
      "ండర్": 3245,
      "సిక్కు": 3246,
      "విశ్": 3247,
      "ద్వీ": 3248,
      "Politic": 3249,
      "హిమాల": 3250,
      "ంటు": 3251,
      "భారతదేశంలోని": 3252,
      "చ్చే": 3253,
      "వేద": 3254,
      "Rajiv": 3255,
      "ర్యా": 3256,
      "ఉత్తరా": 3257,
      "టెక్నాల": 3258,
      "నాగరికత": 3259,
      "తెలుగు": 3260,
      "నగర": 3261,
      "సింధు": 3262,
      "క్రీడలు": 3263,
      "వచ్చింది": 3264,
      "సరిహ": 3265,
      "స్వాతంత్ర్య": 3266,
      "సినిమా": 3267,
      "ఆఫ్ఘనిస్తాన్": 3268,
      "చర్చ": 3269,
      "ళుక్య": 3270,
      "కన్నడ": 3271,
      "చాళుక్య": 3272,
      "మాల్దీవులు": 3273,
      "Political": 3274,
      "టెక్నాలజీ": 3275,
      "Des": 3276,
      "Kon": 3277,
      "Lak": 3278,
      "ive": 3279,
      "atio": 3280,
      "vision": 3281,
      "Centre2005": 3282,
      "cument": 3283,
      "115": 3284,
      "Jain": 3285,
      "Le": 3286,
      "Lank": 3287,
      "Russ": 3288,
      "bil": 3289,
      "north": 3290,
      "sup": 3291,
      "tro": 3292,
      "incl": 3293,
      "linkim": 3294,
      "ago": 3295,
      "lite": 3296,
      "FOOTNOTEAsherTalbot2008": 3297,
      "maint": 3298,
      "lations": 3299,
      "Sanchi": 3300,
      "View": 3301,
      "limate": 3302,
      "John": 3303,
      "Company": 3304,
      "linkimages": 3305,
      "DS": 3306,
      "Ear": 3307,
      "ID": 3308,
      "Kal": 3309,
      "ISO": 3310,
      "129": 3311,
      "popul": 3312,
      "under": 3313,
      "culus": 3314,
      "CN": 3315,
      "Dik": 3316,
      "Home": 3317,
      "భారత్": 3318,
      "50th": 3319,
      "Robb": 3320,
      "Constituent": 3321,
      "Linguistic": 3322,
      "shit": 3323,
      "IMFWEO": 3324,
      "Dikshit": 3325,
      "Rao": 3326,
      "vum": 3327,
      "omo": 3328,
      "omas": 3329,
      "20140": 3330,
      "003": 3331,
      "mae": 3332,
      "Indica": 3333,
      "lishing": 3334,
      "Lingua": 3335,
      "house": 3336,
      "116": 3337,
      "Ko": 3338,
      "ंत": 3339,
      "अलग": 3340,
      "उन": 3341,
      "कला": 3342,
      "गू": 3343,
      "जं": 3344,
      "जब": 3345,
      "टान": 3346,
      "मिक": 3347,
      "रत": 3348,
      "रह": 3349,
      "लम": 3350,
      "लका": 3351,
      "वृ": 3352,
      "श्य": 3353,
      "सत": 3354,
      "सहा": 3355,
      "िस्तान": 3356,
      "ौर": 3357,
      "Index": 3358,
      "्यों": 3359,
      "asia": 3360,
      "काली": 3361,
      "विक": 3362,
      "विष": 3363,
      "विदेश": 3364,
      "106": 3365,
      "साहि": 3366,
      "ulti": 3367,
      "पुलि": 3368,
      "form": 3369,
      "cond": 3370,
      "सिख": 3371,
      "1991": 3372,
      "upta": 3373,
      "जाती": 3374,
      "ड़ो": 3375,
      "जनवरी": 3376,
      "तेल": 3377,
      "code": 3378,
      "जीवन": 3379,
      "देख": 3380,
      "कुछ": 3381,
      "dispu": 3382,
      "अधि": 3383,
      "ज्ञा": 3384,
      "उपमहाद्वीप": 3385,
      "बांग्लादेश": 3386,
      "पहले": 3387,
      "Maharashtra": 3388,
      "चुनावों": 3389,
      "Mizoram": 3390,
      "सहाय": 3391,
      "पुलिस": 3392,
      "82": 3393,
      "Cas": 3394,
      "Kerala": 3395,
      "Tra": 3396,
      "ual": 3397,
      "west": 3398,
      "rat": 3399,
      "109": 3400,
      "166": 3401,
      "CITEREFMetcalfMetcalf2006": 3402,
      "231": 3403,
      "त्रिपुरा": 3404,
      "Australia": 3405,
      "Rab": 3406,
      "teen": 3407,
      "relations": 3408,
      "FOOTNOTEKulkeRothermund2004": 3409,
      "hael": 3410,
      "Democra": 3411,
      "Force": 3412,
      "period": 3413,
      "Michael": 3414,
      "glance": 3415,
      "gramme": 3416,
      "Fas": 3417,
      "Odis": 3418,
      "imp": 3419,
      "tia": 3420,
      "rest": 3421,
      "local": 3422,
      "total": 3423,
      "visions": 3424,
      "south": 3425,
      "Amer": 3426,
      "Bir": 3427,
      "Pan": 3428,
      "Sal": 3429,
      "ela": 3430,
      "read": 3431,
      "ofile": 3432,
      "edu": 3433,
      "uni": 3434,
      "111": 3435,
      "document": 3436,
      "Christian": 3437,
      "Lal": 3438,
      "Mach": 3439,
      "NA": 3440,
      "PC": 3441,
      "Per": 3442,
      "Tab": 3443,
      "ఖండ్": 3444,
      "చీ": 3445,
      "జరి": 3446,
      "జార్": 3447,
      "ట్ర": 3448,
      "తై": 3449,
      "తరు": 3450,
      "పై": 3451,
      "ఫర్": 3452,
      "మహ": 3453,
      "మలు": 3454,
      "మహార": 3455,
      "మయన్": 3456,
      "యో": 3457,
      "రూ": 3458,
      "శో": 3459,
      "సౌ": 3460,
      "సార్": 3461,
      "హార్": 3462,
      "ాష్ట్ర": 3463,
      "ాలా": 3464,
      "use": 3465,
      "ats": 3466,
      "loy": 3467,
      "ప్రజ": 3468,
      "లోయ": 3469,
      "identifiers": 3470,
      "సిక్": 3471,
      "త్మా": 3472,
      "మాచల్": 3473,
      "ద్దు": 3474,
      "న్నో": 3475,
      "హిమాచల్": 3476,
      "దినో": 3477,
      "మిజో": 3478,
      "రాజస్థాన్": 3479,
      "తరం": 3480,
      "కోర్": 3481,
      "ణాచల్": 3482,
      "ణాటక": 3483,
      "ప్రాంతం": 3484,
      "ట్టు": 3485,
      "మేషన్": 3486,
      "యుద్ధం": 3487,
      "Shankar": 3488,
      "Maldi": 3489,
      "క్కువ": 3490,
      "మహాత్మా": 3491,
      "info": 3492,
      "కర్ణాటక": 3493,
      "స్టా": 3494,
      "త్సవం": 3495,
      "బీహార్": 3496,
      "మార్గాలు": 3497,
      "పంజాబ్": 3498,
      "ఇరాన్": 3499,
      "సామ్రాజ్యము": 3500,
      "గుజరాత్": 3501,
      "మౌర్య": 3502,
      "అరుణాచల్": 3503,
      "చ్చేరి": 3504,
      "సరిహద్దు": 3505,
      "Russia": 3506,
      "తరువా": 3507,
      "ఫర్మేషన్": 3508,
      "మహారాష్ట్ర": 3509,
      "మయన్మార్": 3510,
      "దినోత్సవం": 3511,
      "415": 3512,
      "Bro": 3513,
      "Business": 3514,
      "Ele": 3515,
      "nom": 3516,
      "ciculus": 3517,
      "acala": 3518,
      "102": 3519,
      "diff": 3520,
      "265": 3521,
      "267": 3522,
      "Arun": 3523,
      "Geopoliticum": 3524,
      "Fasciculus": 3525,
      "7C": 3526,
      "92": 3527,
      "Bur": 3528,
      "Feb": 3529,
      "ium": 3530,
      "nat": 3531,
      "ria": 3532,
      "since": 3533,
      "unknown": 3534,
      "2026": 3535,
      "269": 3536,
      "proje": 3537,
      "Minorities": 3538,
      "shad": 3539,
      "Bal": 3540,
      "Hy": 3541,
      "PM": 3542,
      "rar": 3543,
      "आर्": 3544,
      "आन्द": 3545,
      "आंध": 3546,
      "ऑक्": 3547,
      "कं": 3548,
      "क़": 3549,
      "कै": 3550,
      "कों": 3551,
      "कड़": 3552,
      "खन": 3553,
      "ग्व": 3554,
      "टका": 3555,
      "डा": 3556,
      "णाली": 3557,
      "पै": 3558,
      "पाली": 3559,
      "पब्": 3560,
      "बड़े": 3561,
      "भु": 3562,
      "यत": 3563,
      "वाल": 3564,
      "व्या": 3565,
      "श्र": 3566,
      "सर्": 3567,
      "ूर": 3568,
      "ेद": 3569,
      "ॉल": 3570,
      "ोर्ड": 3571,
      "००": 3572,
      "asimha": 3573,
      "प्रणाली": 3574,
      "विभा": 3575,
      "विस्त": 3576,
      "वियत": 3577,
      "wealth": 3578,
      "istrar": 3579,
      "ंगाना": 3580,
      "परी": 3581,
      "नेतृ": 3582,
      "नेपाली": 3583,
      "कोलका": 3584,
      "अभिज्ञा": 3585,
      "गुप्त": 3586,
      "देवी": 3587,
      "पीठ": 3588,
      "पीपी": 3589,
      "पुरम": 3590,
      "रूस": 3591,
      "च्छ": 3592,
      "मैथि": 3593,
      "Programme": 3594,
      "बेटका": 3595,
      "Registrar": 3596,
      "बंधन": 3597,
      "न्नई": 3598,
      "summits": 3599,
      "Narasimha": 3600,
      "बहुत": 3601,
      "इंडोन": 3602,
      "क्रम": 3603,
      "घाटी": 3604,
      "केन्द्रीय": 3605,
      "असमिया": 3606,
      "चेन्नई": 3607,
      "शक्तिपीठ": 3608,
      "निर्माण": 3609,
      "sources": 3610,
      "सफोर्ड": 3611,
      "Hindustan": 3612,
      "तेलुगू": 3613,
      "झारखंड": 3614,
      "नौसेना": 3615,
      "कॉंग्रेस": 3616,
      "भीमबेटका": 3617,
      "तेलंगाना": 3618,
      "आन्दोलन": 3619,
      "आंध्र": 3620,
      "ऑक्सफोर्ड": 3621,
      "कोलकाता": 3622,
      "अभिज्ञापक": 3623,
      "इंडोनेशिया": 3624,
      "09": 3625,
      "By": 3626,
      "Dad": 3627,
      "Gold": 3628,
      "IA": 3629,
      "Nagar": 3630,
      "Var": 3631,
      "ving": 3632,
      "अरु": 3633,
      "दमन": 3634,
      "रम": 3635,
      "लक्ष": 3636,
      "win": 3637,
      "ances": 3638,
      "407": 3639,
      "became": 3640,
      "Bengali": 3641,
      "partment": 3642,
      "Uttarakhand": 3643,
      "Nagaland": 3644,
      "Haveli": 3645,
      "Dadra": 3646,
      "अरुणा": 3647,
      "Kolk": 3648,
      "Portal": 3649,
      "RL": 3650,
      "Sind": 3651,
      "ned": 3652,
      "ised": 3653,
      "links": 3654,
      "url": 3655,
      "Chhattis": 3656,
      "State": 3657,
      "Kolkata": 3658,
      "wal": 3659,
      "technology": 3660,
      "onwealth": 3661,
      "law": 3662,
      "thematics": 3663,
      "raj": 3664,
      "left": 3665,
      "ilg": 3666,
      "million": 3667,
      "Publishing": 3668,
      "Religion": 3669,
      "Bangladesh": 3670,
      "classical": 3671,
      "Char": 3672,
      "nan": 3673,
      "130": 3674,
      "141": 3675,
      "4020": 3676,
      "there": 3677,
      "prov": 3678,
      "Societ": 3679,
      "play": 3680,
      "CL": 3681,
      "ka": 3682,
      "long": 3683,
      "ranath": 3684,
      "sae": 3685,
      "weep": 3686,
      "unc": 3687,
      "indranath": 3688,
      "405": 3689,
      "iva": 3690,
      "Office": 3691,
      "miria": 3692,
      "civit": 3693,
      "groups": 3694,
      "Civitates": 3695,
      "Occidentalis": 3696,
      "Lakshad": 3697,
      "Casmiria": 3698,
      "Rabindranath": 3699,
      "Lakshadweep": 3700,
      "dra": 3701,
      "jpe": 3702,
      "era": 3703,
      "reme": 3704,
      "alore": 3705,
      "ederal": 3706,
      "1970": 3707,
      "litics": 3708,
      "125": 3709,
      "139": 3710,
      "exis": 3711,
      "uda": 3712,
      "earch": 3713,
      "culture": 3714,
      "432": 3715,
      "Bangalore": 3716,
      "Country": 3717,
      "Territory": 3718,
      "northern": 3719,
      "Lanka": 3720,
      "jpeg": 3721,
      "3TR": 3722,
      "Date": 3723,
      "Flag": 3724,
      "Muk": 3725,
      "North": 3726,
      "ob": 3727,
      "press": 3728,
      "tDwAAQBAJ": 3729,
      "vat": 3730,
      "index": 3731,
      "onia": 3732,
      "ering": 3733,
      "etary": 3734,
      "atan": 3735,
      "ild": 3736,
      "142": 3737,
      "ayas": 3738,
      "issile": 3739,
      "ruary": 3740,
      "contro": 3741,
      "socia": 3742,
      "Narendra": 3743,
      "paper": 3744,
      "symbol": 3745,
      "Agni": 3746,
      "Trans": 3747,
      "capita": 3748,
      "President": 3749,
      "February": 3750,
      "3TRtDwAAQBAJ": 3751,
      "117": 3752,
      "ser": 3753,
      "ँची": 3754,
      "अमे": 3755,
      "आय": 3756,
      "गई": 3757,
      "गठ": 3758,
      "गार": 3759,
      "घर": 3760,
      "त्या": 3761,
      "थे": 3762,
      "दल": 3763,
      "नै": 3764,
      "निया": 3765,
      "फल": 3766,
      "फ्रा": 3767,
      "मई": 3768,
      "वल": 3769,
      "वार": 3770,
      "शन": 3771,
      "ुनिक": 3772,
      "ంక": 3773,
      "అనే": 3774,
      "అమె": 3775,
      "ఎన్నో": 3776,
      "ఏర్": 3777,
      "కను": 3778,
      "ఖ్": 3779,
      "గీ": 3780,
      "గ్": 3781,
      "టో": 3782,
      "నం": 3783,
      "పర": 3784,
      "పొ": 3785,
      "మణి": 3786,
      "లతో": 3787,
      "లవు": 3788,
      "లమె": 3789,
      "ళం": 3790,
      "వృ": 3791,
      "శ్ర": 3792,
      "షా": 3793,
      "స్య": 3794,
      "హర్": 3795,
      "ూరు": 3796,
      "ారం": 3797,
      "asing": 3798,
      "ान्": 3799,
      "र्ष": 3800,
      "ర్లు": 3801,
      "प्रार": 3802,
      "विद्य": 3803,
      "सेवा": 3804,
      "न्तु": 3805,
      "त्री": 3806,
      "ప్రతి": 3807,
      "ప్రస్తు": 3808,
      "संधान": 3809,
      "लाल": 3810,
      "साक्षर": 3811,
      "tical": 3812,
      "भाई": 3813,
      "भाष": 3814,
      "12148": 3815,
      "ंगलु": 3816,
      "143": 3817,
      "erry": 3818,
      "తిక": 3819,
      "Spear": 3820,
      "త్తం": 3821,
      "पाषाण": 3822,
      "కుటు": 3823,
      "చిత్ర": 3824,
      "మాతరం": 3825,
      "aka": 3826,
      "लिंग": 3827,
      "लिये": 3828,
      "సంఘ": 3829,
      "వందే": 3830,
      "म्भ": 3831,
      "स्थित": 3832,
      "आधुनिक": 3833,
      "టిబె": 3834,
      "Paul": 3835,
      "రాష్ట్రాల": 3836,
      "కోబ": 3837,
      "अनुसंधान": 3838,
      "महल": 3839,
      "viol": 3840,
      "కాలంలో": 3841,
      "శాఖ": 3842,
      "भूगोल": 3843,
      "జనవరి": 3844,
      "सुधार": 3845,
      "बेंगलु": 3846,
      "మొత్తం": 3847,
      "పాకిస్థాన్": 3848,
      "పెనీ": 3849,
      "लोकसभा": 3850,
      "తమిళం": 3851,
      "Social": 3852,
      "उत्तरी": 3853,
      "కారం": 3854,
      "अन्त": 3855,
      "ఉపఖండ": 3856,
      "लगभग": 3857,
      "బాద్": 3858,
      "अमरी": 3859,
      "पोर्ट": 3860,
      "అధికారిక": 3861,
      "రెండు": 3862,
      "వారస": 3863,
      "హ్మ": 3864,
      "पूर्ण": 3865,
      "ministra": 3866,
      "కంపెనీ": 3867,
      "మొదటి": 3868,
      "బ్రిటిషు": 3869,
      "दृश्य": 3870,
      "పట్టణ": 3871,
      "imf2": 3872,
      "అత్యధిక": 3873,
      "bnf": 3874,
      "ఇండియా": 3875,
      "పార్లమె": 3876,
      "బహు": 3877,
      "ताजमहल": 3878,
      "तिब्बत": 3879,
      "హిమాలయాలు": 3880,
      "nominal": 3881,
      "पब्लि": 3882,
      "అమెరి": 3883,
      "साक्षरता": 3884,
      "కుటుంబ": 3885,
      "बेंगलुरु": 3886,
      "Air": 3887,
      "Bo": 3888,
      "Can": 3889,
      "Krish": 3890,
      "Way": 3891,
      "thi": 3892,
      "ures": 3893,
      "astr": 3894,
      "ould": 3895,
      "putra": 3896,
      "cess": 3897,
      "287": 3898,
      "253": 3899,
      "Row": 3900,
      "produc": 3901,
      "graph": 3902,
      "ports": 3903,
      "rule": 3904,
      "Civil": 3905,
      "Front": 3906,
      "Himachal": 3907,
      "नागाल": 3908,
      "Brahma": 3909,
      "मेघालय": 3910,
      "हरियाणा": 3911,
      "अरुणाचल": 3912,
      "350": 3913,
      "Cal": 3914,
      "Mur": 3915,
      "SI": 3916,
      "cad": 3917,
      "ie": 3918,
      "mor": 3919,
      "net": 3920,
      "itz": 3921,
      "racy": 3922,
      "ung": 3923,
      "nium": 3924,
      "ments": 3925,
      "feb": 3926,
      "Himal": 3927,
      "Encyclop": 3928,
      "IJ": 3929,
      "Mil": 3930,
      "NI": 3931,
      "Pol": 3932,
      "orical": 3933,
      "they": 3934,
      "among": 3935,
      "187": 3936,
      "sey": 3937,
      "actbook": 3938,
      "rishnan": 3939,
      "Health": 3940,
      "Climate": 3941,
      "HA": 3942,
      "High": 3943,
      "Iran": 3944,
      "Nuclear": 3945,
      "cis": 3946,
      "some": 3947,
      "yam": 3948,
      "dian": 3949,
      "onom": 3950,
      "asi": 3951,
      "astern": 3952,
      "ooperation": 3953,
      "FOOTNOTENational": 3954,
      "main": 3955,
      "beach": 3956,
      "parliament": 3957,
      "hodi": 3958,
      "Regio": 3959,
      "timesofindia": 3960,
      "People": 3961,
      "ganisation": 3962,
      "billion": 3963,
      "teenth": 3964,
      "Machine": 3965,
      "Wayback": 3966,
      "210": 3967,
      "QAAQBAJ": 3968,
      "Vis": 3969,
      "oro": 3970,
      "tig": 3971,
      "rel": 3972,
      "ale": 3973,
      "inger": 3974,
      "dire": 3975,
      "Popul": 3976,
      "Sikh": 3977,
      "taining": 3978,
      "NCL": 3979,
      "Ori": 3980,
      "kar": 3981,
      "ola": 3982,
      "uch": 3983,
      "omb": 3984,
      "1977": 3985,
      "democra": 3986,
      "oung": 3987,
      "Chines": 3988,
      "238": 3989,
      "Parliament": 3990,
      "graphic": 3991,
      "cogn": 3992,
      "Biblio": 3993,
      "Chinese": 3994,
      "62": 3995,
      "Bl": 3996,
      "Caste": 3997,
      "On": 3998,
      "Sae": 3999,
      "Ter": 4000,
      "Un": 4001,
      "pay": 4002,
      "ura": 4003,
      "Inf": 4004,
      "thang": 4005,
      "later": 4006,
      "vere": 4007,
      "forest": 4008,
      "development": 4009,
      "hap": 4010,
      "maj": 4011,
      "Asiatic": 4012,
      "ritsar": 4013,
      "herje": 4014,
      "Mahal": 4015,
      "qual": 4016,
      "key": 4017,
      "Consor": 4018,
      "such": 4019,
      "bert": 4020,
      "Coast": 4021,
      "ricket": 4022,
      "economy": 4023,
      "Organisation": 4024,
      "ultan": 4025,
      "Thomas": 4026,
      "syayan": 4027,
      "Urdu": 4028,
      "Amritsar": 4029,
      "tecture": 4030,
      "Craven1997": 4031,
      "Mukherje": 4032,
      "Krishna": 4033,
      "Mukherjee": 4034,
      "7mar": 4035,
      "Ho": 4036,
      "SCO": 4037,
      "day": 4038,
      "fes": 4039,
      "ges": 4040,
      "nu": 4041,
      "nar": 4042,
      "ंतर": 4043,
      "आयुक्त": 4044,
      "इल": 4045,
      "ईल": 4046,
      "उष्ण": 4047,
      "एक्": 4048,
      "कान": 4049,
      "क्रा": 4050,
      "ख्य": 4051,
      "गत": 4052,
      "गि": 4053,
      "गति": 4054,
      "घो": 4055,
      "चा": 4056,
      "चें": 4057,
      "जवा": 4058,
      "जें": 4059,
      "डम": 4060,
      "तम": 4061,
      "द्र": 4062,
      "दिक": 4063,
      "धरो": 4064,
      "नदी": 4065,
      "पहा": 4066,
      "यो": 4067,
      "रत्": 4068,
      "वली": 4069,
      "शो": 4070,
      "सह": 4071,
      "हम": 4072,
      "हथि": 4073,
      "ॉक": 4074,
      "ोत्": 4075,
      "१५": 4076,
      "wide": 4077,
      "tiqu": 4078,
      "tho": 4079,
      "स्ट्र": 4080,
      "काम": 4081,
      "विभाग": 4082,
      "संबर": 4083,
      "una": 4084,
      "नेपाल": 4085,
      "भाषाएँ": 4086,
      "हाँ": 4087,
      "हाला": 4088,
      "जापान": 4089,
      "पास": 4090,
      "lated": 4091,
      "दिसंबर": 4092,
      "क्षेत्रफल": 4093,
      "निय": 4094,
      "254": 4095,
      "शांति": 4096,
      "शास्त्र": 4097,
      "वर्ण": 4098,
      "वर्षा": 4099,
      "्राम": 4100,
      "कृष": 4101,
      "गुफा": 4102,
      "होती": 4103,
      "द्धि": 4104,
      "प्लेट": 4105,
      "फ़ि": 4106,
      "मोदी": 4107,
      "व्यक्ति": 4108,
      "१९९": 4109,
      "Malay": 4110,
      "सदन": 4111,
      "बंधीय": 4112,
      "संग्राम": 4113,
      "बैंक": 4114,
      "वैदिक": 4115,
      "धीरे": 4116,
      "वर्षों": 4117,
      "अपने": 4118,
      "दोन": 4119,
      "सैनिक": 4120,
      "ईसाई": 4121,
      "भूमिका": 4122,
      "कटिबंधीय": 4123,
      "२०११": 4124,
      "posed": 4125,
      "details": 4126,
      "दिवस": 4127,
      "इस्लाम": 4128,
      "Publications": 4129,
      "कंपनी": 4130,
      "मलयालम": 4131,
      "पत्ति": 4132,
      "कालीन": 4133,
      "साहित्य": 4134,
      "कड़ियाँ": 4135,
      "विभाजन": 4136,
      "नेतृत्व": 4137,
      "अमेरि": 4138,
      "गारो": 4139,
      "फ्रांस": 4140,
      "प्रारम्भ": 4141,
      "विद्यालय": 4142,
      "नागालैंड": 4143,
      "7mar2011": 4144,
      "क्रांति": 4145,
      "चेंज": 4146,
      "धरोहर": 4147,
      "हथियार": 4148,
      "Pud": 4149,
      "pre": 4150,
      "tered": 4151,
      "ered": 4152,
      "lem": 4153,
      "amp": 4154,
      "libr": 4155,
      "133": 4156,
      "Department": 4157,
      "mitt": 4158,
      "द्वीपसमूह": 4159,
      "large": 4160,
      "मणिपुर": 4161,
      "मिज़ोरम": 4162,
      "लक्षद्वीप": 4163,
      "ucherry": 4164,
      "Puducherry": 4165,
      "216": 4166,
      "But": 4167,
      "Cooperation": 4168,
      "Net": 4169,
      "bhas": 4170,
      "lord": 4171,
      "pl": 4172,
      "paint": 4173,
      "sing": 4174,
      "uth": 4175,
      "yle": 4176,
      "independ": 4177,
      "aro": 4178,
      "agari": 4179,
      "vel": 4180,
      "vember": 4181,
      "ists": 4182,
      "diversity": 4183,
      "147": 4184,
      "Devan": 4185,
      "1999": 4186,
      "Main": 4187,
      "Telang": 4188,
      "See": 4189,
      "hall": 4190,
      "social": 4191,
      "Commonwealth": 4192,
      "November": 4193,
      "Narayan": 4194,
      "Brune": 4195,
      "Sanchi2": 4196,
      "Chhattisgarh": 4197,
      "vatsyayan": 4198,
      "Brahmaputra": 4199,
      "bhasha": 4200,
      "painting": 4201,
      "Devanagari": 4202,
      "Telangana": 4203,
      "577": 4204,
      "Ah": 4205,
      "Dal": 4206,
      "Nor": 4207,
      "Sol": 4208,
      "Vu": 4209,
      "Vict": 4210,
      "ZVu": 4211,
      "bir": 4212,
      "cur": 4213,
      "ful": 4214,
      "kZVu": 4215,
      "occ": 4216,
      "అను": 4217,
      "ఆంధ": 4218,
      "ఎన్ని": 4219,
      "ఎక్కువ": 4220,
      "కథ": 4221,
      "కాలు": 4222,
      "కల్": 4223,
      "జన్": 4224,
      "జైన": 4225,
      "డో": 4226,
      "తము": 4227,
      "థి": 4228,
      "న్యా": 4229,
      "పల్ల": 4230,
      "ఫై": 4231,
      "భర": 4232,
      "మరా": 4233,
      "యక": 4234,
      "శీ": 4235,
      "సహా": 4236,
      "ుల": 4237,
      "iarum": 4238,
      "diana": 4239,
      "anno": 4240,
      "estic": 4241,
      "్రప్రదేశ్": 4242,
      "lack": 4243,
      "ాలలో": 4244,
      "దేశము": 4245,
      "సాధి": 4246,
      "ప్రము": 4247,
      "ప్రకారం": 4248,
      "well": 4249,
      "క్టో": 4250,
      "ందు": 4251,
      "నియా": 4252,
      "ల్తా": 4253,
      "ల్వే": 4254,
      "ండమా": 4255,
      "విధ": 4256,
      "విద్య": 4257,
      "Categoria": 4258,
      "కుడు": 4259,
      "యాళం": 4260,
      "ందిన": 4261,
      "చిన్న": 4262,
      "వాహ": 4263,
      "సంస్థ": 4264,
      "సంఖ్య": 4265,
      "atae": 4266,
      "ష్టు": 4267,
      "డిన": 4268,
      "దినాలు": 4269,
      "box": 4270,
      "logical": 4271,
      "issa": 4272,
      "గుర్": 4273,
      "లిం": 4274,
      "స్త్రీయ": 4275,
      "కోల్": 4276,
      "culum": 4277,
      "త్యం": 4278,
      "శాస్త్రీయ": 4279,
      "మేఘ": 4280,
      "ాల్లో": 4281,
      "tentri": 4282,
      "MetcalfMetcalf2012": 4283,
      "ారిటీ": 4284,
      "తున్న": 4285,
      "Novum": 4286,
      "సుల్తా": 4287,
      "రాజ్యాలు": 4288,
      "ricul": 4289,
      "Ministri": 4290,
      "constitution": 4291,
      "గిన": 4292,
      "బడిన": 4293,
      "రైల్వే": 4294,
      "Orissa": 4295,
      "పిక్": 4296,
      "lingu": 4297,
      "duct": 4298,
      "కాశ్మీర్": 4299,
      "authority": 4300,
      "నేషనల్": 4301,
      "bbc": 4302,
      "catal": 4303,
      "వ్యాసం": 4304,
      "వలస": 4305,
      "స్వతంత్ర": 4306,
      "అయిన": 4307,
      "ప్రభుత్వం": 4308,
      "కాంగ్రెసు": 4309,
      "సముద్రం": 4310,
      "ఆగష్టు": 4311,
      "మలయాళం": 4312,
      "ఇంగ్లీషు": 4313,
      "PetragliaAllchin": 4314,
      "విశ్వా": 4315,
      "ంటుంది": 4316,
      "చాళుక్యులు": 4317,
      "ట్రో": 4318,
      "infobox": 4319,
      "వృద్ధి": 4320,
      "పార్లమెంట": 4321,
      "hodiern": 4322,
      "kZVuDwAAQBAJ": 4323,
      "ఆంధ్రప్రదేశ్": 4324,
      "మరాఠ": 4325,
      "ప్రముఖ": 4326,
      "సుల్తానులు": 4327,
      "321": 4328,
      "Droup": 4329,
      "Gul": 4330,
      "M50th": 4331,
      "Na": 4332,
      "Vol": 4333,
      "car": 4334,
      "136": 4335,
      "20160": 4336,
      "prus": 4337,
      "cret": 4338,
      "Cyprus": 4339,
      "popular": 4340,
      "Murmu": 4341,
      "NCLM50th": 4342,
      "Droupadi": 4343,
      "NCLM50thReport": 4344,
      "A5": 4345,
      "EN": 4346,
      "Fin": 4347,
      "Fore": 4348,
      "G8": 4349,
      "Games": 4350,
      "JIJ": 4351,
      "Vaj": 4352,
      "Zva": 4353,
      "aJIJ": 4354,
      "gre": 4355,
      "grow": 4356,
      "ning": 4357,
      "yy": 4358,
      "order": 4359,
      "enna": 4360,
      "tis": 4361,
      "edral": 4362,
      "Demon": 4363,
      "goC": 4364,
      "Chenna": 4365,
      "Maur": 4366,
      "349": 4367,
      "aipur": 4368,
      "early": 4369,
      "GuaJIJ": 4370,
      "aries": 4371,
      "athedral": 4372,
      "notation": 4373,
      "dyn": 4374,
      "Time": 4375,
      "Buddhism": 4376,
      "Harle1994": 4377,
      "Rowland": 4378,
      "payee": 4379,
      "Vajpayee": 4380,
      "ZvaGuaJIJ": 4381,
      "Chennai": 4382,
      "ZvaGuaJIJgoC": 4383,
      "459": 4384,
      "Ajan": 4385,
      "BI": 4386,
      "Monsoon": 4387,
      "NGDP": 4388,
      "ethnologue": 4389,
      "inter": 4390,
      "208": 4391,
      "though": 4392,
      "Haryana": 4393,
      "pringer": 4394,
      "domestic": 4395,
      "ervation": 4396,
      "Wolpert2003": 4397,
      "Ahmed": 4398,
      "400": 4399,
      "Cand": 4400,
      "Group": 4401,
      "eth": 4402,
      "fo": 4403,
      "km": 4404,
      "ris": 4405,
      "sq": 4406,
      "pee": 4407,
      "liest": 4408,
      "sites": 4409,
      "km2": 4410,
      "600": 4411,
      "Atal": 4412,
      "Bas": 4413,
      "Cap": 4414,
      "EC": 4415,
      "Gre": 4416,
      "King": 4417,
      "LC": 4418,
      "Nanda": 4419,
      "Pl": 4420,
      "SA": 4421,
      "Western": 4422,
      "aut": 4423,
      "ba": 4424,
      "ece": 4425,
      "ks": 4426,
      "ym": 4427,
      "अब": 4428,
      "अमी": 4429,
      "अंड": 4430,
      "अफ़": 4431,
      "अतुल": 4432,
      "अशो": 4433,
      "अहम": 4434,
      "आदि": 4435,
      "आंद": 4436,
      "आपात": 4437,
      "ईद": 4438,
      "उद": 4439,
      "ऍथ": 4440,
      "ऑपर": 4441,
      "कणी": 4442,
      "ख़": 4443,
      "गध": 4444,
      "चन": 4445,
      "चोल": 4446,
      "जपा": 4447,
      "जपुरी": 4448,
      "डे": 4449,
      "डाल": 4450,
      "थाली": 4451,
      "धन": 4452,
      "धि": 4453,
      "धिकार": 4454,
      "नई": 4455,
      "नद": 4456,
      "नान": 4457,
      "नोल": 4458,
      "नरे": 4459,
      "नन्दा": 4460,
      "पद": 4461,
      "पीय": 4462,
      "पहु": 4463,
      "बू": 4464,
      "बने": 4465,
      "बड़ा": 4466,
      "ब्यू": 4467,
      "मगध": 4468,
      "यन": 4469,
      "यान": 4470,
      "यपुर": 4471,
      "लखन": 4472,
      "शत": 4473,
      "शै": 4474,
      "षण": 4475,
      "सश": 4476,
      "िति": 4477,
      "ूबर": 4478,
      "ॉग": 4479,
      "ोला": 4480,
      "५७": 4481,
      "wikidata": 4482,
      "ारजि": 4483,
      "araj": 4484,
      "ital": 4485,
      "केश": 4486,
      "रात": 4487,
      "राम": 4488,
      "20150": 4489,
      "स्क": 4490,
      "कांक": 4491,
      "प्रस": 4492,
      "क्षण": 4493,
      "संथाली": 4494,
      "ताल": 4495,
      "भाजपा": 4496,
      "परंप": 4497,
      "कोरिया": 4498,
      "ष्ठ": 4499,
      "सूर": 4500,
      "वाला": 4501,
      "भाषाएं": 4502,
      "थाईल": 4503,
      "करना": 4504,
      "करता": 4505,
      "किला": 4506,
      "निभाई": 4507,
      "जनता": 4508,
      "हिन्दु": 4509,
      "trans": 4510,
      "मुम्": 4511,
      "लिपि": 4512,
      "मील": 4513,
      "वर्त": 4514,
      "ार्कटि": 4515,
      "भिन्न": 4516,
      "द्वि": 4517,
      "1961": 4518,
      "महान": 4519,
      "महारजि": 4520,
      "384": 4521,
      "लोर": 4522,
      "दाख": 4523,
      "रुप": 4524,
      "भूटान": 4525,
      "सूचकांक": 4526,
      "अधिकार": 4527,
      "१९४": 4528,
      "उपराष्ट्रपति": 4529,
      "यूरो": 4530,
      "सदस": 4531,
      "Research": 4532,
      "स्टॉक": 4533,
      "आईएस": 4534,
      "कश्मीरी": 4535,
      "न्यायाधी": 4536,
      "जयपुर": 4537,
      "culo": 4538,
      "मलेशिया": 4539,
      "Gujral": 4540,
      "Bihari": 4541,
      "प्रतिशत": 4542,
      "कार्यपालिका": 4543,
      "भोजपुरी": 4544,
      "शुरू": 4545,
      "मणिपुरी": 4546,
      "Monetary": 4547,
      "कन्नड़": 4548,
      "Puran": 4549,
      "ओड़िया": 4550,
      "न्हें": 4551,
      "विजयनगर": 4552,
      "जिनमें": 4553,
      "DikshitSchwartzberg": 4554,
      "वृद्धि": 4555,
      "अधिराज्य": 4556,
      "कोंकणी": 4557,
      "व्यापार": 4558,
      "मैथिली": 4559,
      "quality": 4560,
      "स्ट्रार": 4561,
      "कृषि": 4562,
      "गुफाएं": 4563,
      "दोनों": 4564,
      "Foreign": 4565,
      "Kingdom": 4566,
      "अमीरात": 4567,
      "अंडमान": 4568,
      "अतुल्य": 4569,
      "अशोक": 4570,
      "आंदोलन": 4571,
      "आपातकाल": 4572,
      "ऍथनोल": 4573,
      "ऑपरेशन": 4574,
      "डालर": 4575,
      "ब्यूरो": 4576,
      "लखनऊ": 4577,
      "परंपरा": 4578,
      "मुम्बई": 4579,
      "ार्कटिका": 4580,
      "महारजिस्ट्रार": 4581,
      "न्यायाधीश": 4582,
      "ऍथनोलॉग": 4583,
      "Kum": 4584,
      "Springer": 4585,
      "bank": 4586,
      "cise": 4587,
      "human": 4588,
      "ote": 4589,
      "western": 4590,
      "ओडि": 4591,
      "हवे": 4592,
      "tition": 4593,
      "1975": 4594,
      "olia": 4595,
      "सिन्ध": 4596,
      "sector": 4597,
      "243": 4598,
      "cript": 4599,
      "Golden": 4600,
      "Ajanta": 4601,
      "हवेली": 4602,
      "सिन्धु": 4603,
      "61": 4604,
      "BS": 4605,
      "Britann": 4606,
      "Lite": 4607,
      "Lond": 4608,
      "Tw": 4609,
      "Young": 4610,
      "if": 4611,
      "imae": 4612,
      "num": 4613,
      "sour": 4614,
      "ution": 4615,
      "tea": 4616,
      "Increase": 4617,
      "itus": 4618,
      "andela": 4619,
      "omandela": 4620,
      "rature": 4621,
      "ingham": 4622,
      "lies": 4623,
      "urban": 4624,
      "lopedia": 4625,
      "unt": 4626,
      "Associa": 4627,
      "habet": 4628,
      "containing": 4629,
      "abaria": 4630,
      "rief": 4631,
      "Bengala": 4632,
      "Malabaria": 4633,
      "Coningham": 4634,
      "Novi": 4635,
      "Urbes": 4636,
      "civitas": 4637,
      "Andamanenses": 4638,
      "Chandigar": 4639,
      "Coromandela": 4640,
      "Nicobarenses": 4641,
      "external": 4642,
      "Carnatica": 4643,
      "Saeculum": 4644,
      "Britanniarum": 4645,
      "Chandigarh": 4646,
      "Ka": 4647,
      "Kath": 4648,
      "Rig": 4649,
      "Shi": 4650,
      "Sam": 4651,
      "bad": 4652,
      "ctic": 4653,
      "iri": 4654,
      "ors": 4655,
      "tta": 4656,
      "high": 4657,
      "ergy": 4658,
      "reed": 4659,
      "rates": 4660,
      "atar": 4661,
      "1000": 4662,
      "1300": 4663,
      "force": 4664,
      "iger": 4665,
      "242": 4666,
      "asty": 4667,
      "movement": 4668,
      "api": 4669,
      "ineering": 4670,
      "Congress2004": 4671,
      "Environmental": 4672,
      "traditional": 4673,
      "Total": 4674,
      "estimate": 4675,
      "control": 4676,
      "dynasty": 4677,
      "Eb": 4678,
      "Pto": 4679,
      "bur": 4680,
      "dist": 4681,
      "lor": 4682,
      "llion": 4683,
      "range": 4684,
      "tb": 4685,
      "ores": 4686,
      "anth": 4687,
      "anim": 4688,
      "ancient": 4689,
      "thehind": 4690,
      "verty": 4691,
      "146": 4692,
      "ourn": 4693,
      "Minister": 4694,
      "Ancient": 4695,
      "text": 4696,
      "ogue": 4697,
      "voy": 4698,
      "Ptole": 4699,
      "Ci": 4700,
      "Curr": 4701,
      "Homo": 4702,
      "Non": 4703,
      "Phi": 4704,
      "Tib": 4705,
      "brief": 4706,
      "cor": 4707,
      "found": 4708,
      "gani": 4709,
      "hum": 4710,
      "kes": 4711,
      "mation": 4712,
      "monsoon": 4713,
      "ps": 4714,
      "teri": 4715,
      "1956": 4716,
      "134": 4717,
      "content": 4718,
      "156": 4719,
      "260": 4720,
      "263": 4721,
      "255": 4722,
      "cts": 4723,
      "began": 4724,
      "mohan": 4725,
      "rupee": 4726,
      "Part": 4727,
      "Organi": 4728,
      "Information": 4729,
      "Karnat": 4730,
      "khand": 4731,
      "Jharkhand": 4732,
      "projection": 4733,
      "Organiz": 4734,
      "Karnataka": 4735,
      "Dra": 4736,
      "Domin": 4737,
      "HD": 4738,
      "Law": 4739,
      "Middle": 4740,
      "Pran": 4741,
      "Sar": 4742,
      "Thi": 4743,
      "Web": 4744,
      "apura": 4745,
      "gi": 4746,
      "global": 4747,
      "nth": 4748,
      "ren": 4749,
      "అర": 4750,
      "అక్ష": 4751,
      "అరే": 4752,
      "అభి": 4753,
      "అశో": 4754,
      "అండమా": 4755,
      "ఆధ": 4756,
      "ఇంట": 4757,
      "ఉంట": 4758,
      "ఎక్": 4759,
      "ఏప్ర": 4760,
      "కల": 4761,
      "కలు": 4762,
      "కర్య": 4763,
      "కబడ్": 4764,
      "ఖో": 4765,
      "గే": 4766,
      "గర్": 4767,
      "చద": 4768,
      "చో": 4769,
      "చండ": 4770,
      "జం": 4771,
      "జయ": 4772,
      "టై": 4773,
      "టర్": 4774,
      "డమ్": 4775,
      "డయ్య": 4776,
      "డఖ్": 4777,
      "ణే": 4778,
      "ణంగా": 4779,
      "నంద": 4780,
      "నడి": 4781,
      "నంలో": 4782,
      "పత": 4783,
      "పచ్": 4784,
      "బో": 4785,
      "బర్": 4786,
      "బంధ": 4787,
      "మో": 4788,
      "మాలు": 4789,
      "మలే": 4790,
      "యె": 4791,
      "రళ": 4792,
      "లాం": 4793,
      "లంగా": 4794,
      "లడఖ్": 4795,
      "ళా": 4796,
      "ళి": 4797,
      "వారి": 4798,
      "వనాలు": 4799,
      "శి": 4800,
      "శు": 4801,
      "షియా": 4802,
      "సహ": 4803,
      "సే": 4804,
      "సత్య": 4805,
      "హొ": 4806,
      "హవే": 4807,
      "హర్యా": 4808,
      "ైస్త": 4809,
      "pect": 4810,
      "anasi": 4811,
      "only": 4812,
      "్రి": 4813,
      "cip": 4814,
      "itary": 4815,
      "umeration": 4816,
      "ాలయ": 4817,
      "ాలె": 4818,
      "ాలను": 4819,
      "river": 4820,
      "సామా": 4821,
      "ర్ణం": 4822,
      "ర్చు": 4823,
      "రాం": 4824,
      "రాస్య": 4825,
      "ప్రజా": 4826,
      "భారతదేశపు": 4827,
      "భారతదేశానికి": 4828,
      "లోని": 4829,
      "నికోబ": 4830,
      "ంగో": 4831,
      "ండా": 4832,
      "ండ్య": 4833,
      "సింది": 4834,
      "261": 4835,
      "తాజ్": 4836,
      "నాథ": 4837,
      "వివిధ": 4838,
      "త్తీ": 4839,
      "కుల": 4840,
      "కుంట": 4841,
      "302": 4842,
      "పూర్వ": 4843,
      "వాదం": 4844,
      "ికీ": 4845,
      "్రామ": 4846,
      "2011religion": 4847,
      "మాత్ర": 4848,
      "భాగం": 4849,
      "Army": 4850,
      "సంప్రదా": 4851,
      "కాతా": 4852,
      "కిం": 4853,
      "కింగ్": 4854,
      "పాండి": 4855,
      "పాండ్య": 4856,
      "పుర": 4857,
      "స్థా": 4858,
      "న్నై": 4859,
      "ligence": 4860,
      "apan": 4861,
      "1967": 4862,
      "Paper": 4863,
      "జిల్": 4864,
      "కేరళ": 4865,
      "గుప్": 4866,
      "లియా": 4867,
      "చేయ": 4868,
      "దాద్రా": 4869,
      "వేగంగా": 4870,
      "చెన్నై": 4871,
      "జీరియా": 4872,
      "ప్పట": 4873,
      "మేన": 4874,
      "యుగం": 4875,
      "జనతా": 4876,
      "జనగణ": 4877,
      "జనపద": 4878,
      "బియా": 4879,
      "talk": 4880,
      "మొగలు": 4881,
      "ghan": 4882,
      "కొరియా": 4883,
      "గోళ": 4884,
      "గోవా": 4885,
      "గోదా": 4886,
      "డామన్": 4887,
      "వరాలు": 4888,
      "ప్రపంచము": 4889,
      "ప్రపంచంలో": 4890,
      "Sikhis": 4891,
      "త్రిపుర": 4892,
      "సంస్కృతం": 4893,
      "Census2011religion": 4894,
      "Buddha": 4895,
      "పించ": 4896,
      "నాగాలా": 4897,
      "క్రైస్త": 4898,
      "తెలంగా": 4899,
      "వెను": 4900,
      "సాంకే": 4901,
      "Before": 4902,
      "భిన్న": 4903,
      "నేషియా": 4904,
      "Afghan": 4905,
      "ఒకటి": 4906,
      "కళలు": 4907,
      "సైనిక": 4908,
      "బ్రిటిష్": 4909,
      "telligence": 4910,
      "స్వతం": 4911,
      "ముఖ్యమైన": 4912,
      "లక్షద్వీ": 4913,
      "దేశంలోని": 4914,
      "సమరం": 4915,
      "సూచి": 4916,
      "అస్సాం": 4917,
      "సారస్వతం": 4918,
      "Jainism": 4919,
      "జార్ఖండ్": 4920,
      "మహల్": 4921,
      "సౌకర్య": 4922,
      "సిక్కిం": 4923,
      "మిజోరాం": 4924,
      "స్టాక్": 4925,
      "తరువాత": 4926,
      "Varanasi": 4927,
      "ఏర్ప": 4928,
      "కనుమలు": 4929,
      "మణిపూర్": 4930,
      "Spear1990": 4931,
      "టిబెట్": 4932,
      "వారసత్వ": 4933,
      "అమెరికా": 4934,
      "vereign": 4935,
      "సహాయం": 4936,
      "మేఘాలయ": 4937,
      "growth": 4938,
      "Pranab": 4939,
      "అరేబియా": 4940,
      "అండమాన్": 4941,
      "ఎక్స్": 4942,
      "ఏప్రిల్": 4943,
      "కబడ్డీ": 4944,
      "చదరంగ": 4945,
      "చోళ": 4946,
      "చండీ": 4947,
      "డయ్యూ": 4948,
      "పచ్చ": 4949,
      "మలేషియా": 4950,
      "హవేలీ": 4951,
      "హర్యానా": 4952,
      "రాస్యత": 4953,
      "నికోబార్": 4954,
      "త్తీస్": 4955,
      "పాండిచ్చేరి": 4956,
      "జనపదాలు": 4957,
      "నాగాలాండ్": 4958,
      "తెలంగాణ": 4959,
      "లక్షద్వీప్": 4960,
      "114": 4961,
      "Ali": 4962,
      "Agra": 4963,
      "Gross": 4964,
      "KI": 4965,
      "MKI": 4966,
      "can": 4967,
      "ula": 4968,
      "ancy": 4969,
      "1987": 4970,
      "atin": 4971,
      "ating": 4972,
      "agore": 4973,
      "che": 4974,
      "0000": 4975,
      "179": 4976,
      "Tel": 4977,
      "orea": 4978,
      "product": 4979,
      "Collin": 4980,
      "Plateau": 4981,
      "lennium": 4982,
      "412": 4983,
      "Ab": 4984,
      "EX": 4985,
      "Gana": 4986,
      "Gini": 4987,
      "Jana": 4988,
      "Mana": 4989,
      "Tha": 4990,
      "URL": 4991,
      "ault": 4992,
      "da": 4993,
      "ec": 4994,
      "lm": 4995,
      "ँकि": 4996,
      "ंबर": 4997,
      "अर्": 4998,
      "आइ": 4999,
      "इसी": 5000,
      "ईस्ट": 5001,
      "ऋतु": 5002,
      "एम": 5003,
      "ऑफ": 5004,
      "गए": 5005,
      "ग्र": 5006,
      "ग्री": 5007,
      "चाल": 5008,
      "जै": 5009,
      "जान": 5010,
      "डॉल": 5011,
      "तग": 5012,
      "थल": 5013,
      "दार": 5014,
      "पक्ष": 5015,
      "फि": 5016,
      "बहा": 5017,
      "बनी": 5018,
      "बड़ी": 5019,
      "मंड": 5020,
      "सक": 5021,
      "सल्": 5022,
      "हॉ": 5023,
      "ुक": 5024,
      "२६": 5025,
      "along": 5026,
      "केट": 5027,
      "rata": 5028,
      "र्तग": 5029,
      "स्ता": 5030,
      "कांग्रेस": 5031,
      "प्रभा": 5032,
      "प्रकार": 5033,
      "प्रशासन": 5034,
      "प्रवेश": 5035,
      "वित": 5036,
      "राजभाषा": 5037,
      "लावा": 5038,
      "ियां": 5039,
      "साइ": 5040,
      "सामाज": 5041,
      "पुर्तग": 5042,
      "नेट": 5043,
      "त्त": 5044,
      "माध्य": 5045,
      "जाते": 5046,
      "पांड": 5047,
      "दियों": 5048,
      "किन्तु": 5049,
      "निवेश": 5050,
      "मानक": 5051,
      "स्थिति": 5052,
      "अभियान": 5053,
      "गुट": 5054,
      "गणतंत्र": 5055,
      "संघीय": 5056,
      "दादरा": 5057,
      "मोहन": 5058,
      "feat": 5059,
      "सितंबर": 5060,
      "newsite": 5061,
      "न्याय": 5062,
      "religious": 5063,
      "जिसके": 5064,
      "शील": 5065,
      "कर्ज": 5066,
      "क्रि": 5067,
      "अपनी": 5068,
      "श्रीनगर": 5069,
      "Muslim": 5070,
      "eries": 5071,
      "मौसम": 5072,
      "Encyclopedia": 5073,
      "१८५७": 5074,
      "Atlas": 5075,
      "तुलना": 5076,
      "Rajasthan": 5077,
      "राजधानी": 5078,
      "जबकि": 5079,
      "रहे": 5080,
      "विषय": 5081,
      "विदेशी": 5082,
      "गठबंधन": 5083,
      "relid": 5084,
      "घोष": 5085,
      "सहयोग": 5086,
      "ोत्तर": 5087,
      "हालाँकि": 5088,
      "अमेरिका": 5089,
      "पहुँच": 5090,
      "हिन्दुस्तान": 5091,
      "वर्तमान": 5092,
      "यूरोपीय": 5093,
      "डॉलर": 5094,
      "मंडल": 5095,
      "सल्तन": 5096,
      "हॉकी": 5097,
      "सामाजिक": 5098,
      "026": 5099,
      "112": 5100,
      "150": 5101,
      "Agency": 5102,
      "G20": 5103,
      "Gree": 5104,
      "IU": 5105,
      "Li": 5106,
      "Swar": 5107,
      "York": 5108,
      "gania": 5109,
      "uin": 5110,
      "women": 5111,
      "ximae": 5112,
      "ेरी": 5113,
      "iam": 5114,
      "incre": 5115,
      "tionis": 5116,
      "1948": 5117,
      "now": 5118,
      "20170": 5119,
      "addition": 5120,
      "नागर": 5121,
      "verse": 5122,
      "illa": 5123,
      "CIA": 5124,
      "post": 5125,
      "ibus": 5126,
      "astri": 5127,
      "Mahat": 5128,
      "both": 5129,
      "Forest": 5130,
      "Park": 5131,
      "regions": 5132,
      "Sanct": 5133,
      "Gentic": 5134,
      "ject": 5135,
      "political": 5136,
      "Religio": 5137,
      "Afgania": 5138,
      "Chandra": 5139,
      "Culture": 5140,
      "Cultura": 5141,
      "Buddhismus": 5142,
      "Vedic": 5143,
      "includ": 5144,
      "Birmania": 5145,
      "civitatum": 5146,
      "graphy": 5147,
      "Populorum": 5148,
      "Asiaticarum": 5149,
      "tiqua": 5150,
      "Butania": 5151,
      "tentrion": 5152,
      "riculture": 5153,
      "hodiernarum": 5154,
      "reedom": 5155,
      "Afghanistan": 5156,
      "IUCN": 5157,
      "Mahatma": 5158,
      "3166": 5159,
      "Journ": 5160,
      "made": 5161,
      "wa": 5162,
      "ina": 5163,
      "1980": 5164,
      "urang": 5165,
      "Books": 5166,
      "parame": 5167,
      "type": 5168,
      "Kumar": 5169,
      "Journal": 5170,
      "parameters": 5171,
      "110": 5172,
      "613": 5173,
      "Dis": 5174,
      "Tay": 5175,
      "cast": 5176,
      "den": 5177,
      "gr": 5178,
      "hdr": 5179,
      "ographic": 5180,
      "pag": 5181,
      "rise": 5182,
      "yal": 5183,
      "anthem": 5184,
      "erent": 5185,
      "education": 5186,
      "ental": 5187,
      "terr": 5188,
      "186": 5189,
      "145": 5190,
      "1992": 5191,
      "Short": 5192,
      "576": 5193,
      "orthographic": 5194,
      "Chief": 5195,
      "Persian": 5196,
      "struc": 5197,
      "Americ": 5198,
      "independence": 5199,
      "Taylor": 5200,
      "Japan": 5201,
      "Myan": 5202,
      "YS": 5203,
      "ies": 5204,
      "ji": 5205,
      "pra": 5206,
      "sapi": 5207,
      "tree": 5208,
      "wana": 5209,
      "tte": 5210,
      "pen": 5211,
      "Intelligence": 5212,
      "1974": 5213,
      "atna": 5214,
      "uru": 5215,
      "FOOTNOTESpear1990": 5216,
      "rop": 5217,
      "160": 5218,
      "1995": 5219,
      "CITEREFStein2010": 5220,
      "search": 5221,
      "second": 5222,
      "406": 5223,
      "Chola": 5224,
      "coast": 5225,
      "549": 5226,
      "Education": 5227,
      "prime": 5228,
      "Shastri": 5229,
      "498": 5230,
      "Madr": 5231,
      "male": 5232,
      "menia": 5233,
      "visional": 5234,
      "IAF": 5235,
      "ministrative": 5236,
      "Canada": 5237,
      "ultanate": 5238,
      "Kathak": 5239,
      "Tibet": 5240,
      "Myanmar": 5241,
      "LA": 5242,
      "La": 5243,
      "Mer": 5244,
      "Tar": 5245,
      "iliz": 5246,
      "sign": 5247,
      "inc": 5248,
      "rec": 5249,
      "republic": 5250,
      "atab": 5251,
      "vert": 5252,
      "137": 5253,
      "memor": 5254,
      "1857": 5255,
      "good": 5256,
      "allis": 5257,
      "merg": 5258,
      "Region": 5259,
      "place": 5260,
      "Institu": 5261,
      "Emb": 5262,
      "Sang": 5263,
      "Sup": 5264,
      "Stu": 5265,
      "nation": 5266,
      "sis": 5267,
      "dies": 5268,
      "131": 5269,
      "152": 5270,
      "tures": 5271,
      "astra": 5272,
      "appe": 5273,
      "atis": 5274,
      "worldcat": 5275,
      "authorities": 5276,
      "fication": 5277,
      "Aks": 5278,
      "volution": 5279,
      "present": 5280,
      "Panjab": 5281,
      "symbols": 5282,
      "2nd": 5283,
      "BE": 5284,
      "Dance": 5285,
      "Eth": 5286,
      "Emi": 5287,
      "Gum": 5288,
      "HQ": 5289,
      "Jha": 5290,
      "Sab": 5291,
      "Whe": 5292,
      "Yum": 5293,
      "bio": 5294,
      "east": 5295,
      "nuclear": 5296,
      "sia": 5297,
      "wat": 5298,
      "ward": 5299,
      "temp": 5300,
      "any": 5301,
      "205": 5302,
      "asad": 5303,
      "adur": 5304,
      "loc": 5305,
      "lowing": 5306,
      "style": 5307,
      "very": 5308,
      "1858": 5309,
      "mathematics": 5310,
      "Aryan": 5311,
      "247": 5312,
      "mod": 5313,
      "ysHQ": 5314,
      "34549": 5315,
      "derabad": 5316,
      "Cambo": 5317,
      "Provisional": 5318,
      "Georg": 5319,
      "osysHQ": 5320,
      "Buddhist": 5321,
      "Navy": 5322,
      "Bahadur": 5323,
      "Trade": 5324,
      "Maldives": 5325,
      "Hyderabad": 5326,
      "Society": 5327,
      "FrontView": 5328,
      "InfosysHQ": 5329,
      "Totals": 5330,
      "Organization": 5331,
      "Thail": 5332,
      "02649": 5333,
      "Gumpa": 5334,
      "Yumthang": 5335,
      "InfosysHQFrontView": 5336,
      "Aurang": 5337,
      "Gra": 5338,
      "Gupta": 5339,
      "Lakh": 5340,
      "Missile": 5341,
      "PR": 5342,
      "Suk": 5343,
      "Tagore": 5344,
      "Wild": 5345,
      "hl": 5346,
      "vent": 5347,
      "ंजन": 5348,
      "अभी": 5349,
      "आकार": 5350,
      "आर्य": 5351,
      "इजरा": 5352,
      "इटे": 5353,
      "उस": 5354,
      "उद्योग": 5355,
      "उड़ी": 5356,
      "कह": 5357,
      "खि": 5358,
      "ग्": 5359,
      "चला": 5360,
      "णार्": 5361,
      "थम": 5362,
      "धिक": 5363,
      "फै": 5364,
      "बन्ध": 5365,
      "मक": 5366,
      "म्य": 5367,
      "रख": 5368,
      "वर": 5369,
      "शे": 5370,
      "शेष": 5371,
      "शाली": 5372,
      "षिक": 5373,
      "सों": 5374,
      "समा": 5375,
      "सभी": 5376,
      "िशा": 5377,
      "ियों": 5378,
      "ूल": 5379,
      "५०": 5380,
      "inated": 5381,
      "cium": 5382,
      "1937": 5383,
      "स्लि": 5384,
      "स्चेंज": 5385,
      "काश": 5386,
      "क्स": 5387,
      "प्रथम": 5388,
      "विवाद": 5389,
      "विभिन्न": 5390,
      "101": 5391,
      "नाइटे": 5392,
      "संरक्ष": 5393,
      "लाख": 5394,
      "ंगडम": 5395,
      "त्ता": 5396,
      "कोणार्": 5397,
      "144": 5398,
      "माता": 5399,
      "हिल्स": 5400,
      "सूर्य": 5401,
      "वाँ": 5402,
      "sep": 5403,
      "समान": 5404,
      "लेकर": 5405,
      "282": 5406,
      "किंगडम": 5407,
      "्याचल": 5408,
      "Art": 5409,
      "तीर्थ": 5410,
      "मुस्लि": 5411,
      "मीडिया": 5412,
      "mbers": 5413,
      "tae": 5414,
      "tains": 5415,
      "मान्य": 5416,
      "expect": 5417,
      "प्रदेशों": 5418,
      "वर्ती": 5419,
      "वर्ल्": 5420,
      "वर्तन": 5421,
      "म्प": 5422,
      "AAJ": 5423,
      "270": 5424,
      "भील": 5425,
      "पुराण": 5426,
      "545": 5427,
      "ंत्रिक": 5428,
      "मूल्य": 5429,
      "टियों": 5430,
      "ंदर": 5431,
      "पूर्वोत्तर": 5432,
      "विश्वविद्यालय": 5433,
      "संस्था": 5434,
      "Asher2006": 5435,
      "AsherAsher2006": 5436,
      "Century": 5437,
      "मोर": 5438,
      "worldbank": 5439,
      "सूचियाँ": 5440,
      "१९७": 5441,
      "१९८": 5442,
      "ording": 5443,
      "यूनाइटे": 5444,
      "तटवर्ती": 5445,
      "खासी": 5446,
      "Civiliz": 5447,
      "बहुमत": 5448,
      "बहुमूल्य": 5449,
      "तिहासिक": 5450,
      "मंत्रि": 5451,
      "Uttara": 5452,
      "Indici": 5453,
      "अपना": 5454,
      "चेरी": 5455,
      "तीसरी": 5456,
      "duction": 5457,
      "Bhag": 5458,
      "वार्षिक": 5459,
      "Bangladesa": 5460,
      "परिष": 5461,
      "दर्शन": 5462,
      "दृष्": 5463,
      "Quote": 5464,
      "Nepalia": 5465,
      "ओड़िशा": 5466,
      "policy": 5467,
      "सहायक": 5468,
      "वाले": 5469,
      "विस्तृत": 5470,
      "परीक्षण": 5471,
      "उष्णकटिबंधीय": 5472,
      "एक्स्चेंज": 5473,
      "कानून": 5474,
      "रत्न": 5475,
      "नरेन्द्र": 5476,
      "द्वितीय": 5477,
      "thehindu": 5478,
      "न्यायपालिका": 5479,
      "सल्तनत": 5480,
      "Aurangabad": 5481,
      "Wildlife": 5482,
      "उड़ीसा": 5483,
      "कोणार्क": 5484,
      "मुस्लिम": 5485,
      "expectancy": 5486,
      "वर्ल्ड": 5487,
      "यूनाइटेड": 5488,
      "1b": 5489,
      "Fran": 5490,
      "LI": 5491,
      "NGD": 5492,
      "Wile": 5493,
      "Witz": 5494,
      "bus": 5495,
      "set": 5496,
      "ues": 5497,
      "ोबार": 5498,
      "ంత": 5499,
      "ంతి": 5500,
      "ంటి": 5501,
      "అంట": 5502,
      "అహ్మ": 5503,
      "ఆకు": 5504,
      "ఆధీ": 5505,
      "ఆహార": 5506,
      "ఇవి": 5507,
      "ఎన్": 5508,
      "ఐరో": 5509,
      "ఒలిం": 5510,
      "కంట": 5511,
      "గతి": 5512,
      "జు": 5513,
      "ఞాన": 5514,
      "టం": 5515,
      "టా": 5516,
      "టన్": 5517,
      "టులు": 5518,
      "ట్యం": 5519,
      "ణులు": 5520,
      "తన": 5521,
      "నృ": 5522,
      "నలు": 5523,
      "పక్ష": 5524,
      "పద్ధ": 5525,
      "మ్య": 5526,
      "మతి": 5527,
      "యాలో": 5528,
      "లె": 5529,
      "వ్": 5530,
      "వహి": 5531,
      "వత్స": 5532,
      "సర": 5533,
      "సీ": 5534,
      "సర్": 5535,
      "స్రా": 5536,
      "హై": 5537,
      "హో": 5538,
      "ాంగ": 5539,
      "ెట్": 5540,
      "ense": 5541,
      "స్సా": 5542,
      "త్రిక": 5543,
      "ults": 5544,
      "క్తి": 5545,
      "पुदु": 5546,
      "నిర్": 5547,
      "నిర్వ": 5548,
      "నాయక": 5549,
      "నాట్యం": 5550,
      "విభ": 5551,
      "విజ్": 5552,
      "కులు": 5553,
      "308": 5554,
      "జాతి": 5555,
      "మాబాద్": 5556,
      "సంకీ": 5557,
      "సంబంధ": 5558,
      "సంవత్స": 5559,
      "రుపు": 5560,
      "రుగు": 5561,
      "exp": 5562,
      "పాత్ర": 5563,
      "స్థి": 5564,
      "డియా": 5565,
      "వంట": 5566,
      "వంటి": 5567,
      "మించ": 5568,
      "338": 5569,
      "34238": 5570,
      "గువ": 5571,
      "359": 5572,
      "తరాలు": 5573,
      "కోట్": 5574,
      "లామాబాద్": 5575,
      "ప్రాంతీయ": 5576,
      "పేర్లు": 5577,
      "స్తారు": 5578,
      "ట్లు": 5579,
      "మతాలు": 5580,
      "కూడు": 5581,
      "కృష్": 5582,
      "మధ్యప్రదేశ్": 5583,
      "ప్రాంతాల": 5584,
      "IND": 5585,
      "కొన్ని": 5586,
      "च्चेरी": 5587,
      "రాజ్యాంగ": 5588,
      "కార్య": 5589,
      "కారణంగా": 5590,
      "క్యాలె": 5591,
      "దేశాలలో": 5592,
      "మైనది": 5593,
      "రోడ్": 5594,
      "పరిపాలన": 5595,
      "పరిశ్ర": 5596,
      "వెబ్": 5597,
      "పోర్చు": 5598,
      "ప్రాచీ": 5599,
      "Countries": 5600,
      "ఉన్నారు": 5601,
      "నేషన్స్": 5602,
      "11934238": 5603,
      "cb11934238": 5604,
      "వ్యాపార": 5605,
      "స్థానం": 5606,
      "స్థానంలో": 5607,
      "మొదల": 5608,
      "निकोबार": 5609,
      "పీఠ": 5610,
      "based": 5611,
      "ఇస్లాం": 5612,
      "ఇస్లామాబాద్": 5613,
      "కలిగి": 5614,
      "పండుగలు": 5615,
      "నగరాలు": 5616,
      "జరిగిన": 5617,
      "పైగా": 5618,
      "ప్రజల": 5619,
      "కోర్టు": 5620,
      "అనేక": 5621,
      "పరంగా": 5622,
      "లవుదినాలు": 5623,
      "ప్రస్తుతం": 5624,
      "సంఘం": 5625,
      "పట్టణాలు": 5626,
      "Policy": 5627,
      "ఎక్కువగా": 5628,
      "పల్లవులు": 5629,
      "అభివృద్ధి": 5630,
      "అశోకుడు": 5631,
      "ఉంటాయి": 5632,
      "పతకాలు": 5633,
      "సంప్రదాయాలు": 5634,
      "గుప్త": 5635,
      "గోదావరి": 5636,
      "చండీగఢ్": 5637,
      "Francis": 5638,
      "Wiley": 5639,
      "Witzel": 5640,
      "ఆకుపచ్చ": 5641,
      "ఎన్ను": 5642,
      "ఐరోపా": 5643,
      "ఒలింపిక్": 5644,
      "पुदुच्चेरी": 5645,
      "విజ్ఞాన": 5646,
      "కృష్ణా": 5647,
      "క్యాలెండర్": 5648,
      "ప్రాచీన": 5649,
      "cb11934238p": 5650,
      "556": 5651,
      "Auth": 5652,
      "Che": 5653,
      "Cathedral": 5654,
      "Dire": 5655,
      "DNA": 5656,
      "Her": 5657,
      "Ku": 5658,
      "Multi": 5659,
      "ND": 5660,
      "Pla": 5661,
      "US": 5662,
      "Va": 5663,
      "Vid": 5664,
      "Women": 5665,
      "Ze": 5666,
      "cted": 5667,
      "fam": 5668,
      "gro": 5669,
      "kash": 5670,
      "mand": 5671,
      "pilg": 5672,
      "tin": 5673,
      "tus": 5674,
      "where": 5675,
      "yas": 5676,
      "ane": 5677,
      "rele": 5678,
      "1900": 5679,
      "icon": 5680,
      "leav": 5681,
      "rim": 5682,
      "enty": 5683,
      "FOOTNOTECraven1997": 5684,
      "Indians": 5685,
      "Def": 5686,
      "163": 5687,
      "sex": 5688,
      "veda": 5689,
      "therine": 5690,
      "Politics": 5691,
      "Seven": 5692,
      "Secret": 5693,
      "areas": 5694,
      "351": 5695,
      "market": 5696,
      "Energy": 5697,
      "rough": 5698,
      "operation": 5699,
      "Lotus": 5700,
      "influ": 5701,
      "Music": 5702,
      "Catherine": 5703,
      "appa": 5704,
      "third": 5705,
      "Victoria": 5706,
      "Rowland1970": 5707,
      "DikshitSchwartzberg2023": 5708,
      "Greek": 5709,
      "Ethnic": 5710,
      "Sabha": 5711,
      "5562": 5712,
      "Authority": 5713,
      "pilgrim": 5714,
      "313": 5715,
      "3000": 5716,
      "Ani": 5717,
      "Ang": 5718,
      "Black": 5719,
      "Cop": 5720,
      "Gil": 5721,
      "Mang": 5722,
      "Old": 5723,
      "TC": 5724,
      "jana": 5725,
      "ste": 5726,
      "onial": 5727,
      "ery": 5728,
      "1951": 5729,
      "admin": 5730,
      "angan": 5731,
      "1016": 5732,
      "ficient": 5733,
      "149": 5734,
      "CITEREFAsherTalbot2008": 5735,
      "upa": 5736,
      "Concise": 5737,
      "4217": 5738,
      "Profile": 5739,
      "Present": 5740,
      "cogni": 5741,
      "sapiens": 5742,
      "Animal": 5743,
      "Copland": 5744,
      "447": 5745,
      "Ae": 5746,
      "Gan": 5747,
      "Mac": 5748,
      "Names": 5749,
      "Peng": 5750,
      "mun": 5751,
      "sol": 5752,
      "sig": 5753,
      "zar": 5754,
      "ædia": 5755,
      "ources": 5756,
      "level": 5757,
      "adcast": 5758,
      "like": 5759,
      "chae": 5760,
      "deb": 5761,
      "157": 5762,
      "Hari": 5763,
      "289": 5764,
      "Historical": 5765,
      "lands": 5766,
      "353": 5767,
      "Cos": 5768,
      "others": 5769,
      "Odisha": 5770,
      "Encyclopædia": 5771,
      "Association": 5772,
      "Penguin": 5773,
      "adcasting": 5774,
      "220": 5775,
      "421": 5776,
      "7c": 5777,
      "Clo": 5778,
      "Dom": 5779,
      "Thar": 5780,
      "Tap": 5781,
      "This": 5782,
      "Wright": 5783,
      "buda": 5784,
      "daro": 5785,
      "eastern": 5786,
      "far": 5787,
      "hand": 5788,
      "rin": 5789,
      "sa": 5790,
      "sur": 5791,
      "serv": 5792,
      "uri": 5793,
      "zia": 5794,
      "ency": 5795,
      "hib": 5796,
      "tival": 5797,
      "erve": 5798,
      "alam": 5799,
      "amy": 5800,
      "amental": 5801,
      "ids": 5802,
      "lief": 5803,
      "urton": 5804,
      "lock": 5805,
      "chasing": 5806,
      "hek": 5807,
      "180": 5808,
      "184": 5809,
      "185": 5810,
      "contri": 5811,
      "1993": 5812,
      "umbers": 5813,
      "248": 5814,
      "templates": 5815,
      "nau": 5816,
      "hali": 5817,
      "Mohen": 5818,
      "Conservation": 5819,
      "vidian": 5820,
      "disc": 5821,
      "Mala": 5822,
      "milk": 5823,
      "millennium": 5824,
      "amese": 5825,
      "Publ": 5826,
      "Vij": 5827,
      "Prasad": 5828,
      "Manmohan": 5829,
      "Cynth": 5830,
      "Dutt": 5831,
      "vara": 5832,
      "employ": 5833,
      "Charan": 5834,
      "Blurton": 5835,
      "Dravidian": 5836,
      "including": 5837,
      "Mohenjo": 5838,
      "Cynthia": 5839,
      "700": 5840,
      "MD": 5841,
      "dd": 5842,
      "fa": 5843,
      "jp": 5844,
      "multi": 5845,
      "tial": 5846,
      "in2": 5847,
      "recogni": 5848,
      "cil": 5849,
      "composed": 5850,
      "1017": 5851,
      "weo": 5852,
      "geoh": 5853,
      "Pos": 5854,
      "coef": 5855,
      "bara": 5856,
      "bution": 5857,
      "Democracy": 5858,
      "rajbhasha": 5859,
      "direct": 5860,
      "constitutional": 5861,
      "geohack": 5862,
      "coefficient": 5863,
      "329": 5864,
      "424": 5865,
      "AD": 5866,
      "Alig": 5867,
      "Acc": 5868,
      "Chattis": 5869,
      "Lac": 5870,
      "Meri": 5871,
      "Out": 5872,
      "Rad": 5873,
      "bis": 5874,
      "band": 5875,
      "bhar": 5876,
      "hor": 5877,
      "ncb": 5878,
      "nlm": 5879,
      "iana": 5880,
      "pecial": 5881,
      "insulae": 5882,
      "thana": 5883,
      "especial": 5884,
      "lament": 5885,
      "198": 5886,
      "icum": 5887,
      "ams": 5888,
      "ular": 5889,
      "1356": 5890,
      "former": 5891,
      "nih": 5892,
      "del": 5893,
      "151": 5894,
      "Asiae": 5895,
      "posi": 5896,
      "251": 5897,
      "ake": 5898,
      "Poduc": 5899,
      "Map": 5900,
      "333": 5901,
      "iance": 5902,
      "Guzar": 5903,
      "territoria": 5904,
      "Sanscri": 5905,
      "akhanda": 5906,
      "France": 5907,
      "agarha": 5908,
      "Himacala": 5909,
      "Bihara": 5910,
      "Sinarum": 5911,
      "graphical": 5912,
      "ministri": 5913,
      "Maharastra": 5914,
      "Uttarakhanda": 5915,
      "geopoliticum": 5916,
      "Primi": 5917,
      "igarha": 5918,
      "Jharakhanda": 5919,
      "Rajasthana": 5920,
      "Odisa": 5921,
      "documents": 5922,
      "Arunachal": 5923,
      "Arunacala": 5924,
      "violence": 5925,
      "cadiva": 5926,
      "popularis": 5927,
      "Candigarha": 5928,
      "terrarum": 5929,
      "Supreme": 5930,
      "Panjaba": 5931,
      "mundi": 5932,
      "Hariyana": 5933,
      "Aligned": 5934,
      "Chattisagarha": 5935,
      "Laccadiva": 5936,
      "Meridiana": 5937,
      "ncbi": 5938,
      "especially": 5939,
      "Poduca": 5940,
      "Guzarata": 5941,
      "240": 5942,
      "Div": 5943,
      "Mong": 5944,
      "Pre": 5945,
      "Sau": 5946,
      "Up": 5947,
      "Zoro": 5948,
      "bit": 5949,
      "c8": 5950,
      "ckey": 5951,
      "date": 5952,
      "eff": 5953,
      "miss": 5954,
      "middle": 5955,
      "names": 5956,
      "numbers": 5957,
      "ंटे": 5958,
      "ंमार": 5959,
      "अभ": 5960,
      "अंट": 5961,
      "अजं": 5962,
      "अलावा": 5963,
      "आग": 5964,
      "आया": 5965,
      "इव": 5966,
      "इरा": 5967,
      "इंदि": 5968,
      "इंट": 5969,
      "उल": 5970,
      "उज्": 5971,
      "ऋग्व": 5972,
      "एफ": 5973,
      "एयर": 5974,
      "एजें": 5975,
      "ऐतिहासिक": 5976,
      "ओस": 5977,
      "ओमान": 5978,
      "ओआई": 5979,
      "ओडिया": 5980,
      "औसत": 5981,
      "कप": 5982,
      "कर्म": 5983,
      "कमिल": 5984,
      "खर": 5985,
      "खान": 5986,
      "खगोल": 5987,
      "गल": 5988,
      "ग़": 5989,
      "घन": 5990,
      "चंप": 5991,
      "छा": 5992,
      "छो": 5993,
      "जग": 5994,
      "जॉ": 5995,
      "जाना": 5996,
      "जलो": 5997,
      "जहाँ": 5998,
      "झी": 5999,
      "ठन": 6000,
      "ठा": 6001,
      "ठार": 6002,
      "डोग": 6003,
      "णे": 6004,
      "तः": 6005,
      "थु": 6006,
      "दों": 6007,
      "द्रा": 6008,
      "धता": 6009,
      "धोला": 6010,
      "नम": 6011,
      "नार": 6012,
      "पत्र": 6013,
      "पदी": 6014,
      "पड़ो": 6015,
      "पठार": 6016,
      "बु": 6017,
      "बलि": 6018,
      "बहरी": 6019,
      "भर": 6020,
      "भरा": 6021,
      "भरत": 6022,
      "मना": 6023,
      "मपु": 6024,
      "मंग": 6025,
      "म्या": 6026,
      "मृत": 6027,
      "मथु": 6028,
      "यण": 6029,
      "यल": 6030,
      "यमु": 6031,
      "यमन": 6032,
      "रिक": 6033,
      "रजवा": 6034,
      "लौ": 6035,
      "लद्": 6036,
      "वरण": 6037,
      "शल": 6038,
      "सौ": 6039,
      "ह्": 6040,
      "हम्": 6041,
      "िक्ष": 6042,
      "ुष": 6043,
      "ूदी": 6044,
      "ौपदी": 6045,
      "१०": 6046,
      "१३": 6047,
      "१६": 6048,
      "२४": 6049,
      "४०": 6050,
      "kid": 6051,
      "income": 6052,
      "thura": 6053,
      "केवल": 6054,
      "रामा": 6055,
      "रात्रि": 6056,
      "राधा": 6057,
      "राइल": 6058,
      "मेर": 6059,
      "ानु": 6060,
      "र्न": 6061,
      "र्मू": 6062,
      "स्तिक": 6063,
      "कामा": 6064,
      "काशी": 6065,
      "ootb": 6066,
      "क्ट": 6067,
      "ents": 6068,
      "linkid": 6069,
      "याँ": 6070,
      "यां": 6071,
      "यास": 6072,
      "agran": 6073,
      "agriculture": 6074,
      "प्रत्य": 6075,
      "प्रभु": 6076,
      "प्रयास": 6077,
      "विरो": 6078,
      "lipp": 6079,
      "तिरु": 6080,
      "तिमोर": 6081,
      "नास्तिक": 6082,
      "क्षम": 6083,
      "लाओस": 6084,
      "ेशिय": 6085,
      "साँची": 6086,
      "ताम": 6087,
      "uled": 6088,
      "FOOTNOTEHarle1994": 6089,
      "नेहर": 6090,
      "त्मा": 6091,
      "ility": 6092,
      "कोष": 6093,
      "राज्यसभा": 6094,
      "राज्यक्षेत्रों": 6095,
      "reserv": 6096,
      "conf": 6097,
      "मात्र": 6098,
      "सिल": 6099,
      "सिस": 6100,
      "सियों": 6101,
      "हिस्": 6102,
      "Demo": 6103,
      "17feb": 6104,
      "वासी": 6105,
      "वागढ़": 6106,
      "harm": 6107,
      "पाँच": 6108,
      "पाइन": 6109,
      "पावागढ़": 6110,
      "चीनी": 6111,
      "architecture": 6112,
      "समर्थ": 6113,
      "ष्ट्रीय": 6114,
      "करते": 6115,
      "286": 6116,
      "409": 6117,
      "निम्": 6118,
      "नियों": 6119,
      "लीपी": 6120,
      "जनसां": 6121,
      "जनपद": 6122,
      "बाग": 6123,
      "मिन": 6124,
      "मिला": 6125,
      "मित्व": 6126,
      "तीन": 6127,
      "मुद्रा": 6128,
      "मुर्मू": 6129,
      "मी2": 6130,
      "माना": 6131,
      "मानचित्र": 6132,
      "म्बर": 6133,
      "म्ब्रि": 6134,
      "tripura": 6135,
      "नीताल": 6136,
      "्राष्ट्रीय": 6137,
      "ell": 6138,
      "कृष्ण": 6139,
      "देखा": 6140,
      "देहरा": 6141,
      "धर्मनिरपेक्ष": 6142,
      "द्यनाथ": 6143,
      "पीएम": 6144,
      "होली": 6145,
      "होते": 6146,
      "गणित": 6147,
      "महाबलि": 6148,
      "महात्मा": 6149,
      "महाजनपद": 6150,
      "कुवै": 6151,
      "संघर्ष": 6152,
      "रेखा": 6153,
      "इसकी": 6154,
      "ज्जि": 6155,
      "वीरा": 6156,
      "398": 6157,
      "miri": 6158,
      "तकनी": 6159,
      "दाबाद": 6160,
      "स्थानीय": 6161,
      "ब्रह्": 6162,
      "वनेश्वर": 6163,
      "वनवर्ल्ड": 6164,
      "१९६": 6165,
      "१९५०": 6166,
      "स्वरूप": 6167,
      "चलचित्र": 6168,
      "तुर्": 6169,
      "मैकमिल": 6170,
      "trade": 6171,
      "तटरक्ष": 6172,
      "मालिया": 6173,
      "Reserve": 6174,
      "आईडी": 6175,
      "यहूदी": 6176,
      "टेली": 6177,
      "बंगलोर": 6178,
      "दून": 6179,
      "संगठन": 6180,
      "गोवा": 6181,
      "वैद्यनाथ": 6182,
      "क्रय": 6183,
      "डीओआई": 6184,
      "Kashmiri": 6185,
      "एसएन": 6186,
      "बोडिया": 6187,
      "मार्शल": 6188,
      "cutta": 6189,
      "निर्धन": 6190,
      "FOOTNOTEStein1998119": 6191,
      "देवनाग": 6192,
      "देवघर": 6193,
      "वायुसेना": 6194,
      "Trust": 6195,
      "अमर": 6196,
      "संसदीय": 6197,
      "Arabia": 6198,
      "kingdom": 6199,
      "सोम": 6200,
      "सोवियत": 6201,
      "सोमालिया": 6202,
      "सफल": 6203,
      "ानेर": 6204,
      "महासागरीय": 6205,
      "Ludden2014": 6206,
      "पारसी": 6207,
      "भोपाल": 6208,
      "संबंधी": 6209,
      "Hindustani": 6210,
      "दशहरा": 6211,
      "नवरात्रि": 6212,
      "बनाने": 6213,
      "Exchange": 6214,
      "default": 6215,
      "hindirele": 6216,
      "मौर्य": 6217,
      "स्थापना": 6218,
      "स्थापित": 6219,
      "अल्प": 6220,
      "अल्पाइन": 6221,
      "कन्नड": 6222,
      "तेलुगु": 6223,
      "२००४": 6224,
      "zette": 6225,
      "Subra": 6226,
      "Akbar": 6227,
      "Purchasing": 6228,
      "शहरों": 6229,
      "दिवाली": 6230,
      "इस्लामी": 6231,
      "स्वामित्व": 6232,
      "पटना": 6233,
      "राजधानियाँ": 6234,
      "अन्तर्राष्ट्रीय": 6235,
      "literacy": 6236,
      "जंघा": 6237,
      "सहायता": 6238,
      "कंचन": 6239,
      "क़तर": 6240,
      "कैम्ब्रि": 6241,
      "भुवनेश्वर": 6242,
      "वियतनाम": 6243,
      "पीपीपी": 6244,
      "Sindoor": 6245,
      "index1": 6246,
      "नैनीताल": 6247,
      "ान्मार": 6248,
      "भाषी": 6249,
      "अमरीका": 6250,
      "पब्लिकेश": 6251,
      "astrian": 6252,
      "Calcutta": 6253,
      "Terra": 6254,
      "majority": 6255,
      "ख्यिकी": 6256,
      "द्रौपदी": 6257,
      "पहाड़ी": 6258,
      "नियंत्र": 6259,
      "Maurya": 6260,
      "अफ़्रीका": 6261,
      "अहमदाबाद": 6262,
      "उदयपुर": 6263,
      "नदियाँ": 6264,
      "थाईलैंड": 6265,
      "महानगर": 6266,
      "रुपया": 6267,
      "१९४७": 6268,
      "आईएसएसएन": 6269,
      "Young2015": 6270,
      "ConinghamYoung2015": 6271,
      "Current": 6272,
      "Philipp": 6273,
      "प्रभाव": 6274,
      "प्रवेशद्वार": 6275,
      "साइप्रस": 6276,
      "इजरायल": 6277,
      "म्यान्मार": 6278,
      "संरक्षित": 6279,
      "दृष्टि": 6280,
      "Divis": 6281,
      "Zoroastrian": 6282,
      "अंटार्कटिका": 6283,
      "अजंता": 6284,
      "इराक़": 6285,
      "इंदिरा": 6286,
      "इंटर": 6287,
      "उज्जैन": 6288,
      "ऋग्वेद": 6289,
      "खानपान": 6290,
      "खगोलशास्त्र": 6291,
      "घनत्व": 6292,
      "चंपानेर": 6293,
      "छोटे": 6294,
      "जलोढ़": 6295,
      "डोगरी": 6296,
      "धोलावीरा": 6297,
      "पड़ोसी": 6298,
      "बहरीन": 6299,
      "मपुत्र": 6300,
      "मंगोल": 6301,
      "म्यांमार": 6302,
      "मथुरा": 6303,
      "रजवाड़े": 6304,
      "लद्दाख": 6305,
      "हम्पी": 6306,
      "रामायण": 6307,
      "राधाकृष्ण": 6308,
      "कामाख्या": 6309,
      "ootball": 6310,
      "तिरुवन": 6311,
      "नास्तिकता": 6312,
      "17feb14": 6313,
      "समर्थन": 6314,
      "जनसांख्यिकी": 6315,
      "देहरादून": 6316,
      "पीएमआईडी": 6317,
      "महाबलिपुरम": 6318,
      "कुवैत": 6319,
      "ब्रह्मपुत्र": 6320,
      "मैकमिलन": 6321,
      "तटरक्षक": 6322,
      "निर्धनता": 6323,
      "देवनागरी": 6324,
      "hindirelease": 6325,
      "कंचनजंघा": 6326,
      "कैम्ब्रिज": 6327,
      "पब्लिकेशन्स": 6328,
      "राधाकृष्णन": 6329,
      "319": 6330,
      "312": 6331,
      "340": 6332,
      "428": 6333,
      "tle": 6334,
      "organ": 6335,
      "istered": 6336,
      "atch": 6337,
      "1320": 6338,
      "Related": 6339,
      "227": 6340,
      "trial": 6341,
      "546": 6342,
      "1208": 6343,
      "486": 6344,
      "profile": 6345,
      "Religious": 6346,
      "Bhut": 6347,
      "economictimes": 6348,
      "different": 6349,
      "Himalayas": 6350,
      "Northeast": 6351,
      "curity": 6352,
      "ओडिशा": 6353,
      "atabase": 6354,
      "Aksai": 6355,
      "Posse": 6356,
      "Jo": 6357,
      "NG": 6358,
      "TO": 6359,
      "ner": 6360,
      "vari": 6361,
      "enter": 6362,
      "197": 6363,
      "acts": 6364,
      "uris": 6365,
      "held": 6366,
      "305": 6367,
      "280": 6368,
      "before": 6369,
      "1964": 6370,
      "1968": 6371,
      "uccess": 6372,
      "337": 6373,
      "ourts": 6374,
      "inema": 6375,
      "docs": 6376,
      "Commer": 6377,
      "Prospe": 6378,
      "hakrishnan": 6379,
      "Broadcasting": 6380,
      "library": 6381,
      "Emblem": 6382,
      "Radhakrishnan": 6383,
      "Prospects": 6384,
      "212": 6385,
      "674": 6386,
      "Cur": 6387,
      "Dr": 6388,
      "Eigh": 6389,
      "Egy": 6390,
      "G4": 6391,
      "Ira": 6392,
      "Korea": 6393,
      "Lear": 6394,
      "Mor": 6395,
      "Nam": 6396,
      "Pic": 6397,
      "Sa": 6398,
      "Wood": 6399,
      "bro": 6400,
      "court": 6401,
      "cricket": 6402,
      "ded": 6403,
      "ez": 6404,
      "factbook": 6405,
      "ker": 6406,
      "oc": 6407,
      "pic": 6408,
      "pture": 6409,
      "pani": 6410,
      "shall": 6411,
      "ude": 6412,
      "when": 6413,
      "yer": 6414,
      "wild": 6415,
      "peop": 6416,
      "orge": 6417,
      "anc": 6418,
      "til": 6419,
      "these": 6420,
      "ison": 6421,
      "isine": 6422,
      "cities": 6423,
      "190": 6424,
      "ased": 6425,
      "nold": 6426,
      "ush": 6427,
      "lower": 6428,
      "vey": 6429,
      "stre": 6430,
      "unia": 6431,
      "tice": 6432,
      "rock": 6433,
      "divisions": 6434,
      "member": 6435,
      "pub": 6436,
      "results": 6437,
      "ayana": 6438,
      "224": 6439,
      "274": 6440,
      "ishing": 6441,
      "party": 6442,
      "342": 6443,
      "566": 6444,
      "461": 6445,
      "does": 6446,
      "ctions": 6447,
      "Sovereign": 6448,
      "graphics": 6449,
      "ship": 6450,
      "sphere": 6451,
      "topics": 6452,
      "Bibcode": 6453,
      "legis": 6454,
      "estimated": 6455,
      "Gaṇ": 6456,
      "Carnatic": 6457,
      "PMC": 6458,
      "PMID": 6459,
      "festival": 6460,
      "Finance": 6461,
      "Twenty": 6462,
      "Rigveda": 6463,
      "Sikhism": 6464,
      "Tarlo": 6465,
      "Regional": 6466,
      "Wheel": 6467,
      "Demographics": 6468,
      "Egypt": 6469,
      "Learning": 6470,
      "peoples": 6471,
      "AS": 6472,
      "Ber": 6473,
      "Bure": 6474,
      "DD": 6475,
      "Global": 6476,
      "Ken": 6477,
      "LS": 6478,
      "Latin": 6479,
      "Med": 6480,
      "SU": 6481,
      "Tu": 6482,
      "W00": 6483,
      "Water": 6484,
      "XLS": 6485,
      "bed": 6486,
      "gana": 6487,
      "gAAQBAJ": 6488,
      "mana": 6489,
      "tats": 6490,
      "zed": 6491,
      "zone": 6492,
      "అణ": 6493,
      "అథ": 6494,
      "అని": 6495,
      "అల్": 6496,
      "ఆక్ర": 6497,
      "ఈస్": 6498,
      "ఉర్": 6499,
      "ఎడ": 6500,
      "ఎల": 6501,
      "ఐక్య": 6502,
      "గల్": 6503,
      "గ్రీ": 6504,
      "చవి": 6505,
      "జపా": 6506,
      "టిక": 6507,
      "డం": 6508,
      "డాల": 6509,
      "ఢా": 6510,
      "తాల": 6511,
      "తంగా": 6512,
      "థా": 6513,
      "థిక": 6514,
      "దూ": 6515,
      "దరా": 6516,
      "దంబ": 6517,
      "దక్క": 6518,
      "ధా": 6519,
      "ధు": 6520,
      "పర్": 6521,
      "పతా": 6522,
      "పది": 6523,
      "పరీ": 6524,
      "పర్యా": 6525,
      "ఫి": 6526,
      "బల": 6527,
      "బే": 6528,
      "బై": 6529,
      "బంగ": 6530,
      "భౌ": 6531,
      "మర": 6532,
      "మార": 6533,
      "మహి": 6534,
      "యూ": 6535,
      "రష": 6536,
      "రల్": 6537,
      "రకాల": 6538,
      "వో": 6539,
      "వార్": 6540,
      "వాల్": 6541,
      "వలం": 6542,
      "వత్రిక": 6543,
      "వడం": 6544,
      "శక": 6545,
      "శె": 6546,
      "శకు": 6547,
      "సల": 6548,
      "సో": 6549,
      "హర": 6550,
      "ీం": 6551,
      "ుకు": 6552,
      "ూపం": 6553,
      "ెలు": 6554,
      "ోత్": 6555,
      "ౌర": 6556,
      "enumeration": 6557,
      "20A": 6558,
      "20MD": 6559,
      "isni": 6560,
      "lative": 6561,
      "itia": 6562,
      "భారతం": 6563,
      "ribution": 6564,
      "దేశానికి": 6565,
      "సాహి": 6566,
      "ర్కొ": 6567,
      "ర్జె": 6568,
      "ర్నేషనల్": 6569,
      "రాయ": 6570,
      "రాతి": 6571,
      "ప్రారం": 6572,
      "ప్రీం": 6573,
      "లోన్": 6574,
      "లోమీ": 6575,
      "unity": 6576,
      "నిడ్": 6577,
      "నియన్": 6578,
      "put": 6579,
      "ముద్ర": 6580,
      "1526": 6581,
      "సింగ్": 6582,
      "విష్ణ": 6583,
      "వివరాలు": 6584,
      "తిరుగు": 6585,
      "త్త": 6586,
      "త్వా": 6587,
      "త్వం": 6588,
      "చిరు": 6589,
      "చిహ్": 6590,
      "జాతులు": 6591,
      "వాణి": 6592,
      "మాన": 6593,
      "మాట్": 6594,
      "కాక": 6595,
      "కాహార": 6596,
      "భారతీయులు": 6597,
      "కిలోమీ": 6598,
      "పాద": 6599,
      "పాక్": 6600,
      "పాటు": 6601,
      "పుట్టు": 6602,
      "సామీ": 6603,
      "ndl": 6604,
      "trillion": 6605,
      "టిలో": 6606,
      "నేరే": 6607,
      "మితి": 6608,
      "వర్ష": 6609,
      "ives": 6610,
      "భాషా": 6611,
      "5457": 6612,
      "మూర్": 6613,
      "మూడు": 6614,
      "కేవలం": 6615,
      "రాజు": 6616,
      "356": 6617,
      "7080": 6618,
      "లాడే": 6619,
      "లాహో": 6620,
      "స్తులు": 6621,
      "చేర": 6622,
      "ఆర్థిక": 6623,
      "కాలే": 6624,
      "375457": 6625,
      "చెట్టు": 6626,
      "చెందు": 6627,
      "చెందిన": 6628,
      "ప్ల": 6629,
      "యుగ": 6630,
      "హాకీ": 6631,
      "కూడిన": 6632,
      "పాలిటన్": 6633,
      "దక్షిణాన": 6634,
      "news18": 6635,
      "కొంక": 6636,
      "కొత్త": 6637,
      "మెట్రో": 6638,
      "తువు": 6639,
      "సంస్కరణ": 6640,
      "బ్రె": 6641,
      "సుప్రీం": 6642,
      "గణి": 6643,
      "సభ్య": 6644,
      "రైళ్": 6645,
      "లేని": 6646,
      "బాదు": 6647,
      "బాటు": 6648,
      "మహాసముద్రం": 6649,
      "వెల్ల": 6650,
      "స్వామ్య": 6651,
      "సాంప్రదా": 6652,
      "సింధ్": 6653,
      "నేపాలీ": 6654,
      "రెండ": 6655,
      "హ్వాల్": 6656,
      "క్రీడలలో": 6657,
      "మైథి": 6658,
      "Punjabi": 6659,
      "135375457": 6660,
      "పంజాబీ": 6661,
      "UNHD": 6662,
      "కాంగ్రెస్": 6663,
      "pollu": 6664,
      "విస్తరి": 6665,
      "ఇంగ్లీష్": 6666,
      "viaf": 6667,
      "అస్సామీ": 6668,
      "బాంబే": 6669,
      "ళ్ళ": 6670,
      "FOOTNOTEAsherTalbot200853": 6671,
      "PCA": 6672,
      "Tables": 6673,
      "రూప": 6674,
      "సార్వత్రిక": 6675,
      "served": 6676,
      "వందేమాతరం": 6677,
      "widely": 6678,
      "జన్మ": 6679,
      "న్యాయ": 6680,
      "ఫైల్": 6681,
      "భరత": 6682,
      "క్టోరల్": 6683,
      "విద్యుత్": 6684,
      "గుర్తి": 6685,
      "catalogue": 6686,
      "పార్లమెంటరీ": 6687,
      "మరాఠీ": 6688,
      "BIBS": 6689,
      "20833": 6690,
      "Ahmedabad": 6691,
      "అక్షరాస్యత": 6692,
      "ఇంటర్నేషనల్": 6693,
      "జంతువు": 6694,
      "నడిపించ": 6695,
      "సహకార": 6696,
      "సామాను": 6697,
      "పూర్వోత్": 6698,
      "మాత్రం": 6699,
      "కింగ్డమ్": 6700,
      "ప్పటికీ": 6701,
      "జనగణమన": 6702,
      "సాంకేతిక": 6703,
      "61389": 6704,
      "498576": 6705,
      "LIBR": 6706,
      "NGDPD": 6707,
      "ఆధీనంలో": 6708,
      "ఆహారం": 6709,
      "సర్వీ": 6710,
      "హైదరా": 6711,
      "విభజన": 6712,
      "స్థితి": 6713,
      "రాజ్యాంగం": 6714,
      "రోడ్డు": 6715,
      "పోర్చుగీ": 6716,
      "పీఠభూ": 6717,
      "administered": 6718,
      "Bureau": 6719,
      "DDW00": 6720,
      "tatsama": 6721,
      "అథారిటీ": 6722,
      "ఈస్ట్": 6723,
      "ఉర్దూ": 6724,
      "ఎలక్టోరల్": 6725,
      "ఢాకా": 6726,
      "పరీక్ష": 6727,
      "20MDDS": 6728,
      "సాహిత్యం": 6729,
      "తిరుగుబాటు": 6730,
      "వాణిజ్య": 6731,
      "మాట్లాడే": 6732,
      "పుట్టుపూర్వోత్": 6733,
      "నేరేడు": 6734,
      "లాహోర్": 6735,
      "చెందుతున్న": 6736,
      "కొంకణి": 6737,
      "మెట్రోపాలిటన్": 6738,
      "సాంప్రదాయ": 6739,
      "UNHDR": 6740,
      "BIBSYS": 6741,
      "DDW00C": 6742,
      "పుట్టుపూర్వోత్తరాలు": 6743,
      "226": 6744,
      "374": 6745,
      "Ac": 6746,
      "Brid": 6747,
      "Sat": 6748,
      "gas": 6749,
      "ster": 6750,
      "uit": 6751,
      "udi": 6752,
      "vid": 6753,
      "ants": 6754,
      "arb": 6755,
      "ere": 6756,
      "cir": 6757,
      "194": 6758,
      "195": 6759,
      "athi": 6760,
      "ently": 6761,
      "ads": 6762,
      "resources": 6763,
      "igration": 6764,
      "Univers": 6765,
      "408": 6766,
      "201412": 6767,
      "Movement": 6768,
      "mark": 6769,
      "489": 6770,
      "Marathi": 6771,
      "millan": 6772,
      "cause": 6773,
      "Since": 6774,
      "Konk": 6775,
      "Brown": 6776,
      "Burton": 6777,
      "Online": 6778,
      "ground": 6779,
      "Macmillan": 6780,
      "Bridget": 6781,
      "178": 6782,
      "225": 6783,
      "550": 6784,
      "Bel": 6785,
      "DA": 6786,
      "Dho": 6787,
      "Dines": 6788,
      "FT": 6789,
      "Far": 6790,
      "Gr": 6791,
      "Gate": 6792,
      "Gran": 6793,
      "Im": 6794,
      "Iain": 6795,
      "Mol": 6796,
      "Onew": 6797,
      "Red": 6798,
      "Redi": 6799,
      "Set": 6800,
      "Sun": 6801,
      "Sard": 6802,
      "VII": 6803,
      "Vallis": 6804,
      "XVII": 6805,
      "curr": 6806,
      "dub": 6807,
      "famil": 6808,
      "ght": 6809,
      "mas": 6810,
      "ot": 6811,
      "pass": 6812,
      "vae": 6813,
      "want": 6814,
      "zon": 6815,
      "zari": 6816,
      "iae": 6817,
      "orship": 6818,
      "andia": 6819,
      "onis": 6820,
      "arian": 6821,
      "through": 6822,
      "alli": 6823,
      "ofker": 6824,
      "itum": 6825,
      "1988": 6826,
      "uscript": 6827,
      "ides": 6828,
      "lii": 6829,
      "urus": 6830,
      "FOOTNOTESharma": 6831,
      "roban": 6832,
      "Southeast": 6833,
      "mplum": 6834,
      "puli": 6835,
      "183": 6836,
      "haw": 6837,
      "1500": 6838,
      "maximae": 6839,
      "Decc": 6840,
      "CITEREFDyson2018": 6841,
      "abs": 6842,
      "ability": 6843,
      "indic": 6844,
      "aks": 6845,
      "being": 6846,
      "tatio": 6847,
      "Populi": 6848,
      "within": 6849,
      "Singapura": 6850,
      "Maii": 6851,
      "Templum": 6852,
      "Pau": 6853,
      "qui": 6854,
      "arden": 6855,
      "avi": 6856,
      "Minority": 6857,
      "Dellii": 6858,
      "Isra": 6859,
      "primus": 6860,
      "culpture": 6861,
      "Camera": 6862,
      "ative": 6863,
      "Antiqua": 6864,
      "achia": 6865,
      "tence": 6866,
      "Bengalurus": 6867,
      "subject": 6868,
      "continens": 6869,
      "summer": 6870,
      "Nova": 6871,
      "Member": 6872,
      "Civitas": 6873,
      "domain": 6874,
      "dependent": 6875,
      "Lower": 6876,
      "Ramayana": 6877,
      "species": 6878,
      "News18": 6879,
      "getarian": 6880,
      "Miche": 6881,
      "Syria": 6882,
      "Assamia": 6883,
      "Konark": 6884,
      "Earliest": 6885,
      "saeculo": 6886,
      "ederalis": 6887,
      "Orientalis": 6888,
      "cognatae": 6889,
      "Bruneium": 6890,
      "Gulzari": 6891,
      "foederalis": 6892,
      "Capsae": 6893,
      "araja": 6894,
      "London": 6895,
      "Swaran": 6896,
      "increased": 6897,
      "Sanctus": 6898,
      "Genticum": 6899,
      "tentrionalis": 6900,
      "Lakhnau": 6901,
      "Civilizatio": 6902,
      "influen": 6903,
      "Taproban": 6904,
      "Malaesia": 6905,
      "Upper": 6906,
      "Curry": 6907,
      "Dinesh": 6908,
      "Iainismus": 6909,
      "Oneworld": 6910,
      "Rediff": 6911,
      "Sardar": 6912,
      "family": 6913,
      "Deccan": 6914,
      "Taprobane": 6915,
      "854": 6916,
      "Aut": 6917,
      "Id": 6918,
      "Medi": 6919,
      "a7": 6920,
      "eval": 6921,
      "find": 6922,
      "gu": 6923,
      "gad": 6924,
      "own": 6925,
      "ption": 6926,
      "20India": 6927,
      "1901": 6928,
      "ets": 6929,
      "etnam": 6930,
      "aten": 6931,
      "lib": 6932,
      "cher": 6933,
      "fig": 6934,
      "ules": 6935,
      "170": 6936,
      "CITEREFLibrary": 6937,
      "30MKI": 6938,
      "257": 6939,
      "ctri": 6940,
      "nav": 6941,
      "annual": 6942,
      "PPC": 6943,
      "orders": 6944,
      "publications": 6945,
      "Vietnam": 6946,
      "vanced": 6947,
      "Council": 6948,
      "edition": 6949,
      "ctorate": 6950,
      "Barbara": 6951,
      "Express": 6952,
      "defence": 6953,
      "topic": 6954,
      "disputes": 6955,
      "laws": 6956,
      "distribution": 6957,
      "Defence": 6958,
      "Division": 6959,
      "Medieval": 6960,
      "980": 6961,
      "Factbook": 6962,
      "FHA": 6963,
      "GE": 6964,
      "If": 6965,
      "Mand": 6966,
      "P13": 6967,
      "Sim": 6968,
      "TS": 6969,
      "Vice": 6970,
      "ctive": 6971,
      "kमी2": 6972,
      "nations": 6973,
      "pc": 6974,
      "ued": 6975,
      "ārata": 6976,
      "ंच": 6977,
      "ंपर": 6978,
      "अमान्य": 6979,
      "अक्ट": 6980,
      "आठ": 6981,
      "आत": 6982,
      "आप": 6983,
      "आम": 6984,
      "आर": 6985,
      "आगमन": 6986,
      "आकर्": 6987,
      "आश्र": 6988,
      "औप": 6989,
      "कव": 6990,
      "खे": 6991,
      "गै": 6992,
      "गों": 6993,
      "चो": 6994,
      "चित": 6995,
      "छोड़": 6996,
      "जट": 6997,
      "जना": 6998,
      "ट्": 6999,
      "टना": 7000,
      "डो": 7001,
      "दौ": 7002,
      "ध्व": 7003,
      "नदियों": 7004,
      "पण": 7005,
      "पॉ": 7006,
      "पमान": 7007,
      "पिय": 7008,
      "फु": 7009,
      "बह": 7010,
      "बान": 7011,
      "बाल": 7012,
      "बआर्": 7013,
      "बजट": 7014,
      "मन्": 7015,
      "महि": 7016,
      "मरु": 7017,
      "यिका": 7018,
      "रही": 7019,
      "रंगा": 7020,
      "लै": 7021,
      "लब्": 7022,
      "लगा": 7023,
      "लड़ा": 7024,
      "वत": 7025,
      "वान": 7026,
      "वस्त": 7027,
      "वणी": 7028,
      "वाली": 7029,
      "सत्य": 7030,
      "ीकरण": 7031,
      "ुनि": 7032,
      "ेक": 7033,
      "्ट": 7034,
      "१२": 7035,
      "१७": 7036,
      "२२": 7037,
      "onal": 7038,
      "राई": 7039,
      "ume": 7040,
      "र्स": 7041,
      "काइव": 7042,
      "usel": 7043,
      "कीय": 7044,
      "प्रचल": 7045,
      "प्रदान": 7046,
      "विंग": 7047,
      "विंध": 7048,
      "विधा": 7049,
      "सेपिय": 7050,
      "नागा": 7051,
      "standard": 7052,
      "राजनै": 7053,
      "लाइ": 7054,
      "साह": 7055,
      "chand": 7056,
      "ताओं": 7057,
      "तांत्रिक": 7058,
      "तापमान": 7059,
      "पुड़ा": 7060,
      "FOOTNOTEKulkeRothermund": 7061,
      "FOOTNOTEMinistry": 7062,
      "FOOTNOTEWolpert2003": 7063,
      "त्पत्ति": 7064,
      "कोई": 7065,
      "havan": 7066,
      "ष्क": 7067,
      "ष्म": 7068,
      "वास": 7069,
      "वास्त": 7070,
      "चीफ": 7071,
      "समझ": 7072,
      "रीबी": 7073,
      "किए": 7074,
      "किये": 7075,
      "40px": 7076,
      "्यादा": 7077,
      "ज़र्व": 7078,
      "बाहरी": 7079,
      "मिलि": 7080,
      "कारी": 7081,
      "मुक्त": 7082,
      "मीणा": 7083,
      "मनमोहन": 7084,
      "मान्यता": 7085,
      "उत्पत्ति": 7086,
      "तरह": 7087,
      "सरे": 7088,
      "कृत": 7089,
      "कृतिक": 7090,
      "ोगा": 7091,
      "जीत": 7092,
      "जीडी": 7093,
      "होमो": 7094,
      "हरि": 7095,
      "हरे": 7096,
      "358": 7097,
      "अनुसूची": 7098,
      "सरकारें": 7099,
      "रेड": 7100,
      "वेस्ट": 7101,
      "वेबआर्": 7102,
      "सेनाएँ": 7103,
      "दाय": 7104,
      "मोड़ा": 7105,
      "व्यंजन": 7106,
      "उपलब्": 7107,
      "रिज़र्व": 7108,
      "मध्यम": 7109,
      "सम्बन्ध": 7110,
      "टेम्प": 7111,
      "Media": 7112,
      "पेन": 7113,
      "जिसका": 7114,
      "consid": 7115,
      "लोकतांत्रिक": 7116,
      "बोली": 7117,
      "प्रधानमन्": 7118,
      "पार्टियों": 7119,
      "भागवत": 7120,
      "कार्यालय": 7121,
      "योग्य": 7122,
      "उत्पादन": 7123,
      "बढ़कर": 7124,
      "पारंपर": 7125,
      "शुरु": 7126,
      "शुष्क": 7127,
      "बनाई": 7128,
      "अल्मोड़ा": 7129,
      "२०१४": 7130,
      "spread": 7131,
      "लोगों": 7132,
      "मलयाली": 7133,
      "Flora": 7134,
      "सतपुड़ा": 7135,
      "विकसित": 7136,
      "विषयों": 7137,
      "विस्तार": 7138,
      "अमरीकी": 7139,
      "पोर्टल": 7140,
      "LCCN": 7141,
      "शैली": 7142,
      "सशस्": 7143,
      "EbFHA": 7144,
      "animal": 7145,
      "voyage": 7146,
      "अर्ध": 7147,
      "ग्रीष्म": 7148,
      "जैसे": 7149,
      "बहाई": 7150,
      "प्रशासनिक": 7151,
      "पुर्तगाल": 7152,
      "माध्यम": 7153,
      "निवेशिक": 7154,
      "features": 7155,
      "घोषणा": 7156,
      "उसके": 7157,
      "कहते": 7158,
      "समाप्त": 7159,
      "परिषद": 7160,
      "प्रत्येक": 7161,
      "नेहरू": 7162,
      "नियंत्रण": 7163,
      "महानगरीय": 7164,
      "Possehl": 7165,
      "P1308": 7166,
      "अक्टूबर": 7167,
      "आठवीं": 7168,
      "आश्रय": 7169,
      "औपनिवेशिक": 7170,
      "गोंड": 7171,
      "फुट": 7172,
      "महिला": 7173,
      "मरुस्थल": 7174,
      "वस्तु": 7175,
      "ुनिस्ट": 7176,
      "uselang": 7177,
      "विधायिका": 7178,
      "राजनैतिक": 7179,
      "मिलियन": 7180,
      "जीडीपी": 7181,
      "वेबआर्काइव": 7182,
      "उपलब्धता": 7183,
      "टेम्पलेट": 7184,
      "प्रधानमन्त्री": 7185,
      "पारंपरिक": 7186,
      "EbFHAQAAQBAJ": 7187,
      "439": 7188,
      "Batt": 7189,
      "Cup": 7190,
      "Cav": 7191,
      "Fe": 7192,
      "Gond": 7193,
      "Hel": 7194,
      "Land": 7195,
      "Mc": 7196,
      "Pala": 7197,
      "Si": 7198,
      "Saint": 7199,
      "Srin": 7200,
      "Trit": 7201,
      "Thali": 7202,
      "Uz": 7203,
      "Ven": 7204,
      "bour": 7205,
      "ger": 7206,
      "hur": 7207,
      "ikistan": 7208,
      "kb": 7209,
      "katar": 7210,
      "lists": 7211,
      "met": 7212,
      "pi": 7213,
      "sus": 7214,
      "series": 7215,
      "tre": 7216,
      "v2": 7217,
      "vic": 7218,
      "ws": 7219,
      "zil": 7220,
      "ैण्ड": 7221,
      "orn": 7222,
      "orama": 7223,
      "tection": 7224,
      "thing": 7225,
      "last": 7226,
      "eduled": 7227,
      "omet": 7228,
      "asian": 7229,
      "across": 7230,
      "lege": 7231,
      "ample": 7232,
      "lines": 7233,
      "refor": 7234,
      "ately": 7235,
      "angra": 7236,
      "angha": 7237,
      "789": 7238,
      "wever": 7239,
      "today": 7240,
      "veri": 7241,
      "verage": 7242,
      "fort": 7243,
      "deci": 7244,
      "see": 7245,
      "akrishnan": 7246,
      "Armenia": 7247,
      "become": 7248,
      "parties": 7249,
      "Sea": 7250,
      "Sele": 7251,
      "Security": 7252,
      "1969": 7253,
      "lled": 7254,
      "382": 7255,
      "vira": 7256,
      "Shangha": 7257,
      "Partition": 7258,
      "Pakistani": 7259,
      "vention": 7260,
      "gham": 7261,
      "site": 7262,
      "military": 7263,
      "Eurasian": 7264,
      "After": 7265,
      "Insur": 7266,
      "rights": 7267,
      "texts": 7268,
      "Davidson": 7269,
      "झारखण्ड": 7270,
      "aceu": 7271,
      "ambia": 7272,
      "Flood": 7273,
      "Robb2011": 7274,
      "Balakrishnan": 7275,
      "violent": 7276,
      "Demonym": 7277,
      "baki": 7278,
      "Collingham": 7279,
      "Forests": 7280,
      "Madras": 7281,
      "Georgia": 7282,
      "contribu": 7283,
      "discuss": 7284,
      "Mongolia": 7285,
      "harmaceu": 7286,
      "kingdoms": 7287,
      "Bhutan": 7288,
      "Eighth": 7289,
      "Molnar": 7290,
      "Michell": 7291,
      "Battle": 7292,
      "Caves": 7293,
      "Tritsch": 7294,
      "Uzbe": 7295,
      "Venkatar": 7296,
      "Shanghai": 7297,
      "Venkataraman": 7298,
      "5196": 7299,
      "825": 7300,
      "Age": 7301,
      "Cl": 7302,
      "Thak": 7303,
      "WP": 7304,
      "dna": 7305,
      "mism": 7306,
      "success": 7307,
      "hip": 7308,
      "Intro": 7309,
      "reach": 7310,
      "ices": 7311,
      "ator": 7312,
      "adop": 7313,
      "001": 7314,
      "ily": 7315,
      "159": 7316,
      "172": 7317,
      "173": 7318,
      "Harappa": 7319,
      "impe": 7320,
      "heredit": 7321,
      "2542": 7322,
      "tatis": 7323,
      "200709": 7324,
      "body": 7325,
      "Hindus": 7326,
      "inequality": 7327,
      "357": 7328,
      "Conci": 7329,
      "cked": 7330,
      "Colonial": 7331,
      "Industrial": 7332,
      "know": 7333,
      "12438": 7334,
      "Ethnologue2": 7335,
      "Karanth": 7336,
      "ights": 7337,
      "201607080": 7338,
      "ethno": 7339,
      "Literacy": 7340,
      "Blackwell": 7341,
      "Gilbert": 7342,
      "According": 7343,
      "Thakur": 7344,
      "dnaindia": 7345,
      "20160708012438": 7346,
      "3F": 7347,
      "900": 7348,
      "Bomb": 7349,
      "Cinema": 7350,
      "IP": 7351,
      "MAAJ": 7352,
      "aish": 7353,
      "even": 7354,
      "ology": 7355,
      "ually": 7356,
      "xim": 7357,
      "increase": 7358,
      "tification": 7359,
      "209": 7360,
      "harv": 7361,
      "285": 7362,
      "desc": 7363,
      "Post": 7364,
      "AAMAAJ": 7365,
      "parity": 7366,
      "345": 7367,
      "sset": 7368,
      "insign": 7369,
      "ishers": 7370,
      "ultural": 7371,
      "plex": 7372,
      "dispute": 7373,
      "Coastal": 7374,
      "Network": 7375,
      "source": 7376,
      "Publishers": 7377,
      "aishankar": 7378,
      "213": 7379,
      "215": 7380,
      "228": 7381,
      "327": 7382,
      "512": 7383,
      "691": 7384,
      "7000": 7385,
      "933": 7386,
      "960": 7387,
      "Acro": 7388,
      "A7C": 7389,
      "Bri": 7390,
      "Cu": 7391,
      "Cricket": 7392,
      "Fa": 7393,
      "Gar": 7394,
      "Garg": 7395,
      "Hand": 7396,
      "Kha": 7397,
      "Line": 7398,
      "Nii": 7399,
      "Operation": 7400,
      "Range": 7401,
      "Smi": 7402,
      "Tan": 7403,
      "VIAF": 7404,
      "average": 7405,
      "emerg": 7406,
      "f5": 7407,
      "fol": 7408,
      "four": 7409,
      "forge": 7410,
      "gri": 7411,
      "hr": 7412,
      "lung": 7413,
      "mn": 7414,
      "mt": 7415,
      "moun": 7416,
      "marg": 7417,
      "mumbai": 7418,
      "plate": 7419,
      "rural": 7420,
      "sm": 7421,
      "tural": 7422,
      "tool": 7423,
      "would": 7424,
      "witz": 7425,
      "ened": 7426,
      "tile": 7427,
      "arts": 7428,
      "eso": 7429,
      "itation": 7430,
      "thema": 7431,
      "1972": 7432,
      "atel": 7433,
      "angered": 7434,
      "compar": 7435,
      "strum": 7436,
      "ches": 7437,
      "changes": 7438,
      "1259": 7439,
      "FOOTNOTEProvisional": 7440,
      "FOOTNOTERowland1970": 7441,
      "roti": 7442,
      "Southern": 7443,
      "154": 7444,
      "mathema": 7445,
      "168": 7446,
      "CITEREFAsherTalbot": 7447,
      "politics": 7448,
      "223": 7449,
      "237": 7450,
      "Singap": 7451,
      "Mathematics": 7452,
      "27s": 7453,
      "Tele": 7454,
      "undp": 7455,
      "codi": 7456,
      "hockey": 7457,
      "1206": 7458,
      "mantle": 7459,
      "manuscript": 7460,
      "361": 7461,
      "367": 7462,
      "ians": 7463,
      "uddin": 7464,
      "alls": 7465,
      "cultural": 7466,
      "clar": 7467,
      "ameez": 7468,
      "Kultur": 7469,
      "Protection": 7470,
      "mergency": 7471,
      "while": 7472,
      "religions": 7473,
      "Engineering": 7474,
      "School": 7475,
      "These": 7476,
      "Dogri": 7477,
      "Beach": 7478,
      "Sino": 7479,
      "Brazil": 7480,
      "Turk": 7481,
      "appro": 7482,
      "Veda": 7483,
      "tected": 7484,
      "Desert": 7485,
      "Leon": 7486,
      "include": 7487,
      "edule": 7488,
      "Sindhi": 7489,
      "existence": 7490,
      "atantra": 7491,
      "Civilisation": 7492,
      "parliamentary": 7493,
      "Malaysia": 7494,
      "Brunei": 7495,
      "occup": 7496,
      "linguistic": 7497,
      "CiNii": 7498,
      "Dominion": 7499,
      "FOOTNOTESpear1990242": 7500,
      "Laos": 7501,
      "memorial": 7502,
      "Emirates": 7503,
      "Cambodia": 7504,
      "Thailand": 7505,
      "Seventeenth": 7506,
      "Copland2001": 7507,
      "employed": 7508,
      "missing": 7509,
      "conflic": 7510,
      "Tarlo1996": 7511,
      "discussion": 7512,
      "harmaceutical": 7513,
      "toolforge": 7514,
      "Singapore": 7515,
      "KulturNav": 7516,
      "324": 7517,
      "420": 7518,
      "422": 7519,
      "Khan": 7520,
      "Mare": 7521,
      "Nel": 7522,
      "apu": 7523,
      "dress": 7524,
      "ey": 7525,
      "each": 7526,
      "ease": 7527,
      "flum": 7528,
      "gis": 7529,
      "hu": 7530,
      "sat": 7531,
      "wC": 7532,
      "orbis": 7533,
      "tegra": 7534,
      "intern": 7535,
      "inae": 7536,
      "Inter": 7537,
      "erum": 7538,
      "cifer": 7539,
      "theca": 7540,
      "rain": 7541,
      "living": 7542,
      "urb": 7543,
      "ationes": 7544,
      "sts": 7545,
      "stru": 7546,
      "ablish": 7547,
      "404": 7548,
      "commer": 7549,
      "icae": 7550,
      "Power": 7551,
      "Gopal": 7552,
      "360": 7553,
      "engana": 7554,
      "Oxonia": 7555,
      "Regnum": 7556,
      "economia": 7557,
      "Colc": 7558,
      "regional": 7559,
      "Assamese": 7560,
      "Amend": 7561,
      "leader": 7562,
      "Australian": 7563,
      "Territoria": 7564,
      "Primus": 7565,
      "Persica": 7566,
      "Civitatum": 7567,
      "Maldivae": 7568,
      "tiger": 7569,
      "democracy": 7570,
      "Consortio": 7571,
      "nucifer": 7572,
      "Malayalam": 7573,
      "bird": 7574,
      "PetragliaAllchin2007": 7575,
      "Ptolemae": 7576,
      "checked": 7577,
      "Telengana": 7578,
      "Directorate": 7579,
      "recognized": 7580,
      "Sanscritic": 7581,
      "Pictura": 7582,
      "Konkani": 7583,
      "successful": 7584,
      "Concilium": 7585,
      "Nelumb": 7586,
      "apud": 7587,
      "Oxoniae": 7588,
      "377": 7589,
      "LD": 7590,
      "Pen": 7591,
      "SE": 7592,
      "Ser": 7593,
      "Some": 7594,
      "dic": 7595,
      "jh": 7596,
      "pati": 7597,
      "sc": 7598,
      "ising": 7599,
      "laim": 7600,
      "head": 7601,
      "nific": 7602,
      "puri": 7603,
      "153": 7604,
      "make": 7605,
      "CITEREFWolpert2003": 7606,
      "about": 7607,
      "poverty": 7608,
      "ensity": 7609,
      "because": 7610,
      "Poverty": 7611,
      "provisions": 7612,
      "aedia": 7613,
      "Anthem": 7614,
      "0110": 7615,
      "Manipuri": 7616,
      "perior": 7617,
      "Encyclopaedia": 7618,
      "cognised": 7619,
      "humans": 7620,
      "Dispu": 7621,
      "Studies": 7622,
      "0266": 7623,
      "1st": 7624,
      "1102": 7625,
      "3C": 7626,
      "423": 7627,
      "438": 7628,
      "973": 7629,
      "Class": 7630,
      "Emergency": 7631,
      "Fre": 7632,
      "Football": 7633,
      "Gange": 7634,
      "Ghat": 7635,
      "Ir": 7636,
      "Luc": 7637,
      "Oly": 7638,
      "PO": 7639,
      "Pi": 7640,
      "Put": 7641,
      "PIN": 7642,
      "Ru": 7643,
      "Ran": 7644,
      "Sp": 7645,
      "Sur": 7646,
      "Sund": 7647,
      "Tex": 7648,
      "Ud": 7649,
      "Ver": 7650,
      "Vir": 7651,
      "XX": 7652,
      "base": 7653,
      "cgi": 7654,
      "courts": 7655,
      "ecu": 7656,
      "fun": 7657,
      "flow": 7658,
      "func": 7659,
      "gate": 7660,
      "kal": 7661,
      "lon": 7662,
      "missile": 7663,
      "nt": 7664,
      "n80": 7665,
      "oids": 7666,
      "rup": 7667,
      "ses": 7668,
      "science": 7669,
      "sultanate": 7670,
      "tation": 7671,
      "villa": 7672,
      "ంకా": 7673,
      "ంజి": 7674,
      "ంజీ": 7675,
      "ంతల": 7676,
      "అవి": 7677,
      "అలీ": 7678,
      "అధ్య": 7679,
      "అజె": 7680,
      "అక్టో": 7681,
      "అసో": 7682,
      "అర్జె": 7683,
      "ఆచే": 7684,
      "ఆర్య": 7685,
      "ఆనంద": 7686,
      "ఇంది": 7687,
      "ఇక్క": 7688,
      "ఇంటి": 7689,
      "ఇస్రా": 7690,
      "ఈజి": 7691,
      "ఉండ": 7692,
      "ఉజ్": 7693,
      "ఉష్ణ": 7694,
      "ఉంటుంది": 7695,
      "ఋతు": 7696,
      "ఎమి": 7697,
      "ఒకే": 7698,
      "ఒమన్": 7699,
      "ఓం": 7700,
      "కజ": 7701,
      "కె": 7702,
      "క్రా": 7703,
      "కార్": 7704,
      "కటి": 7705,
      "కస్తాన్": 7706,
      "కంబ": 7707,
      "కమీ": 7708,
      "కరం": 7709,
      "కమల": 7710,
      "కదంబ": 7711,
      "ఖా": 7712,
      "ఖు": 7713,
      "ఖై": 7714,
      "ఖగోళ": 7715,
      "గజ": 7716,
      "గధ": 7717,
      "గమ": 7718,
      "గదీ": 7719,
      "గిల్లీ": 7720,
      "గనులు": 7721,
      "గంగో": 7722,
      "గ్రామ": 7723,
      "ఘల్": 7724,
      "ఘట్ట": 7725,
      "చ్య": 7726,
      "చట్ట": 7727,
      "చారి": 7728,
      "చాలా": 7729,
      "చత్తీస్": 7730,
      "ఛే": 7731,
      "ఛత్తీస్": 7732,
      "జర": 7733,
      "జల": 7734,
      "జవ": 7735,
      "జౌ": 7736,
      "జ్ర": 7737,
      "జాలు": 7738,
      "జంబ": 7739,
      "జయం": 7740,
      "జర్వ": 7741,
      "జమై": 7742,
      "జికి": 7743,
      "జరుపు": 7744,
      "జగదీ": 7745,
      "డండి": 7746,
      "డాన్": 7747,
      "తత్వ": 7748,
      "తవాహ": 7749,
      "తజికి": 7750,
      "థమ": 7751,
      "థార్": 7752,
      "థాయి": 7753,
      "దస": 7754,
      "దీయ": 7755,
      "దారి": 7756,
      "దరణ": 7757,
      "దండా": 7758,
      "ధం": 7759,
      "ధన్": 7760,
      "ధనా": 7761,
      "నూ": 7762,
      "నర్": 7763,
      "నరే": 7764,
      "నపద": 7765,
      "పస్": 7766,
      "ప్ట": 7767,
      "పద్": 7768,
      "పవర్": 7769,
      "పట్": 7770,
      "పారి": 7771,
      "పర్వ": 7772,
      "పకళ": 7773,
      "పారిటీ": 7774,
      "పవనాలు": 7775,
      "పౌర": 7776,
      "ఫో": 7777,
      "ఫ్రా": 7778,
      "బు": 7779,
      "బనా": 7780,
      "బంగా": 7781,
      "బహా": 7782,
      "బ్యా": 7783,
      "మస్": 7784,
      "మంది": 7785,
      "మలి": 7786,
      "మారు": 7787,
      "మంగో": 7788,
      "మగధ": 7789,
      "యస్": 7790,
      "యర్": 7791,
      "యము": 7792,
      "యతి": 7793,
      "యత్": 7794,
      "యంలో": 7795,
      "యనాలు": 7796,
      "యణం": 7797,
      "యసల": 7798,
      "రత్": 7799,
      "రద్": 7800,
      "రారి": 7801,
      "రవీ": 7802,
      "లాల్": 7803,
      "ళూరు": 7804,
      "వత": 7805,
      "వతి": 7806,
      "వమి": 7807,
      "వల్ల": 7808,
      "వళి": 7809,
      "వనాథ": 7810,
      "వసర": 7811,
      "వజ్ర": 7812,
      "శాల": 7813,
      "శిల్": 7814,
      "శ్రామ": 7815,
      "శరద్": 7816,
      "షే": 7817,
      "షకాహార": 7818,
      "సన": 7819,
      "సొ": 7820,
      "సాలు": 7821,
      "సల్": 7822,
      "సులు": 7823,
      "సైనా": 7824,
      "సమితి": 7825,
      "హణ": 7826,
      "హె": 7827,
      "హ్ర": 7828,
      "హస్త": 7829,
      "హర్య": 7830,
      "హక్కు": 7831,
      "ాబ్": 7832,
      "ాధి": 7833,
      "ానిస్తాన్": 7834,
      "ాయతి": 7835,
      "ిళ్ళ": 7836,
      "ీలు": 7837,
      "ీనా": 7838,
      "ీకరణ": 7839,
      "ీర్ణం": 7840,
      "ుళూరు": 7841,
      "ూచి": 7842,
      "ూప్": 7843,
      "ూనై": 7844,
      "ేష్": 7845,
      "ొనేషియా": 7846,
      "ోడియా": 7847,
      "ౌపది": 7848,
      "kir": 7849,
      "iary": 7850,
      "ender": 7851,
      "ones": 7852,
      "ardian": 7853,
      "recent": 7854,
      "relief": 7855,
      "్రయి": 7856,
      "ithi": 7857,
      "itar": 7858,
      "ారమ్": 7859,
      "ander": 7860,
      "racol": 7861,
      "ouch": 7862,
      "ాలనే": 7863,
      "acred": 7864,
      "etry": 7865,
      "దేశీ": 7866,
      "దేశపు": 7867,
      "దేశంగా": 7868,
      "దేశాధి": 7869,
      "స్కృ": 7870,
      "స్పీ": 7871,
      "స్సీ": 7872,
      "atu": 7873,
      "atue": 7874,
      "amuna": 7875,
      "సాయం": 7876,
      "సానియా": 7877,
      "idref": 7878,
      "ర్ష": 7879,
      "ర్క్": 7880,
      "ర్ము": 7881,
      "ర్తా": 7882,
      "ర్టి": 7883,
      "ర్లా": 7884,
      "ర్గి": 7885,
      "ర్డాన్": 7886,
      "రామా": 7887,
      "రామన": 7888,
      "ప్రస్": 7889,
      "ప్రదేశాల": 7890,
      "ప్రథమ": 7891,
      "stud": 7892,
      "భారతదేశము": 7893,
      "లోజి": 7894,
      "లోపం": 7895,
      "లోసార్": 7896,
      "unleav": 7897,
      "cho": 7898,
      "0056": 7899,
      "00254": 7900,
      "త్రక": 7901,
      "రిజర్వ": 7902,
      "క్సి": 7903,
      "ంద్": 7904,
      "నిషే": 7905,
      "ల్త్": 7906,
      "ంగపూర్": 7907,
      "forms": 7908,
      "members": 7909,
      "pua": 7910,
      "5059": 7911,
      "hav": 7912,
      "14003": 7913,
      "ములు": 7914,
      "ముర్ము": 7915,
      "ండమస్": 7916,
      "indian": 7917,
      "సిస్": 7918,
      "సిరియా": 7919,
      "సిద్ధి": 7920,
      "సిలోన్": 7921,
      "సింగపూర్": 7922,
      "Dey": 7923,
      "165": 7924,
      "169": 7925,
      "1649": 7926,
      "నాం": 7927,
      "నాణే": 7928,
      "విడ": 7929,
      "విస్": 7930,
      "విధ్య": 7931,
      "విధాన": 7932,
      "విశాఖ": 7933,
      "విజన్": 7934,
      "విజయ": 7935,
      "వివాదం": 7936,
      "విభిన్న": 7937,
      "వినాయక": 7938,
      "వియత్": 7939,
      "విదేశీ": 7940,
      "వింద్": 7941,
      "CITEREFFisher2018": 7942,
      "upper": 7943,
      "త్తా": 7944,
      "త్తల": 7945,
      "Harmand": 7946,
      "కుని": 7947,
      "కువై": 7948,
      "కుషా": 7949,
      "కుర్తా": 7950,
      "నుంచి": 7951,
      "Revolution": 7952,
      "చిన": 7953,
      "చింది": 7954,
      "చిపూ": 7955,
      "చిలీ": 7956,
      "4071": 7957,
      "40267": 7958,
      "40398": 7959,
      "జాన్": 7960,
      "జానపద": 7961,
      "పూణే": 7962,
      "వాన్": 7963,
      "వాకా": 7964,
      "మాణ": 7965,
      "మామి": 7966,
      "మావతి": 7967,
      "మాండమస్": 7968,
      "Harvard": 7969,
      "akers": 7970,
      "ద్వార": 7971,
      "Metro": 7972,
      "235": 7973,
      "ge129": 7974,
      "సంతాల": 7975,
      "సంక్రా": 7976,
      "211": 7977,
      "కాయ": 7978,
      "కామన్": 7979,
      "భారతీయుల": 7980,
      "ాంశం": 7981,
      "exports": 7982,
      "కింద": 7983,
      "కిస్తాన్": 7984,
      "కిర్గి": 7985,
      "పాయి": 7986,
      "పావళి": 7987,
      "పుత్ర": 7988,
      "పురు": 7989,
      "పులి": 7990,
      "పుట్ట": 7991,
      "పుదు": 7992,
      "పునర్": 7993,
      "స్థాయి": 7994,
      "చరిత్రలు": 7995,
      "యింది": 7996,
      "వంటక": 7997,
      "న్నె": 7998,
      "న్నది": 7999,
      "న్నారు": 8000,
      "279": 8001,
      "దిగువ": 8002,
      "PAL": 8003,
      "టిల్": 8004,
      "నేత": 8005,
      "నేసియా": 8006,
      "Statue": 8007,
      "targeting": 8008,
      "మిత్ర": 8009,
      "మింట": 8010,
      "వర్ణ": 8011,
      "ంచే": 8012,
      "ంచల్": 8013,
      "3300": 8014,
      "Papua": 8015,
      "స్తానీ": 8016,
      "రాష్ట్రకూ": 8017,
      "quo": 8018,
      "ourism": 8019,
      "జిత్": 8020,
      "జియా": 8021,
      "జిస్తాన్": 8022,
      "జింబ": 8023,
      "90577": 8024,
      "Gow": 8025,
      "డుంబ": 8026,
      "ంటో": 8027,
      "ంటీనా": 8028,
      "లిప్": 8029,
      "లియం": 8030,
      "లివిజన్": 8031,
      "రాజధా": 8032,
      "రాజముద్ర": 8033,
      "inea": 8034,
      "డ్డి": 8035,
      "డ్మింట": 8036,
      "తరగతి": 8037,
      "కోక్": 8038,
      "కోటి": 8039,
      "కోవార": 8040,
      "కోవడం": 8041,
      "జాతీయతా": 8042,
      "జాతీయవాదం": 8043,
      "engineering": 8044,
      "Guinea": 8045,
      "ంబెట్": 8046,
      "లాండ్": 8047,
      "లావో": 8048,
      "genous": 8049,
      "దీఅరేబియా": 8050,
      "దీపావళి": 8051,
      "పేస్": 8052,
      "పేర్కొ": 8053,
      "74980": 8054,
      "Architecture": 8055,
      "385": 8056,
      "చేసింది": 8057,
      "చేసింగ్": 8058,
      "చేంజి": 8059,
      "ట్స్": 8060,
      "మతాల": 8061,
      "చ్ఛ": 8062,
      "దాపు": 8063,
      "దాదాపు": 8064,
      "399": 8065,
      "వేల": 8066,
      "వేత్తల": 8067,
      "ఆర్మే": 8068,
      "ంద్రనాథ": 8069,
      "కాలక్ర": 8070,
      "బెల్": 8071,
      "బెకిస్తాన్": 8072,
      "ట్టమొదటి": 8073,
      "శాతవాహ": 8074,
      "శాసన": 8075,
      "ప్పా": 8076,
      "మీర్": 8077,
      "మేవ": 8078,
      "మేనిడ్": 8079,
      "Parade": 8080,
      "కూడి": 8081,
      "కూచిపూ": 8082,
      "పాలించ": 8083,
      "Marshall": 8084,
      "తోష్ణ": 8085,
      "బ్డే": 8086,
      "wars": 8087,
      "పంచె": 8088,
      "పంచాయతి": 8089,
      "బియస్": 8090,
      "బిర్లా": 8091,
      "వుంటుంది": 8092,
      "ords": 8093,
      "మొఘల్": 8094,
      "మొట్టమొదటి": 8095,
      "కొని": 8096,
      "దుస్తులు": 8097,
      "మ్మ": 8098,
      "Convert": 8099,
      "మెన్": 8100,
      "మెనిస్తాన్": 8101,
      "మెక్సి": 8102,
      "వ్యవసాయం": 8103,
      "53203": 8104,
      "central": 8105,
      "centuri": 8106,
      "తున్": 8107,
      "తుంది": 8108,
      "తురు": 8109,
      "తుడు": 8110,
      "టుర్క్": 8111,
      "టెన్ని": 8112,
      "టెలివిజన్": 8113,
      "DelhiMetro": 8114,
      "గోర్": 8115,
      "గోధు": 8116,
      "గోడుంబ": 8117,
      "బ్రహ్మ": 8118,
      "బ్రూనై": 8119,
      "రాజ్యసభ": 8120,
      "రాజ్యసమితి": 8121,
      "మతములు": 8122,
      "వ్యవస్థలో": 8123,
      "వ్యవస్థీకరణ": 8124,
      "011356": 8125,
      "గిన్నె": 8126,
      "పెట్రో": 8127,
      "బెంగుళూరు": 8128,
      "ద్ర్య": 8129,
      "ద్రౌపది": 8130,
      "హిందూదేశం": 8131,
      "హిందూస్తానీ": 8132,
      "క్యారమ్": 8133,
      "నాలుగు": 8134,
      "భూపతి": 8135,
      "రేఖ": 8136,
      "రేట్స్": 8137,
      "దేశాలను": 8138,
      "766": 8139,
      "Arambol": 8140,
      "Schedule": 8141,
      "Industry": 8142,
      "cuisine": 8143,
      "ఒరిస్సా": 8144,
      "చూడండి": 8145,
      "వీటిలో": 8146,
      "సంగమ": 8147,
      "నాగాలు": 8148,
      "కాశ్మీరీ": 8149,
      "ఉపరాజ్యం": 8150,
      "రోక్": 8151,
      "లేదా": 8152,
      "పరిశో": 8153,
      "బాబ్డే": 8154,
      "మహాజనపదాలు": 8155,
      "మహాభారతం": 8156,
      "వెల్త్": 8157,
      "వచ్చు": 8158,
      "సాంస్కృ": 8159,
      "partly": 8160,
      "Urban": 8161,
      "451208": 8162,
      "Bekal": 8163,
      "ఇండొనేషియా": 8164,
      "నగర్": 8165,
      "నగరు": 8166,
      "నగరం": 8167,
      "నైజీరియా": 8168,
      "పోలో": 8169,
      "పోషకాహార": 8170,
      "ప్రాచ్య": 8171,
      "సింధీ": 8172,
      "సంగీతము": 8173,
      "statoids": 8174,
      "Bhu": 8175,
      "భింబెట్": 8176,
      "శ్రీరామన": 8177,
      "ముంబాయి": 8178,
      "పార్టీల": 8179,
      "Central2": 8180,
      "hatnote": 8181,
      "నెగల్": 8182,
      "నెహ్వాల్": 8183,
      "నెమలి": 8184,
      "నెహ్ర": 8185,
      "బ్రిటీ": 8186,
      "speakers": 8187,
      "12410": 8188,
      "95342": 8189,
      "నోద్య": 8190,
      "నోబెల్": 8191,
      "రెడ్డి": 8192,
      "ఇండోనేషియా": 8193,
      "ఇండోలోజి": 8194,
      "ఇండోనేసియా": 8195,
      "nonexis": 8196,
      "కతర్": 8197,
      "కళి": 8198,
      "సైటు": 8199,
      "సైప్రస్": 8200,
      "వచ్చిన": 8201,
      "జోర్డాన్": 8202,
      "తలసరి": 8203,
      "క్కన": 8204,
      "పెద్దపులి": 8205,
      "స్వాతంత్ర్యం": 8206,
      "Tiracol": 8207,
      "పీన్స్": 8208,
      "సినిమాలు": 8209,
      "ఆఫ్ఘానిస్తాన్": 8210,
      "Fundamental": 8211,
      "Palace": 8212,
      "అతిపెద్ద": 8213,
      "అతిశీ": 8214,
      "ఇరాక్": 8215,
      "ఒడియా": 8216,
      "ఒడిశా": 8217,
      "ఒడిషా": 8218,
      "ఒడిస్సీ": 8219,
      "జెట్": 8220,
      "వైశాల": 8221,
      "వైవిధ్య": 8222,
      "సెలవుదినాలు": 8223,
      "సెర్టి": 8224,
      "సెనెగల్": 8225,
      "ప్రభుత్వ": 8226,
      "గుజరాతీ": 8227,
      "Nataraja": 8228,
      "Prime": 8229,
      "ఆగ్రా": 8230,
      "ఇండియాలో": 8231,
      "బహ్రయి": 8232,
      "సమశీ": 8233,
      "సూరత్": 8234,
      "terminal": 8235,
      "విస్తారు": 8236,
      "విస్తీర్ణం": 8237,
      "drs": 8238,
      "కలిసి": 8239,
      "గ్రూప్": 8240,
      "ద్రావిడ": 8241,
      "బాంక్": 8242,
      "బాంకు": 8243,
      "బడ్జెట్": 8244,
      "సారాంశం": 8245,
      "విశ్వనాథ": 8246,
      "వేదాలు": 8247,
      "ఉత్తరాన": 8248,
      "ఉత్తరాఖండ్": 8249,
      "ఉత్తరాంచల్": 8250,
      "సింధులోయ": 8251,
      "కన్నడం": 8252,
      "supp": 8253,
      "Early": 8254,
      "003407": 8255,
      "చీర": 8256,
      "జార్జియా": 8257,
      "తైమూర్": 8258,
      "తైవాన్": 8259,
      "మహేష్": 8260,
      "యోరారి": 8261,
      "రూపాయి": 8262,
      "సౌదీఅరేబియా": 8263,
      "ప్రజలు": 8264,
      "సిక్ఖు": 8265,
      "కోర్టులు": 8266,
      "సరిహద్దుగా": 8267,
      "తరువాతి": 8268,
      "LakshadweepIsland": 8269,
      "ilding": 8270,
      "గీతం": 8271,
      "పొల": 8272,
      "హర్ష": 8273,
      "ప్రతిపాద": 8274,
      "చిత్రకళ": 8275,
      "ఉపఖండం": 8276,
      "ఉపఖండము": 8277,
      "బహుళ": 8278,
      "బహుమతి": 8279,
      "కుటుంబాలు": 8280,
      "HighCourt": 8281,
      "Unity": 8282,
      "major": 8283,
      "Coastline": 8284,
      "కథక్": 8285,
      "కథకళి": 8286,
      "ఫైవ్": 8287,
      "భరతుడు": 8288,
      "సాధించ": 8289,
      "సంస్థలు": 8290,
      "గుర్జర": 8291,
      "విశ్వామిత్ర": 8292,
      "పార్లమెంట్": 8293,
      "మరాఠా": 8294,
      "ChennaiCentral2": 8295,
      "45932": 8296,
      "Green": 8297,
      "forcement": 8298,
      "coral": 8299,
      "Thir": 8300,
      "అరబ్": 8301,
      "అరవింద్": 8302,
      "ఆధార": 8303,
      "జయతే": 8304,
      "టైగర్": 8305,
      "టర్కీ": 8306,
      "బోడో": 8307,
      "బోరోక్": 8308,
      "మోడీ": 8309,
      "యెల్": 8310,
      "యెమెన్": 8311,
      "ళాఖా": 8312,
      "వారిగా": 8313,
      "శిశు": 8314,
      "శుంగ": 8315,
      "సత్యజిత్": 8316,
      "సత్యమేవ": 8317,
      "హొలీ": 8318,
      "హొయసల": 8319,
      "్రిచెట్టు": 8320,
      "ప్రజాస్వామ్య": 8321,
      "ప్రజాదరణ": 8322,
      "కుంటారు": 8323,
      "పాండ్యులు": 8324,
      "జిల్లా": 8325,
      "లియాండర్": 8326,
      "గోళిక": 8327,
      "క్రైస్తవం": 8328,
      "వెనుజు": 8329,
      "వెనుకటి": 8330,
      "ఒకటిగా": 8331,
      "సూచికలు": 8332,
      "ఏర్పడ్": 8333,
      "ఎక్స్ఛే": 8334,
      "ఎక్స్చేంజి": 8335,
      "చదరంగము": 8336,
      "చోళులు": 8337,
      "struction": 8338,
      "American": 8339,
      "practic": 8340,
      "Tibetan": 8341,
      "record": 8342,
      "Yumthangnorth": 8343,
      "అంటార్": 8344,
      "అహ్మదీయ": 8345,
      "టాగోర్": 8346,
      "నృత్య": 8347,
      "నలుపు": 8348,
      "పద్ధతి": 8349,
      "లెబనా": 8350,
      "నిర్వహణ": 8351,
      "సంకీర్ణం": 8352,
      "సంబంధాలు": 8353,
      "వంటలు": 8354,
      "కోట్ల": 8355,
      "కార్యక్ర": 8356,
      "పరిశ్రమలు": 8357,
      "వ్యాపారవేత్తల": 8358,
      "మొదలైన": 8359,
      "Vidyas": 8360,
      "Wright2010": 8361,
      "hekhar": 8362,
      "Sahib": 8363,
      "అణు": 8364,
      "అల్జీరియా": 8365,
      "ఎడారి": 8366,
      "ఐక్యరాజ్యసమితి": 8367,
      "చవితి": 8368,
      "జపాన్": 8369,
      "డాలర్లు": 8370,
      "థానే": 8371,
      "పర్చేసింగ్": 8372,
      "పతాకం": 8373,
      "ఫిలిప్": 8374,
      "బలూచి": 8375,
      "బైజాన్": 8376,
      "భౌగోళిక": 8377,
      "మర్రిచెట్టు": 8378,
      "మహిళా": 8379,
      "యూద": 8380,
      "రష్యా": 8381,
      "శకుంతల": 8382,
      "హరప్పా": 8383,
      "ుకుండి": 8384,
      "రాయల్": 8385,
      "విష్ణుకుండి": 8386,
      "కాకతీయ": 8387,
      "వర్షాలు": 8388,
      "కాలేజి": 8389,
      "ప్లగ్": 8390,
      "సంస్కరణలు": 8391,
      "బ్రెజిల్": 8392,
      "గణితం": 8393,
      "రైళ్లను": 8394,
      "వెల్లూరు": 8395,
      "భరతనాట్యం": 8396,
      "సర్వీసులు": 8397,
      "హైదరాబాదు": 8398,
      "పీఠభూమి": 8399,
      "సాంప్రదాయిక": 8400,
      "arbans": 8401,
      "DA011356": 8402,
      "Setu": 8403,
      "Female": 8404,
      "fortbeach": 8405,
      "Fauna": 8406,
      "small": 8407,
      "atellite": 8408,
      "125948": 8409,
      "026612410": 8410,
      "Fremantle": 8411,
      "Gangetic": 8412,
      "Ghats": 8413,
      "Olymp": 8414,
      "Putin": 8415,
      "Sundarbans": 8416,
      "Udaipur": 8417,
      "XX451208": 8418,
      "n80125948": 8419,
      "village": 8420,
      "అలీనోద్య": 8421,
      "అధ్యయనాలు": 8422,
      "అజెర్": 8423,
      "అక్టోబర్": 8424,
      "అసోం": 8425,
      "అర్జెంటీనా": 8426,
      "ఆచేమేనిడ్": 8427,
      "ఆర్యన్": 8428,
      "ఆనంద్": 8429,
      "ఇందిరా": 8430,
      "ఇస్రాయెల్": 8431,
      "ఈజిప్ట": 8432,
      "ఉజ్బెకిస్తాన్": 8433,
      "ఋతుపవనాలు": 8434,
      "ఎమిరేట్స్": 8435,
      "కజకస్తాన్": 8436,
      "కెన్యా": 8437,
      "కార్పస్": 8438,
      "కంబోడియా": 8439,
      "కమీజ్": 8440,
      "కరంతై": 8441,
      "కమలము": 8442,
      "ఖైబర్": 8443,
      "గజపతి": 8444,
      "గంగోత్రి": 8445,
      "ఘట్టాలు": 8446,
      "చట్టం": 8447,
      "చారిత్రక": 8448,
      "జవహర్": 8449,
      "జౌళి": 8450,
      "జంబూ": 8451,
      "జయంతి": 8452,
      "జమైకా": 8453,
      "జగదీప్": 8454,
      "తజికిస్తాన్": 8455,
      "థాయిలాండ్": 8456,
      "దసరా": 8457,
      "దారిద్ర్య": 8458,
      "ధన్కర్": 8459,
      "నరేంద్ర": 8460,
      "పద్మావతి": 8461,
      "పట్నం": 8462,
      "పారిశ్రామ": 8463,
      "ఫోసిస్": 8464,
      "బంగాళాఖా": 8465,
      "బ్యాడ్మింట": 8466,
      "మంగోలియా": 8467,
      "రవీంద్రనాథ": 8468,
      "వజ్రాలు": 8469,
      "శిల్పకళ": 8470,
      "సల్వార్": 8471,
      "హెబియస్": 8472,
      "హర్యంక": 8473,
      "ాబ్వే": 8474,
      "దేశాధినేత": 8475,
      "స్పీకర్": 8476,
      "రామాయణం": 8477,
      "00564071": 8478,
      "రిజర్వ్": 8479,
      "నిషేధం": 8480,
      "నాణేలు": 8481,
      "విశాఖపట్నం": 8482,
      "విజయనగర": 8483,
      "వియత్నాం": 8484,
      "Harmandir": 8485,
      "కువైట్": 8486,
      "కుషాణులు": 8487,
      "4026722": 8488,
      "40398E": 8489,
      "మామిడి": 8490,
      "ద్వారా": 8491,
      "ge129384": 8492,
      "సంతాలి": 8493,
      "సంక్రాంతి": 8494,
      "కామన్వెల్త్": 8495,
      "కిర్గిజిస్తాన్": 8496,
      "పుదుచ్చేరి": 8497,
      "పునర్వ్యవస్థీకరణ": 8498,
      "వంటకాలు": 8499,
      "జింబాబ్వే": 8500,
      "90577766": 8501,
      "కోవారంటో": 8502,
      "లావోస్": 8503,
      "74980N": 8504,
      "ఆర్మేనియా": 8505,
      "కాలక్రమం": 8506,
      "కూచిపూడి": 8507,
      "మెక్సికో": 8508,
      "centuries": 8509,
      "టెన్నిస్": 8510,
      "గోధుమ": 8511,
      "గోడుంబిళ్ళ": 8512,
      "బ్రహ్మపుత్ర": 8513,
      "పెట్రోలియం": 8514,
      "పరిశోధనా": 8515,
      "సాంస్కృతిక": 8516,
      "Bekalfortbeach": 8517,
      "భింబెట్కా": 8518,
      "శ్రీరామనవమి": 8519,
      "నెహ్రూ": 8520,
      "nonexistent": 8521,
      "అతిశీతల": 8522,
      "సెర్టియోరారి": 8523,
      "బహ్రయిన్": 8524,
      "సమశీతోష్ణ": 8525,
      "విశ్వనాథన్": 8526,
      "శిశునాగ": 8527,
      "వెనుజులా": 8528,
      "ఎక్స్ఛేంజీ": 8529,
      "లెబనాన్": 8530,
      "Vidyasagar": 8531,
      "ఫిలిప్పీన్స్": 8532,
      "బలూచిస్తాన్": 8533,
      "DA01135694": 8534,
      "ఈజిప్టు": 8535,
      "బ్యాడ్మింటన్": 8536,
      "రవీంద్రనాథ్": 8537,
      "323": 8538,
      "517": 8539,
      "Bchecked": 8540,
      "CDS": 8541,
      "DOL": 8542,
      "EBchecked": 8543,
      "OP": 8544,
      "QC": 8545,
      "Tit": 8546,
      "There": 8547,
      "bha": 8548,
      "freedom": 8549,
      "home": 8550,
      "jangan": 8551,
      "jagran": 8552,
      "nearly": 8553,
      "p1": 8554,
      "pages": 8555,
      "sim": 8556,
      "wpp": 8557,
      "ंभ": 8558,
      "ंश": 8559,
      "ंची": 8560,
      "ंकर": 8561,
      "अं": 8562,
      "अति": 8563,
      "अंग": 8564,
      "अने": 8565,
      "अध्य": 8566,
      "अक्त": 8567,
      "अंतर": 8568,
      "आज": 8569,
      "आस": 8570,
      "आयोग": 8571,
      "इसे": 8572,
      "इन्": 8573,
      "इला": 8574,
      "इम्": 8575,
      "इण्ड": 8576,
      "इंटे": 8577,
      "उसे": 8578,
      "उन्हें": 8579,
      "ऊपर": 8580,
      "ऊँची": 8581,
      "एव": 8582,
      "एंड": 8583,
      "कच": 8584,
      "कट": 8585,
      "कथा": 8586,
      "क्यों": 8587,
      "खु": 8588,
      "गढ": 8589,
      "गी": 8590,
      "चली": 8591,
      "जों": 8592,
      "जन्": 8593,
      "जमा": 8594,
      "जित": 8595,
      "जाने": 8596,
      "टै": 8597,
      "डन": 8598,
      "ढा": 8599,
      "तं": 8600,
      "तन्": 8601,
      "तत्व": 8602,
      "तनाव": 8603,
      "तराई": 8604,
      "दाल": 8605,
      "द्रो": 8606,
      "धु": 8607,
      "ध्या": 8608,
      "नर्म": 8609,
      "न्यू": 8610,
      "नेशन": 8611,
      "प्य": 8612,
      "पों": 8613,
      "पवन": 8614,
      "बरा": 8615,
      "बडी": 8616,
      "बदल": 8617,
      "मण्ड": 8618,
      "मस्वरूप": 8619,
      "यें": 8620,
      "यहाँ": 8621,
      "रद": 8622,
      "रंग": 8623,
      "व्": 8624,
      "वारा": 8625,
      "शक": 8626,
      "शस": 8627,
      "श्व": 8628,
      "शैल": 8629,
      "शहरी": 8630,
      "शर्स": 8631,
      "शंकर": 8632,
      "शरद": 8633,
      "सॉ": 8634,
      "सिक": 8635,
      "सक्र": 8636,
      "हाल": 8637,
      "ामस्वरूप": 8638,
      "िलों": 8639,
      "िचेरी": 8640,
      "ीन": 8641,
      "ुम": 8642,
      "ुलिपि": 8643,
      "ुत्पत्ति": 8644,
      "ूप": 8645,
      "ृद्ध": 8646,
      "ेली": 8647,
      "्स": 8648,
      "१४": 8649,
      "२८": 8650,
      "२९": 8651,
      "tten": 8652,
      "ttle": 8653,
      "tives": 8654,
      "tibha": 8655,
      "around": 8656,
      "eros": 8657,
      "्रान्": 8658,
      "esa": 8659,
      "esh": 8660,
      "iso": 8661,
      "्युनिस्ट": 8662,
      "राव": 8663,
      "1983": 8664,
      "icus": 8665,
      "मेज": 8666,
      "मेव": 8667,
      "र्भ": 8668,
      "र्मा": 8669,
      "स्कृतिक": 8670,
      "काज": 8671,
      "ritten": 8672,
      "refer": 8673,
      "adas": 8674,
      "प्रो": 8675,
      "प्रसि": 8676,
      "प्रती": 8677,
      "प्रिय": 8678,
      "प्रबंधन": 8679,
      "प्रत्या": 8680,
      "प्रस्ता": 8681,
      "प्रकाश": 8682,
      "प्रवर्तन": 8683,
      "प्रदर्शन": 8684,
      "विमान": 8685,
      "liGa": 8686,
      "न्त": 8687,
      "त्रता": 8688,
      "संचार": 8689,
      "संख्य": 8690,
      "राजा": 8691,
      "राजस्व": 8692,
      "unrecognized": 8693,
      "साधु": 8694,
      "tock": 8695,
      "भाबर": 8696,
      "पुन": 8697,
      "FOOTNOTEConinghamYoung2015": 8698,
      "पर्या": 8699,
      "परिण": 8700,
      "्रेलिया": 8701,
      "नेता": 8702,
      "त्मक": 8703,
      "ilar": 8704,
      "कोपेन": 8705,
      "50205": 8706,
      "मातर": 8707,
      "Dead": 8708,
      "्वा": 8709,
      "171": 8710,
      "262": 8711,
      "16mar": 8712,
      "वांग": 8713,
      "वाहन": 8714,
      "वासियों": 8715,
      "भाषाई": 8716,
      "हाबाद": 8717,
      "पाक": 8718,
      "पाया": 8719,
      "ट्रो": 8720,
      "समस": 8721,
      "समु": 8722,
      "समृद्ध": 8723,
      "करती": 8724,
      "किसी": 8725,
      "ज़िलों": 8726,
      "जनवादी": 8727,
      "बादी": 8728,
      "मिश्र": 8729,
      "लिख": 8730,
      "लिजें": 8731,
      "establish": 8732,
      "exchange": 8733,
      "सीट": 8734,
      "तरण": 8735,
      "म्बे": 8736,
      "नीचे": 8737,
      "276": 8738,
      "Technolog": 8739,
      "पूरा": 8740,
      "पूरे": 8741,
      "hoi": 8742,
      "पुरातत्व": 8743,
      "जिन्हें": 8744,
      "कृष्": 8745,
      "जीव": 8746,
      "टीवी": 8747,
      "धर्मों": 8748,
      "होना": 8749,
      "हरलाल": 8750,
      "पुरुष": 8751,
      "अनुसूच": 8752,
      "सरकारी": 8753,
      "विश्वनाथ": 8754,
      "genf": 8755,
      "इसका": 8756,
      "इसमें": 8757,
      "फ़्रान्": 8758,
      "वेयर": 8759,
      "व्युत्पत्ति": 8760,
      "disease": 8761,
      "अधिका": 8762,
      "वन्य": 8763,
      "स्वतन्": 8764,
      "puran": 8765,
      "उपयोग": 8766,
      "उपखंड": 8767,
      "सुरत": 8768,
      "नाममात्र": 8769,
      "तटों": 8770,
      "सामरिक": 8771,
      "सम्प्रभु": 8772,
      "ण्डिचेरी": 8773,
      "size": 8774,
      "केंद्र2005": 8775,
      "केंद्रशासित": 8776,
      "स्ट्रेलिया": 8777,
      "बंगाली": 8778,
      "गाँ": 8779,
      "पेय": 8780,
      "जिसने": 8781,
      "Sanatan": 8782,
      "संगम": 8783,
      "लोकप्रिय": 8784,
      "assam": 8785,
      "जयते": 8786,
      "बोड़ो": 8787,
      "निर्भर": 8788,
      "भागी": 8789,
      "FOOTNOTESingh2009181": 8790,
      "FOOTNOTESingh2009255": 8791,
      "FOOTNOTESingh2009186": 8792,
      "FOOTNOTESingh2009545": 8793,
      "FOOTNOTEStein1998121": 8794,
      "FOOTNOTEStein1998132": 8795,
      "विकासशील": 8796,
      "knowin": 8797,
      "कार्यकाल": 8798,
      "कार्यक्रम": 8799,
      "मैदानी": 8800,
      "Advanced": 8801,
      "पोषण": 8802,
      "bueros": 8803,
      "बढ़ा": 8804,
      "बढ़ने": 8805,
      "बढ़ती": 8806,
      "लंबे": 8807,
      "संबंधों": 8808,
      "परिस्थिति": 8809,
      "पूर्ति": 8810,
      "दर्जा": 8811,
      "बनाया": 8812,
      "पर्वतीय": 8813,
      "अफगान": 8814,
      "स्थापत्य": 8815,
      "TROP": 8816,
      "josh": 8817,
      "अवशेष": 8818,
      "धाम": 8819,
      "छत्तीसगढ": 8820,
      "वर्गीकरण": 8821,
      "कम्युनिस्ट": 8822,
      "कंपनियों": 8823,
      "सांस्कृतिक": 8824,
      "स्तरीय": 8825,
      "पट्": 8826,
      "Earth": 8827,
      "उनके": 8828,
      "उनकी": 8829,
      "०००": 8830,
      "सेवाओं": 8831,
      "लिंगानु": 8832,
      "पब्लिशर्स": 8833,
      "MilliGa": 8834,
      "जवाहरलाल": 8835,
      "योजना": 8836,
      "कामकाज": 8837,
      "प्रारम्भिक": 8838,
      "Netra": 8839,
      "LCH": 8840,
      "नन्दादेवी": 8841,
      "स्कूल": 8842,
      "सदस्य": 8843,
      "सदस्यों": 8844,
      "परंपरागत": 8845,
      "oliath": 8846,
      "चालुक": 8847,
      "पांडुलिपि": 8848,
      "क्रिकेट": 8849,
      "क्रिसमस": 8850,
      "हिन्दुस्तानी": 8851,
      "नागरिक": 8852,
      "Sukhoi": 8853,
      "फैली": 8854,
      "मंत्रिमण्ड": 8855,
      "Bhagwat": 8856,
      "एजेंसी": 8857,
      "क्षमता": 8858,
      "निम्न": 8859,
      "टेलीवि": 8860,
      "इंटरनेट": 8861,
      "pollution": 8862,
      "indicator": 8863,
      "ctricity": 8864,
      "lawsofindia": 8865,
      "गैर": 8866,
      "ध्वज": 8867,
      "पॉण्डिचेरी": 8868,
      "सत्यमेव": 8869,
      "्टवेयर": 8870,
      "विंध्याचल": 8871,
      "सेपियन्स": 8872,
      "शुरुआत": 8873,
      "ग्रीष्मकालीन": 8874,
      "Possehl2003": 8875,
      "mismatch": 8876,
      "Introduction": 8877,
      "adopted": 8878,
      "satp": 8879,
      "tegration": 8880,
      "Amendment": 8881,
      "janganana": 8882,
      "similar": 8883,
      "अनेक": 8884,
      "अक्तूबर": 8885,
      "इलाहाबाद": 8886,
      "इण्डिया": 8887,
      "इंटेलिजें": 8888,
      "नर्मदा": 8889,
      "सक्रिय": 8890,
      "प्रतीक": 8891,
      "प्रस्तावित": 8892,
      "FOOTNOTEConinghamYoung2015104": 8893,
      "पर्यावरण": 8894,
      "परिणामस्वरूप": 8895,
      "मातरम्": 8896,
      "16mar12": 8897,
      "अनुसूचित": 8898,
      "फ़्रान्स": 8899,
      "अधिकांश": 8900,
      "स्वतन्त्रता": 8901,
      "knowindia": 8902,
      "अफगानिस्तान": 8903,
      "TROPEX": 8904,
      "लिंगानुपात": 8905,
      "MilliGazette": 8906,
      "मंत्रिमण्डल": 8907,
      "इंटेलिजेंस": 8908,
      "426": 8909,
      "624": 8910,
      "981": 8911,
      "Att": 8912,
      "DO": 8913,
      "ES": 8914,
      "Es": 8915,
      "Freedom": 8916,
      "LO": 8917,
      "Statis": 8918,
      "bh": 8919,
      "density": 8920,
      "kC": 8921,
      "sang": 8922,
      "sav": 8923,
      "zz": 8924,
      "ars": 8925,
      "India1950": 8926,
      "usti": 8927,
      "urther": 8928,
      "los": 8929,
      "505": 8930,
      "may": 8931,
      "makes": 8932,
      "268": 8933,
      "govern": 8934,
      "CITEREFMinistry": 8935,
      "Archae": 8936,
      "version": 8937,
      "290": 8938,
      "470": 8939,
      "udget": 8940,
      "200904": 8941,
      "earliest": 8942,
      "gener": 8943,
      "745": 8944,
      "ically": 8945,
      "soci": 8946,
      "Shri": 8947,
      "Coal": 8948,
      "Coord": 8949,
      "INR": 8950,
      "author": 8951,
      "Peter": 8952,
      "Arabian": 8953,
      "poration": 8954,
      "support": 8955,
      "univers": 8956,
      "appel": 8957,
      "signific": 8958,
      "pubmed": 8959,
      "Universal": 8960,
      "310": 8961,
      "318": 8962,
      "316": 8963,
      "410": 8964,
      "429": 8965,
      "734": 8966,
      "7566": 8967,
      "877": 8968,
      "Bu": 8969,
      "Cris": 8970,
      "Dunleav": 8971,
      "Eastern": 8972,
      "Food": 8973,
      "Federal": 8974,
      "Kan": 8975,
      "Kur": 8976,
      "Kiri": 8977,
      "Lad": 8978,
      "Leso": 8979,
      "My": 8980,
      "Nand": 8981,
      "Nass": 8982,
      "Nilg": 8983,
      "Niger": 8984,
      "Open": 8985,
      "Osset": 8986,
      "Plas": 8987,
      "RPC": 8988,
      "Sons": 8989,
      "Shekhar": 8990,
      "Satellite": 8991,
      "Tong": 8992,
      "Tiger": 8993,
      "UA": 8994,
      "UK": 8995,
      "Ug": 8996,
      "Vas": 8997,
      "Vanu": 8998,
      "Yar": 8999,
      "Zambia": 9000,
      "ble": 9001,
      "bati": 9002,
      "border": 9003,
      "fin": 9004,
      "gir": 9005,
      "ij": 9006,
      "ilies": 9007,
      "kameez": 9008,
      "lf": 9009,
      "mic": 9010,
      "mam": 9011,
      "mid": 9012,
      "mang": 9013,
      "nla": 9014,
      "next": 9015,
      "oa": 9016,
      "ochi": 9017,
      "ploy": 9018,
      "sin": 9019,
      "uters": 9020,
      "zania": 9021,
      "zamb": 9022,
      "orke": 9023,
      "test": 9024,
      "ende": 9025,
      "ancial": 9026,
      "himal": 9027,
      "till": 9028,
      "arji": 9029,
      "rea": 9030,
      "related": 9031,
      "isa": 9032,
      "ischer": 9033,
      "lavira": 9034,
      "citation": 9035,
      "often": 9036,
      "191": 9037,
      "ashi": 9038,
      "ason": 9039,
      "eton": 9040,
      "administrative": 9041,
      "compani": 9042,
      "story": 9043,
      "IST": 9044,
      "fied": 9045,
      "1233": 9046,
      "FOOTNOTEAsherTalbot": 9047,
      "FOOTNOTEDikshitSchwartzberg2023": 9048,
      "onset": 9049,
      "rove": 9050,
      "website": 9051,
      "div": 9052,
      "oldes": 9053,
      "dec": 9054,
      "hazia": 9055,
      "1414": 9056,
      "indias": 9057,
      "Deve": 9058,
      "2600": 9059,
      "3040": 9060,
      "288": 9061,
      "akar": 9062,
      "ibia": 9063,
      "withdra": 9064,
      "aju": 9065,
      "PA76": 9066,
      "cos": 9067,
      "Roy": 9068,
      "Roorke": 9069,
      "els": 9070,
      "tswana": 9071,
      "771": 9072,
      "blue": 9073,
      "362": 9074,
      "eralisation": 9075,
      "35219": 9076,
      "2C5": 9077,
      "Mozamb": 9078,
      "4654": 9079,
      "marria": 9080,
      "maraju": 9081,
      "cular": 9082,
      "375": 9083,
      "Shuk": 9084,
      "Party": 9085,
      "nationalism": 9086,
      "PPPPC": 9087,
      "endangered": 9088,
      "873": 9089,
      "Mehr": 9090,
      "Sanj": 9091,
      "constitu": 9092,
      "historical": 9093,
      "valu": 9094,
      "caused": 9095,
      "Summary": 9096,
      "5528": 9097,
      "Geology": 9098,
      "Geography": 9099,
      "9937": 9100,
      "plain": 9101,
      "4522": 9102,
      "amaica": 9103,
      "Peers": 9104,
      "Trin": 9105,
      "civil": 9106,
      "Administrative": 9107,
      "9859": 9108,
      "65771": 9109,
      "Barbuda": 9110,
      "colleg": 9111,
      "school": 9112,
      "whose": 9113,
      "Palla": 9114,
      "Nagpur": 9115,
      "Biodiversity": 9116,
      "Gaut": 9117,
      "Baham": 9118,
      "Desai": 9119,
      "Salom": 9120,
      "Balochi": 9121,
      "longer": 9122,
      "40511": 9123,
      "Botswana": 9124,
      "astronom": 9125,
      "mittances": 9126,
      "Dalit": 9127,
      "Nauru": 9128,
      "carri": 9129,
      "Financial": 9130,
      "Greater": 9131,
      "Plofker": 9132,
      "culosis": 9133,
      "Shiva": 9134,
      "Samoa": 9135,
      "highest": 9136,
      "Ptolemy": 9137,
      "Dominica": 9138,
      "Kathakali": 9139,
      "tempor": 9140,
      "families": 9141,
      "growing": 9142,
      "Clothing": 9143,
      "serving": 9144,
      "Morarji": 9145,
      "Namibia": 9146,
      "wildlife": 9147,
      "stream": 9148,
      "Tuvalu": 9149,
      "Dholavira": 9150,
      "Image": 9151,
      "Selection": 9152,
      "Davidson2014": 9153,
      "512873": 9154,
      "93326": 9155,
      "Tanzania": 9156,
      "emerged": 9157,
      "strument": 9158,
      "Lucia": 9159,
      "ecutive": 9160,
      "Gowda": 9161,
      "87779": 9162,
      "Dunleavy": 9163,
      "Kiribati": 9164,
      "Ladakh": 9165,
      "Nigeria": 9166,
      "Ossetia": 9167,
      "Plassey": 9168,
      "Tonga": 9169,
      "Uganda": 9170,
      "Vanuatu": 9171,
      "Yarlung": 9172,
      "oldest": 9173,
      "Roorkee": 9174,
      "35219734": 9175,
      "Shukla": 9176,
      "Mehrgarh": 9177,
      "colleges": 9178,
      "Balochistan": 9179,
      "354": 9180,
      "418": 9181,
      "435": 9182,
      "5261": 9183,
      "870": 9184,
      "HI": 9185,
      "Rai": 9186,
      "Rights": 9187,
      "Serv": 9188,
      "Stock": 9189,
      "UTC": 9190,
      "borders": 9191,
      "fac": 9192,
      "ove": 9193,
      "show": 9194,
      "script": 9195,
      "incip": 9196,
      "Income": 9197,
      "thme": 9198,
      "rema": 9199,
      "1984": 9200,
      "icine": 9201,
      "20110": 9202,
      "uler": 9203,
      "cep": 9204,
      "habit": 9205,
      "above": 9206,
      "called": 9207,
      "imb": 9208,
      "mode": 9209,
      "272": 9210,
      "Technology": 9211,
      "706": 9212,
      "Guide": 9213,
      "383": 9214,
      "396": 9215,
      "Internet": 9216,
      "societ": 9217,
      "display": 9218,
      "684": 9219,
      "ultur": 9220,
      "Diet": 9221,
      "AgAAQBAJ": 9222,
      "Bharata": 9223,
      "impact": 9224,
      "Literature": 9225,
      "burg": 9226,
      "Institute": 9227,
      "figures": 9228,
      "thmetic": 9229,
      "320": 9230,
      "3rd": 9231,
      "946": 9232,
      "Core": 9233,
      "Dig": 9234,
      "Database": 9235,
      "Flum": 9236,
      "GQ": 9237,
      "Gub": 9238,
      "IC": 9239,
      "Nomen": 9240,
      "Of": 9241,
      "Oeconomia": 9242,
      "WPP": 9243,
      "Year": 9244,
      "aedi": 9245,
      "bs": 9246,
      "further": 9247,
      "ggle": 9248,
      "give": 9249,
      "iuris": 9250,
      "mj": 9251,
      "phabet": 9252,
      "qy": 9253,
      "vast": 9254,
      "wAAQBAJ": 9255,
      "will": 9256,
      "tteration": 9257,
      "inet": 9258,
      "inens": 9259,
      "ente": 9260,
      "hie": 9261,
      "online": 9262,
      "tici": 9263,
      "rebus": 9264,
      "esides": 9265,
      "itur": 9266,
      "omines": 9267,
      "ick": 9268,
      "20100": 9269,
      "achie": 9270,
      "lect": 9271,
      "litteration": 9272,
      "urbes": 9273,
      "wear": 9274,
      "ially": 9275,
      "1272": 9276,
      "FOOTNOTELibrary": 9277,
      "Asama": 9278,
      "nii": 9279,
      "ilia": 9280,
      "155": 9281,
      "matter": 9282,
      "1700": 9283,
      "1600": 9284,
      "Recognised": 9285,
      "ensis": 9286,
      "community": 9287,
      "tained": 9288,
      "476": 9289,
      "Praesides": 9290,
      "iving": 9291,
      "336": 9292,
      "Path": 9293,
      "quae": 9294,
      "quod": 9295,
      "905": 9296,
      "906": 9297,
      "ories": 9298,
      "368": 9299,
      "portal": 9300,
      "much": 9301,
      "cultura": 9302,
      "Libert": 9303,
      "Parlament": 9304,
      "asham": 9305,
      "Internationale": 9306,
      "sui": 9307,
      "regard": 9308,
      "mercat": 9309,
      "Respublica": 9310,
      "Sanc": 9311,
      "Geographical": 9312,
      "eping": 9313,
      "Constitutional": 9314,
      "Urbs": 9315,
      "alium": 9316,
      "Augusti": 9317,
      "Alphabet": 9318,
      "inii": 9319,
      "Australis": 9320,
      "oraci": 9321,
      "CON": 9322,
      "Subcontinens": 9323,
      "externis": 9324,
      "wayback": 9325,
      "Islamic": 9326,
      "Indicae": 9327,
      "rator": 9328,
      "Democratia": 9329,
      "Tabula": 9330,
      "Societas": 9331,
      "Translitteration": 9332,
      "Bibliotheca": 9333,
      "Consortionis": 9334,
      "linguarum": 9335,
      "Volume": 9336,
      "Londinii": 9337,
      "Eboraci": 9338,
      "terium": 9339,
      "Webarchive": 9340,
      "additional": 9341,
      "Jha2018": 9342,
      "septentrionalis": 9343,
      "sexto": 9344,
      "Aevum": 9345,
      "Commercium": 9346,
      "FOOTNOTEWolpert20031": 9347,
      "imperator": 9348,
      "Handbook": 9349,
      "struggle": 9350,
      "Sanscriticae": 9351,
      "Disputatio": 9352,
      "Coordinated": 9353,
      "Coreana": 9354,
      "aedific": 9355,
      "Libertas": 9356,
      "Parlamentum": 9357,
      "Alphabetum": 9358,
      "Translitterationis": 9359,
      "325": 9360,
      "625": 9361,
      "Az": 9362,
      "Ait": 9363,
      "Amb": 9364,
      "Ban": 9365,
      "Bour": 9366,
      "BJP": 9367,
      "DE": 9368,
      "Dist": 9369,
      "Fed": 9370,
      "Fie": 9371,
      "Fishing": 9372,
      "Ger": 9373,
      "HM": 9374,
      "Huss": 9375,
      "Jan": 9376,
      "Jus": 9377,
      "Kad": 9378,
      "Kann": 9379,
      "Moun": 9380,
      "Oj": 9381,
      "PT": 9382,
      "Qm": 9383,
      "Rail": 9384,
      "Ravi": 9385,
      "Sultanate": 9386,
      "VID": 9387,
      "bread": 9388,
      "cus": 9389,
      "clo": 9390,
      "dish": 9391,
      "elam": 9392,
      "eaten": 9393,
      "fact": 9394,
      "ga": 9395,
      "garden": 9396,
      "hry": 9397,
      "ici": 9398,
      "ius": 9399,
      "just": 9400,
      "mortal": 9401,
      "migration": 9402,
      "pand": 9403,
      "rang": 9404,
      "roff": 9405,
      "sculpture": 9406,
      "tar": 9407,
      "ting": 9408,
      "vt": 9409,
      "ément": 9410,
      "iar": 9411,
      "orne": 9412,
      "temple": 9413,
      "inces": 9414,
      "anat": 9415,
      "three": 9416,
      "reat": 9417,
      "remain": 9418,
      "alys": 9419,
      "laci": 9420,
      "itor": 9421,
      "oms": 9422,
      "1949": 9423,
      "1909": 9424,
      "rainf": 9425,
      "acher": 9426,
      "atri": 9427,
      "agery": 9428,
      "ings": 9429,
      "lie": 9430,
      "loped": 9431,
      "veloped": 9432,
      "chess": 9433,
      "fire": 9434,
      "Aso": 9435,
      "chison": 9436,
      "meal": 9437,
      "nio": 9438,
      "ilt": 9439,
      "developed": 9440,
      "20210": 9441,
      "158": 9442,
      "Depend": 9443,
      "161": 9444,
      "CITEREFCraven1997": 9445,
      "CITEREFHarle1994": 9446,
      "281": 9447,
      "402": 9448,
      "ctory": 9449,
      "ible": 9450,
      "232": 9451,
      "239": 9452,
      "292": 9453,
      "express": 9454,
      "Maha": 9455,
      "Maury": 9456,
      "PA48": 9457,
      "parks": 9458,
      "cover": 9459,
      "Search": 9460,
      "tspo": 9461,
      "7733": 9462,
      "avia": 9463,
      "363": 9464,
      "Gukes": 9465,
      "minorities": 9466,
      "391": 9467,
      "394": 9468,
      "592": 9469,
      "Enforcement": 9470,
      "ugu": 9471,
      "Rajya": 9472,
      "female": 9473,
      "purpos": 9474,
      "centre": 9475,
      "Santal": 9476,
      "rick": 9477,
      "histor": 9478,
      "value": 9479,
      "agara": 9480,
      "governments": 9481,
      "crimin": 9482,
      "967733": 9483,
      "Lok": 9484,
      "ayanagara": 9485,
      "capital": 9486,
      "Although": 9487,
      "Gujarati": 9488,
      "crocodi": 9489,
      "Child": 9490,
      "Nepali": 9491,
      "COVID": 9492,
      "incely": 9493,
      "Syn": 9494,
      "Turkey": 9495,
      "Nature": 9496,
      "Biosphere": 9497,
      "Tradition": 9498,
      "import": 9499,
      "southwest": 9500,
      "America": 9501,
      "Christianity": 9502,
      "player": 9503,
      "Board": 9504,
      "NIFT": 9505,
      "Police": 9506,
      "Parliamentary": 9507,
      "hapat": 9508,
      "birth": 9509,
      "arajya": 9510,
      "Telugu": 9511,
      "wards": 9512,
      "Zealand": 9513,
      "Mango": 9514,
      "Ganarajya": 9515,
      "Dommaraju": 9516,
      "Vijayanagara": 9517,
      "Saudi": 9518,
      "reserves": 9519,
      "Philippines": 9520,
      "Woodroff": 9521,
      "Grand": 9522,
      "liberalisation": 9523,
      "Michell2000": 9524,
      "Clément": 9525,
      "following": 9526,
      "mountains": 9527,
      "approxim": 9528,
      "ouchability": 9529,
      "Thirgood": 9530,
      "Gautama": 9531,
      "temporary": 9532,
      "Aitchison": 9533,
      "Bourbaki": 9534,
      "Field": 9535,
      "Hussain": 9536,
      "Janata": 9537,
      "Justice": 9538,
      "Kannada": 9539,
      "Ojha": 9540,
      "mortality": 9541,
      "alysis": 9542,
      "rainfall": 9543,
      "Gukesh": 9544,
      "purposes": 9545,
      "NIFTY": 9546,
      "Woodroffe": 9547,
      "Clémentin": 9548,
      "413": 9549,
      "CQ": 9550,
      "Chap": 9551,
      "Merr": 9552,
      "Rā": 9553,
      "Sher": 9554,
      "TI": 9555,
      "claim": 9556,
      "eld": 9557,
      "fast": 9558,
      "gold": 9559,
      "list": 9560,
      "ny": 9561,
      "olin": 9562,
      "oct": 9563,
      "pact": 9564,
      "roo": 9565,
      "worth": 9566,
      "written": 9567,
      "inct": 9568,
      "arnold": 9569,
      "207": 9570,
      "amang": 9571,
      "ided": 9572,
      "having": 9573,
      "ably": 9574,
      "Harper": 9575,
      "28orthographic": 9576,
      "descri": 9577,
      "trition": 9578,
      "partition": 9579,
      "Stupa": 9580,
      "cology": 9581,
      "339": 9582,
      "aith": 9583,
      "originally": 9584,
      "down": 9585,
      "wns": 9586,
      "elements": 9587,
      "colon": 9588,
      "disputed": 9589,
      "those": 9590,
      "Webster": 9591,
      "Collins": 9592,
      "stein": 9593,
      "organisation": 9594,
      "Identi": 9595,
      "Merriam": 9596,
      "HarperCollins": 9597,
      "01956": 9598,
      "1LO": 9599,
      "2V": 9600,
      "632": 9601,
      "7j": 9602,
      "750": 9603,
      "8f": 9604,
      "800": 9605,
      "858": 9606,
      "Cze": 9607,
      "Den": 9608,
      "Final": 9609,
      "GND": 9610,
      "H1LO": 9611,
      "Nish": 9612,
      "Ped": 9613,
      "Sci": 9614,
      "Series": 9615,
      "Smt": 9616,
      "Switz": 9617,
      "WTO": 9618,
      "Y7j": 9619,
      "cens": 9620,
      "dri": 9621,
      "dol": 9622,
      "e8": 9623,
      "eas": 9624,
      "etic": 9625,
      "equality": 9626,
      "iAtlas": 9627,
      "look": 9628,
      "sort": 9629,
      "scri": 9630,
      "scs": 9631,
      "utr": 9632,
      "vp": 9633,
      "vas": 9634,
      "wikivoyage": 9635,
      "inac": 9636,
      "inindia": 9637,
      "inval": 9638,
      "ename": 9639,
      "erland": 9640,
      "review": 9641,
      "193": 9642,
      "20120": 9643,
      "20130": 9644,
      "1023": 9645,
      "ISNI": 9646,
      "agement": 9647,
      "5051": 9648,
      "1815": 9649,
      "CITEREFNational": 9650,
      "CITEREFConstituent": 9651,
      "heres": 9652,
      "PA46": 9653,
      "PA219": 9654,
      "params": 9655,
      "light": 9656,
      "3339": 9657,
      "ques": 9658,
      "origin": 9659,
      "366": 9660,
      "MiniAtlas": 9661,
      "ssd": 9662,
      "201604": 9663,
      "568": 9664,
      "201908": 9665,
      "201904": 9666,
      "generation": 9667,
      "Neutr": 9668,
      "Raju": 9669,
      "WikiMiniAtlas": 9670,
      "586": 9671,
      "reement": 9672,
      "medium": 9673,
      "nekar": 9674,
      "garhi": 9675,
      "although": 9676,
      "964": 9677,
      "500px": 9678,
      "Bhārata": 9679,
      "Ludden2002": 9680,
      "background": 9681,
      "Corporation": 9682,
      "lsC": 9683,
      "Salim": 9684,
      "parliamentofindia": 9685,
      "largely": 9686,
      "pagename": 9687,
      "Americana": 9688,
      "signed": 9689,
      "Outlook": 9690,
      "NGDPDPC": 9691,
      "gadget": 9692,
      "Ifqy": 9693,
      "considered": 9694,
      "mjIfqy": 9695,
      "Pathak": 9696,
      "2VH1LO": 9697,
      "Czech": 9698,
      "Pednekar": 9699,
      "Switzerland": 9700,
[...]
