{
  "version": "1.0",
  "truncation": null,
  "padding": null,
  "added_tokens": [
    {
      "id": 0,
      "content": "<0x00>",
      "single_word": false,
      "lstrip": false,
      "rstrip": false,
      "normalized": false,
      "special": false
    },
    {
      "id": 1,
      "content": "<0x01>",
      "single_word": false,
      "lstrip": false,
      "rstrip": false,
      "normalized": false,
      "special": false
    },
    {
      "id": 2,
      "content": "<0x02>",
      "single_word": false,
      "lstrip": false,
      "rstrip": false,
      "normalized": false,
      "special": false
    },
    {
      "id": 3,
      "content": "<0x03>",
      "single_word": false,
      "lstrip": false,
      "rstrip": false,
      "normalized": false,
      "special": false
    },
    {
      "id": 4,
      "content": "<0x04>",
      "single_word": false,
      "lstrip": false,
      "rstrip": false,
      "normalized": false,
      "special": false
    },
    {
      "id": 5,
      "content": "<0x05>",
      "single_word": false,
      "lstrip": false,
      "rstrip": false,
      "normalized": false,
      "special": false
    },
    {
      "id": 6,
      "content": "<0x06>",
      "single_word": false,
      "lstrip": false,
      "rstrip": false,
      "normalized": false,
      "special": false
    },
    {
      "id": 7,
      "content": "<0x07>",
      "single_word": false,
      "lstrip": false,
      "rstrip": false,
      "normalized": false,
      "special": false
    },
    {
      "id": 8,
      "content": "<0x08>",
      "single_word": false,
      "lstrip": false,
      "rstrip": false,
      "normalized": false,
      "special": false
    },
    {
      "id": 9,
      "content": "<0x09>",
      "single_word": false,
      "lstrip": false,
      "rstrip": false,
      "normalized": false,
      "special": false
    },
    {
      "id": 10,
      "content": "<0x0A>",
      "single_word": false,
      "lstrip": false,
      "rstrip": false,
      "normalized": false,
      "special": false
    },
    {
      "id": 11,
      "content": "<0x0B>",
      "single_word": false,
      "lstrip": false,
      "rstrip": false,
      "normalized": false,
      "special": false
    },
    {
      "id": 12,
      "content": "<0x0C>",
      "single_word": false,
      "lstrip": false,
      "rstrip": false,
      "normalized": false,
      "special": false
    },
    {
      "id": 13,
      "content": "<0x0D>",
      "single_word": false,
      "lstrip": false,
      "rstrip": false,
      "normalized": false,
      "special": false
    },
    {
      "id": 14,
      "content": "<0x0E>",
      "single_word": false,
      "lstrip": false,
      "rstrip": false,
      "normalized": false,
      "special": false
    },
    {
      "id": 15,
      "content": "<0x0F>",
      "single_word": false,
      "lstrip": false,
      "rstrip": false,
      "normalized": false,
      "special": false
    },
    {
      "id": 16,
      "content": "<0x10>",
      "single_word": false,
      "lstrip": false,
      "rstrip": false,
      "normalized": false,
      "special": false
    },
    {
      "id": 17,
      "content": "<0x11>",
      "single_word": false,
      "lstrip": false,
      "rstrip": false,
      "normalized": false,
      "special": false
    },
    {
      "id": 18,
      "content": "<0x12>",
      "single_word": false,
      "lstrip": false,
      "rstrip": false,
      "normalized": false,
      "special": false
    },
    {
      "id": 19,
      "content": "<0x13>",
      "single_word": false,
      "lstrip": false,
      "rstrip": false,
      "normalized": false,
      "special": false
    },
    {
      "id": 20,
      "content": "<0x14>",
      "single_word": false,
      "lstrip": false,
      "rstrip": false,
      "normalized": false,
      "special": false
    },
    {
      "id": 21,
      "content": "<0x15>",
      "single_word": false,
      "lstrip": false,
      "rstrip": false,
      "normalized": false,
      "special": false
    },
    {
      "id": 22,
      "content": "<0x16>",
      "single_word": false,
      "lstrip": false,
      "rstrip": false,
      "normalized": false,
      "special": false
    },
    {
      "id": 23,
      "content": "<0x17>",
      "single_word": false,
      "lstrip": false,
      "rstrip": false,
      "normalized": false,
      "special": false
    },
    {
      "id": 24,
      "content": "<0x18>",
      "single_word": false,
      "lstrip": false,
      "rstrip": false,
      "normalized": false,
      "special": false
    },
    {
      "id": 25,
      "content": "<0x19>",
      "single_word": false,
      "lstrip": false,
      "rstrip": false,
      "normalized": false,
      "special": false
    },
    {
      "id": 26,
      "content": "<0x1A>",
      "single_word": false,
      "lstrip": false,
      "rstrip": false,
      "normalized": false,
      "special": false
    },
    {
      "id": 27,
      "content": "<0x1B>",
      "single_word": false,
      "lstrip": false,
      "rstrip": false,
      "normalized": false,
      "special": false
    },
    {
      "id": 28,
      "content": "<0x1C>",
      "single_word": false,
      "lstrip": false,
      "rstrip": false,
      "normalized": false,
      "special": false
    },
    {
      "id": 29,
      "content": "<0x1D>",
      "single_word": false,
      "lstrip": false,
      "rstrip": false,
      "normalized": false,
      "special": false
    },
    {
      "id": 30,
      "content": "<0x1E>",
      "single_word": false,
      "lstrip": false,
      "rstrip": false,
      "normalized": false,
      "special": false
    },
    {
      "id": 31,
      "content": "<0x1F>",
      "single_word": false,
      "lstrip": false,
      "rstrip": false,
      "normalized": false,
      "special": false
    },
    {
      "id": 32,
      "content": "<0x20>",
      "single_word": false,
      "lstrip": false,
      "rstrip": false,
      "normalized": false,
      "special": false
    },
    {
      "id": 33,
      "content": "<0x21>",
      "single_word": false,
      "lstrip": false,
      "rstrip": false,
      "normalized": false,
      "special": false
    },
    {
      "id": 34,
      "content": "<0x22>",
      "single_word": false,
      "lstrip": false,
      "rstrip": false,
      "normalized": false,
      "special": false
    },
    {
      "id": 35,
      "content": "<0x23>",
      "single_word": false,
      "lstrip": false,
      "rstrip": false,
      "normalized": false,
      "special": false
    },
    {
      "id": 36,
      "content": "<0x24>",
      "single_word": false,
      "lstrip": false,
      "rstrip": false,
      "normalized": false,
      "special": false
    },
    {
      "id": 37,
      "content": "<0x25>",
      "single_word": false,
      "lstrip": false,
      "rstrip": false,
      "normalized": false,
      "special": false
    },
    {
      "id": 38,
      "content": "<0x26>",
      "single_word": false,
      "lstrip": false,
      "rstrip": false,
      "normalized": false,
      "special": false
    },
    {
      "id": 39,
      "content": "<0x27>",
      "single_word": false,
      "lstrip": false,
      "rstrip": false,
      "normalized": false,
      "special": false
    },
    {
      "id": 40,
      "content": "<0x28>",
      "single_word": false,
      "lstrip": false,
      "rstrip": false,
      "normalized": false,
      "special": false
    },
    {
      "id": 41,
      "content": "<0x29>",
      "single_word": false,
      "lstrip": false,
      "rstrip": false,
      "normalized": false,
      "special": false
    },
    {
      "id": 42,
      "content": "<0x2A>",
      "single_word": false,
      "lstrip": false,
      "rstrip": false,
      "normalized": false,
      "special": false
    },
    {
      "id": 43,
      "content": "<0x2B>",
      "single_word": false,
      "lstrip": false,
      "rstrip": false,
      "normalized": false,
      "special": false
    },
    {
      "id": 44,
      "content": "<0x2C>",
      "single_word": false,
      "lstrip": false,
      "rstrip": false,
      "normalized": false,
      "special": false
    },
    {
      "id": 45,
      "content": "<0x2D>",
      "single_word": false,
      "lstrip": false,
      "rstrip": false,
      "normalized": false,
      "special": false
    },
    {
      "id": 46,
      "content": "<0x2E>",
      "single_word": false,
      "lstrip": false,
      "rstrip": false,
      "normalized": false,
      "special": false
    },
    {
      "id": 47,
      "content": "<0x2F>",
      "single_word": false,
      "lstrip": false,
      "rstrip": false,
      "normalized": false,
      "special": false
    },
    {
      "id": 48,
      "content": "<0x30>",
      "single_word": false,
      "lstrip": false,
      "rstrip": false,
      "normalized": false,
      "special": false
    },
    {
      "id": 49,
      "content": "<0x31>",
      "single_word": false,
      "lstrip": false,
      "rstrip": false,
      "normalized": false,
      "special": false
    },
    {
      "id": 50,
      "content": "<0x32>",
      "single_word": false,
      "lstrip": false,
      "rstrip": false,
      "normalized": false,
      "special": false
    },
    {
      "id": 51,
      "content": "<0x33>",
      "single_word": false,
      "lstrip": false,
      "rstrip": false,
      "normalized": false,
      "special": false
    },
    {
      "id": 52,
      "content": "<0x34>",
      "single_word": false,
      "lstrip": false,
      "rstrip": false,
      "normalized": false,
      "special": false
    },
    {
      "id": 53,
      "content": "<0x35>",
      "single_word": false,
      "lstrip": false,
      "rstrip": false,
      "normalized": false,
      "special": false
    },
    {
      "id": 54,
      "content": "<0x36>",
      "single_word": false,
      "lstrip": false,
      "rstrip": false,
      "normalized": false,
      "special": false
    },
    {
      "id": 55,
      "content": "<0x37>",
      "single_word": false,
      "lstrip": false,
      "rstrip": false,
      "normalized": false,
      "special": false
    },
    {
      "id": 56,
      "content": "<0x38>",
      "single_word": false,
      "lstrip": false,
      "rstrip": false,
      "normalized": false,
      "special": false
    },
    {
      "id": 57,
      "content": "<0x39>",
      "single_word": false,
      "lstrip": false,
      "rstrip": false,
      "normalized": false,
      "special": false
    },
    {
      "id": 58,
      "content": "<0x3A>",
      "single_word": false,
      "lstrip": false,
      "rstrip": false,
      "normalized": false,
      "special": false
    },
    {
      "id": 59,
      "content": "<0x3B>",
      "single_word": false,
      "lstrip": false,
      "rstrip": false,
      "normalized": false,
      "special": false
    },
    {
      "id": 60,
      "content": "<0x3C>",
      "single_word": false,
      "lstrip": false,
      "rstrip": false,
      "normalized": false,
      "special": false
    },
    {
      "id": 61,
      "content": "<0x3D>",
      "single_word": false,
      "lstrip": false,
      "rstrip": false,
      "normalized": false,
      "special": false
    },
    {
      "id": 62,
      "content": "<0x3E>",
      "single_word": false,
      "lstrip": false,
      "rstrip": false,
      "normalized": false,
      "special": false
    },
    {
      "id": 63,
      "content": "<0x3F>",
      "single_word": false,
      "lstrip": false,
      "rstrip": false,
      "normalized": false,
      "special": false
    },
    {
      "id": 64,
      "content": "<0x40>",
      "single_word": false,
      "lstrip": false,
      "rstrip": false,
      "normalized": false,
      "special": false
    },
    {
      "id": 65,
      "content": "<0x41>",
      "single_word": false,
      "lstrip": false,
      "rstrip": false,
      "normalized": false,
      "special": false
    },
    {
      "id": 66,
      "content": "<0x42>",
      "single_word": false,
      "lstrip": false,
      "rstrip": false,
      "normalized": false,
      "special": false
    },
    {
      "id": 67,
      "content": "<0x43>",
      "single_word": false,
      "lstrip": false,
      "rstrip": false,
      "normalized": false,
      "special": false
    },
    {
      "id": 68,
      "content": "<0x44>",
      "single_word": false,
      "lstrip": false,
      "rstrip": false,
      "normalized": false,
      "special": false
    },
    {
      "id": 69,
      "content": "<0x45>",
      "single_word": false,
      "lstrip": false,
      "rstrip": false,
      "normalized": false,
      "special": false
    },
    {
      "id": 70,
      "content": "<0x46>",
      "single_word": false,
      "lstrip": false,
      "rstrip": false,
      "normalized": false,
      "special": false
    },
    {
      "id": 71,
      "content": "<0x47>",
      "single_word": false,
      "lstrip": false,
      "rstrip": false,
      "normalized": false,
      "special": false
    },
    {
      "id": 72,
      "content": "<0x48>",
      "single_word": false,
      "lstrip": false,
      "rstrip": false,
      "normalized": false,
      "special": false
    },
    {
      "id": 73,
      "content": "<0x49>",
      "single_word": false,
      "lstrip": false,
      "rstrip": false,
      "normalized": false,
      "special": false
    },
    {
      "id": 74,
      "content": "<0x4A>",
      "single_word": false,
      "lstrip": false,
      "rstrip": false,
      "normalized": false,
      "special": false
    },
    {
      "id": 75,
      "content": "<0x4B>",
      "single_word": false,
      "lstrip": false,
      "rstrip": false,
      "normalized": false,
      "special": false
    },
    {
      "id": 76,
      "content": "<0x4C>",
      "single_word": false,
      "lstrip": false,
      "rstrip": false,
      "normalized": false,
      "special": false
    },
    {
      "id": 77,
      "content": "<0x4D>",
      "single_word": false,
      "lstrip": false,
      "rstrip": false,
      "normalized": false,
      "special": false
    },
    {
      "id": 78,
      "content": "<0x4E>",
      "single_word": false,
      "lstrip": false,
      "rstrip": false,
      "normalized": false,
      "special": false
    },
    {
      "id": 79,
      "content": "<0x4F>",
      "single_word": false,
      "lstrip": false,
      "rstrip": false,
      "normalized": false,
      "special": false
    },
    {
      "id": 80,
      "content": "<0x50>",
      "single_word": false,
      "lstrip": false,
      "rstrip": false,
      "normalized": false,
      "special": false
    },
    {
      "id": 81,
      "content": "<0x51>",
      "single_word": false,
      "lstrip": false,
      "rstrip": false,
      "normalized": false,
      "special": false
    },
    {
      "id": 82,
      "content": "<0x52>",
      "single_word": false,
      "lstrip": false,
      "rstrip": false,
      "normalized": false,
      "special": false
    },
    {
      "id": 83,
      "content": "<0x53>",
      "single_word": false,
      "lstrip": false,
      "rstrip": false,
      "normalized": false,
      "special": false
    },
    {
      "id": 84,
      "content": "<0x54>",
      "single_word": false,
      "lstrip": false,
      "rstrip": false,
      "normalized": false,
      "special": false
    },
    {
      "id": 85,
      "content": "<0x55>",
      "single_word": false,
      "lstrip": false,
      "rstrip": false,
      "normalized": false,
      "special": false
    },
    {
      "id": 86,
      "content": "<0x56>",
      "single_word": false,
      "lstrip": false,
      "rstrip": false,
      "normalized": false,
      "special": false
    },
    {
      "id": 87,
      "content": "<0x57>",
      "single_word": false,
      "lstrip": false,
      "rstrip": false,
      "normalized": false,
      "special": false
    },
    {
      "id": 88,
      "content": "<0x58>",
      "single_word": false,
      "lstrip": false,
      "rstrip": false,
      "normalized": false,
      "special": false
    },
    {
      "id": 89,
      "content": "<0x59>",
      "single_word": false,
      "lstrip": false,
      "rstrip": false,
      "normalized": false,
      "special": false
    },
    {
      "id": 90,
      "content": "<0x5A>",
      "single_word": false,
      "lstrip": false,
      "rstrip": false,
      "normalized": false,
      "special": false
    },
    {
      "id": 91,
      "content": "<0x5B>",
      "single_word": false,
      "lstrip": false,
      "rstrip": false,
      "normalized": false,
      "special": false
    },
    {
      "id": 92,
      "content": "<0x5C>",
      "single_word": false,
      "lstrip": false,
      "rstrip": false,
      "normalized": false,
      "special": false
    },
    {
      "id": 93,
      "content": "<0x5D>",
      "single_word": false,
      "lstrip": false,
      "rstrip": false,
      "normalized": false,
      "special": false
    },
    {
      "id": 94,
      "content": "<0x5E>",
      "single_word": false,
      "lstrip": false,
      "rstrip": false,
      "normalized": false,
      "special": false
    },
    {
      "id": 95,
      "content": "<0x5F>",
      "single_word": false,
      "lstrip": false,
      "rstrip": false,
      "normalized": false,
      "special": false
    },
    {
      "id": 96,
      "content": "<0x60>",
      "single_word": false,
      "lstrip": false,
      "rstrip": false,
      "normalized": false,
      "special": false
    },
    {
      "id": 97,
      "content": "<0x61>",
      "single_word": false,
      "lstrip": false,
      "rstrip": false,
      "normalized": false,
      "special": false
    },
    {
      "id": 98,
      "content": "<0x62>",
      "single_word": false,
      "lstrip": false,
      "rstrip": false,
      "normalized": false,
      "special": false
    },
    {
      "id": 99,
      "content": "<0x63>",
      "single_word": false,
      "lstrip": false,
      "rstrip": false,
      "normalized": false,
      "special": false
    },
    {
      "id": 100,
      "content": "<0x64>",
      "single_word": false,
      "lstrip": false,
      "rstrip": false,
      "normalized": false,
      "special": false
    },
    {
      "id": 101,
      "content": "<0x65>",
      "single_word": false,
      "lstrip": false,
      "rstrip": false,
      "normalized": false,
      "special": false
    },
    {
      "id": 102,
      "content": "<0x66>",
      "single_word": false,
      "lstrip": false,
      "rstrip": false,
      "normalized": false,
      "special": false
    },
    {
      "id": 103,
      "content": "<0x67>",
      "single_word": false,
      "lstrip": false,
      "rstrip": false,
      "normalized": false,
      "special": false
    },
    {
      "id": 104,
      "content": "<0x68>",
      "single_word": false,
      "lstrip": false,
      "rstrip": false,
      "normalized": false,
      "special": false
    },
    {
      "id": 105,
      "content": "<0x69>",
      "single_word": false,
      "lstrip": false,
      "rstrip": false,
      "normalized": false,
      "special": false
    },
    {
      "id": 106,
      "content": "<0x6A>",
      "single_word": false,
      "lstrip": false,
      "rstrip": false,
      "normalized": false,
      "special": false
    },
    {
      "id": 107,
      "content": "<0x6B>",
      "single_word": false,
      "lstrip": false,
      "rstrip": false,
      "normalized": false,
      "special": false
    },
    {
      "id": 108,
      "content": "<0x6C>",
      "single_word": false,
      "lstrip": false,
      "rstrip": false,
      "normalized": false,
      "special": false
    },
    {
      "id": 109,
      "content": "<0x6D>",
      "single_word": false,
      "lstrip": false,
      "rstrip": false,
      "normalized": false,
      "special": false
    },
    {
      "id": 110,
      "content": "<0x6E>",
      "single_word": false,
      "lstrip": false,
      "rstrip": false,
      "normalized": false,
      "special": false
    },
    {
      "id": 111,
      "content": "<0x6F>",
      "single_word": false,
      "lstrip": false,
      "rstrip": false,
      "normalized": false,
      "special": false
    },
    {
      "id": 112,
      "content": "<0x70>",
      "single_word": false,
      "lstrip": false,
      "rstrip": false,
      "normalized": false,
      "special": false
    },
    {
      "id": 113,
      "content": "<0x71>",
      "single_word": false,
      "lstrip": false,
      "rstrip": false,
      "normalized": false,
      "special": false
    },
    {
      "id": 114,
      "content": "<0x72>",
      "single_word": false,
      "lstrip": false,
      "rstrip": false,
      "normalized": false,
      "special": false
    },
    {
      "id": 115,
      "content": "<0x73>",
      "single_word": false,
      "lstrip": false,
      "rstrip": false,
      "normalized": false,
      "special": false
    },
    {
      "id": 116,
      "content": "<0x74>",
      "single_word": false,
      "lstrip": false,
      "rstrip": false,
      "normalized": false,
      "special": false
    },
    {
      "id": 117,
      "content": "<0x75>",
      "single_word": false,
      "lstrip": false,
      "rstrip": false,
      "normalized": false,
      "special": false
    },
    {
      "id": 118,
      "content": "<0x76>",
      "single_word": false,
      "lstrip": false,
      "rstrip": false,
      "normalized": false,
      "special": false
    },
    {
      "id": 119,
      "content": "<0x77>",
      "single_word": false,
      "lstrip": false,
      "rstrip": false,
      "normalized": false,
      "special": false
    },
    {
      "id": 120,
      "content": "<0x78>",
      "single_word": false,
      "lstrip": false,
      "rstrip": false,
      "normalized": false,
      "special": false
    },
    {
      "id": 121,
      "content": "<0x79>",
      "single_word": false,
      "lstrip": false,
      "rstrip": false,
      "normalized": false,
      "special": false
    },
    {
      "id": 122,
      "content": "<0x7A>",
      "single_word": false,
      "lstrip": false,
      "rstrip": false,
      "normalized": false,
      "special": false
    },
    {
      "id": 123,
      "content": "<0x7B>",
      "single_word": false,
      "lstrip": false,
      "rstrip": false,
      "normalized": false,
      "special": false
    },
    {
      "id": 124,
      "content": "<0x7C>",
      "single_word": false,
      "lstrip": false,
      "rstrip": false,
      "normalized": false,
      "special": false
    },
    {
      "id": 125,
      "content": "<0x7D>",
      "single_word": false,
      "lstrip": false,
      "rstrip": false,
      "normalized": false,
      "special": false
    },
    {
      "id": 126,
      "content": "<0x7E>",
      "single_word": false,
      "lstrip": false,
      "rstrip": false,
      "normalized": false,
      "special": false
    },
    {
      "id": 127,
      "content": "<0x7F>",
      "single_word": false,
      "lstrip": false,
      "rstrip": false,
      "normalized": false,
      "special": false
    },
    {
      "id": 128,
      "content": "<0x80>",
      "single_word": false,
      "lstrip": false,
      "rstrip": false,
      "normalized": false,
      "special": false
    },
    {
      "id": 129,
      "content": "<0x81>",
      "single_word": false,
      "lstrip": false,
      "rstrip": false,
      "normalized": false,
      "special": false
    },
    {
      "id": 130,
      "content": "<0x82>",
      "single_word": false,
      "lstrip": false,
      "rstrip": false,
      "normalized": false,
      "special": false
    },
    {
      "id": 131,
      "content": "<0x83>",
      "single_word": false,
      "lstrip": false,
      "rstrip": false,
      "normalized": false,
      "special": false
    },
    {
      "id": 132,
      "content": "<0x84>",
      "single_word": false,
      "lstrip": false,
      "rstrip": false,
      "normalized": false,
      "special": false
    },
    {
      "id": 133,
      "content": "<0x85>",
      "single_word": false,
      "lstrip": false,
      "rstrip": false,
      "normalized": false,
      "special": false
    },
    {
      "id": 134,
      "content": "<0x86>",
      "single_word": false,
      "lstrip": false,
      "rstrip": false,
      "normalized": false,
      "special": false
    },
    {
      "id": 135,
      "content": "<0x87>",
      "single_word": false,
      "lstrip": false,
      "rstrip": false,
      "normalized": false,
      "special": false
    },
    {
      "id": 136,
      "content": "<0x88>",
      "single_word": false,
      "lstrip": false,
      "rstrip": false,
      "normalized": false,
      "special": false
    },
    {
      "id": 137,
      "content": "<0x89>",
      "single_word": false,
      "lstrip": false,
      "rstrip": false,
      "normalized": false,
      "special": false
    },
    {
      "id": 138,
      "content": "<0x8A>",
      "single_word": false,
      "lstrip": false,
      "rstrip": false,
      "normalized": false,
      "special": false
    },
    {
      "id": 139,
      "content": "<0x8B>",
      "single_word": false,
      "lstrip": false,
      "rstrip": false,
      "normalized": false,
      "special": false
    },
    {
      "id": 140,
      "content": "<0x8C>",
      "single_word": false,
      "lstrip": false,
      "rstrip": false,
      "normalized": false,
      "special": false
    },
    {
      "id": 141,
      "content": "<0x8D>",
      "single_word": false,
      "lstrip": false,
      "rstrip": false,
      "normalized": false,
      "special": false
    },
    {
      "id": 142,
      "content": "<0x8E>",
      "single_word": false,
      "lstrip": false,
      "rstrip": false,
      "normalized": false,
      "special": false
    },
    {
      "id": 143,
      "content": "<0x8F>",
      "single_word": false,
      "lstrip": false,
      "rstrip": false,
      "normalized": false,
      "special": false
    },
    {
      "id": 144,
      "content": "<0x90>",
      "single_word": false,
      "lstrip": false,
      "rstrip": false,
      "normalized": false,
      "special": false
    },
    {
      "id": 145,
      "content": "<0x91>",
      "single_word": false,
      "lstrip": false,
      "rstrip": false,
      "normalized": false,
      "special": false
    },
    {
      "id": 146,
      "content": "<0x92>",
      "single_word": false,
      "lstrip": false,
      "rstrip": false,
      "normalized": false,
      "special": false
    },
    {
      "id": 147,
      "content": "<0x93>",
      "single_word": false,
      "lstrip": false,
      "rstrip": false,
      "normalized": false,
      "special": false
    },
    {
      "id": 148,
      "content": "<0x94>",
      "single_word": false,
      "lstrip": false,
      "rstrip": false,
      "normalized": false,
      "special": false
    },
    {
      "id": 149,
      "content": "<0x95>",
      "single_word": false,
      "lstrip": false,
      "rstrip": false,
      "normalized": false,
      "special": false
    },
    {
      "id": 150,
      "content": "<0x96>",
      "single_word": false,
      "lstrip": false,
      "rstrip": false,
      "normalized": false,
      "special": false
    },
    {
      "id": 151,
      "content": "<0x97>",
      "single_word": false,
      "lstrip": false,
      "rstrip": false,
      "normalized": false,
      "special": false
    },
    {
      "id": 152,
      "content": "<0x98>",
      "single_word": false,
      "lstrip": false,
      "rstrip": false,
      "normalized": false,
      "special": false
    },
    {
      "id": 153,
      "content": "<0x99>",
      "single_word": false,
      "lstrip": false,
      "rstrip": false,
      "normalized": false,
      "special": false
    },
    {
      "id": 154,
      "content": "<0x9A>",
      "single_word": false,
      "lstrip": false,
      "rstrip": false,
      "normalized": false,
      "special": false
    },
    {
      "id": 155,
      "content": "<0x9B>",
      "single_word": false,
      "lstrip": false,
      "rstrip": false,
      "normalized": false,
      "special": false
    },
    {
      "id": 156,
      "content": "<0x9C>",
      "single_word": false,
      "lstrip": false,
      "rstrip": false,
      "normalized": false,
      "special": false
    },
    {
      "id": 157,
      "content": "<0x9D>",
      "single_word": false,
      "lstrip": false,
      "rstrip": false,
      "normalized": false,
      "special": false
    },
    {
      "id": 158,
      "content": "<0x9E>",
      "single_word": false,
      "lstrip": false,
      "rstrip": false,
      "normalized": false,
      "special": false
    },
    {
      "id": 159,
      "content": "<0x9F>",
      "single_word": false,
      "lstrip": false,
      "rstrip": false,
      "normalized": false,
      "special": false
    },
    {
      "id": 160,
      "content": "<0xA0>",
      "single_word": false,
      "lstrip": false,
      "rstrip": false,
      "normalized": false,
      "special": false
    },
    {
      "id": 161,
      "content": "<0xA1>",
      "single_word": false,
      "lstrip": false,
      "rstrip": false,
      "normalized": false,
      "special": false
    },
    {
      "id": 162,
      "content": "<0xA2>",
      "single_word": false,
      "lstrip": false,
      "rstrip": false,
      "normalized": false,
      "special": false
    },
    {
      "id": 163,
      "content": "<0xA3>",
      "single_word": false,
      "lstrip": false,
      "rstrip": false,
      "normalized": false,
      "special": false
    },
    {
      "id": 164,
      "content": "<0xA4>",
      "single_word": false,
      "lstrip": false,
      "rstrip": false,
      "normalized": false,
      "special": false
    },
    {
      "id": 165,
      "content": "<0xA5>",
      "single_word": false,
      "lstrip": false,
      "rstrip": false,
      "normalized": false,
      "special": false
    },
    {
      "id": 166,
      "content": "<0xA6>",
      "single_word": false,
      "lstrip": false,
      "rstrip": false,
      "normalized": false,
      "special": false
    },
    {
      "id": 167,
      "content": "<0xA7>",
      "single_word": false,
      "lstrip": false,
      "rstrip": false,
      "normalized": false,
      "special": false
    },
    {
      "id": 168,
      "content": "<0xA8>",
      "single_word": false,
      "lstrip": false,
      "rstrip": false,
      "normalized": false,
      "special": false
    },
    {
      "id": 169,
      "content": "<0xA9>",
      "single_word": false,
      "lstrip": false,
      "rstrip": false,
      "normalized": false,
      "special": false
    },
    {
      "id": 170,
      "content": "<0xAA>",
      "single_word": false,
      "lstrip": false,
      "rstrip": false,
      "normalized": false,
      "special": false
    },
    {
      "id": 171,
      "content": "<0xAB>",
      "single_word": false,
      "lstrip": false,
      "rstrip": false,
      "normalized": false,
      "special": false
    },
    {
      "id": 172,
      "content": "<0xAC>",
      "single_word": false,
      "lstrip": false,
      "rstrip": false,
      "normalized": false,
      "special": false
    },
    {
      "id": 173,
      "content": "<0xAD>",
      "single_word": false,
      "lstrip": false,
      "rstrip": false,
      "normalized": false,
      "special": false
    },
    {
      "id": 174,
      "content": "<0xAE>",
      "single_word": false,
      "lstrip": false,
      "rstrip": false,
      "normalized": false,
      "special": false
    },
    {
      "id": 175,
      "content": "<0xAF>",
      "single_word": false,
      "lstrip": false,
      "rstrip": false,
      "normalized": false,
      "special": false
    },
    {
      "id": 176,
      "content": "<0xB0>",
      "single_word": false,
      "lstrip": false,
      "rstrip": false,
      "normalized": false,
      "special": false
    },
    {
      "id": 177,
      "content": "<0xB1>",
      "single_word": false,
      "lstrip": false,
      "rstrip": false,
      "normalized": false,
      "special": false
    },
    {
      "id": 178,
      "content": "<0xB2>",
      "single_word": false,
      "lstrip": false,
      "rstrip": false,
      "normalized": false,
      "special": false
    },
    {
      "id": 179,
      "content": "<0xB3>",
      "single_word": false,
      "lstrip": false,
      "rstrip": false,
      "normalized": false,
      "special": false
    },
    {
      "id": 180,
      "content": "<0xB4>",
      "single_word": false,
      "lstrip": false,
      "rstrip": false,
      "normalized": false,
      "special": false
    },
    {
      "id": 181,
      "content": "<0xB5>",
      "single_word": false,
      "lstrip": false,
      "rstrip": false,
      "normalized": false,
      "special": false
    },
    {
      "id": 182,
      "content": "<0xB6>",
      "single_word": false,
      "lstrip": false,
      "rstrip": false,
      "normalized": false,
      "special": false
    },
    {
      "id": 183,
      "content": "<0xB7>",
      "single_word": false,
      "lstrip": false,
      "rstrip": false,
      "normalized": false,
      "special": false
    },
    {
      "id": 184,
      "content": "<0xB8>",
      "single_word": false,
      "lstrip": false,
      "rstrip": false,
      "normalized": false,
      "special": false
    },
    {
      "id": 185,
      "content": "<0xB9>",
      "single_word": false,
      "lstrip": false,
      "rstrip": false,
      "normalized": false,
      "special": false
    },
    {
      "id": 186,
      "content": "<0xBA>",
      "single_word": false,
      "lstrip": false,
      "rstrip": false,
      "normalized": false,
      "special": false
    },
    {
      "id": 187,
      "content": "<0xBB>",
      "single_word": false,
      "lstrip": false,
      "rstrip": false,
      "normalized": false,
      "special": false
    },
    {
      "id": 188,
      "content": "<0xBC>",
      "single_word": false,
      "lstrip": false,
      "rstrip": false,
      "normalized": false,
      "special": false
    },
    {
      "id": 189,
      "content": "<0xBD>",
      "single_word": false,
      "lstrip": false,
      "rstrip": false,
      "normalized": false,
      "special": false
    },
    {
      "id": 190,
      "content": "<0xBE>",
      "single_word": false,
      "lstrip": false,
      "rstrip": false,
      "normalized": false,
      "special": false
    },
    {
      "id": 191,
      "content": "<0xBF>",
      "single_word": false,
      "lstrip": false,
      "rstrip": false,
      "normalized": false,
      "special": false
    },
    {
      "id": 192,
      "content": "<0xC0>",
      "single_word": false,
      "lstrip": false,
      "rstrip": false,
      "normalized": false,
      "special": false
    },
    {
      "id": 193,
      "content": "<0xC1>",
      "single_word": false,
      "lstrip": false,
      "rstrip": false,
      "normalized": false,
      "special": false
    },
    {
      "id": 194,
      "content": "<0xC2>",
      "single_word": false,
      "lstrip": false,
      "rstrip": false,
      "normalized": false,
      "special": false
    },
    {
      "id": 195,
      "content": "<0xC3>",
      "single_word": false,
      "lstrip": false,
      "rstrip": false,
      "normalized": false,
      "special": false
    },
    {
      "id": 196,
      "content": "<0xC4>",
      "single_word": false,
      "lstrip": false,
      "rstrip": false,
      "normalized": false,
      "special": false
    },
    {
      "id": 197,
      "content": "<0xC5>",
      "single_word": false,
      "lstrip": false,
      "rstrip": false,
      "normalized": false,
      "special": false
    },
    {
      "id": 198,
      "content": "<0xC6>",
      "single_word": false,
      "lstrip": false,
      "rstrip": false,
      "normalized": false,
      "special": false
    },
    {
      "id": 199,
      "content": "<0xC7>",
      "single_word": false,
      "lstrip": false,
      "rstrip": false,
      "normalized": false,
      "special": false
    },
    {
      "id": 200,
      "content": "<0xC8>",
      "single_word": false,
      "lstrip": false,
      "rstrip": false,
      "normalized": false,
      "special": false
    },
    {
      "id": 201,
      "content": "<0xC9>",
      "single_word": false,
      "lstrip": false,
      "rstrip": false,
      "normalized": false,
      "special": false
    },
    {
      "id": 202,
      "content": "<0xCA>",
      "single_word": false,
      "lstrip": false,
      "rstrip": false,
      "normalized": false,
      "special": false
    },
    {
      "id": 203,
      "content": "<0xCB>",
      "single_word": false,
      "lstrip": false,
      "rstrip": false,
      "normalized": false,
      "special": false
    },
    {
      "id": 204,
      "content": "<0xCC>",
      "single_word": false,
      "lstrip": false,
      "rstrip": false,
      "normalized": false,
      "special": false
    },
    {
      "id": 205,
      "content": "<0xCD>",
      "single_word": false,
      "lstrip": false,
      "rstrip": false,
      "normalized": false,
      "special": false
    },
    {
      "id": 206,
      "content": "<0xCE>",
      "single_word": false,
      "lstrip": false,
      "rstrip": false,
      "normalized": false,
      "special": false
    },
    {
      "id": 207,
      "content": "<0xCF>",
      "single_word": false,
      "lstrip": false,
      "rstrip": false,
      "normalized": false,
      "special": false
    },
    {
      "id": 208,
      "content": "<0xD0>",
      "single_word": false,
      "lstrip": false,
      "rstrip": false,
      "normalized": false,
      "special": false
    },
    {
      "id": 209,
      "content": "<0xD1>",
      "single_word": false,
      "lstrip": false,
      "rstrip": false,
      "normalized": false,
      "special": false
    },
    {
      "id": 210,
      "content": "<0xD2>",
      "single_word": false,
      "lstrip": false,
      "rstrip": false,
      "normalized": false,
      "special": false
    },
    {
      "id": 211,
      "content": "<0xD3>",
      "single_word": false,
      "lstrip": false,
      "rstrip": false,
      "normalized": false,
      "special": false
    },
    {
      "id": 212,
      "content": "<0xD4>",
      "single_word": false,
      "lstrip": false,
      "rstrip": false,
      "normalized": false,
      "special": false
    },
    {
      "id": 213,
      "content": "<0xD5>",
      "single_word": false,
      "lstrip": false,
      "rstrip": false,
      "normalized": false,
      "special": false
    },
    {
      "id": 214,
      "content": "<0xD6>",
      "single_word": false,
      "lstrip": false,
      "rstrip": false,
      "normalized": false,
      "special": false
    },
    {
      "id": 215,
      "content": "<0xD7>",
      "single_word": false,
      "lstrip": false,
      "rstrip": false,
      "normalized": false,
      "special": false
    },
    {
      "id": 216,
      "content": "<0xD8>",
      "single_word": false,
      "lstrip": false,
      "rstrip": false,
      "normalized": false,
      "special": false
    },
    {
      "id": 217,
      "content": "<0xD9>",
      "single_word": false,
      "lstrip": false,
      "rstrip": false,
      "normalized": false,
      "special": false
    },
    {
      "id": 218,
      "content": "<0xDA>",
      "single_word": false,
      "lstrip": false,
      "rstrip": false,
      "normalized": false,
      "special": false
    },
    {
      "id": 219,
      "content": "<0xDB>",
      "single_word": false,
      "lstrip": false,
      "rstrip": false,
      "normalized": false,
      "special": false
    },
    {
      "id": 220,
      "content": "<0xDC>",
      "single_word": false,
      "lstrip": false,
      "rstrip": false,
      "normalized": false,
      "special": false
    },
    {
      "id": 221,
      "content": "<0xDD>",
      "single_word": false,
      "lstrip": false,
      "rstrip": false,
      "normalized": false,
      "special": false
    },
    {
      "id": 222,
      "content": "<0xDE>",
      "single_word": false,
      "lstrip": false,
      "rstrip": false,
      "normalized": false,
      "special": false
    },
    {
      "id": 223,
      "content": "<0xDF>",
      "single_word": false,
      "lstrip": false,
      "rstrip": false,
      "normalized": false,
      "special": false
    },
    {
      "id": 224,
      "content": "<0xE0>",
      "single_word": false,
      "lstrip": false,
      "rstrip": false,
      "normalized": false,
      "special": false
    },
    {
      "id": 225,
      "content": "<0xE1>",
      "single_word": false,
      "lstrip": false,
      "rstrip": false,
      "normalized": false,
      "special": false
    },
    {
      "id": 226,
      "content": "<0xE2>",
      "single_word": false,
      "lstrip": false,
      "rstrip": false,
      "normalized": false,
      "special": false
    },
    {
      "id": 227,
      "content": "<0xE3>",
      "single_word": false,
      "lstrip": false,
      "rstrip": false,
      "normalized": false,
      "special": false
    },
    {
      "id": 228,
      "content": "<0xE4>",
      "single_word": false,
      "lstrip": false,
      "rstrip": false,
      "normalized": false,
      "special": false
    },
    {
      "id": 229,
      "content": "<0xE5>",
      "single_word": false,
      "lstrip": false,
      "rstrip": false,
      "normalized": false,
      "special": false
    },
    {
      "id": 230,
      "content": "<0xE6>",
      "single_word": false,
      "lstrip": false,
      "rstrip": false,
      "normalized": false,
      "special": false
    },
    {
      "id": 231,
      "content": "<0xE7>",
      "single_word": false,
      "lstrip": false,
      "rstrip": false,
      "normalized": false,
      "special": false
    },
    {
      "id": 232,
      "content": "<0xE8>",
      "single_word": false,
      "lstrip": false,
      "rstrip": false,
      "normalized": false,
      "special": false
    },
    {
      "id": 233,
      "content": "<0xE9>",
      "single_word": false,
      "lstrip": false,
      "rstrip": false,
      "normalized": false,
      "special": false
    },
    {
      "id": 234,
      "content": "<0xEA>",
      "single_word": false,
      "lstrip": false,
      "rstrip": false,
      "normalized": false,
      "special": false
    },
    {
      "id": 235,
      "content": "<0xEB>",
      "single_word": false,
      "lstrip": false,
      "rstrip": false,
      "normalized": false,
      "special": false
    },
    {
      "id": 236,
      "content": "<0xEC>",
      "single_word": false,
      "lstrip": false,
      "rstrip": false,
      "normalized": false,
      "special": false
    },
    {
      "id": 237,
      "content": "<0xED>",
      "single_word": false,
      "lstrip": false,
      "rstrip": false,
      "normalized": false,
      "special": false
    },
    {
      "id": 238,
      "content": "<0xEE>",
      "single_word": false,
      "lstrip": false,
      "rstrip": false,
      "normalized": false,
      "special": false
    },
    {
      "id": 239,
      "content": "<0xEF>",
      "single_word": false,
      "lstrip": false,
      "rstrip": false,
      "normalized": false,
      "special": false
    },
    {
      "id": 240,
      "content": "<0xF0>",
      "single_word": false,
      "lstrip": false,
      "rstrip": false,
      "normalized": false,
      "special": false
    },
    {
      "id": 241,
      "content": "<0xF1>",
      "single_word": false,
      "lstrip": false,
      "rstrip": false,
      "normalized": false,
      "special": false
    },
    {
      "id": 242,
      "content": "<0xF2>",
      "single_word": false,
      "lstrip": false,
      "rstrip": false,
      "normalized": false,
      "special": false
    },
    {
      "id": 243,
      "content": "<0xF3>",
      "single_word": false,
      "lstrip": false,
      "rstrip": false,
      "normalized": false,
      "special": false
    },
    {
      "id": 244,
      "content": "<0xF4>",
      "single_word": false,
      "lstrip": false,
      "rstrip": false,
      "normalized": false,
      "special": false
    },
    {
      "id": 245,
      "content": "<0xF5>",
      "single_word": false,
      "lstrip": false,
      "rstrip": false,
      "normalized": false,
      "special": false
    },
    {
      "id": 246,
      "content": "<0xF6>",
      "single_word": false,
      "lstrip": false,
      "rstrip": false,
      "normalized": false,
      "special": false
    },
    {
      "id": 247,
      "content": "<0xF7>",
      "single_word": false,
      "lstrip": false,
      "rstrip": false,
      "normalized": false,
      "special": false
    },
    {
      "id": 248,
      "content": "<0xF8>",
      "single_word": false,
      "lstrip": false,
      "rstrip": false,
      "normalized": false,
      "special": false
    },
    {
      "id": 249,
      "content": "<0xF9>",
      "single_word": false,
      "lstrip": false,
      "rstrip": false,
      "normalized": false,
      "special": false
    },
    {
      "id": 250,
      "content": "<0xFA>",
      "single_word": false,
      "lstrip": false,
      "rstrip": false,
      "normalized": false,
      "special": false
    },
    {
      "id": 251,
      "content": "<0xFB>",
      "single_word": false,
      "lstrip": false,
      "rstrip": false,
      "normalized": false,
      "special": false
    },
    {
      "id": 252,
      "content": "<0xFC>",
      "single_word": false,
      "lstrip": false,
      "rstrip": false,
      "normalized": false,
      "special": false
    },
    {
      "id": 253,
      "content": "<0xFD>",
      "single_word": false,
      "lstrip": false,
      "rstrip": false,
      "normalized": false,
      "special": false
    },
    {
      "id": 254,
      "content": "<0xFE>",
      "single_word": false,
      "lstrip": false,
      "rstrip": false,
      "normalized": false,
      "special": false
    },
    {
      "id": 255,
      "content": "<0xFF>",
      "single_word": false,
      "lstrip": false,
      "rstrip": false,
      "normalized": false,
      "special": false
    }
  ],
  "normalizer": null,
  "pre_tokenizer": {
    "type": "Metaspace",
    "replacement": "▁",
    "prepend_scheme": "always",
    "split": true
  },
  "post_processor": null,
  "decoder": {
    "type": "Sequence",
    "decoders": [
      {
        "type": "ByteFallback"
      },
      {
        "type": "Metaspace",
        "replacement": "▁",
        "prepend_scheme": "always",
        "split": true
      },
      {
        "type": "Fuse"
      }
    ]
  },
  "model": {
    "type": "BPE",
    "dropout": null,
    "unk_token": null,
    "continuing_subword_prefix": null,
    "end_of_word_suffix": null,
    "fuse_unk": false,
    "byte_fallback": true,
    "ignore_merges": false,
    "vocab": {
      "<0x00>": 0,
      "<0x01>": 1,
      "<0x02>": 2,
      "<0x03>": 3,
      "<0x04>": 4,
      "<0x05>": 5,
      "<0x06>": 6,
      "<0x07>": 7,
      "<0x08>": 8,
      "<0x09>": 9,
      "<0x0A>": 10,
      "<0x0B>": 11,
      "<0x0C>": 12,
      "<0x0D>": 13,
      "<0x0E>": 14,
      "<0x0F>": 15,
      "<0x10>": 16,
      "<0x11>": 17,
      "<0x12>": 18,
      "<0x13>": 19,
      "<0x14>": 20,
      "<0x15>": 21,
      "<0x16>": 22,
      "<0x17>": 23,
      "<0x18>": 24,
      "<0x19>": 25,
      "<0x1A>": 26,
      "<0x1B>": 27,
      "<0x1C>": 28,
      "<0x1D>": 29,
      "<0x1E>": 30,
      "<0x1F>": 31,
      "<0x20>": 32,
      "<0x21>": 33,
      "<0x22>": 34,
      "<0x23>": 35,
      "<0x24>": 36,
      "<0x25>": 37,
      "<0x26>": 38,
      "<0x27>": 39,
      "<0x28>": 40,
      "<0x29>": 41,
      "<0x2A>": 42,
      "<0x2B>": 43,
      "<0x2C>": 44,
      "<0x2D>": 45,
      "<0x2E>": 46,
      "<0x2F>": 47,
      "<0x30>": 48,
      "<0x31>": 49,
      "<0x32>": 50,
      "<0x33>": 51,
      "<0x34>": 52,
      "<0x35>": 53,
      "<0x36>": 54,
      "<0x37>": 55,
      "<0x38>": 56,
      "<0x39>": 57,
      "<0x3A>": 58,
      "<0x3B>": 59,
      "<0x3C>": 60,
      "<0x3D>": 61,
      "<0x3E>": 62,
      "<0x3F>": 63,
      "<0x40>": 64,
      "<0x41>": 65,
      "<0x42>": 66,
      "<0x43>": 67,
      "<0x44>": 68,
      "<0x45>": 69,
      "<0x46>": 70,
      "<0x47>": 71,
      "<0x48>": 72,
      "<0x49>": 73,
      "<0x4A>": 74,
      "<0x4B>": 75,
      "<0x4C>": 76,
      "<0x4D>": 77,
      "<0x4E>": 78,
      "<0x4F>": 79,
      "<0x50>": 80,
      "<0x51>": 81,
      "<0x52>": 82,
      "<0x53>": 83,
      "<0x54>": 84,
      "<0x55>": 85,
      "<0x56>": 86,
      "<0x57>": 87,
      "<0x58>": 88,
      "<0x59>": 89,
      "<0x5A>": 90,
      "<0x5B>": 91,
      "<0x5C>": 92,
      "<0x5D>": 93,
      "<0x5E>": 94,
      "<0x5F>": 95,
      "<0x60>": 96,
      "<0x61>": 97,
      "<0x62>": 98,
      "<0x63>": 99,
      "<0x64>": 100,
      "<0x65>": 101,
      "<0x66>": 102,
      "<0x67>": 103,
      "<0x68>": 104,
      "<0x69>": 105,
      "<0x6A>": 106,
      "<0x6B>": 107,
      "<0x6C>": 108,
      "<0x6D>": 109,
      "<0x6E>": 110,
      "<0x6F>": 111,
      "<0x70>": 112,
      "<0x71>": 113,
      "<0x72>": 114,
      "<0x73>": 115,
      "<0x74>": 116,
      "<0x75>": 117,
      "<0x76>": 118,
      "<0x77>": 119,
      "<0x78>": 120,
      "<0x79>": 121,
      "<0x7A>": 122,
      "<0x7B>": 123,
      "<0x7C>": 124,
      "<0x7D>": 125,
      "<0x7E>": 126,
      "<0x7F>": 127,
      "<0x80>": 128,
      "<0x81>": 129,
      "<0x82>": 130,
      "<0x83>": 131,
      "<0x84>": 132,
      "<0x85>": 133,
      "<0x86>": 134,
      "<0x87>": 135,
      "<0x88>": 136,
      "<0x89>": 137,
      "<0x8A>": 138,
      "<0x8B>": 139,
      "<0x8C>": 140,
      "<0x8D>": 141,
      "<0x8E>": 142,
      "<0x8F>": 143,
      "<0x90>": 144,
      "<0x91>": 145,
      "<0x92>": 146,
      "<0x93>": 147,
      "<0x94>": 148,
      "<0x95>": 149,
      "<0x96>": 150,
      "<0x97>": 151,
      "<0x98>": 152,
      "<0x99>": 153,
      "<0x9A>": 154,
      "<0x9B>": 155,
      "<0x9C>": 156,
      "<0x9D>": 157,
      "<0x9E>": 158,
      "<0x9F>": 159,
      "<0xA0>": 160,
      "<0xA1>": 161,
      "<0xA2>": 162,
      "<0xA3>": 163,
      "<0xA4>": 164,
      "<0xA5>": 165,
      "<0xA6>": 166,
      "<0xA7>": 167,
      "<0xA8>": 168,
      "<0xA9>": 169,
      "<0xAA>": 170,
      "<0xAB>": 171,
      "<0xAC>": 172,
      "<0xAD>": 173,
      "<0xAE>": 174,
      "<0xAF>": 175,
      "<0xB0>": 176,
      "<0xB1>": 177,
      "<0xB2>": 178,
      "<0xB3>": 179,
      "<0xB4>": 180,
      "<0xB5>": 181,
      "<0xB6>": 182,
      "<0xB7>": 183,
      "<0xB8>": 184,
      "<0xB9>": 185,
      "<0xBA>": 186,
      "<0xBB>": 187,
      "<0xBC>": 188,
      "<0xBD>": 189,
      "<0xBE>": 190,
      "<0xBF>": 191,
      "<0xC0>": 192,
      "<0xC1>": 193,
      "<0xC2>": 194,
      "<0xC3>": 195,
      "<0xC4>": 196,
      "<0xC5>": 197,
      "<0xC6>": 198,
      "<0xC7>": 199,
      "<0xC8>": 200,
      "<0xC9>": 201,
      "<0xCA>": 202,
      "<0xCB>": 203,
      "<0xCC>": 204,
      "<0xCD>": 205,
      "<0xCE>": 206,
      "<0xCF>": 207,
      "<0xD0>": 208,
      "<0xD1>": 209,
      "<0xD2>": 210,
      "<0xD3>": 211,
      "<0xD4>": 212,
      "<0xD5>": 213,
      "<0xD6>": 214,
      "<0xD7>": 215,
      "<0xD8>": 216,
      "<0xD9>": 217,
      "<0xDA>": 218,
      "<0xDB>": 219,
      "<0xDC>": 220,
      "<0xDD>": 221,
      "<0xDE>": 222,
      "<0xDF>": 223,
      "<0xE0>": 224,
      "<0xE1>": 225,
      "<0xE2>": 226,
      "<0xE3>": 227,
      "<0xE4>": 228,
      "<0xE5>": 229,
      "<0xE6>": 230,
      "<0xE7>": 231,
      "<0xE8>": 232,
      "<0xE9>": 233,
      "<0xEA>": 234,
      "<0xEB>": 235,
      "<0xEC>": 236,
      "<0xED>": 237,
      "<0xEE>": 238,
      "<0xEF>": 239,
      "<0xF0>": 240,
      "<0xF1>": 241,
      "<0xF2>": 242,
      "<0xF3>": 243,
      "<0xF4>": 244,
      "<0xF5>": 245,
      "<0xF6>": 246,
      "<0xF7>": 247,
      "<0xF8>": 248,
      "<0xF9>": 249,
      "<0xFA>": 250,
      "<0xFB>": 251,
      "<0xFC>": 252,
      "<0xFD>": 253,
      "<0xFE>": 254,
      "<0xFF>": 255,
      "\n": 256,
      "!": 257,
      "\"": 258,
      "#": 259,
      "$": 260,
      "%": 261,
      "&": 262,
      "'": 263,
      "(": 264,
      ")": 265,
      "*": 266,
      "+": 267,
      ",": 268,
      "-": 269,
      ".": 270,
      "/": 271,
      "0": 272,
      "1": 273,
      "2": 274,
      "3": 275,
      "4": 276,
      "5": 277,
      "6": 278,
      "7": 279,
      "8": 280,
      "9": 281,
      ":": 282,
      ";": 283,
      "<": 284,
      "=": 285,
      ">": 286,
      "?": 287,
      "A": 288,
      "B": 289,
      "C": 290,
      "D": 291,
      "E": 292,
      "F": 293,
      "G": 294,
      "H": 295,
      "I": 296,
      "J": 297,
      "K": 298,
      "L": 299,
      "M": 300,
      "N": 301,
      "O": 302,
      "P": 303,
      "Q": 304,
      "R": 305,
      "S": 306,
      "T": 307,
      "U": 308,
      "V": 309,
      "W": 310,
      "X": 311,
      "Y": 312,
      "Z": 313,
      "[": 314,
      "\\": 315,
      "]": 316,
      "^": 317,
      "_": 318,
      "`": 319,
      "a": 320,
      "b": 321,
      "c": 322,
      "d": 323,
      "e": 324,
      "f": 325,
      "g": 326,
      "h": 327,
      "i": 328,
      "j": 329,
      "k": 330,
      "l": 331,
      "m": 332,
      "n": 333,
      "o": 334,
      "p": 335,
      "q": 336,
      "r": 337,
      "s": 338,
      "t": 339,
      "u": 340,
      "v": 341,
      "w": 342,
      "x": 343,
      "y": 344,
      "z": 345,
      "{": 346,
      "|": 347,
      "}": 348,
      "~": 349,
      "°": 350,
      "·": 351,
      "Ö": 352,
      "á": 353,
      "â": 354,
      "æ": 355,
      "ç": 356,
      "è": 357,
      "é": 358,
      "í": 359,
      "ñ": 360,
      "ö": 361,
      "ü": 362,
      "ā": 363,
      "ī": 364,
      "İ": 365,
      "Ś": 366,
      "ś": 367,
      "ū": 368,
      "ș": 369,
      "ə": 370,
      "ɦ": 371,
      "ɪ": 372,
      "ɾ": 373,
      "ʊ": 374,
      "ʱ": 375,
      "ʼ": 376,
      "ˈ": 377,
      "ː": 378,
      "ί": 379,
      "α": 380,
      "δ": 381,
      "θ": 382,
      "ν": 383,
      "π": 384,
      "ς": 385,
      "ό": 386,
      "ا": 387,
      "ب": 388,
      "ت": 389,
      "ر": 390,
      "ھ": 391,
      "ँ": 392,
      "ं": 393,
      "ः": 394,
      "अ": 395,
      "आ": 396,
      "इ": 397,
      "ई": 398,
      "उ": 399,
      "ऊ": 400,
      "ऋ": 401,
      "ऍ": 402,
      "ए": 403,
      "ऐ": 404,
      "ऑ": 405,
      "ओ": 406,
      "औ": 407,
      "क": 408,
      "ख": 409,
      "ग": 410,
      "घ": 411,
      "ङ": 412,
      "च": 413,
      "छ": 414,
      "ज": 415,
      "झ": 416,
      "ञ": 417,
      "ट": 418,
      "ठ": 419,
      "ड": 420,
      "ढ": 421,
      "ण": 422,
      "त": 423,
      "थ": 424,
      "द": 425,
      "ध": 426,
      "न": 427,
      "प": 428,
      "फ": 429,
      "ब": 430,
      "भ": 431,
      "म": 432,
      "य": 433,
      "र": 434,
      "ल": 435,
      "ळ": 436,
      "व": 437,
      "श": 438,
      "ष": 439,
      "स": 440,
      "ह": 441,
      "़": 442,
      "ऽ": 443,
      "ा": 444,
      "ि": 445,
      "ी": 446,
      "ु": 447,
      "ू": 448,
      "ृ": 449,
      "े": 450,
      "ै": 451,
      "ॉ": 452,
      "ॊ": 453,
      "ो": 454,
      "ौ": 455,
      "्": 456,
      "।": 457,
      "॥": 458,
      "०": 459,
      "१": 460,
      "२": 461,
      "३": 462,
      "४": 463,
      "५": 464,
      "६": 465,
      "७": 466,
      "८": 467,
      "९": 468,
      "॰": 469,
      "ত": 470,
      "ভ": 471,
      "র": 472,
      "া": 473,
      "ਤ": 474,
      "ਭ": 475,
      "ਰ": 476,
      "ਾ": 477,
      "ત": 478,
      "ભ": 479,
      "ર": 480,
      "ા": 481,
      "ତ": 482,
      "ଭ": 483,
      "ର": 484,
      "ା": 485,
      "இ": 486,
      "த": 487,
      "ந": 488,
      "ய": 489,
      "ா": 490,
      "ி": 491,
      "்": 492,
      "ం": 493,
      "ః": 494,
      "అ": 495,
      "ఆ": 496,
      "ఇ": 497,
      "ఈ": 498,
      "ఉ": 499,
      "ఋ": 500,
      "ఎ": 501,
      "ఏ": 502,
      "ఐ": 503,
      "ఒ": 504,
      "ఓ": 505,
      "ఔ": 506,
      "క": 507,
      "ఖ": 508,
      "గ": 509,
      "ఘ": 510,
      "చ": 511,
      "ఛ": 512,
      "జ": 513,
      "ఞ": 514,
      "ట": 515,
      "ఠ": 516,
      "డ": 517,
      "ఢ": 518,
      "ణ": 519,
      "త": 520,
      "థ": 521,
      "ద": 522,
      "ధ": 523,
      "న": 524,
      "ప": 525,
      "ఫ": 526,
      "బ": 527,
      "భ": 528,
      "మ": 529,
      "య": 530,
      "ర": 531,
      "ల": 532,
      "ళ": 533,
      "వ": 534,
      "శ": 535,
      "ష": 536,
      "స": 537,
      "హ": 538,
      "ా": 539,
      "ి": 540,
      "ీ": 541,
      "ు": 542,
      "ూ": 543,
      "ృ": 544,
      "ె": 545,
      "ే": 546,
      "ై": 547,
      "ొ": 548,
      "ో": 549,
      "ౌ": 550,
      "్": 551,
      "ṅ": 552,
      "ṇ": 553,
      "Ṛ": 554,
      "ṣ": 555,
      "ṭ": 556,
      "Ἰ": 557,
      " ": 558,
      " ": 559,
      "‌": 560,
      "‍": 561,
      "‎": 562,
      "–": 563,
      "—": 564,
      "‘": 565,
      "’": 566,
      "“": 567,
      "”": 568,
      "†": 569,
      "•": 570,
      "′": 571,
      "″": 572,
      "‹": 573,
      "›": 574,
      "⁡": 575,
      "₹": 576,
      "↑": 577,
      "−": 578,
      "ⓘ": 579,
      "▁": 580,
      "﻿": 581,
      "wi": 582,
      "ki": 583,
      "wiki": 584,
      "di": 585,
      "dia": 586,
      "or": 587,
      "ht": 588,
      "tp": 589,
      ":/": 590,
      "http": 591,
      "://": 592,
      "](": 593,
      "](http": 594,
      "pe": 595,
      "s://": 596,
      "](https://": 597,
      "g/": 598,
      ".or": 599,
      ".org/": 600,
      "pedia": 601,
      ".wiki": 602,
      ".org/wiki": 603,
      ".org/wiki/": 604,
      ".wikipedia": 605,
      ".wikipedia.org/wiki/": 606,
      "▁[": 607,
      "▁\"": 608,
      "\")": 609,
      "te": 610,
      "▁|": 611,
      "in": 612,
      "ार": 613,
      "en": 614,
      "hi": 615,
      "्र": 616,
      "on": 617,
      "an": 618,
      "▁क": 619,
      "ti": 620,
      "](https://hi": 621,
      "](https://hi.wikipedia.org/wiki/": 622,
      "20": 623,
      "्य": 624,
      "re": 625,
      "भार": 626,
      "भारत": 627,
      "In": 628,
      "th": 629,
      "ar": 630,
      "al": 631,
      "▁स": 632,
      "er": 633,
      "India": 634,
      "్ర": 635,
      "](https://en": 636,
      "](https://en.wikipedia.org/wiki/": 637,
      "रा": 638,
      "▁-": 639,
      "](https://te": 640,
      "](https://te.wikipedia.org/wiki/": 641,
      "ci": 642,
      "ान": 643,
      "tion": 644,
      "es": 645,
      "ార": 646,
      "▁म": 647,
      "of": 648,
      "्त": 649,
      "▁(": 650,
      "▁प": 651,
      "**": 652,
      "र्": 653,
      "te_": 654,
      "sa": 655,
      "म्": 656,
      "#ci": 657,
      "#cite_": 658,
      "om": 659,
      "the": 660,
      "ాల": 661,
      "and": 662,
      "](https://sa": 663,
      "st": 664,
      "](https://sa.wikipedia.org/wiki/": 665,
      "19": 666,
      "్య": 667,
      "▁के": 668,
      "ac": 669,
      "या": 670,
      "िक": 671,
      "ri": 672,
      "▁of": 673,
      "▁अ": 674,
      "ें": 675,
      "భార": 676,
      "न्": 677,
      "భారత": 678,
      "no": 679,
      "दे": 680,
      "▁the": 681,
      "దే": 682,
      "201": 683,
      "▁ह": 684,
      "](https://hi.wikipedia.org/wiki/भारत": 685,
      "▁\n": 686,
      "ou": 687,
      "దేశ": 688,
      "స్": 689,
      "▁ప": 690,
      "भा": 691,
      "\\_": 692,
      "ीय": 693,
      "वि": 694,
      "राज": 695,
      "OT": 696,
      "le": 697,
      "సా": 698,
      "lin": 699,
      "200": 700,
      "ర్": 701,
      "ाल": 702,
      "ate": 703,
      "as": 704,
      "▁|\n": 705,
      "న్": 706,
      "षा": 707,
      "देश": 708,
      "ना": 709,
      "dit": 710,
      "li": 711,
      "red": 712,
      "▁C": 713,
      "si": 714,
      "▁India": 715,
      "ge": 716,
      "-1": 717,
      "oo": 718,
      "\"),": 719,
      "स्": 720,
      "](https://en.wikipedia.org/wiki/India": 721,
      "▁में": 722,
      "ve": 723,
      "-0": 724,
      "at": 725,
      "link": 726,
      "▁**": 727,
      "=1": 728,
      "action": 729,
      "edit": 730,
      "action=": 731,
      "action=edit": 732,
      "ation": 733,
      "ent": 734,
      "&red": 735,
      "?action=edit": 736,
      "link=1": 737,
      "&redlink=1": 738,
      "?action=edit&redlink=1": 739,
      "▁ज": 740,
      "▁भारत": 741,
      "▁1": 742,
      "ref": 743,
      "ति": 744,
      "भाषा": 745,
      "▁in": 746,
      "note": 747,
      "िया": 748,
      "లు": 749,
      "त्र": 750,
      "#cite_ref": 751,
      "#cite_note": 752,
      "्व": 753,
      "ों": 754,
      "राज्य": 755,
      "am": 756,
      "id": 757,
      "రా": 758,
      "▁p": 759,
      "▁and": 760,
      "▁प्र": 761,
      "्ष": 762,
      "[[": 763,
      "ad": 764,
      "न्द": 765,
      "భారతదేశ": 766,
      "ष्": 767,
      "#cite_ref-": 768,
      "#cite_note-": 769,
      "▁•": 770,
      "ला": 771,
      "com": 772,
      "_क": 773,
      ".శ": 774,
      ".శ.": 775,
      ").": 776,
      "లో": 777,
      "సా.శ.": 778,
      "▁है": 779,
      "ता": 780,
      "fi": 781,
      "we": 782,
      "▁ब": 783,
      "lo": 784,
      "ास": 785,
      "▁A": 786,
      "et": 787,
      "▁క": 788,
      "▁न": 789,
      "ing": 790,
      "um": 791,
      "▁S": 792,
      "ww": 793,
      "త్ర": 794,
      "is": 795,
      "ాలు": 796,
      "ंग": 797,
      "▁t": 798,
      "రి": 799,
      "78": 800,
      "ang": 801,
      "క్": 802,
      "पु": 803,
      "ook": 804,
      "और": 805,
      "ంద": 806,
      "▁द": 807,
      ".j": 808,
      "00": 809,
      "▁s": 810,
      "·**": 811,
      "▁వ": 812,
      "▁**·**": 813,
      "ని": 814,
      ".\n": 815,
      "he": 816,
      "ni": 817,
      "▁की": 818,
      "ष्ट": 819,
      "स्य": 820,
      "स्त": 821,
      "▁c": 822,
      "▁2": 823,
      "▁त": 824,
      "▁आ": 825,
      "▁[↑": 826,
      "▁व": 827,
      "▁\"भारत": 828,
      "▁से": 829,
      ".jp": 830,
      "ित": 831,
      "ed": 832,
      "ory": 833,
      "FO": 834,
      "ల్": 835,
      "us": 836,
      "NOT": 837,
      "OTNOT": 838,
      "FOOTNOT": 839,
      "FOOTNOTE": 840,
      "ur": 841,
      "భారతదేశం": 842,
      "IS": 843,
      "▁और": 844,
      "▁P": 845,
      "▁b": 846,
      "ul": 847,
      "▁का": 848,
      "्रे": 849,
      "of_": 850,
      "ष्ट्र": 851,
      "ంగ": 852,
      "web": 853,
      "_of_": 854,
      ")\n": 855,
      "प्र": 856,
      "▁స": 857,
      "▁201": 858,
      "मा": 859,
      "▁మ": 860,
      "क्ष": 861,
      "BN": 862,
      "ce": 863,
      "री": 864,
      "हि": 865,
      "ISBN": 866,
      "978": 867,
      "_स": 868,
      "ons": 869,
      "▁ప్ర": 870,
      "ter": 871,
      "▁f": 872,
      "ra": 873,
      "0%": 874,
      "▁ग": 875,
      "ov": 876,
      "me": 877,
      "ీయ": 878,
      "▁।": 879,
      "chi": 880,
      "21": 881,
      "50": 882,
      "▁M": 883,
      "mp": 884,
      "ండ": 885,
      "ch": 886,
      "ाद": 887,
      "ने": 888,
      "tic": 889,
      "ist": 890,
      "का": 891,
      "age": 892,
      "ङ्": 893,
      "▁T": 894,
      "it": 895,
      "enti": 896,
      "ी\")": 897,
      "),": 898,
      "▁वि": 899,
      "राष्ट्र": 900,
      "्च": 901,
      "జ్య": 902,
      "▁చ": 903,
      "्या": 904,
      "-0)": 905,
      "▁a": 906,
      "▁ए": 907,
      "▁m": 908,
      "un": 909,
      "identi": 910,
      ".g": 911,
      "తా": 912,
      "fier": 913,
      "identifier": 914,
      "ము": 915,
      "▁[म": 916,
      "india": 917,
      "నా": 918,
      "था": 919,
      "chive": 920,
      "తి": 921,
      "్ట": 922,
      "ro": 923,
      "▁उ": 924,
      "sh": 925,
      "--": 926,
      "▁श": 927,
      "सं": 928,
      "cial": 929,
      "▁---": 930,
      "र्व": 931,
      "ले": 932,
      "\")\n": 933,
      "సి": 934,
      "▁सं": 935,
      "identifier)": 936,
      "త్": 937,
      "▁इ": 938,
      "▁R": 939,
      "_(": 940,
      "book": 941,
      ".com": 942,
      "our": 943,
      ".jpg": 944,
      "err": 945,
      "▁*": 946,
      "de": 947,
      "णी": 948,
      "त्त": 949,
      "IT": 950,
      "angu": 951,
      "न्त": 952,
      "10": 953,
      "ER": 954,
      ".com/": 955,
      "-2": 956,
      "▁19": 957,
      "▁को": 958,
      "EF": 959,
      "हिन्द": 960,
      "ITER": 961,
      "cal": 962,
      "error": 963,
      "▁च": 964,
      "▁(సా.శ.": 965,
      "▁D": 966,
      "ITEREF": 967,
      "4%": 968,
      "యా": 969,
      "ateg": 970,
      "ులు": 971,
      "▁రా": 972,
      "es/": 973,
      "res": 974,
      "]](https://en.wikipedia.org/wiki/India": 975,
      "ategory": 976,
      "books": 977,
      "ol": 978,
      "▁पर": 979,
      "up": 980,
      "ategory:": 981,
      "▁to": 982,
      "]](https://hi.wikipedia.org/wiki/भारत": 983,
      "ूच": 984,
      "ి.": 985,
      "–సా.శ.": 986,
      "్రా": 987,
      ".in": 988,
      "ment": 989,
      "](https://en.wikipedia.org/wiki/India#cite_ref-": 990,
      "]](https://en.wikipedia.org/wiki/India#cite_note-": 991,
      "▁అ": 992,
      "12": 993,
      "▁B": 994,
      "fn": 995,
      "िल": 996,
      "ag": 997,
      "ig": 998,
      "www": 999,
      "il": 1000,
      "▁\"म": 1001,
      "ड़": 1002,
      "ిక": 1003,
      "र्म": 1004,
      "30": 1005,
      "गर": 1006,
      "తం": 1007,
      "_के": 1008,
      "▁w": 1009,
      "_म": 1010,
      "▁20": 1011,
      "Har": 1012,
      "ay": 1013,
      "ते": 1014,
      "▁है।": 1015,
      "▁.": 1016,
      "्ड": 1017,
      "www.": 1018,
      "ीप": 1019,
      "ిన": 1020,
      "జ్యం": 1021,
      "umb": 1022,
      "_S": 1023,
      "िम": 1024,
      "archive": 1025,
      "ेत्र": 1026,
      "▁([": 1027,
      "ew": 1028,
      "ver": 1029,
      "జా": 1030,
      "ic": 1031,
      "श्रे": 1032,
      "ational": 1033,
      "▁200": 1034,
      "सा": 1035,
      "िय": 1036,
      "ంచ": 1037,
      "కు": 1038,
      "त्": 1039,
      "श्रेणी": 1040,
      "धान": 1041,
      "langu": 1042,
      "जा": 1043,
      "oun": 1044,
      "श्रेणी:": 1045,
      "▁e": 1046,
      "du": 1047,
      "](https://te.wikipedia.org/wiki/భారతదేశం": 1048,
      "▁र": 1049,
      "##": 1050,
      "▁Category:": 1051,
      "▁./": 1052,
      "ीन": 1053,
      "ir": 1054,
      "ను": 1055,
      "పూ": 1056,
      "ty": 1057,
      "18": 1058,
      "26": 1059,
      "▁E": 1060,
      "](https://hi.wikipedia.org/wiki/भारत#cite_ref-": 1061,
      "]](https://hi.wikipedia.org/wiki/भारत#cite_note-": 1062,
      "ct": 1063,
      "E0%": 1064,
      "భా": 1065,
      "ण्ड": 1066,
      "40": 1067,
      "op": 1068,
      "ृत": 1069,
      "#C": 1070,
      "ली": 1071,
      "ద్": 1072,
      "ింద": 1073,
      "▁राज्य": 1074,
      "ङ्ग": 1075,
      "_के_": 1076,
      "#CITEREF": 1077,
      "13": 1078,
      "\").": 1079,
      "थान": 1080,
      "_in": 1081,
      "errors": 1082,
      "Uni": 1083,
      "ld": 1084,
      "▁\"S": 1085,
      "वा": 1086,
      "▁ఉ": 1087,
      "con": 1088,
      "mpl": 1089,
      "archive.org/": 1090,
      "ly": 1091,
      "ం:": 1092,
      "comm": 1093,
      "▁ल": 1094,
      "Harv": 1095,
      "▁ఆ": 1096,
      "-8": 1097,
      "द्": 1098,
      "▁H": 1099,
      "राज्यम्": 1100,
      "E0%A": 1101,
      "_India": 1102,
      "ज़": 1103,
      "978-0": 1104,
      "▁य": 1105,
      "ary": 1106,
      "िका": 1107,
      "पा": 1108,
      "px": 1109,
      "ప్ర": 1110,
      "▁ర": 1111,
      "▁[\"": 1112,
      "se": 1113,
      "ourc": 1114,
      "web.": 1115,
      "▁भाषा": 1116,
      "](https://web.": 1117,
      "/http": 1118,
      "web/": 1119,
      "archive.org/web/": 1120,
      "](https://web.archive.org/web/": 1121,
      "15": 1122,
      "▁देश": 1123,
      "for": 1124,
      "▁१": 1125,
      "▁N": 1126,
      "media": 1127,
      "▁G": 1128,
      "▁भ": 1129,
      "23": 1130,
      "మా": 1131,
      "▁సా": 1132,
      "భారతీయ": 1133,
      "कार": 1134,
      "pecial": 1135,
      "వా": 1136,
      "199": 1137,
      "ाना": 1138,
      "▁[↑](https://en.wikipedia.org/wiki/India#cite_ref-": 1139,
      "के": 1140,
      "రు": 1141,
      "धर्म": 1142,
      "ी](https://hi.wikipedia.org/wiki/": 1143,
      "▁सा": 1144,
      "el": 1145,
      "ma": 1146,
      "ंड": 1147,
      ".wikimedia": 1148,
      "load": 1149,
      "क्त": 1150,
      "▁[भारत": 1151,
      "ష్ట": 1152,
      "ార్": 1153,
      "పూ.": 1154,
      "-3": 1155,
      "जन": 1156,
      "upload": 1157,
      "ha": 1158,
      "स्क": 1159,
      "_A": 1160,
      "%E0%A": 1161,
      ":B": 1162,
      "![": 1163,
      "सि": 1164,
      "వి": 1165,
      "క్ష": 1166,
      "pedia/": 1167,
      ".org/wikipedia/": 1168,
      "commons": 1169,
      ".wikimedia.org/wikipedia/": 1170,
      "upload.wikimedia.org/wikipedia/": 1171,
      "gi": 1172,
      "](https://upload.wikimedia.org/wikipedia/": 1173,
      "thumb": 1174,
      "हा": 1175,
      "commons/": 1176,
      "28": 1177,
      "స్థ": 1178,
      "రిత్ర": 1179,
      "](https://upload.wikimedia.org/wikipedia/commons/": 1180,
      ".gov": 1181,
      "thumb/": 1182,
      "श्व": 1183,
      "्षेत्र": 1184,
      "](https://upload.wikimedia.org/wikipedia/commons/thumb/": 1185,
      "ोल": 1186,
      "language": 1187,
      "16": 1188,
      "px-": 1189,
      "मान": 1190,
      "24": 1191,
      "▁India\")": 1192,
      "प्रदेश": 1193,
      "▁[![": 1194,
      "rom": 1195,
      "ress": 1196,
      "outh": 1197,
      "कि": 1198,
      "▁3": 1199,
      "rit": 1200,
      "](http://": 1201,
      "న్న": 1202,
      "ी_": 1203,
      "calf": 1204,
      "s/": 1205,
      "ources/": 1206,
      "सम": 1207,
      "ry": 1208,
      "ः](https://sa.wikipedia.org/wiki/": 1209,
      "etcalf": 1210,
      "पुर": 1211,
      "_and": 1212,
      "ub": 1213,
      "ारा": 1214,
      "ng": 1215,
      "ेष": 1216,
      "ः\")": 1217,
      ".in/": 1218,
      "get": 1219,
      "ount": 1220,
      "mb": 1221,
      "▁##": 1222,
      "श्रेणी:Harv": 1223,
      "Sources/": 1224,
      "ookSources/": 1225,
      "pecial:B": 1226,
      "pecial:BookSources/": 1227,
      "स्थान": 1228,
      "▁on": 1229,
      "-4": 1230,
      "ాం": 1231,
      "%20": 1232,
      "17": 1233,
      "_P": 1234,
      "▁[अ": 1235,
      "_of_India": 1236,
      "▁re": 1237,
      "-5": 1238,
      "पर": 1239,
      "▁हैं": 1240,
      "ंद": 1241,
      "ern": 1242,
      "▁F": 1243,
      "tu": 1244,
      "14": 1245,
      "्वीप": 1246,
      "▁L": 1247,
      "▁\"अ": 1248,
      "शिया": 1249,
      "కి": 1250,
      "िर": 1251,
      "25": 1252,
      "िण": 1253,
      "ంట": 1254,
      "మ్రా": 1255,
      "ష్ట్ర": 1256,
      "ep": 1257,
      "्म": 1258,
      "▁or": 1259,
      "templ": 1260,
      "मन": 1261,
      "with": 1262,
      "दी": 1263,
      "orld": 1264,
      "▁[S": 1265,
      "ab": 1266,
      "गु": 1267,
      "▁[↑](https://hi.wikipedia.org/wiki/भारत#cite_ref-": 1268,
      "मे": 1269,
      "राष्ट्रीय": 1270,
      "▁(identifier)": 1271,
      "_(identifier)": 1272,
      "▁(identifier)\")": 1273,
      "▁p.": 1274,
      "▁\"ब": 1275,
      "The": 1276,
      "श्च": 1277,
      "▁कर": 1278,
      "से": 1279,
      "ेला": 1280,
      "పు": 1281,
      "▁న": 1282,
      ".jpg)": 1283,
      "ak": 1284,
      "sia": 1285,
      "▁भारतीय": 1286,
      "90": 1287,
      "im": 1288,
      "न्द्र": 1289,
      "ort": 1290,
      "▁త": 1291,
      "▁\"क": 1292,
      "्रा": 1293,
      "%E0%A4%": 1294,
      "_M": 1295,
      ".jpg/": 1296,
      "_D": 1297,
      "ens": 1298,
      "▁J": 1299,
      "पाल": 1300,
      "ध्य": 1301,
      "మి": 1302,
      "ాన": 1303,
      "ాయ": 1304,
      "▁ఇ": 1305,
      "ंग्रे": 1306,
      "%2": 1307,
      "List": 1308,
      "नी": 1309,
      "लेख": 1310,
      "द्य": 1311,
      "gle": 1312,
      "978-1": 1313,
      "భాష": 1314,
      "Metcalf": 1315,
      "▁[ब": 1316,
      "47": 1317,
      "▁अभ": 1318,
      "▁h": 1319,
      "धिक": 1320,
      "ोग": 1321,
      "क्षिण": 1322,
      "-7": 1323,
      "▁[*": 1324,
      "▁ने": 1325,
      "▁g": 1326,
      "▁n": 1327,
      "▁దేశ": 1328,
      "▁पु": 1329,
      "per": 1330,
      "_C": 1331,
      "▁In": 1332,
      "hin": 1333,
      "▁क्षेत्र": 1334,
      "म्](https://sa.wikipedia.org/wiki/": 1335,
      "▁by": 1336,
      "ted": 1337,
      "arget": 1338,
      "1.": 1339,
      "▁[क": 1340,
      "्री": 1341,
      "est": 1342,
      "పాల": 1343,
      "లీ": 1344,
      "ती": 1345,
      "▁अन": 1346,
      "द्ध": 1347,
      "ain": 1348,
      "धार": 1349,
      "रु": 1350,
      ".[[": 1351,
      "\"))": 1352,
      "id=": 1353,
      "मु": 1354,
      "ोक": 1355,
      "oogle": 1356,
      "▁d": 1357,
      "ंध": 1358,
      "స్తా": 1359,
      "▁for": 1360,
      "](https://en.wikipedia.org/wiki/India#CITEREF": 1361,
      "ast": 1362,
      "inal": 1363,
      "शेष": 1364,
      "వర్": 1365,
      "▁O": 1366,
      "22": 1367,
      "versi": 1368,
      "▁स्": 1369,
      "?id=": 1370,
      "ot": 1371,
      ".google": 1372,
      ".com/books": 1373,
      "books.google": 1374,
      "books.google.com/books": 1375,
      ".p": 1376,
      "పా": 1377,
      "▁[ISBN": 1378,
      "books.google.com/books?id=": 1379,
      "वे": 1380,
      "har": 1381,
      "_T": 1382,
      "und": 1383,
      "మ్రాజ్యం": 1384,
      "*.": 1385,
      "हर": 1386,
      "ँच": 1387,
      "ensus": 1388,
      "सी": 1389,
      "हास": 1390,
      "AA": 1391,
      "vi": 1392,
      "▁4": 1393,
      "▁ति": 1394,
      "ूल": 1395,
      "▁గ": 1396,
      "▁\"ISBN": 1397,
      "tein": 1398,
      "దేశ్": 1399,
      "ISBN_(identifier)": 1400,
      "▁२": 1401,
      "ం](https://te.wikipedia.org/wiki/": 1402,
      "టి": 1403,
      "తీయ": 1404,
      "थि": 1405,
      "ून": 1406,
      "▁जन": 1407,
      "▁एक": 1408,
      "िश": 1409,
      "ूर्व": 1410,
      "ानि": 1411,
      ")[[": 1412,
      "ib": 1413,
      "ut": 1414,
      "यु": 1415,
      "ी](https://sa.wikipedia.org/wiki/": 1416,
      "▁राज": 1417,
      "ार्": 1418,
      "]](https://en.wikipedia.org/wiki/India#cite_note-FOOTNOTE": 1419,
      "do": 1420,
      "▁[![](https://upload.wikimedia.org/wikipedia/commons/thumb/": 1421,
      "मि": 1422,
      "eve": 1423,
      "गढ": 1424,
      "▁from": 1425,
      "▁W": 1426,
      "tern": 1427,
      "ంలో": 1428,
      "▁[A": 1429,
      "స్తాన్": 1430,
      "p.": 1431,
      "ंत्र": 1432,
      "](https://books.google.com/books?id=": 1433,
      "versity": 1434,
      "ata": 1435,
      "▁प्रदेश": 1436,
      "ther": 1437,
      "म्\")": 1438,
      "▁\"भारतीय": 1439,
      "▁The": 1440,
      "డు": 1441,
      "నే": 1442,
      "్చ": 1443,
      "विशेष": 1444,
      "विशेष:": 1445,
      "pg": 1446,
      "रे": 1447,
      "शास": 1448,
      "▁no": 1449,
      "-10": 1450,
      "स्तान": 1451,
      "PA": 1452,
      "gu": 1453,
      "▁is": 1454,
      "](https://web.archive.org/web/201": 1455,
      "ब्": 1456,
      "▁\"प": 1457,
      "ीय_": 1458,
      "గా": 1459,
      "మూ": 1460,
      "▁జ": 1461,
      "్రీ": 1462,
      "▁\"C": 1463,
      "▁Indian": 1464,
      "म्ब": 1465,
      "conom": 1466,
      "nic": 1467,
      "ంబ": 1468,
      "ంగా": 1469,
      "णा": 1470,
      "-6": 1471,
      "क्": 1472,
      "ज्य": 1473,
      "▁pp.": 1474,
      "les": 1475,
      "▁सूच": 1476,
      ".jpg)\n": 1477,
      "డ్": 1478,
      "ిల్": 1479,
      "▁ख": 1480,
      "opul": 1481,
      "ana": 1482,
      "▁be": 1483,
      "िग": 1484,
      "/http://": 1485,
      "ुस": 1486,
      "లి": 1487,
      "వం": 1488,
      "्रो": 1489,
      "స్త్ర": 1490,
      "▁వి": 1491,
      "60": 1492,
      "िस": 1493,
      "▁तथा": 1494,
      "त्तर": 1495,
      "nd": 1496,
      "दा": 1497,
      "▁[प": 1498,
      "र्ष": 1499,
      "_N": 1500,
      "स्कृत": 1501,
      "'s": 1502,
      "▁**[": 1503,
      "ow": 1504,
      "ap": 1505,
      "కా": 1506,
      "ణా": 1507,
      "దక్ష": 1508,
      "ధిక": 1509,
      "▁భారతదేశం": 1510,
      "సియా": 1511,
      "జాతీయ": 1512,
      "▁Uni": 1513,
      "▁K": 1514,
      "-9": 1515,
      "जाब": 1516,
      "▁तिथि": 1517,
      "70": 1518,
      "&pg": 1519,
      "ूर": 1520,
      "&pg=": 1521,
      "గు": 1522,
      "](https://en.wikipedia.org/wiki/S": 1523,
      "▁సం": 1524,
      "▁చరిత్ర": 1525,
      "54": 1526,
      "ori": 1527,
      "htm": 1528,
      "वं": 1529,
      "▁तिथि:": 1530,
      "ages": 1531,
      "ीत": 1532,
      "▁जा": 1533,
      "డి": 1534,
      "తర": 1535,
      "2011": 1536,
      "▁[C": 1537,
      "iginal": 1538,
      "opulation": 1539,
      "_in_India": 1540,
      "artic": 1541,
      "ालय": 1542,
      "7.": 1543,
      "ani": 1544,
      "ance": 1545,
      "లా": 1546,
      "▁రాజ్యం": 1547,
      "▁సామ్రాజ్యం": 1548,
      "▁अभिग": 1549,
      "వర్గ": 1550,
      "దక్షి": 1551,
      "&pg=PA": 1552,
      "▁अभिगमन": 1553,
      "-t": 1554,
      "वी": 1555,
      "250": 1556,
      "_b": 1557,
      "पुस्त": 1558,
      "▁–": 1559,
      "](https://hi.wikipedia.org/wiki/म": 1560,
      "र्थ": 1561,
      "न्न": 1562,
      "ates": 1563,
      "्रोत": 1564,
      "48": 1565,
      "ong": 1566,
      "FOOTNOTES": 1567,
      "దీ": 1568,
      "▁బ": 1569,
      "▁th": 1570,
      "స్త": 1571,
      "ండి": 1572,
      "వర్గం:": 1573,
      "ke": 1574,
      "णि": 1575,
      "▁\"स": 1576,
      "ans": 1577,
      "ingh": 1578,
      "ाः": 1579,
      "ित्र": 1580,
      "ी_स": 1581,
      "▁हैं।": 1582,
      "ru": 1583,
      "sion": 1584,
      "ys": 1585,
      "ం\")": 1586,
      "](https://hi.wikipedia.org/wiki/च": 1587,
      "▁original": 1588,
      "6.": 1589,
      "aj": 1590,
      "land": 1591,
      "33": 1592,
      "▁राष्ट्र": 1593,
      "श्चिम": 1594,
      "5.": 1595,
      "](https://hi.wikipedia.org/wiki/क": 1596,
      "विशेष:पुस्त": 1597,
      "्रोत/": 1598,
      "विशेष:पुस्तक": 1599,
      "▁de": 1600,
      "art": 1601,
      "ట్": 1602,
      "ది": 1603,
      "ిత": 1604,
      "▁[మ": 1605,
      "ूप": 1606,
      "▁मु": 1607,
      "s,": 1608,
      "जरा": 1609,
      "_p": 1610,
      "िव": 1611,
      "त्य": 1612,
      "](https://en.wikipedia.org/wiki/C": 1613,
      "india.gov": 1614,
      "gion": 1615,
      "_చ": 1616,
      "टी": 1617,
      "द्वीप": 1618,
      "रकार": 1619,
      "▁\"మ": 1620,
      "ింది.": 1621,
      "%2C": 1622,
      "ोर": 1623,
      "-19": 1624,
      "2.": 1625,
      "ai": 1626,
      "चल": 1627,
      "▁st": 1628,
      "av": 1629,
      "ज्": 1630,
      "umm": 1631,
      "df": 1632,
      "_1": 1633,
      "od": 1634,
      "ल्": 1635,
      "▁\"M": 1636,
      "53": 1637,
      "▁ఎ": 1638,
      "▁(సా.శ.పూ.": 1639,
      "ख्या": 1640,
      "▁as": 1641,
      "](S": 1642,
      "os": 1643,
      "ख्य": 1644,
      "▁मेला": 1645,
      "▁पुरा": 1646,
      "ction": 1647,
      "other": 1648,
      "▁8": 1649,
      "lic": 1650,
      "ate_": 1651,
      "2018": 1652,
      "▁2014": 1653,
      "ीभाषा": 1654,
      "ries": 1655,
      "2006": 1656,
      "2009": 1657,
      "mber": 1658,
      "गण": 1659,
      "ధ్య": 1660,
      "▁శ": 1661,
      "ంద్ర": 1662,
      "▁*[": 1663,
      "▁प्रा": 1664,
      "pecial:BookSources/978-0": 1665,
      "ुसार": 1666,
      "120": 1667,
      "*](https://books.google.com/books?id=": 1668,
      "ud": 1669,
      "▁ना": 1670,
      "hal": 1671,
      "59": 1672,
      "▁[हिन्द": 1673,
      "](https://hi.wikipedia.org/wiki/अ": 1674,
      "▁हु": 1675,
      "_में": 1676,
      "74": 1677,
      "ity": 1678,
      "च्च": 1679,
      "ైన": 1680,
      "▁&": 1681,
      "titu": 1682,
      "](https://te.wikipedia.org/wiki/మ": 1683,
      "▁పే": 1684,
      "57": 1685,
      "sher": 1686,
      "▁शास": 1687,
      "्मी": 1688,
      "56": 1689,
      "▁[M": 1690,
      "overn": 1691,
      "▁[उ": 1692,
      "▁\"B": 1693,
      "hel": 1694,
      "ंग्रेज़": 1695,
      "लेखित": 1696,
      "count": 1697,
      "लु": 1698,
      "ence": 1699,
      "tim": 1700,
      "विधान": 1701,
      "_भारत": 1702,
      "e0%": 1703,
      "ట్ట": 1704,
      "హింద": 1705,
      "▁[B": 1706,
      "_की_स": 1707,
      "ంగ్": 1708,
      "ద్ధ": 1709,
      "e0%a": 1710,
      "eral": 1711,
      "श्मी": 1712,
      "▁[स": 1713,
      "ूची": 1714,
      "1)": 1715,
      "न्ध": 1716,
      "▁Press": 1717,
      "तम": 1718,
      "](https://hi.wikipedia.org/wiki/ब": 1719,
      "▁सम": 1720,
      "▁हो": 1721,
      "िल्": 1722,
      "▁भी": 1723,
      "▁(P": 1724,
      "/https://": 1725,
      "न\")": 1726,
      "ैद": 1727,
      "्रि": 1728,
      "](https://en.wikipedia.org/wiki/M": 1729,
      "ించ": 1730,
      "▁ఒ": 1731,
      "▁భాష": 1732,
      "▁[క": 1733,
      "ాల్": 1734,
      "2004": 1735,
      ",_": 1736,
      "CS": 1737,
      "फ़": 1738,
      "▁\"उ": 1739,
      "indu": 1740,
      "istory": 1741,
      "साँच": 1742,
      "गुजरा": 1743,
      "▁language": 1744,
      "▁7": 1745,
      "ficial": 1746,
      "▁।\n": 1747,
      "Indian": 1748,
      "](https://www.": 1749,
      "▁\"हिन्द": 1750,
      "_B": 1751,
      "]](https://te.wikipedia.org/wiki/భారతదేశం": 1752,
      "तु": 1753,
      "हु": 1754,
      "ा:": 1755,
      "చ్చ": 1756,
      "జీ": 1757,
      "ేంద్ర": 1758,
      "▁\"క": 1759,
      "](https://hi.wikipedia.org/wiki/भारत_में": 1760,
      "250px-": 1761,
      "27": 1762,
      "National": 1763,
      "ob": 1764,
      "ore": 1765,
      "his": 1766,
      "▁\"P": 1767,
      "1998": 1768,
      "overnment": 1769,
      "भू": 1770,
      "वर": 1771,
      "](https://en.wikipedia.org/wiki/ISBN_(identifier)": 1772,
      "_का": 1773,
      "▁[ISBN](https://en.wikipedia.org/wiki/ISBN_(identifier)": 1774,
      "चीन": 1775,
      "▁l": 1776,
      "DP": 1777,
      "ంత": 1778,
      "త్య": 1779,
      "బ్": 1780,
      "మీ": 1781,
      "](https://te.wikipedia.org/wiki/ద": 1782,
      "్యా": 1783,
      "రాష్ట్ర": 1784,
      "▁ప్రాం": 1785,
      "▁./వర్గం:": 1786,
      "og": 1787,
      "तिहास": 1788,
      "template": 1789,
      "▁I": 1790,
      "au": 1791,
      "दक्षिण": 1792,
      "\")**": 1793,
      "भारतस्य": 1794,
      "cl": 1795,
      "▁2011": 1796,
      "df)": 1797,
      "▁di": 1798,
      "000": 1799,
      "संस्कृत": 1800,
      ".nic": 1801,
      "कर": 1802,
      "ంక": 1803,
      "ప్": 1804,
      "యు": 1805,
      "stan": 1806,
      "\\_S": 1807,
      "स्था": 1808,
      "▁इस": 1809,
      "తంత్ర": 1810,
      "](https://te.wikipedia.org/wiki/భారతదేశం#cite_ref-": 1811,
      "पाकि": 1812,
      "▁University": 1813,
      "దక్షిణ": 1814,
      "]](https://te.wikipedia.org/wiki/భారతదేశం#cite_note-": 1815,
      "5%": 1816,
      "new": 1817,
      "etri": 1818,
      "_G": 1819,
      "dge": 1820,
      "▁Asia": 1821,
      "9.": 1822,
      "DF": 1823,
      "rchive": 1824,
      "जी": 1825,
      "वरी": 1826,
      "▁with": 1827,
      "ations": 1828,
      "▁१९": 1829,
      "▁[↑](https://en.wikipedia.org/wiki/India#cite_ref-FOOTNOTE": 1830,
      "ll": 1831,
      "all": 1832,
      "tics": 1833,
      "▁\"A": 1834,
      "▁सि": 1835,
      "▁सरकार": 1836,
      "िक्": 1837,
      "▁विश्व": 1838,
      "ff": 1839,
      "प्त": 1840,
      "98": 1841,
      "_R": 1842,
      "_స": 1843,
      "తము": 1844,
      "ష్": 1845,
      "ాన్": 1846,
      "స్క": 1847,
      "ిల్లీ": 1848,
      "43": 1849,
      "खण्ड": 1850,
      "ान्": 1851,
      "र्ण": 1852,
      "\"))\n": 1853,
      "eved": 1854,
      "द्र": 1855,
      "हारा": 1856,
      "ैन": 1857,
      "▁घ": 1858,
      "](https://hi.wikipedia.org/wiki/भारतीय_": 1859,
      "▁तक": 1860,
      "न्त्र": 1861,
      "ज्ञ": 1862,
      "▁are": 1863,
      "▁(PDF": 1864,
      "ia": 1865,
      "amb": 1866,
      "▁Retri": 1867,
      "▁Retrieved": 1868,
      "s.": 1869,
      "▁स्व": 1870,
      "▁हि": 1871,
      "भाग": 1872,
      "rchived": 1873,
      "em": 1874,
      "ear": 1875,
      "onstitu": 1876,
      ".pdf)": 1877,
      "oli": 1878,
      "జి": 1879,
      "ధాన": 1880,
      "బె": 1881,
      "వే": 1882,
      "ారు": 1883,
      "ంది.": 1884,
      "नेपाल": 1885,
      "▁రాజ": 1886,
      "धिकार": 1887,
      "-1)": 1888,
      "ank": 1889,
      "omm": 1890,
      "elhi": 1891,
      "ral": 1892,
      "▁[2": 1893,
      "ack": 1894,
      "\\_errors": 1895,
      "help": 1896,
      "sv": 1897,
      "o-": 1898,
      "रब": 1899,
      "वन": 1900,
      "▁\"List": 1901,
      "स्ट": 1902,
      "ों_की_स": 1903,
      "राज्यम्\")": 1904,
      "_E": 1905,
      "\")*": 1906,
      "8.": 1907,
      "census": 1908,
      "దు": 1909,
      "మ్": 1910,
      "శ్": 1911,
      "](https://te.wikipedia.org/wiki/క": 1912,
      "▁కా": 1913,
      "_చరిత్ర": 1914,
      "एशिया": 1915,
      "हिन्दी": 1916,
      "_and_S": 1917,
      "34": 1918,
      "36": 1919,
      "AJ": 1920,
      "Edit": 1921,
      "ंब": 1922,
      "ओं": 1923,
      "](https://hi.wikipedia.org/wiki/प": 1924,
      "](https://en.wikipedia.org/wiki/B": 1925,
      "▁नि": 1926,
      "▁errors": 1927,
      "▁con": 1928,
      "▁([help": 1929,
      "▁errors\"))\n": 1930,
      "BAJ": 1931,
      "QBAJ": 1932,
      "ागर": 1933,
      "क्ति": 1934,
      "ummit": 1935,
      "ex": 1936,
      "ञ्च": 1937,
      "व्य": 1938,
      "००": 1939,
      "ated": 1940,
      "%E0%A4%B": 1941,
      ".jpg/250px-": 1942,
      "2)": 1943,
      "\\_and": 1944,
      "ంధ": 1945,
      "ఢిల్లీ": 1946,
      "పంచ": 1947,
      "▁\"T": 1948,
      "▁किया": 1949,
      "ారి": 1950,
      "్యవ": 1951,
      "_के_राज्य": 1952,
      "ंदिर": 1953,
      "tein1998": 1954,
      "शासित": 1955,
      "మూస": 1956,
      "ingh2009": 1957,
      ")\")": 1958,
      "▁[P": 1959,
      "html": 1960,
      "\"](https://web.archive.org/web/201": 1961,
      "_s": 1962,
      "gy": 1963,
      "List_of_": 1964,
      "▁[978-0": 1965,
      "indi": 1966,
      "त्प": 1967,
      "ari": 1968,
      "](https://en.wikipedia.org/wiki/P": 1969,
      "_templ": 1970,
      "▁error": 1971,
      "▁template": 1972,
      "▁\"G": 1973,
      "no-t": 1974,
      "\\_no-t": 1975,
      "▁Sfn": 1976,
      "▁target": 1977,
      "fn_templ": 1978,
      "fn\\_no-t": 1979,
      "arget\\_errors": 1980,
      "ate_errors": 1981,
      "\\_Sfn\\_no-t": 1982,
      "_and_Sfn_templ": 1983,
      "\\_and\\_Sfn\\_no-t": 1984,
      "▁error:": 1985,
      "▁target:": 1986,
      "arget\\_errors\n": 1987,
      "_and_Sfn_template_errors": 1988,
      "\\_and\\_Sfn\\_no-target\\_errors\n": 1989,
      "यः": 1990,
      "▁[1": 1991,
      "▁[भारतीय": 1992,
      "AAQBAJ": 1993,
      "e0%a4%": 1994,
      ".nic.in/": 1995,
      "Kul": 1996,
      "ile": 1997,
      "oc": 1998,
      "వు": 1999,
      "▁\"భారతీయ": 2000,
      "तर": 2001,
      "सद": 2002,
      "77": 2003,
      ").\n": 2004,
      "lop": 2005,
      "ंजाब": 2006,
      "हार": 2007,
      "ine": 2008,
      "नाथ": 2009,
      "▁ex": 2010,
      "▁राज्यों": 2011,
      "▁सूची\")": 2012,
      "▁खाना": 2013,
      "ों_की_सूची": 2014,
      "▁CITEREF": 2015,
      "cy": 2016,
      "पि": 2017,
      "29": 2018,
      "ange": 2019,
      "िन": 2020,
      "▁an": 2021,
      "ase": 2022,
      "PP": 2023,
      "गो": 2024,
      "पति": 2025,
      "बसे": 2026,
      "జన": 2027,
      "టు": 2028,
      "టె": 2029,
      "](https://hi.wikipedia.org/wiki/स": 2030,
      "ard": 2031,
      "nolo": 2032,
      "▁गया": 2033,
      "▁చె": 2034,
      "నాయ": 2035,
      "–సా.శ.పూ.": 2036,
      "▁ఆర్": 2037,
      "▁भाषा\")": 2038,
      "](http://www.": 2039,
      "పాలిత": 2040,
      "స్త్రం:": 2041,
      "ేంద్రపాలిత": 2042,
      "](https://te.wikipedia.org/wiki/దస్త్రం:": 2043,
      "▁was": 2044,
      "ts": 2045,
      "2010": 2046,
      "▁10": 2047,
      "▁दक्षिण": 2048,
      "-p": 2049,
      "\").\n": 2050,
      "▁कार": 2051,
      "5)": 2052,
      "ublic": 2053,
      "ीस": 2054,
      "म्म": 2055,
      "पुरी": 2056,
      "▁[मूल": 2057,
      "ers": 2058,
      "▁sfn": 2059,
      "bot": 2060,
      "काल": 2061,
      "▁[G": 2062,
      "▁मा": 2063,
      "ism": 2064,
      "MetcalfMetcalf": 2065,
      "युक्त": 2066,
      "ఖ్య": 2067,
      "గో": 2068,
      "తో": 2069,
      "బి": 2070,
      "హి": 2071,
      "స్కృ": 2072,
      "3.": 2073,
      "fe": 2074,
      "नि": 2075,
      "▁V": 2076,
      "▁\"D": 2077,
      "र्ग": 2078,
      "ash": 2079,
      "क्षेत्र": 2080,
      "्याया": 2081,
      "न्ति": 2082,
      "स्कृ": 2083,
      "times": 2084,
      "..": 2085,
      "ec": 2086,
      "ties": 2087,
      "सभा": 2088,
      "▁सबसे": 2089,
      "esh": 2090,
      "ियों": 2091,
      "conomic": 2092,
      "](https://hi.wikipedia.org/wiki/चित्र": 2093,
      "▁पुरालेखित": 2094,
      "▁पुरालेखित।": 2095,
      "port": 2096,
      "mund": 2097,
      "टे": 2098,
      "eng": 2099,
      "▁कि": 2100,
      "स्ति": 2101,
      "othermund": 2102,
      "rad": 2103,
      "▁धर्म": 2104,
      "पुरा": 2105,
      "▁आधार": 2106,
      "▁\"हिन्दी\")": 2107,
      "ati": 2108,
      "iki": 2109,
      "IN": 2110,
      "_ప": 2111,
      "హా": 2112,
      "ి.\n": 2113,
      "▁it": 2114,
      "▁ను": 2115,
      "▁జాతీయ": 2116,
      "orth": 2117,
      "भाषा\")": 2118,
      "](https://hi.wikipedia.org/wiki/भारत_में_": 2119,
      "हाराष्ट्र": 2120,
      "్యవస్థ": 2121,
      "](https://hi.wikipedia.org/wiki/चित्र:": 2122,
      "38": 2123,
      "ः,": 2124,
      "लया": 2125,
      "albot": 2126,
      "▁पूर्व": 2127,
      "▁\"भारतस्य": 2128,
      "udd": 2129,
      "Kulke": 2130,
      "_m": 2131,
      "ame": 2132,
      "uni": 2133,
      "की": 2134,
      "लि": 2135,
      "▁6": 2136,
      "ंग्": 2137,
      "aki": 2138,
      "gh": 2139,
      "दू": 2140,
      "ुर": 2141,
      "।[[": 2142,
      "](https://en.wikipedia.org/wiki/A": 2143,
      "▁गण": 2144,
      "Asher": 2145,
      "▁\"E": 2146,
      "▁\"आ": 2147,
      "▁पा": 2148,
      "196": 2149,
      "lish": 2150,
      "age/": 2151,
      "▁###": 2152,
      "श्मीर": 2153,
      "డా": 2154,
      "దా": 2155,
      "బడ": 2156,
      "మే": 2157,
      "▁భారత": 2158,
      "▁లో": 2159,
      "▁కూ": 2160,
      "ాలు,": 2161,
      "▁రాష్ట్ర": 2162,
      "%20%20": 2163,
      "కిస్తాన్": 2164,
      "▁చరిత్ర\")": 2165,
      "46": 2166,
      "_F": 2167,
      "rou": 2168,
      "](https://en.wikipedia.org/wiki/E": 2169,
      "ford": 2170,
      "5%8": 2171,
      "11": 2172,
      "80": 2173,
      "%e0%a4%": 2174,
      "जय": 2175,
      "ञ्": 2176,
      "बंध": 2177,
      "al_": 2178,
      "](https://hi.wikipedia.org/wiki/भारत#CITEREF": 2179,
      "▁वर्ष": 2180,
      "माण": 2181,
      "▁संविधान": 2182,
      "▁है।\n": 2183,
      "राज्यम्](https://sa.wikipedia.org/wiki/": 2184,
      "▁साथ": 2185,
      "ज्ञान": 2186,
      "/c": 2187,
      "डु": 2188,
      "ark": 2189,
      "▁26": 2190,
      "श्वर": 2191,
      "▁हिन्द": 2192,
      "AAQBAJ&pg=PA": 2193,
      "58": 2194,
      "ven": 2195,
      "als": 2196,
      "](https://en.wikipedia.org/wiki/T": 2197,
      "2005": 2198,
      "▁at": 2199,
      "gen": 2200,
      "xford": 2201,
      "ीगढ": 2202,
      "రణ": 2203,
      "▁ఈ": 2204,
      "▁li": 2205,
      "▁था": 2206,
      "▁[అ": 2207,
      "▁\"श्रेणी:Harv": 2208,
      "](https://hi.wikipedia.org/wiki/श्रेणी:Harv": 2209,
      "नाग": 2210,
      "త్రి": 2211,
      "ాలు](https://te.wikipedia.org/wiki/": 2212,
      "▁संघ": 2213,
      "▁./श्रेणी:Harv": 2214,
      "▁लि": 2215,
      "▁ప్రాంత": 2216,
      "पाकिस्तान": 2217,
      "▁([help](https://hi.wikipedia.org/wiki/श्रेणी:Harv": 2218,
      "_and_Sfn_template_errors?action=edit&redlink=1": 2219,
      "▁./श्रेणी:Harv\\_and\\_Sfn\\_no-target\\_errors\n": 2220,
      "▁([help](https://hi.wikipedia.org/wiki/श्रेणी:Harv_and_Sfn_template_errors?action=edit&redlink=1": 2221,
      "RI": 2222,
      "दिल्": 2223,
      "धानम": 2224,
      "71": 2225,
      "ef": 2226,
      "▁18": 2227,
      "gue": 2228,
      "Page/": 2229,
      "चे": 2230,
      "ाङ्ग": 2231,
      "ेण": 2232,
      "ेन": 2233,
      "▁[आ": 2234,
      "▁whi": 2235,
      "EditPage/": 2236,
      "स्कृति": 2237,
      "49": 2238,
      "टक": 2239,
      "तंत्र": 2240,
      "लोक": 2241,
      "](https://hi.wikipedia.org/wiki/उ": 2242,
      "](https://en.wikipedia.org/wiki/D": 2243,
      "राठ": 2244,
      "ियाँ": 2245,
      "तेलु": 2246,
      "a_": 2247,
      "a\")": 2248,
      "india-": 2249,
      "qu": 2250,
      "▁[D": 2251,
      "▁मान": 2252,
      "ाली": 2253,
      "sian": 2254,
      "_सं": 2255,
      "india.gov.in/": 2256,
      "्रिट": 2257,
      "गुजरात": 2258,
      "_క": 2259,
      "empl": 2260,
      "tin": 2261,
      "తు": 2262,
      "పతి": 2263,
      "▁స్": 2264,
      "▁ని": 2265,
      "▁స్థ": 2266,
      "▁[ప": 2267,
      "▁\"భారతదేశం": 2268,
      "్రి": 2269,
      "ర్వ": 2270,
      "న్ని": 2271,
      "మిళ": 2272,
      "వంశ": 2273,
      "▁[इ": 2274,
      "ish": 2275,
      "articles": 2276,
      "3)": 2277,
      "ding": 2278,
      "ten": 2279,
      "mple": 2280,
      "lopment": 2281,
      "ure": 2282,
      "खा": 2283,
      "बाद": 2284,
      "वाद": 2285,
      "र्दू": 2286,
      "विध": 2287,
      "languages": 2288,
      "तमिल": 2289,
      "na": 2290,
      "ternational": 2291,
      "ove": 2292,
      "म्प": 2293,
      "ous": 2294,
      "▁History": 2295,
      "▁नाम": 2296,
      "▁शासन": 2297,
      ".sv": 2298,
      "s-": 2299,
      "कल": 2300,
      "निक": 2301,
      "▁अग": 2302,
      "▁उप": 2303,
      "▁यु": 2304,
      "▁[Archived": 2305,
      "त्पाद": 2306,
      "_మ": 2307,
      "_భాష": 2308,
      "तः": 2309,
      "म्रा": 2310,
      "ఫ్": 2311,
      "ర్య": 2312,
      "▁ల": 2313,
      "▁[బ": 2314,
      "▁[స": 2315,
      "▁\"అ": 2316,
      "राजस्थान": 2317,
      "న్నాయ": 2318,
      "▁बाद": 2319,
      "▁కాల": 2320,
      "ాలు\")": 2321,
      "ులు](https://te.wikipedia.org/wiki/": 2322,
      "ड़ा": 2323,
      "▁यह": 2324,
      "▁రై": 2325,
      "-521": 2326,
      ".jpg)](https://te.wikipedia.org/wiki/దస్త్రం:": 2327,
      "ansk": 2328,
      "హిందూ": 2329,
      "_का_": 2330,
      "म्मू": 2331,
      "म्राज्य": 2332,
      "वस्था": 2333,
      "ोर्": 2334,
      "▁दे": 2335,
      "▁\"इ": 2336,
      "inist": 2337,
      "ric": 2338,
      "_In": 2339,
      "▁[the": 2340,
      "ril": 2341,
      "riti": 2342,
      "matics": 2343,
      "ire": 2344,
      "धी": 2345,
      "फल": 2346,
      "र्त": 2347,
      "ines": 2348,
      "end": 2349,
      "ridge": 2350,
      "▁भू": 2351,
      "्रील": 2352,
      "हासागर": 2353,
      "_by": 2354,
      "anskrit": 2355,
      "ss": 2356,
      "▁5": 2357,
      "ord": 2358,
      "onstitution": 2359,
      "4)": 2360,
      "_और": 2361,
      "एं": 2362,
      "किम": 2363,
      "ढ़": 2364,
      "मह": 2365,
      "ाय": 2366,
      "्यट": 2367,
      "](https://sa.wikipedia.org/wiki/ब": 2368,
      "](https://hi.wikipedia.org/wiki/भारत_के_": 2369,
      "▁2007": 2370,
      "](https://web.archive.org/web/20": 2371,
      "ture": 2372,
      "4.": 2373,
      "man": 2374,
      "to": 2375,
      "hy": 2376,
      "ik": 2377,
      "pend": 2378,
      "ligion": 2379,
      "pecial:BookSources/978-1": 2380,
      "%E0%A4%A": 2381,
      "्रिटिश": 2382,
      "ఆసియా": 2383,
      "ద్ర": 2384,
      "భూ": 2385,
      "మె": 2386,
      "య్య": 2387,
      "▁\"ప": 2388,
      "▁\"బ": 2389,
      "▁\"స": 2390,
      "out": 2391,
      "▁[↑](https://te.wikipedia.org/wiki/భారతదేశం#cite_ref-": 2392,
      "▁ప్రదేశ్": 2393,
      "త్త": 2394,
      "▁అధిక": 2395,
      "ప్రదేశ్": 2396,
      "▁నుండి": 2397,
      "1,": 2398,
      "।\n": 2399,
      "▁[ज": 2400,
      "\\_with": 2401,
      "▁South": 2402,
      "ult": 2403,
      "_and_": 2404,
      "conomy": 2405,
      "United": 2406,
      "▁which": 2407,
      "-b": 2408,
      "_भाषा": 2409,
      "_पर": 2410,
      "data": 2411,
      "national": 2412,
      "uc": 2413,
      "ओड": 2414,
      "ही": 2415,
      "ांग्": 2416,
      "▁थ": 2417,
      "▁\"विशेष:पुस्तक": 2418,
      "](https://hi.wikipedia.org/wiki/ISBN_(identifier)": 2419,
      "](https://hi.wikipedia.org/wiki/विशेष:पुस्तक": 2420,
      "▁सर्व": 2421,
      "▁स्रोत/": 2422,
      "त्रि": 2423,
      "लाई": 2424,
      "_की_": 2425,
      "_स्रोत/": 2426,
      "▁./श्रेणी:": 2427,
      "_के_आ": 2428,
      "▁[ISBN](https://hi.wikipedia.org/wiki/ISBN_(identifier)": 2429,
      "साँचा:": 2430,
      "ांग्ला": 2431,
      "](https://hi.wikipedia.org/wiki/विशेष:पुस्तक_स्रोत/": 2432,
      "330": 2433,
      "n_": 2434,
      "dition": 2435,
      "territ": 2436,
      "Rothermund": 2437,
      "▁we": 2438,
      "ini": 2439,
      "▁गीत": 2440,
      "ंद्र": 2441,
      "ambridge": 2442,
      "2-2": 2443,
      "▁count": 2444,
      "6)": 2445,
      "oh": 2446,
      "मी": 2447,
      "▁'": 2448,
      "▁[न": 2449,
      "▁[978-1": 2450,
      "▁\"R": 2451,
      "भारतम्": 2452,
      "ali": 2453,
      "▁सन्ति": 2454,
      "ाद्वीप": 2455,
      "MetcalfMetcalf2006": 2456,
      "39": 2457,
      "arli": 2458,
      "_प्रदेश": 2459,
      "ंप": 2460,
      "ణి": 2461,
      "తమిళ": 2462,
      "ధీ": 2463,
      "మైన": 2464,
      "హార": 2465,
      "ోర్": 2466,
      "▁राष्ट्रीय": 2467,
      "▁\"ఇ": 2468,
      "▁\"భారత": 2469,
      "](https://en.wikipedia.org/wiki/G": 2470,
      "](https://en.wikipedia.org/wiki/R": 2471,
      "](https://te.wikipedia.org/wiki/బ": 2472,
      "](https://hi.wikipedia.org/wiki/भारत#cite_ref": 2473,
      "▁जु": 2474,
      "▁है,": 2475,
      "ंगा": 2476,
      "▁[↑](https://hi.wikipedia.org/wiki/भारत#cite_ref": 2477,
      "▁మొ": 2478,
      "నాగ": 2479,
      "త్తర": 2480,
      "ులు\")": 2481,
      "]](https://hi.wikipedia.org/wiki/भारत#cite_note": 2482,
      "శ్మీ": 2483,
      "మూస:": 2484,
      "▁[E": 2485,
      "\\_with\\_": 2486,
      "hist": 2487,
      "ree": 2488,
      "भाषा\"),": 2489,
      "▁2019": 2490,
      "▁अन्य": 2491,
      "-m": 2492,
      "sland": 2493,
      "world": 2494,
      "entre": 2495,
      "RICS": 2496,
      "तन्त्र": 2497,
      "arch": 2498,
      "▁Comm": 2499,
      "▁India's": 2500,
      "ission": 2501,
      "▁एवं": 2502,
      "india/": 2503,
      "▁इतिहास": 2504,
      "KulkeRothermund": 2505,
      "/http://www.": 2506,
      "आई": 2507,
      "छत्त": 2508,
      "बर": 2509,
      "भो": 2510,
      "ील": 2511,
      "▁[N": 2512,
      "▁[T": 2513,
      "▁मूल": 2514,
      "▁केन्द्र": 2515,
      "▁बहु": 2516,
      "हिमा": 2517,
      "नेमा": 2518,
      "_मेला": 2519,
      "द्योग": 2520,
      "▁has": 2521,
      "धार_पर": 2522,
      "मुख": 2523,
      "▁that": 2524,
      "ीसगढ": 2525,
      "_के_आधार_पर": 2526,
      "छत्तीसगढ": 2527,
      "_के_आधार_पर_भारत": 2528,
      "_देश": 2529,
      "▁ड": 2530,
      "▁कु": 2531,
      "▁अप": 2532,
      "▁अस्ति": 2533,
      "▁भारतस्य": 2534,
      "▁विक": 2535,
      "yson": 2536,
      "120px-": 2537,
      "भारतस्य_": 2538,
      "ाङ्गला": 2539,
      "World": 2540,
      "శా": 2541,
      "ైనా": 2542,
      "▁[ఇ": 2543,
      "▁\"జ": 2544,
      "](https://te.wikipedia.org/wiki/ఇ": 2545,
      "](https://te.wikipedia.org/wiki/స": 2546,
      "భారత_": 2547,
      "ament": 2548,
      "రాజ": 2549,
      "లో](https://te.wikipedia.org/wiki/": 2550,
      "రిజ": 2551,
      "క్కు": 2552,
      "ండ్": 2553,
      "illi": 2554,
      "స్కృతి": 2555,
      "धि": 2556,
      "▁\"Special:BookSources/978-0": 2557,
      "](Special:BookSources/978-0": 2558,
      "mer": 2559,
      "2003": 2560,
      "▁Re": 2561,
      "ritish": 2562,
      "/p": 2563,
      "Dw": 2564,
      "ath": 2565,
      "pib": 2566,
      "▁9": 2567,
      "▁\"N": 2568,
      "▁\"श": 2569,
      "](https://en.wikipedia.org/wiki/List_of_": 2570,
      "▁मंदिर": 2571,
      "देह": 2572,
      "▁17": 2573,
      "त्तरा": 2574,
      "क्षा": 2575,
      "ंग्रेज़ी": 2576,
      "▁पुरालेखित।.": 2577,
      "▁जुलाई": 2578,
      "_के_आधार_पर_भारत_के_राज्य": 2579,
      "51": 2580,
      "ms": 2581,
      "ined": 2582,
      "ach": 2583,
      "rap": 2584,
      "cre": 2585,
      "rary": 2586,
      "ौद्ध": 2587,
      "▁[R": 2588,
      "▁अधिक": 2589,
      "न्स": 2590,
      "▁स्थ": 2591,
      "co": 2592,
      "wn": 2593,
      "▁fi": 2594,
      "_L": 2595,
      "ost": 2596,
      "१९": 2597,
      "▁[श": 2598,
      "in-": 2599,
      "ान\")": 2600,
      "▁सेना": 2601,
      "\"\n": 2602,
      "10.": 2603,
      "C&pg=PA": 2604,
      "_अ": 2605,
      "ta": 2606,
      "usi": 2607,
      "val": 2608,
      "सङ्": 2609,
      "ం?action=edit&redlink=1": 2610,
      "చే": 2611,
      "▁[జ": 2612,
      "▁\"The": 2613,
      "](https://sa.wikipedia.org/wiki/स": 2614,
      "▁పా": 2615,
      "2008": 2616,
      "स्व": 2617,
      "amil": 2618,
      "▁వా": 2619,
      "mpire": 2620,
      "ండు": 2621,
      "▁చూ": 2622,
      "త్వ": 2623,
      "▁रूप": 2624,
      "▁देशों": 2625,
      "▁తే": 2626,
      "ञ्जाब": 2627,
      "air": 2628,
      "fficial": 2629,
      "rov": 2630,
      "▁2021": 2631,
      "_ब": 2632,
      "ल\")": 2633,
      "०१": 2634,
      "thnolo": 2635,
      "ाला": 2636,
      "/https://www.": 2637,
      "धिकारिक": 2638,
      "thnologue": 2639,
      "mar": 2640,
      "ust": 2641,
      "▁:": 2642,
      "evelopment": 2643,
      "roup": 2644,
      "▁U": 2645,
      "▁[[": 2646,
      "omb": 2647,
      "ome": 2648,
      "ष्ण": 2649,
      "/0": 2650,
      "la": 2651,
      "pril": 2652,
      "ind": 2653,
      "▁16": 2654,
      "▁2014.\n": 2655,
      "ece": 2656,
      "ope": 2657,
      "ंक": 2658,
      "ली\")": 2659,
      "▁\"ज": 2660,
      "ese": 2661,
      "off": 2662,
      "ंगाल": 2663,
      "▁तट": 2664,
      "usines": 2665,
      "▁उत्तर": 2666,
      "िक्किम": 2667,
      "Hindu": 2668,
      "▁[t": 2669,
      "▁\"In": 2670,
      "2014": 2671,
      "ght": 2672,
      "▁r": 2673,
      "ority": 2674,
      "▁[ग": 2675,
      "▁\"ग": 2676,
      "नाडु": 2677,
      "▁St": 2678,
      "article": 2679,
      "india.gov.in": 2680,
      "_సా": 2681,
      "les/": 2682,
      "ంప": 2683,
      "కో": 2684,
      "గణ": 2685,
      "దిన": 2686,
      "నై": 2687,
      "రీ": 2688,
      "▁[చ": 2689,
      "▁[భారతీయ": 2690,
      "▁\"చ": 2691,
      "on_": 2692,
      "](https://te.wikipedia.org/wiki/జ": 2693,
      "ారం": 2694,
      "▁క్రీ": 2695,
      "క్‌": 2696,
      "నికి": 2697,
      "ల్ల": 2698,
      "ంగీ": 2699,
      "▁సి": 2700,
      "నాభా": 2701,
      "anguage": 2702,
      "జాబి": 2703,
      "_Delhi": 2704,
      "▁శా": 2705,
      "▁భాష\")": 2706,
      "బెంగ": 2707,
      "జాబితా": 2708,
      "\"](https://www.": 2709,
      "ram": 2710,
      "▁\"व": 2711,
      "▁15": 2712,
      "_Asia": 2713,
      "ाराज्य": 2714,
      "ी](https://sa.wikipedia.org/wiki/हिन्दी": 2715,
      "-107": 2716,
      "odern": 2717,
      "▁[हिन्दी](https://sa.wikipedia.org/wiki/हिन्दी": 2718,
      "ञ्चिका": 2719,
      "ashm": 2720,
      "दिल्ली": 2721,
      "1947": 2722,
      "-language": 2723,
      "File": 2724,
      "ces": 2725,
      "दु": 2726,
      "रो": 2727,
      "▁केंद्र": 2728,
      "2007": 2729,
      "aste": 2730,
      "▁दो": 2731,
      "ury": 2732,
      "संख्या": 2733,
      "र्वत": 2734,
      "]](https://hi.wikipedia.org/wiki/भारत#cite_note-FOOTNOTES": 2735,
      "▁अनुसार": 2736,
      "▁प्रदेश\")": 2737,
      "emplate": 2738,
      ",000": 2739,
      "p?": 2740,
      "शन": 2741,
      "ुव": 2742,
      "ैक": 2743,
      "ood": 2744,
      "▁न्याया": 2745,
      "▁मुख्य": 2746,
      "akistan": 2747,
      ".;": 2748,
      "121": 2749,
      "82": 2750,
      "RC": 2751,
      "Wiki": 2752,
      "_d": 2753,
      "f/": 2754,
      "▁Hindu": 2755,
      "-s": 2756,
      "ho": 2757,
      "गोल": 2758,
      "भ्य": 2759,
      "▁फ": 2760,
      "▁[L": 2761,
      "▁\"न": 2762,
      "ान्त": 2763,
      "ष्ठ": 2764,
      "▁2016": 2765,
      "nglish": 2766,
      "▁स्थान": 2767,
      "sation": 2768,
      ".jpg/120px-": 2769,
      "8/": 2770,
      "एँ": 2771,
      "एस": 2772,
      "पी": 2773,
      "भी": 2774,
      "ूह": 2775,
      "ोड़": 2776,
      "्ल": 2777,
      "చల్": 2778,
      "యన్": 2779,
      "షు": 2780,
      "ూర్": 2781,
      "▁$": 2782,
      "▁pe": 2783,
      "▁[భారత": 2784,
      "\"):": 2785,
      "](https://te.wikipedia.org/wiki/ప": 2786,
      "](https://te.wikipedia.org/wiki/భారతీయ": 2787,
      "cies": 2788,
      "ార్ట": 2789,
      "ాలయ": 2790,
      "विश्व": 2791,
      "▁जि": 2792,
      "▁जो": 2793,
      "క్క": 2794,
      "▁వ్యవస్థ": 2795,
      "uring": 2796,
      "▁ము": 2797,
      "ండో": 2798,
      "une": 2799,
      "ముంబ": 2800,
      "సిన": 2801,
      "▁196": 2802,
      "ड़ी": 2803,
      "ినల్": 2804,
      "ద్ద": 2805,
      "▁ఉన్న": 2806,
      "▁ఉన్నాయ": 2807,
      "పాకిస్తాన్": 2808,
      "म्बर": 2809,
      "▁ఒక": 2810,
      "▁ఒరిజ": 2811,
      "వంశం": 2812,
      "्यटन": 2813,
      "▁తేదీ": 2814,
      "ార్టీ": 2815,
      "▁ఒరిజినల్": 2816,
      "2/": 2817,
      "Hindi": 2818,
      "▁languages": 2819,
      "▁sub": 2820,
      "Vi": 2821,
      "pur": 2822,
      "क्र": 2823,
      "ध्व": 2824,
      "▁रा": 2825,
      "](File": 2826,
      "▁[च": 2827,
      "▁[सं": 2828,
      "्रह": 2829,
      "](https://en.wikipedia.org/wiki/N": 2830,
      "▁दि": 2831,
      "▁25": 2832,
      "ीपी": 2833,
      "ानां": 2834,
      "सिन्ध": 2835,
      "वंश": 2836,
      "▁जाता": 2837,
      "▁its": 2838,
      "0.": 2839,
      "73": 2840,
      "_language": 2841,
      "hat": 2842,
      "ron": 2843,
      "entral": 2844,
      "▁pro": 2845,
      "country": 2846,
      ".svg": 2847,
      "330px-": 2848,
      "79": 2849,
      "Talbot": 2850,
      "a/": 2851,
      "lang": 2852,
      "sc": 2853,
      "शा": 2854,
      "▁ri": 2855,
      "▁le": 2856,
      "देव": 2857,
      "▁प्रमुख": 2858,
      "▁द्व": 2859,
      "urope": 2860,
      "over": 2861,
      "राष्ट्रपति": 2862,
      "countries": 2863,
      "AsherTalbot": 2864,
      "inistry": 2865,
      "1/": 2866,
      "5/": 2867,
      "edi": 2868,
      "kno": 2869,
      "tical": 2870,
      "ower": 2871,
      "झार": 2872,
      "ठा": 2873,
      "िहार": 2874,
      "▁ad": 2875,
      "ाने": 2876,
      "lection": 2877,
      "_क्षेत्र": 2878,
      "प्रा": 2879,
      "▁एशिया": 2880,
      ".jpg)](https://hi.wikipedia.org/wiki/चित्र:": 2881,
      "do-": 2882,
      "▁(PDF)": 2883,
      "तेलुगु": 2884,
      "tinent": 2885,
      "▁countries": 2886,
      "▁Commission": 2887,
      "1_": 2888,
      "NG": 2889,
      "▁\"Indian": 2890,
      "ved": 2891,
      "▁13": 2892,
      "formatics": 2893,
      "Oxford": 2894,
      "ran": 2895,
      "ट्": 2896,
      "नगर": 2897,
      "बार": 2898,
      "ोने": 2899,
      "▁te": 2900,
      "▁\"च": 2901,
      "on-": 2902,
      "any": 2903,
      "ulture": 2904,
      "ीनगर": 2905,
      "र्थिक": 2906,
      "news/": 2907,
      "व्यवस्था": 2908,
      "gar": 2909,
      "జ్": 2910,
      "బా": 2911,
      "వరి": 2912,
      "శ్చ": 2913,
      "ిన్న": 2914,
      "ెల": 2915,
      "▁\"భారతదేశ": 2916,
      "్రె": 2917,
      "ాలు\n": 2918,
      "నిస్తాన్": 2919,
      "▁మధ్య": 2920,
      "▁ప్రధాన": 2921,
      "](https://te.wikipedia.org/wiki/భారతదేశంలో": 2922,
      "స్థాన్": 2923,
      "▁పేజీ": 2924,
      "మ్మూ": 2925,
      "▁\"భారతదేశంలో": 2926,
      "▁చూసిన": 2927,
      "▁తేదీ:": 2928,
      "శ్చి": 2929,
      "▁పేజీని": 2930,
      "/A": 2931,
      "7)": 2932,
      "sp": 2933,
      "s\")": 2934,
      "▁\"K": 2935,
      "िया\")": 2936,
      "ames": 2937,
      "imes": 2938,
      "uk": 2939,
      "▁199": 2940,
      "ograp": 2941,
      "arliament": 2942,
      "त्व": 2943,
      "तमि": 2944,
      "भि": 2945,
      "योग": 2946,
      "लय": 2947,
      "ाः\")": 2948,
      "▁me": 2949,
      "tive": 2950,
      "](https://en.wikipedia.org/wiki/In": 2951,
      "याः": 2952,
      "देशः": 2953,
      "▁April": 2954,
      "▁Population": 2955,
      "जाति": 2956,
      "ण्डीगढ": 2957,
      "ङ्ग्ल": 2958,
      "continent": 2959,
      "-80": 2960,
      "केर": 2961,
      "▁साम्राज्य": 2962,
      "%E0%A5%8": 2963,
      "वेब": 2964,
      "शासितप्रदेश": 2965,
      "radesh": 2966,
      "तंत्रता": 2967,
      "KulkeRothermund2004": 2968,
      "द्योगिक": 2969,
      "तमिळ": 2970,
      "35": 2971,
      "eb": 2972,
      "las": 2973,
      "uj": 2974,
      "van": 2975,
      "ibrary": 2976,
      "2_": 2977,
      "back": 2978,
      "▁[In": 2979,
      "▁\"L": 2980,
      "alth": 2981,
      "▁व्य": 2982,
      "▁वर्त": 2983,
      "माज": 2984,
      "काश": 2985,
      "ृत्य": 2986,
      "ी_भाषा": 2987,
      "DwAAQBAJ&pg=PA": 2988,
      "usic": 2989,
      "auth": 2990,
      "116": 2991,
      "8)": 2992,
      "ोड": 2993,
      "▁छ": 2994,
      "arg": 2995,
      "alay": 2996,
      "](File:": 2997,
      ".html": 2998,
      "ater": 2999,
      "Category:": 3000,
      "Comb": 3001,
      "ंस": 3002,
      "तिक": 3003,
      "थम": 3004,
      "रवरी": 3005,
      "ाट": 3006,
      "షన్": 3007,
      "హ్": 3008,
      "ెలు": 3009,
      "▁భారతదేశ": 3010,
      "](https://te.wikipedia.org/wiki/అ": 3011,
      "▁పరి": 3012,
      "विज्ञान": 3013,
      "▁प्रति": 3014,
      "రియా": 3015,
      "▁మార్": 3016,
      "ड़े": 3017,
      "\").[[": 3018,
      "पालिका": 3019,
      "ాయి": 3020,
      "▁సంస్కృతి": 3021,
      "దీవ": 3022,
      "▁समय": 3023,
      "▁[↑](https://hi.wikipedia.org/wiki/भारत#cite_ref-1": 3024,
      "]](https://hi.wikipedia.org/wiki/भारत#cite_note-1": 3025,
      "हिमाचल": 3026,
      "त्तराखण्ड": 3027,
      "Combined": 3028,
      "go": 3029,
      "▁si": 3030,
      "▁[e": 3031,
      "▁2024": 3032,
      "map": 3033,
      "_उ": 3034,
      "_at": 3035,
      "ईसा": 3036,
      "ेरी": 3037,
      "▁ha": 3038,
      "▁अन्त": 3039,
      "▁this": 3040,
      "904": 3041,
      "langoff": 3042,
      "cat": 3043,
      "▁[v": 3044,
      "AARC": 3045,
      "ongress": 3046,
      "ffair": 3047,
      "t-": 3048,
      "ves": 3049,
      "▁पार्": 3050,
      "-2)": 3051,
      "old": 3052,
      ".jpg/330px-": 3053,
      "%e0%a4%b": 3054,
      "ञ्चिका:": 3055,
      "eneral": 3056,
      "ofindia": 3057,
      "▁1.": 3058,
      "▁14": 3059,
      "Ar": 3060,
      "डी": 3061,
      "धन": 3062,
      "न](https://hi.wikipedia.org/wiki/": 3063,
      "यो": 3064,
      "](https://en.wikipedia.org/wiki/K": 3065,
      "ace": 3066,
      "नाम": 3067,
      "▁India:": 3068,
      "▁जिस": 3069,
      "▁चु": 3070,
      "▁लोक": 3071,
      "ी](https://hi.wikipedia.org/wiki/अ": 3072,
      "eport": 3073,
      "सेना": 3074,
      "doi": 3075,
      "▁हुई": 3076,
      "▁कार्य": 3077,
      "ashmir": 3078,
      "_t": 3079,
      "par": 3080,
      "tro": 3081,
      "yn": 3082,
      "uly": 3083,
      "▁(PDF).": 3084,
      "5_": 3085,
      "ंह": 3086,
      "टान": 3087,
      "ोबार": 3088,
      "▁[W": 3089,
      "cient": 3090,
      "स्ला": 3091,
      "00)": 3092,
      "ourt": 3093,
      "semb": 3094,
      "▁were": 3095,
      "emple": 3096,
      "ug": 3097,
      "ం\"),": 3098,
      "ంత్రి": 3099,
      "ఆఫ్": 3100,
      "కై": 3101,
      "క్య": 3102,
      "దాయ": 3103,
      "రే": 3104,
      "లంక": 3105,
      "వీ": 3106,
      "శ్రీ": 3107,
      "షి": 3108,
      "సు": 3109,
      "▁ఏ": 3110,
      "▁[సి": 3111,
      "▁\"ప్ర": 3112,
      "](https://te.wikipedia.org/wiki/చ": 3113,
      "స్సా": 3114,
      "▁పార్టీ": 3115,
      "line": 3116,
      "న్‌": 3117,
      "▁కు": 3118,
      "uman": 3119,
      "▁వచ్చ": 3120,
      "ముద్ర": 3121,
      "ople": 3122,
      "ాంధీ": 3123,
      "▁World": 3124,
      "నేపాల": 3125,
      "▁పేరు": 3126,
      "హిందీ": 3127,
      "▁చెయ్య": 3128,
      "▁కూడా": 3129,
      "ంగీతం": 3130,
      "ముంబై": 3131,
      "శ్చిమ": 3132,
      "▁మార్గ": 3133,
      "▁చెయ్యబడ": 3134,
      "-in-": 3135,
      "89": 3136,
      ":EditPage/": 3137,
      "गा": 3138,
      "द्व": 3139,
      "पे": 3140,
      "ृह": 3141,
      "ैव": 3142,
      "rib": 3143,
      "▁अरब": 3144,
      "▁जल": 3145,
      "▁An": 3146,
      "▁se": 3147,
      "dex": 3148,
      "ayback": 3149,
      "dust": 3150,
      "दीव": 3151,
      "ध्वज": 3152,
      "\"](https://": 3153,
      "_Uni": 3154,
      "ris": 3155,
      "▁Ch": 3156,
      "▁1,": 3157,
      "%28": 3158,
      "_12": 3159,
      "ंच": 3160,
      "ंति": 3161,
      "खाना": 3162,
      "थिल": 3163,
      "मत": 3164,
      "हैद": 3165,
      "ेट": 3166,
      "ैथिल": 3167,
      "▁ऊ": 3168,
      "](https://hi.wikipedia.org/wiki/इ": 3169,
      "er,": 3170,
      "राबाद": 3171,
      "ानुसार": 3172,
      "](https://hi.wikipedia.org/wiki/भारत_की_": 3173,
      "नाव": 3174,
      "aman": 3175,
      "▁बढ़": 3176,
      "▁दिया": 3177,
      "▁दिस": 3178,
      "▁Min": 3179,
      "काता": 3180,
      "▁1950": 3181,
      "तेल": 3182,
      "▁2009": 3183,
      "ोलकाता": 3184,
      "समिया": 3185,
      "हरिया": 3186,
      "tein2010": 3187,
      "ब्द": 3188,
      "-19-8": 3189,
      "▁हुआ": 3190,
      "फ़रवरी": 3191,
      "िक्षा": 3192,
      "ंबई": 3193,
      "▁लिए": 3194,
      "▁विकास": 3195,
      "ोनेशिया": 3196,
      "हैदराबाद": 3197,
      "ant": 3198,
      "low": 3199,
      "ew_Delhi": 3200,
      "ories": 3201,
      "_O": 3202,
      "_the": 3203,
      "olo": 3204,
      "दन": 3205,
      "▁[व": 3206,
      "▁\"H": 3207,
      "](https://sa.wikipedia.org/wiki/भारतम्": 3208,
      "▁आधिकारिक": 3209,
      ".ph": 3210,
      "pa": 3211,
      "▁2010": 3212,
      "ail": 3213,
      "ugu": 3214,
      "ोष": 3215,
      "▁territ": 3216,
      "ork": 3217,
      "▁[K": 3218,
      "▁\"ल": 3219,
      "tem": 3220,
      ".gov.in/": 3221,
      "▁[*A": 3222,
      "aint": 3223,
      "▁not": 3224,
      "▁[2](https://en.wikipedia.org/wiki/India#cite_ref-": 3225,
      "▁[1](https://en.wikipedia.org/wiki/India#cite_ref-": 3226,
      "engal": 3227,
      "▁अगस्त": 3228,
      ".as": 3229,
      "37": 3230,
      "c=": 3231,
      "time": 3232,
      "lim": 3233,
      "-20": 3234,
      "_प": 3235,
      "_వ": 3236,
      "ili": 3237,
      "हन": 3238,
      "िला": 3239,
      "గర": 3240,
      "టక": 3241,
      "టా": 3242,
      "దార": 3243,
      "నీ": 3244,
      "రో": 3245,
      "సభ": 3246,
      "ెద్ద": 3247,
      "▁\"సి": 3248,
      "ार्च": 3249,
      "](https://te.wikipedia.org/wiki/భారత_": 3250,
      "▁పు": 3251,
      "▁जून": 3252,
      "రాజ్య": 3253,
      "▁కొ": 3254,
      "▁కేంద్రపాలిత": 3255,
      "▁మా": 3256,
      "▁ప్రా": 3257,
      "▁చే": 3258,
      "ము\")": 3259,
      "త్స": 3260,
      "▁రాజ్య": 3261,
      "]](https://hi.wikipedia.org/wiki/भारत#cite_note-FOOTNOTE": 3262,
      "▁ఉంది.": 3263,
      "వాతంత్ర": 3264,
      "▁దేశాల": 3265,
      "▁क्षेत्र\")": 3266,
      "्रीका": 3267,
      "रुणा": 3268,
      "ंत्री": 3269,
      "क्स": 3270,
      "లాదేశ్": 3271,
      "▁సామ్రాజ్యం](https://te.wikipedia.org/wiki/": 3272,
      "స్తు": 3273,
      "गणना": 3274,
      "ంగ్లాదేశ్": 3275,
      "ैदान": 3276,
      "▁భాషలు": 3277,
      "ారు.": 3278,
      "▁खाना\")": 3279,
      "_ప్రా": 3280,
      "माणु": 3281,
      "▁हिन्दी": 3282,
      "్రిటి": 3283,
      "▁అధికార": 3284,
      "▁थी": 3285,
      "ూర్పు": 3286,
      "కైవు": 3287,
      "▁दिसम्बर": 3288,
      "▁(201": 3289,
      "sid": 3290,
      "etary": 3291,
      "66": 3292,
      "7,": 3293,
      "_K": 3294,
      "_न": 3295,
      "_%28": 3296,
      "a,": 3297,
      "how": 3298,
      "खंड": 3299,
      "ोम": 3300,
      "▁स्त": 3301,
      "▁मध्य": 3302,
      "**\n": 3303,
      "act": 3304,
      "ley": 3305,
      "▁Cambridge": 3306,
      "▁प्रधानम": 3307,
      "▁दर": 3308,
      "▁22": 3309,
      "▁24": 3310,
      "क्षद्वीप": 3311,
      "▁गु": 3312,
      "sha": 3313,
      "umbai": 3314,
      "ctor": 3315,
      "नीति": 3316,
      "hindi": 3317,
      "censusindia.gov.in/": 3318,
      "32": 3319,
      "7/": 3320,
      "84": 3321,
      "▁par": 3322,
      "▁En": 3323,
      "100": 3324,
      "oi": 3325,
      "rg": 3326,
      "ाम": 3327,
      "्ले": 3328,
      "▁\"द": 3329,
      "int": 3330,
      "entury": 3331,
      "▁जय": 3332,
      "▁इत्य": 3333,
      "िरपे": 3334,
      "गुजराती": 3335,
      "ecember": 3336,
      "िरपेक्ष": 3337,
      "▁\"F": 3338,
      "ing\\_": 3339,
      "CS1": 3340,
      "-le": 3341,
      "-78": 3342,
      "Stein1998": 3343,
      "Singh2009": 3344,
      "_H": 3345,
      "_व": 3346,
      "odi": 3347,
      "ution": 3348,
      "ईरा": 3349,
      "घालय": 3350,
      "रूप": 3351,
      "ैंड": 3352,
      "▁५": 3353,
      "▁फ़रवरी": 3354,
      "▁मार्च": 3355,
      "▁पह": 3356,
      "र्जा": 3357,
      "sam": 3358,
      "omp": 3359,
      "](https://sa.wikipedia.org/wiki/क": 3360,
      "वित": 3361,
      "ligi": 3362,
      "ताः": 3363,
      "ताज": 3364,
      "▁बना": 3365,
      "_सा": 3366,
      "▁संस्कृति": 3367,
      "ign": 3368,
      "पात": 3369,
      "▁देशः": 3370,
      "ंडिया": 3371,
      "ेषु": 3372,
      ".jpg)](https://sa.wikipedia.org/wiki/स": 3373,
      "▁June": 3374,
      "ंग्रेस": 3375,
      "▁अनु": 3376,
      "सीत्": 3377,
      "वीन्द्र": 3378,
      "▁इसके": 3379,
      "▁निर्": 3380,
      "लयाळ": 3381,
      "udden": 3382,
      "हीं": 3383,
      "▁द्वारा": 3384,
      "वेबैक": 3385,
      "रुणाचल": 3386,
      "censusindia.gov.in/2011": 3387,
      ".f": 3388,
      ".n": 3389,
      "/auth": 3390,
      "shi": 3391,
      "1950": 3392,
      "_Centre": 3393,
      "Dyson": 3394,
      "m.nic.in/": 3395,
      "ncl": 3396,
      "oor": 3397,
      "डा": 3398,
      "▁v": 3399,
      "▁पर्वत": 3400,
      "▁अव": 3401,
      "led": 3402,
      "linki": 3403,
      "site": 3404,
      "▁pl": 3405,
      "ument": 3406,
      "istic": 3407,
      "depend": 3408,
      "▁2023": 3409,
      "▁New": 3410,
      "peration": 3411,
      "view": 3412,
      "▁प्राचीन": 3413,
      "times.com/": 3414,
      "history": 3415,
      "sembly": 3416,
      "nclm.nic.in/": 3417,
      ".\"\n": 3418,
      "2-0)": 3419,
      "IA": 3420,
      "Template": 3421,
      "athe": 3422,
      "e/": 3423,
      "ue": 3424,
      "ంజా": 3425,
      "గి": 3426,
      "టీ": 3427,
      "టాన్": 3428,
      "మంత్రి": 3429,
      "లను": 3430,
      "వె": 3431,
      "వరణ": 3432,
      "హదార": 3433,
      "ూచ": 3434,
      "ూప": 3435,
      "▁హ": 3436,
      "▁[3": 3437,
      "్రమ": 3438,
      "197": 3439,
      "భారతదేశ_": 3440,
      "ing_": 3441,
      "రిక": 3442,
      "▁వ్యా": 3443,
      "▁మత": 3444,
      "▁మతము": 3445,
      "▁ప్రపంచ": 3446,
      "తావరణ": 3447,
      "నాడు": 3448,
      "▁ఇతర": 3449,
      "ణాసియా": 3450,
      "▁భారతదేశంలో": 3451,
      "టెడ్": 3452,
      "▁ఆర్కైవు": 3453,
      "▁రైలు": 3454,
      "భూటాన్": 3455,
      "_సామ్రాజ్యం": 3456,
      "వాతంత్ర్య": 3457,
      "oci": 3458,
      "लम": 3459,
      "▁30": 3460,
      "▁[ल": 3461,
      "annic": 3462,
      "](https://en.wikipedia.org/wiki/F": 3463,
      "](https://en.wikipedia.org/wiki/L": 3464,
      "▁मन": 3465,
      "भाष": 3466,
      "▁Asian": 3467,
      "▁शता": 3468,
      "ound": 3469,
      "केन्द्र": 3470,
      "ritannic": 3471,
      "905": 3472,
      "▁राजधान": 3473,
      "ystem": 3474,
      "2018),": 3475,
      "▁[Archived](https://web.archive.org/web/20": 3476,
      "्रह्म": 3477,
      "ffairs": 3478,
      "-g": 3479,
      "_c": 3480,
      "_re": 3481,
      "▁k": 3482,
      "▁com": 3483,
      "hic": 3484,
      "National_In": 3485,
      "illion": 3486,
      ".india": 3487,
      "hen": 3488,
      "je": 3489,
      "rof": 3490,
      "tal": 3491,
      "जपुरी": 3492,
      "रण": 3493,
      "ोप": 3494,
      "ौर": 3495,
      "ौद्योगिक": 3496,
      "▁या": 3497,
      "▁[F": 3498,
      "ारी": 3499,
      "▁संग": 3500,
      "र्ज": 3501,
      "achin": 3502,
      "](https://hi.wikipedia.org/wiki/भारतीय": 3503,
      "▁Act": 3504,
      "▁Se": 3505,
      "ूचना": 3506,
      "iron": 3507,
      "समें": 3508,
      "समूह": 3509,
      "पर्यटन": 3510,
      "▁हैं,": 3511,
      ".jpg)](File:": 3512,
      "रेल": 3513,
      "म्बई": 3514,
      "दाख": 3515,
      "णिपुर": 3516,
      "णिपुरी": 3517,
      "श्मीरी": 3518,
      "▁सिनेमा": 3519,
      "नागाल": 3520,
      "-521-80": 3521,
      "भोजपुरी": 3522,
      "AsherTalbot2008": 3523,
      "904-7": 3524,
      "-521-80904-7": 3525,
      "94": 3526,
      "bn": 3527,
      "ince": 3528,
      "onetary": 3529,
      "2001": 3530,
      "-17": 3531,
      "▁2.": 3532,
      "▁Pro": 3533,
      "▁2017": 3534,
      "▁government": 3535,
      "formatics_Centre": 3536,
      "National_Informatics_Centre": 3537,
      "500": 3538,
      "9)": 3539,
      "_W": 3540,
      "fter": 3541,
      "year": 3542,
      "चार": 3543,
      "▁ध": 3544,
      "▁पश्चिम": 3545,
      "▁हिम": 3546,
      "स्थ": 3547,
      "ters": 3548,
      "radition": 3549,
      "▁\"मु": 3550,
      "▁July": 3551,
      "harat": 3552,
      "िशा": 3553,
      "निकोबार": 3554,
      "स्लाम": 3555,
      "ocial": 3556,
      "▁0.": 3557,
      "▁2020": 3558,
      "▁region": 3559,
      "epublic": 3560,
      "_Temple": 3561,
      "67": 3562,
      "ah": 3563,
      "dus": 3564,
      "viron": 3565,
      "धु": 3566,
      "सर्व": 3567,
      "ीव": 3568,
      "▁[द": 3569,
      "▁कास": 3570,
      "▁अस्य": 3571,
      "ledge": 3572,
      "स्‍": 3573,
      "▁Augu": 3574,
      "▁आसीत्": 3575,
      "▁Pl": 3576,
      "term": 3577,
      "ङ्का": 3578,
      "जनसङ्": 3579,
      "ः](https://sa.wikipedia.org/wiki/भारतस्य_": 3580,
      "र्थव्यवस्था": 3581,
      "ीभाषा\"),": 3582,
      "▁कारण": 3583,
      "्रीलङ्का": 3584,
      "०११": 3585,
      ".indiatimes.com/": 3586,
      "vironment": 3587,
      "▁August": 3588,
      "c/c": 3589,
      "han": 3590,
      "్\")": 3591,
      "tember": 3592,
      "arat": 3593,
      "sions": 3594,
      "210": 3595,
      "eptember": 3596,
      "-l": 3597,
      "_ए": 3598,
      "ber": 3599,
      "rst": 3600,
      "tar": 3601,
      "va": 3602,
      "टा": 3603,
      "मण": 3604,
      "हित": 3605,
      "ृद्ध": 3606,
      "ఆర్": 3607,
      "ఉత్తర": 3608,
      "ఒడి": 3609,
      "కీయ": 3610,
      "గలు": 3611,
      "చు": 3612,
      "జరా": 3613,
      "తూర్పు": 3614,
      "ది.": 3615,
      "భు": 3616,
      "మన్": 3617,
      "లస": 3618,
      "ేక": 3619,
      "▁ऐ": 3620,
      "▁ऑ": 3621,
      "▁డ": 3622,
      "▁జాబితా": 3623,
      "▁[H": 3624,
      "▁[భారతదేశ": 3625,
      "▁[पुरा": 3626,
      "ार्त": 3627,
      "encies": 3628,
      "र्क": 3629,
      "न्दे": 3630,
      "](https://hi.wikipedia.org/wiki/भारत_का_": 3631,
      "▁పట్ట": 3632,
      "ర్\")": 3633,
      "▁Census": 3634,
      "▁**జాతీయ": 3635,
      "▁As": 3636,
      "▁दृ": 3637,
      "నిక": 3638,
      "▁Pradesh": 3639,
      "ంగ్రె": 3640,
      "▁సభ": 3641,
      "▁ప్రభు": 3642,
      "ादरा": 3643,
      "्याय": 3644,
      "తాబ్": 3645,
      "▁అయ": 3646,
      "िये": 3647,
      "▁ఆసియా": 3648,
      "▁भाषाओं": 3649,
      "మ్రాజ్య": 3650,
      "वेश": 3651,
      "ूनिव": 3652,
      "▁జనాభా": 3653,
      "గుజరా": 3654,
      "▁సామ్రాజ్యం\")": 3655,
      "वीं": 3656,
      "साँचा": 3657,
      "ober": 3658,
      "త్యేక": 3659,
      "రాష్ట్రపతి": 3660,
      "ప్ప": 3661,
      "ధానమంత్రి": 3662,
      "▁రాజవంశం": 3663,
      "▁కాశ్మీ": 3664,
      "▁చెంద": 3665,
      "▁ఆర్ధిక": 3666,
      "चेन्न": 3667,
      "_संघ": 3668,
      "▁స్థాన": 3669,
      "articleshow": 3670,
      "▁युद्ध": 3671,
      "తమిళనాడు": 3672,
      "గణతంత్ర": 3673,
      "▁క్రీడ": 3674,
      "▁न्यायालय": 3675,
      "▁ఉన్నాయి.": 3676,
      "ఆఫ్ఘ": 3677,
      "శ్రీలంక": 3678,
      "షియా": 3679,
      "న్‌ఫ": 3680,
      "▁[पुरालेखित": 3681,
      "ार्ता:": 3682,
      "తాబ్ద": 3683,
      "articleshow/": 3684,
      "IM": 3685,
      "_20": 3686,
      "pp": 3687,
      "pt": 3688,
      "files/": 3689,
      "▁Development": 3690,
      "doc": 3691,
      "National_Informatics_Centre2005": 3692,
      "5-0)": 3693,
      "6/": 3694,
      "LA": 3695,
      "cms": 3696,
      "eg": 3697,
      "mag": 3698,
      "oth": 3699,
      "गत": 3700,
      "जि": 3701,
      "ोच्च": 3702,
      "▁us": 3703,
      "▁भाग": 3704,
      "one": 3705,
      "anu": 3706,
      "▁सी": 3707,
      "](https://en.wikipedia.org/wiki/H": 3708,
      "यां": 3709,
      "▁India,": 3710,
      "▁population": 3711,
      "पुदु": 3712,
      "▁Metcalf": 3713,
      "▁[मु": 3714,
      "ill": 3715,
      "▁Empire": 3716,
      "_Indian": 3717,
      "▁प्राप्त": 3718,
      "च्चेरी": 3719,
      "▁have": 3720,
      "पुदुच्चेरी": 3721,
      "-d": 3722,
      "01": 3723,
      "_3": 3724,
      "_4": 3725,
      "tle": 3726,
      "ya": 3727,
      "▁official": 3728,
      "26)": 3729,
      "imf": 3730,
      "known": 3731,
      "-re": 3732,
      "busines": 3733,
      "ote": 3734,
      "uri": 3735,
      "यूर": 3736,
      "शत": 3737,
      "शोक": 3738,
      "\")*.": 3739,
      "▁महासागर": 3740,
      "र्मा": 3741,
      "▁Chin": 3742,
      "▁दश": 3743,
      "▁21": 3744,
      "▁29": 3745,
      "onso": 3746,
      "ticles": 3747,
      "▁./Category:": 3748,
      "▁\"Special:BookSources/978-1": 3749,
      "▁[Stein": 3750,
      "मेव": 3751,
      "akh": 3752,
      "](Special:BookSources/978-1": 3753,
      "▁Island": 3754,
      "लोकसभा": 3755,
      "ritannica": 3756,
      "119": 3757,
      "CE": 3758,
      "eration": 3759,
      "ling": 3760,
      "ool": 3761,
      "NGDP": 3762,
      "-प": 3763,
      "83": 3764,
      "JP": 3765,
      "ंका": 3766,
      "कट": 3767,
      "कणी": 3768,
      "खन": 3769,
      "र-": 3770,
      "ल](https://hi.wikipedia.org/wiki/": 3771,
      "िज": 3772,
      "िज़": 3773,
      "ुम": 3774,
      "ूस": 3775,
      "▁ar": 3776,
      "▁es": 3777,
      "▁[सि": 3778,
      "▁\"नेपाल": 3779,
      "र्ना": 3780,
      "190": 3781,
      "▁अप्र": 3782,
      "ेंद्र": 3783,
      "प्रधानम": 3784,
      "▁2012": 3785,
      "▁विस्त": 3786,
      "थाई": 3787,
      "▁संस्कृत": 3788,
      "▁संबंध": 3789,
      "▁December": 3790,
      "▁English": 3791,
      "वायु": 3792,
      "▁National": 3793,
      "▁[↑](https://hi.wikipedia.org/wiki/भारत#cite_ref-FOOTNOTE": 3794,
      "मेर": 3795,
      "▁करने": 3796,
      "▁Oct": 3797,
      "वेली": 3798,
      "-108": 3799,
      "▁मेला\")": 3800,
      "▁मेला](https://hi.wikipedia.org/wiki/": 3801,
      "▁[हिन्दी](https://hi.wikipedia.org/wiki/": 3802,
      "▁हुए": 3803,
      "▁Asia\")": 3804,
      "▁गणराज्य": 3805,
      "्रीलंका": 3806,
      "त्रिपुरा": 3807,
      "dustry": 3808,
      "censusindia.gov.in/2011census": 3809,
      "र्नाटक": 3810,
      "are": 3811,
      "▁(*": 3812,
      "ade": 3813,
      "▁27": 3814,
      "row": 3815,
      "duc": 3816,
      "▁Commissioner": 3817,
      "4/": 3818,
      "93": 3819,
      "St": 3820,
      "jab": 3821,
      "oa": 3822,
      "तमे": 3823,
      "नम्": 3824,
      "िन्स": 3825,
      "ेङ्ग": 3826,
      "▁\"सं": 3827,
      "inis": 3828,
      "्रप्रदेश": 3829,
      "ानदी": 3830,
      "acy": 3831,
      "देशस्य": 3832,
      "here": 3833,
      "▁co": 3834,
      "▁वा": 3835,
      "ितः": 3836,
      "▁इति": 3837,
      "ayan": 3838,
      "▁राज्यानि": 3839,
      "ङ्गा": 3840,
      "धर्मः": 3841,
      "▁[भारतस्य": 3842,
      "▁north": 3843,
      "ब्ब": 3844,
      "ाः?action=edit&redlink=1": 3845,
      "न्ध्रप्रदेश": 3846,
      "isher": 3847,
      "tent": 3848,
      "crease": 3849,
      "Articles": 3850,
      "ानुसारं": 3851,
      "▁कासिन्स": 3852,
      "▁October": 3853,
      "_ప్రదేశ్": 3854,
      "ం,": 3855,
      "ఉప": 3856,
      "కేంద్రపాలిత": 3857,
      "జె": 3858,
      "నాల": 3859,
      "లే": 3860,
      "ళు": 3861,
      "ౌద్ధ": 3862,
      "▁భా": 3863,
      "▁uni": 3864,
      "▁[వి": 3865,
      "](https://te.wikipedia.org/wiki/ప్ర": 3866,
      "▁(20": 3867,
      "ాలీ": 3868,
      "ర్చ": 3869,
      "adu": 3870,
      "–సా.శ.18": 3871,
      "▁అత్య": 3872,
      "▁రె": 3873,
      "మాఖ్య": 3874,
      "వాణా": 3875,
      "▁దేశం": 3876,
      "▁దేశంలో": 3877,
      "▁గల": 3878,
      "డ్డ": 3879,
      "దక్షిణాసియా": 3880,
      "ంగ్లీ": 3881,
      "యునై": 3882,
      "ష్ణ": 3883,
      "_చరిత్ర?action=edit&redlink=1": 3884,
      "▁రాష్ట్రాలు,": 3885,
      "%20%20%20%20": 3886,
      "_మతము": 3887,
      "▁మొద": 3888,
      "▁చెయ్యబడింది.": 3889,
      "యునైటెడ్": 3890,
      "-of": 3891,
      "aw": 3892,
      "dom": 3893,
      "tain": 3894,
      "वर्ष": 3895,
      "king": 3896,
      "▁[ओ": 3897,
      "▁\"संस्कृत": 3898,
      "▁क्र": 3899,
      "religion": 3900,
      "erv": 3901,
      "र्णा": 3902,
      "rish": 3903,
      "▁12": 3904,
      "▁संसद": 3905,
      "▁2006": 3906,
      "▁\"South": 3907,
      "%29": 3908,
      "▁[*India": 3909,
      "orities": 3910,
      "भूमि": 3911,
      "वर्त": 3912,
      "ummit\")": 3913,
      "also": 3914,
      "महाद्वीप": 3915,
      "Wikipedia": 3916,
      "argest": 3917,
      "ughal": 3918,
      "\".": 3919,
      "gni": 3920,
      "▁per": 3921,
      "▁their": 3922,
      "▁2004": 3923,
      "▁Language": 3924,
      "▁language\")": 3925,
      "\"](https://web.archive.org/web/20160": 3926,
      "42": 3927,
      "52": 3928,
      "_आ": 3929,
      "has": 3930,
      "pi": 3931,
      "टना": 3932,
      "डोग": 3933,
      "तट": 3934,
      "द्रा": 3935,
      "रक्ष": 3936,
      "शीन": 3937,
      "हरी": 3938,
      "ीच": 3939,
      "ेस": 3940,
      "▁लेख": 3941,
      "▁[J": 3942,
      "▁\"J": 3943,
      "▁\"W": 3944,
      "](https://hi.wikipedia.org/wiki/आ": 3945,
      "estern": 3946,
      "म्भ": 3947,
      "▁ही": 3948,
      "-1116": 3949,
      "तिरु": 3950,
      "▁बन": 3951,
      "▁बा": 3952,
      "▁नद": 3953,
      "▁नहीं": 3954,
      "▁से](http://": 3955,
      "urr": 3956,
      "cha": 3957,
      "▁उद्य": 3958,
      "▁1947": 3959,
      "▁है।[[": 3960,
      "▁रहा": 3961,
      "outh_Asia": 3962,
      "ortal": 3963,
      "विशेष:EditPage/": 3964,
      "न्नड": 3965,
      "लुरु": 3966,
      "▁[2](https://hi.wikipedia.org/wiki/भारत#cite_ref-": 3967,
      "▁[1](https://hi.wikipedia.org/wiki/भारत#cite_ref-": 3968,
      "▁स्रोत/978-0": 3969,
      "▁स्रोत/978-1": 3970,
      "](https://hi.wikipedia.org/wiki/विशेष:पुस्तक_स्रोत/978-0": 3971,
      "](https://hi.wikipedia.org/wiki/विशेष:पुस्तक_स्रोत/978-1": 3972,
      "▁कुल": 3973,
      "-107-1116": 3974,
      "82905": 3975,
      "▁subcontinent": 3976,
      "%E0%A5%8D": 3977,
      "▁चुनाव": 3978,
      "-19-882905": 3979,
      "rgani": 3980,
      "-780": 3981,
      "achine": 3982,
      "रेलू": 3983,
      "डोगरी": 3984,
      "विशेष:EditPage/साँचा:": 3985,
      "-107-11162-2": 3986,
      "-19-882905-8": 3987,
      "▁(1,": 3988,
      "▁world": 3989,
      "_in_N": 3990,
      ".gov/": 3991,
      "▁[![](https://upload.wikimedia.org/wikipedia/commons/thumb/c/c": 3992,
      "rovi": 3993,
      "-40": 3994,
      "5–": 3995,
      "UN": 3996,
      "bi": 3997,
      "ck": 3998,
      "ges": 3999,
      "sy": 4000,
      "मर": 4001,
      "▁year": 4002,
      "](https://en.wikipedia.org/wiki/J": 4003,
      "cience": 4004,
      "lear": 4005,
      "ass": 4006,
      "▁into": 4007,
      "क्षर": 4008,
      "▁एव": 4009,
      "unjab": 4010,
      "_Press": 4011,
      "त्यमेव": 4012,
      "uclear": 4013,
      "-language\\_": 4014,
      "भ्यता": 4015,
      "uropean": 4016,
      "87": 4017,
      "EO": 4018,
      "WEO": 4019,
      "rm": 4020,
      "▁al": 4021,
      "resid": 4022,
      "▁2013": 4023,
      "anguages": 4024,
      "▁Hindi": 4025,
      "▁Nations": 4026,
      "_in_New_Delhi": 4027,
      "*,": 4028,
      "86": 4029,
      "Var": 4030,
      "_च": 4031,
      "rd": 4032,
      "ute": 4033,
      "च्": 4034,
      "निरपेक्ष": 4035,
      "वर्ग": 4036,
      "४७": 4037,
      "–12": 4038,
      "▁३": 4039,
      "▁also": 4040,
      "▁[दक्षिण": 4041,
      "▁[नेपाल": 4042,
      "▁\"ओ": 4043,
      "▁\"दक्षिण": 4044,
      "ally": 4045,
      "▁सु": 4046,
      "India_": 4047,
      "▁मो": 4048,
      "\\_articles": 4049,
      "sical": 4050,
      "-0)\n": 4051,
      "ween": 4052,
      "etween": 4053,
      "▁नव": 4054,
      "▁नगर": 4055,
      "anges": 4056,
      "▁2015": 4057,
      "chnolo": 4058,
      "▁Talbot": 4059,
      "▁शा": 4060,
      "▁3,": 4061,
      "▁during": 4062,
      "▁जनवरी": 4063,
      "▁been": 4064,
      "apit": 4065,
      "avid": 4066,
      "_summit": 4067,
      "countries_by": 4068,
      "-c": 4069,
      ".bn": 4070,
      "Report": 4071,
      "son": 4072,
      "▁September": 4073,
      "23)": 4074,
      ".fr": 4075,
      "-विज्ञान": 4076,
      "97": 4077,
      "II": 4078,
      "_న": 4079,
      "iv": 4080,
      "ंट": 4081,
      "अन": 4082,
      "पक": 4083,
      "फ्रीका": 4084,
      "म](https://hi.wikipedia.org/wiki/": 4085,
      "समा": 4086,
      "सून": 4087,
      "ेश्वर": 4088,
      "ैल": 4089,
      "కొ": 4090,
      "ఖండ": 4091,
      "గం": 4092,
      "టిక": 4093,
      "డే": 4094,
      "ద్య": 4095,
      "మార్": 4096,
      "మాలయ": 4097,
      "లలో": 4098,
      "లకు": 4099,
      "ళ్": 4100,
      "వ](https://te.wikipedia.org/wiki/": 4101,
      "ానికి": 4102,
      "ాళు": 4103,
      "ీర్": 4104,
      "్](https://te.wikipedia.org/wiki/": 4105,
      "▁భ": 4106,
      "▁యు": 4107,
      "▁\"य": 4108,
      "▁\"सि": 4109,
      "▁\"వి": 4110,
      "ारो": 4111,
      "▁कई": 4112,
      "▁कश्मीर": 4113,
      "▁सैन": 4114,
      "India)": 4115,
      "▁मैदान": 4116,
      "र्सि": 4117,
      "ాలో": 4118,
      "](https://sa.wikipedia.org/wiki/अ": 4119,
      "▁अत्र": 4120,
      "न्ह": 4121,
      "▁పాల": 4122,
      "विविध": 4123,
      "ालाद्वीप": 4124,
      "న్\")": 4125,
      "atus": 4126,
      "ama": 4127,
      "न्दा": 4128,
      "न्दिर": 4129,
      "▁बीच": 4130,
      "▁Archived": 4131,
      "etra": 4132,
      "▁కార": 4133,
      "▁కలి": 4134,
      "▁नी": 4135,
      "▁Sh": 4136,
      "ాలు?action=edit&redlink=1": 4137,
      "రిగ": 4138,
      "రిహ": 4139,
      "క్నాల": 4140,
      "ంది.\n": 4141,
      ".jpe": 4142,
      "▁వం": 4143,
      "▁వంట": 4144,
      "నిమా": 4145,
      "▁clas": 4146,
      "▁23": 4147,
      "▁तस्य": 4148,
      "▁से](http://www.": 4149,
      "▁సంగీతం": 4150,
      "▁చి": 4151,
      "ross": 4152,
      "▁उत्पाद": 4153,
      "▁इन": 4154,
      "ులు\"),": 4155,
      "–సా.శ.13": 4156,
      "ight": 4157,
      "_मंदिर": 4158,
      "ద్వీ": 4159,
      "▁ఉప": 4160,
      "▁लग": 4161,
      "ప్రదాయ": 4162,
      "న్నడ": 4163,
      "▁[अंग्रेज़": 4164,
      "ంటు": 4165,
      "▁करोड़": 4166,
      "▁ఇది": 4167,
      "▁जनगणना": 4168,
      "ब्दी": 4169,
      "▁\"पंजाब": 4170,
      "▁[पंजाब": 4171,
      "కాశ్మీ": 4172,
      "ूर्य": 4173,
      "వర్గం:Harv": 4174,
      "▁हैं।\n": 4175,
      "गणराज्य": 4176,
      "74-108": 4177,
      "ద్ధం": 4178,
      "ద్ధి": 4179,
      "▁Press\").": 4180,
      "▁होता": 4181,
      "ాల్దీవ": 4182,
      "చ్చే": 4183,
      "करण": 4184,
      "पाकिस्थान": 4185,
      "దక్షిణ_": 4186,
      "▁కాంగ్రె": 4187,
      "%E0%A4%BE": 4188,
      "ంధు": 4189,
      "गोआ": 4190,
      "టెక్నాల": 4191,
      "హిమాలయ": 4192,
      "▁पाकि": 4193,
      "▁वर्षे": 4194,
      "▁ప్రాంతాలు": 4195,
      "india-g": 4196,
      "▁లే": 4197,
      "ोर्ड": 4198,
      "outledge": 4199,
      "త్తరా": 4200,
      "ओडिया": 4201,
      "నాగరిక": 4202,
      "_मेला?action=edit&redlink=1": 4203,
      "క్కువ": 4204,
      "▁first": 4205,
      "క్‌సభ": 4206,
      "▁శాస్త్ర": 4207,
      "▁जिसमें": 4208,
      "शासितप्रदेशाः": 4209,
      "ెలుగు": 4210,
      "▁వచ్చింది.": 4211,
      ":EditPage/మూస:": 4212,
      ".jpg)](https://sa.wikipedia.org/wiki/सञ्चिका:": 4213,
      "निकोबारद्वीप": 4214,
      "ूनिवर्सि": 4215,
      "త్యేక:EditPage/మూస:": 4216,
      "anuary": 4217,
      "ర్చ:": 4218,
      "-78074-108": 4219,
      "ాళుక్య": 4220,
      "▁[अंग्रेज़ी](https://hi.wikipedia.org/wiki/अ": 4221,
      "టెక్నాలజీ": 4222,
      "నాగరికత": 4223,
      "-78074-108-6": 4224,
      "1-0)": 4225,
      "64": 4226,
      "IB": 4227,
      "mu": 4228,
      "▁wi": 4229,
      "▁ed": 4230,
      "lob": 4231,
      "▁Pe": 4232,
      "▁Times": 4233,
      "▁Official": 4234,
      "▁comp": 4235,
      "IMF": 4236,
      "-स": 4237,
      ".htm": 4238,
      "_राज": 4239,
      "त्या": 4240,
      "मब": 4241,
      "वली": 4242,
      "षय": 4243,
      "५०": 4244,
      "▁en": 4245,
      "▁un": 4246,
      "▁\"राष्ट्रीय": 4247,
      "\");": 4248,
      "भारतीय": 4249,
      "ouse": 4250,
      "ature": 4251,
      "links": 4252,
      "▁but": 4253,
      "_of_the": 4254,
      "प्रति": 4255,
      "▁2018": 4256,
      "umber": 4257,
      "ources": 4258,
      "ोलन": 4259,
      "▁January": 4260,
      "]](https://en.wikipedia.org/wiki/India#cite_note-FOOTNOTES": 4261,
      "-to-": 4262,
      "garh": 4263,
      ".aspx": 4264,
      "Island": 4265,
      "lag": 4266,
      "▁2003": 4267,
      "-3)": 4268,
      "▁form": 4269,
      "▁bec": 4270,
      "2,": 4271,
      "6-2": 4272,
      "ne": 4273,
      "ned": 4274,
      "लाल": 4275,
      "श्र": 4276,
      "ेद": 4277,
      "▁काल": 4278,
      "▁(ed": 4279,
      "come": 4280,
      "पुत्र": 4281,
      "▁system": 4282,
      "rah": 4283,
      "chin": 4284,
      "▁[मध्य": 4285,
      "▁national": 4286,
      "hism": 4287,
      "▁ac": 4288,
      "▁\"O": 4289,
      "▁Constitution": 4290,
      "▁India\"),": 4291,
      "▁Di": 4292,
      "](https://web.archive.org/web/200": 4293,
      ",NGDP": 4294,
      "TR": 4295,
      "_en": 4296,
      "che": 4297,
      "iver": 4298,
      "lli": 4299,
      "ंत": 4300,
      "ंश": 4301,
      "ओर": 4302,
      "फग": 4303,
      "में": 4304,
      "यपुर": 4305,
      "लग": 4306,
      "लों": 4307,
      "ॉक": 4308,
      "▁[य": 4309,
      "▁\"[": 4310,
      "भारत)": 4311,
      "tionary": 4312,
      "eser": 4313,
      "▁पू": 4314,
      "ालदीव": 4315,
      "षाण": 4316,
      "▁प्रथम": 4317,
      "▁ch": 4318,
      "▁वर्ग": 4319,
      "▁between": 4320,
      "_सि": 4321,
      "▁शक्ति": 4322,
      "▁शिक्षा": 4323,
      "लेशिया": 4324,
      "▁लोग": 4325,
      "ज़ा": 4326,
      "ंडीगढ": 4327,
      "जनसंख्या": 4328,
      "mbol": 4329,
      "pecial:BookSources/978": 4330,
      "able": 4331,
      "नीतिक": 4332,
      "▁क्षेत्रीय": 4333,
      "ंधु": 4334,
      "▁जनसंख्या": 4335,
      "▁सूचना": 4336,
      "FOOTNOTEStein1998": 4337,
      "FOOTNOTESingh2009": 4338,
      "cyc": 4339,
      "▁धर्म\")": 4340,
      "लिंग": 4341,
      "ुरक्षा": 4342,
      "जयपुर": 4343,
      "धीश": 4344,
      "]](https://hi.wikipedia.org/wiki/भारत#cite_note-FOOTNOTEStein1998": 4345,
      "]](https://hi.wikipedia.org/wiki/भारत#cite_note-FOOTNOTESingh2009": 4346,
      "झारखण्ड": 4347,
      "_University": 4348,
      "हरियाणा": 4349,
      "Dyson2018": 4350,
      "▁शताब्दी": 4351,
      "▁[पुरालेखित](https://web.archive.org/web/201": 4352,
      "▁दशक": 4353,
      "▁अप्रैल": 4354,
      "▁लेख:": 4355,
      "ंडीगढ़": 4356,
      "-f": 4357,
      "Ethnologue": 4358,
      "cri": 4359,
      "d/": 4360,
      "▁other": 4361,
      "inf": 4362,
      "ingu": 4363,
      "cean": 4364,
      "olper": 4365,
      "▁[\"C": 4366,
      "28)": 4367,
      ".png": 4368,
      "olpert": 4369,
      "/linki": 4370,
      "44": 4371,
      "6_": 4372,
      "_प्र": 4373,
      "each": 4374,
      "चित्र": 4375,
      "मिल": 4376,
      "यत": 4377,
      "िष": 4378,
      "ेघालय": 4379,
      "▁ईसा": 4380,
      "wing": 4381,
      "din": 4382,
      "▁\".": 4383,
      "▁\"का": 4384,
      "ond": 4385,
      "्यक": 4386,
      "International": 4387,
      "andhi": 4388,
      "red/linki": 4389,
      "fic": 4390,
      "▁आर्थिक": 4391,
      "ural": 4392,
      "▁Th": 4393,
      ".com/news/": 4394,
      "124": 4395,
      "▁2005": 4396,
      "25)": 4397,
      "▁state": 4398,
      "भूटान": 4399,
      "olitical": 4400,
      "gency": 4401,
      "वादी": 4402,
      "▁युग": 4403,
      "10.10": 4404,
      "ustral": 4405,
      "ीपी)": 4406,
      "सिन्धु": 4407,
      "shared/linki": 4408,
      "nclm.nic.in/shared/linki": 4409,
      "mages/": 4410,
      "chnology": 4411,
      "nclm.nic.in/shared/linkimages/": 4412,
      ".పూ.": 4413,
      "7%": 4414,
      "Pages": 4415,
      "b/": 4416,
      "ఆగ": 4417,
      "కళ": 4418,
      "ఖండ్": 4419,
      "గఢ": 4420,
      "గ్": 4421,
      "జో": 4422,
      "ట్ర": 4423,
      "తెలుగు": 4424,
      "ద్రా": 4425,
      "పద": 4426,
      "భి": 4427,
      "యో": 4428,
      "లక్ష": 4429,
      "వర": 4430,
      "శో": 4431,
      "హు": 4432,
      "హార్": 4433,
      "హాయ": 4434,
      "ాష్ట్ర": 4435,
      "ీక": 4436,
      "ీహార్": 4437,
      "ుల": 4438,
      "ుల్": 4439,
      "ోల్": 4440,
      "ోత్స": 4441,
      "ౌర్య": 4442,
      "▁6.": 4443,
      "▁time": 4444,
      "▁[హ": 4445,
      "▁\"హ": 4446,
      "▁\"ఢిల్లీ": 4447,
      "్రూ": 4448,
      "ాలా": 4449,
      "ాలలో": 4450,
      "్యం": 4451,
      "స్వ": 4452,
      "ర్ణా": 4453,
      "ర్మే": 4454,
      "లోక్‌సభ": 4455,
      "▁వే": 4456,
      "50th": 4457,
      "ండర్": 4458,
      "త్మా": 4459,
      "▁అతి": 4460,
      "ికి": 4461,
      "ద్దు": 4462,
      "▁రహదార": 4463,
      "మాచల్": 4464,
      "▁సామ్రాజ్య": 4465,
      "రువా": 4466,
      "రుణా": 4467,
      "న్నో": 4468,
      "▁తరువా": 4469,
      "మిజో": 4470,
      "ాయి.": 4471,
      "▁జరిగ": 4472,
      "▁శతాబ్ద": 4473,
      "ట్టు": 4474,
      "రాష్ట్రాలు": 4475,
      "వేద": 4476,
      "▁రాజకీయ": 4477,
      "హిమాచల్": 4478,
      "హాత్మా": 4479,
      "_Fund": 4480,
      "▁[Archived](https://web.archive.org/web/201": 4481,
      "▁ప్రదేశ్\")": 4482,
      "హారాష్ట్ర": 4483,
      "శాస్త్ర": 4484,
      "రాజస్థాన్": 4485,
      "▁వాతావరణ": 4486,
      "దినోత్స": 4487,
      "బెంగాలీ": 4488,
      "యన్మార్": 4489,
      "▁ముఖ్య": 4490,
      "ographic": 4491,
      "_ప్రాంత": 4492,
      "ంజాబ్": 4493,
      "▁వ్యాస": 4494,
      "గుజరాత్": 4495,
      "ఆఫ్ఘనిస్తాన్": 4496,
      "న్‌ఫర్మే": 4497,
      "వ](https://te.wikipedia.org/wiki/List_of_": 4498,
      "రిహద్దు": 4499,
      "▁వంశ": 4500,
      "చ్చేరి": 4501,
      "ర్ణాటక": 4502,
      "రుణాచల్": 4503,
      "న్‌ఫర్మేషన్": 4504,
      "1–": 4505,
      ":[": 4506,
      "CO": 4507,
      "DD": 4508,
      "_द": 4509,
      "a)": 4510,
      "ok": 4511,
      "ration": 4512,
      "ः)": 4513,
      "ः:": 4514,
      "इतिहास": 4515,
      "उप": 4516,
      "उत्पाद": 4517,
      "गीत": 4518,
      "णाराज्य": 4519,
      "थिय": 4520,
      "नव": 4521,
      "भर": 4522,
      "रवीन्द्र": 4523,
      "वान्": 4524,
      "षः": 4525,
      "▁/": 4526,
      "▁ला": 4527,
      "▁ru": 4528,
      "▁all": 4529,
      "orce": 4530,
      "▁[गुजरात": 4531,
      "ara": 4532,
      "city": 4533,
      "र्षा": 4534,
      "म्:": 4535,
      "omen": 4536,
      "िकि": 4537,
      "▁अर्थव्यवस्था": 4538,
      "देशीय": 4539,
      "](https://en.wikipedia.org/wiki/Indian": 4540,
      "atak": 4541,
      "▁भारतं": 4542,
      "स्त्र": 4543,
      "FOOTNOTENational_Informatics_Centre2005": 4544,
      "raven": 4545,
      "▁एषः": 4546,
      "identifiers": 4547,
      "संस्कृति": 4548,
      "न्ते": 4549,
      "▁\"मध्य": 4550,
      "▁./वर्ग": 4551,
      "▁देशाः\")": 4552,
      "fore": 4553,
      "राष्ट्रीयउत्पाद": 4554,
      "द्यालय": 4555,
      "▁\"पश्चिम": 4556,
      "▁[पश्चिम": 4557,
      "िवस": 4558,
      "ीभाषा\")": 4559,
      "e0%a5%8": 4560,
      "▁Press,": 4561,
      "तुर्क": 4562,
      "वर्य": 4563,
      "llchin": 4564,
      "कलराष्ट्रीयउत्पाद": 4565,
      "फलक": 4566,
      "▁गीतं": 4567,
      "देहली": 4568,
      "▁राग": 4569,
      "doi.org/": 4570,
      "सर्वकार": 4571,
      "रवीन्द्रनाथ": 4572,
      "▁./वर्गः:": 4573,
      "कलराष्ट्रीयउत्पादानुसारं": 4574,
      "72": 4575,
      "99": 4576,
      "ffi": 4577,
      "▁comm": 4578,
      "ering": 4579,
      "▁pri": 4580,
      "▁2022": 4581,
      ".php?": 4582,
      "inguistic": 4583,
      "/articleshow/": 4584,
      "118": 4585,
      "88": 4586,
      "8–": 4587,
      "Fisher": 4588,
      "az": 4589,
      "dle": 4590,
      "gram": 4591,
      "ies": 4592,
      "lance": 4593,
      "pr": 4594,
      "tary": 4595,
      "ttar": 4596,
      "ving": 4597,
      "गू": 4598,
      "जम्मू": 4599,
      "पान": 4600,
      "बी": 4601,
      "लिस": 4602,
      "ुक": 4603,
      "▁Y": 4604,
      "▁[Metcalf": 4605,
      "▁\"गुजरात": 4606,
      "▁\"तमिल": 4607,
      "index": 4608,
      "2023": 4609,
      "arn": 4610,
      "alley": 4611,
      "▁मत": 4612,
      "म्प्र": 4613,
      "2012": 4614,
      "▁part": 4615,
      "▁प्रौद्योगिक": 4616,
      "ास्त": 4617,
      "स्ता": 4618,
      "हिम": 4619,
      "▁गा": 4620,
      "▁May": 4621,
      "ी\")\n": 4622,
      "▁उन": 4623,
      "▁1998": 4624,
      "Harle": 4625,
      "▁रह": 4626,
      "▁East": 4627,
      "▁राज्य\")": 4628,
      "E0%A4%": 4629,
      "हाय": 4630,
      "स्थान\")": 4631,
      "परमाणु": 4632,
      "%E0%A4%9": 4633,
      "मुद्र": 4634,
      "वेद": 4635,
      "▁जनजाति": 4636,
      "▁राजवंश": 4637,
      "▁जाती": 4638,
      "ज्ज": 4639,
      "▁[उत्तर": 4640,
      "▁\"उत्तर": 4641,
      "earch": 4642,
      "onstituent": 4643,
      "▁था।": 4644,
      "ांग्लादेश": 4645,
      "छत्तीसगढ़": 4646,
      "स्वतंत्रता": 4647,
      "View": 4648,
      "द्वार": 4649,
      "▁पहले": 4650,
      "JPG": 4651,
      "▁[हिन्दी](https://hi.wikipedia.org/wiki/हिन्दी": 4652,
      "▁चुनावों": 4653,
      "▁सैन्य": 4654,
      "india-glance": 4655,
      "_University_Press": 4656,
      "gramme": 4657,
      "69": 4658,
      "91": 4659,
      "Con": 4660,
      "aper": 4661,
      "▁—": 4662,
      "pect": 4663,
      "▁[19": 4664,
      "▁Congress": 4665,
      "▁India.": 4666,
      "-16": 4667,
      "local": 4668,
      "CS1\\_": 4669,
      "rofile": 4670,
      "resident": 4671,
      "\\_articles\\_with\\_": 4672,
      "Pages\\_": 4673,
      "*)": 4674,
      ".IN": 4675,
      "0/0": 4676,
      "_f": 4677,
      "fric": 4678,
      "olic": 4679,
      "णे": 4680,
      "तृत": 4681,
      "पीप": 4682,
      "म्य": 4683,
      "▁७": 4684,
      "▁[का": 4685,
      "▁[Indian": 4686,
      "▁समाज": 4687,
      "](https://en.wikipedia.org/wiki/W": 4688,
      "राद": 4689,
      "▁पत्र": 4690,
      "theast": 4691,
      "andard": 4692,
      "lia": 4693,
      "lib": 4694,
      "तिब्ब": 4695,
      "भाषा(": 4696,
      "iddle": 4697,
      "ासी": 4698,
      "▁द्वीप": 4699,
      "▁व्या": 4700,
      "21)": 4701,
      "▁more": 4702,
      "▁[मराठ": 4703,
      "थाप": 4704,
      "▁\"मराठ": 4705,
      "_केन्द्र": 4706,
      "%2F": 4707,
      "▁स्थाप": 4708,
      "harma": 4709,
      "▁Wiki": 4710,
      "](https://en.wikipedia.org/wiki/South": 4711,
      "▁states": 4712,
      "▁2011.\n": 4713,
      "\")*,": 4714,
      "rade": 4715,
      "ovement": 4716,
      "▁स्थित": 4717,
      "▁territories": 4718,
      "ligious": 4719,
      "▁Act,": 4720,
      "धुनिक": 4721,
      "WEO.IN": 4722,
      "IMFWEO.IN": 4723,
      "olicy": 4724,
      "पीपीपी)": 4725,
      ".).": 4726,
      "110": 4727,
      "_19": 4728,
      "_13": 4729,
      "▁sa": 4730,
      "ped": 4731,
      "-14": 4732,
      "olk": 4733,
      "▁Linguistic": 4734,
      "lobal": 4735,
      "85": 4736,
      "CN": 4737,
      "a-": 4738,
      "दस्य": 4739,
      "ोस": 4740,
      "▁[I": 4741,
      "tex": 4742,
      "ann": 4743,
      "arb": 4744,
      "राम": 4745,
      "्त्र": 4746,
      "rid": 4747,
      "▁अने": 4748,
      "▁प्रसि": 4749,
      "▁century": 4750,
      "▁आर": 4751,
      "▁वर्षा": 4752,
      "ISO": 4753,
      "rab": 4754,
      "▁Modern": 4755,
      "▁विज्ञान": 4756,
      "▁ab": 4757,
      "▁[महाराष्ट्र": 4758,
      "न्तर": 4759,
      "▁\"मान": 4760,
      "▁\"महाराष्ट्र": 4761,
      "vers": 4762,
      "हरलाल": 4763,
      "ार्थ": 4764,
      "obb": 4765,
      "ology": 4766,
      "▁हिमालय": 4767,
      "berg": 4768,
      "-of-": 4769,
      ".aspx?": 4770,
      "arnatak": 4771,
      "-90": 4772,
      "6-0)": 4773,
      "ID": 4774,
      "nam": 4775,
      "oast": 4776,
      "them": 4777,
      "ased": 4778,
      "003": 4779,
      "uslim": 4780,
      "def": 4781,
      "ujarat": 4782,
      "▁Minorities": 4783,
      "Template:": 4784,
      "Pages\\_us": 4785,
      "-C": 4786,
      "1200": 4787,
      "55": 4788,
      "B0%": 4789,
      "_घ": 4790,
      "_14": 4791,
      "d=": 4792,
      "ds": 4793,
      "lad": 4794,
      "pl": 4795,
      "por": 4796,
      "sar": 4797,
      "uch": 4798,
      "ं,": 4799,
      "अभि": 4800,
      "ग्व": 4801,
      "गोर": 4802,
      "जं": 4803,
      "दार": 4804,
      "नों": 4805,
      "फोर्ड": 4806,
      "रिया": 4807,
      "हो": 4808,
      "हवेली": 4809,
      "ापक": 4810,
      "िरा": 4811,
      "ैंक": 4812,
      "ॉंग्रेस": 4813,
      "ौसेना": 4814,
      "१८": 4815,
      "२००": 4816,
      "ంతి": 4817,
      "కాల": 4818,
      "కారం": 4819,
      "గంగా": 4820,
      "టో": 4821,
      "డిన": 4822,
      "తీ": 4823,
      "ధి": 4824,
      "ధించ": 4825,
      "నల్": 4826,
      "మన": 4827,
      "మర": 4828,
      "ర్యా": 4829,
      "లం": 4830,
      "లతో": 4831,
      "లమె": 4832,
      "ీస్": 4833,
      "ూరు": 4834,
      "ెనీ": 4835,
      "ౌక": 4836,
      "▁·": 4837,
      "▁ద": 4838,
      "▁ఫ": 4839,
      "▁దక్షిణ": 4840,
      "▁హిందూ": 4841,
      "▁ओर": 4842,
      "▁[वि": 4843,
      "▁[భారతదేశం": 4844,
      "▁[सा": 4845,
      "▁[ప్ర": 4846,
      "▁[संस्कृत": 4847,
      "▁[ఢిల్లీ": 4848,
      "▁[पाकिस्तान": 4849,
      "▁[राजस्थान": 4850,
      "▁\"I": 4851,
      "▁\"पाकिस्तान": 4852,
      "▁\"राजस्थान": 4853,
      "](https://hi.wikipedia.org/wiki/पाकिस्तान": 4854,
      "▁साल": 4855,
      "▁सम्प": 4856,
      "](https://te.wikipedia.org/wiki/సి": 4857,
      "ారస": 4858,
      "▁मह": 4859,
      "▁मौ": 4860,
      "ాలను": 4861,
      "స్](https://te.wikipedia.org/wiki/": 4862,
      "▁పెద్ద": 4863,
      "\\_identifiers": 4864,
      "ర్లు": 4865,
      "life": 4866,
      "vel": 4867,
      "▁जी": 4868,
      "▁भारत\")": 4869,
      "లు\")": 4870,
      "▁प्रेस": 4871,
      "ंगाना": 4872,
      "00–సా.శ.పూ.": 4873,
      "▁2,": 4874,
      "▁तु": 4875,
      "▁ప్రజ": 4876,
      "▁March": 4877,
      "▁विदेश": 4878,
      "▁विविध": 4879,
      "▁विभि": 4880,
      "▁after": 4881,
      "▁music": 4882,
      "త్తం": 4883,
      "▁इंडिया": 4884,
      "▁(సా.శ.13": 4885,
      "▁(సా.శ.15": 4886,
      "▁అనే": 4887,
      "ड़ियाँ": 4888,
      "తం\")": 4889,
      "ictionary": 4890,
      "ంచి": 4891,
      "irst": 4892,
      "▁राज्यक्षेत्र": 4893,
      "▁ఆఫ్": 4894,
      "-81": 4895,
      "▁देश\")": 4896,
      "form": 4897,
      "▁సాం": 4898,
      "1994": 4899,
      "ंडोनेशिया": 4900,
      "ార్లమె": 4901,
      "▁\"अंग्रेज़ी": 4902,
      "కిస్థాన్": 4903,
      "▁నే": 4904,
      "▁నగర": 4905,
      "▁क्षेत्रों": 4906,
      "▁dance": 4907,
      "ंध्र": 4908,
      "▁4.": 4909,
      "▁గాంధీ": 4910,
      "టిబె": 4911,
      "ूर्वी": 4912,
      "रेन्द्र": 4913,
      "ब्ल": 4914,
      "్రీ.పూ.": 4915,
      "▁విస్త": 4916,
      "ండియా": 4917,
      "%2C_": 4918,
      "▁ఎక్కువ": 4919,
      "▁ఎన్నో": 4920,
      "▁मेला\"),": 4921,
      "▁[उर्दू": 4922,
      "ंग्रेज़ी_भाषा": 4923,
      "▁\"उर्दू": 4924,
      "▁./వర్గం:Wikipedia": 4925,
      "_సం": 4926,
      "ज्ञापक": 4927,
      "▁स्वतंत्रता": 4928,
      "ారు.\n": 4929,
      "టుంబ": 4930,
      "▁पुरालेखित।,": 4931,
      "▁భారత్": 4932,
      "बंधन": 4933,
      "तेलुगू": 4934,
      "▁मानसून": 4935,
      "rick": 4936,
      "_और_संघ": 4937,
      "▁మొత్తం": 4938,
      "▁बहुत": 4939,
      "▁कुछ": 4940,
      "_के_आधार_पर_भारत_के_राज्यों_की_सूची": 4941,
      "ంపెనీ": 4942,
      "पीठ": 4943,
      "भीमब": 4944,
      "झारखंड": 4945,
      "బాద్": 4946,
      "హ్మ": 4947,
      "▁ఏర్": 4948,
      "ेटका": 4949,
      "तेलंगाना": 4950,
      "क्सफोर्ड": 4951,
      "్రిటిషు": 4952,
      "ompany": 4953,
      "▁निर्माण": 4954,
      "्यायपालिका": 4955,
      "▁అత్యధిక": 4956,
      "च्छ": 4957,
      "ీర్ణ": 4958,
      "దక్షిణ_ఆసియా": 4959,
      "▁[अंग्रेज़ी](https://hi.wikipedia.org/wiki/अंग्रेज़ी_भाषा": 4960,
      "हिमालय": 4961,
      "अभिज्ञापक": 4962,
      "भीमबेटका": 4963,
      "300": 4964,
      "BC": 4965,
      "ime": 4966,
      "tb": 4967,
      "errit": 4968,
      "ews": 4969,
      "407": 4970,
      "_Monetary": 4971,
      "_pro": 4972,
      "▁area": 4973,
      "ront": 4974,
      "langoff-1": 4975,
      "_Monetary_Fund": 4976,
      ",[[": 4977,
      "-21": 4978,
      "0&": 4979,
      "05": 4980,
      "South": 4981,
      "ian": 4982,
      "lam": 4983,
      "s.[[": 4984,
      "wart": 4985,
      "zberg": 4986,
      "ण्": 4987,
      "मराठ": 4988,
      "ीर्ण": 4989,
      "ृष": 4990,
      "▁[.": 4991,
      "ones": 4992,
      "ale": 4993,
      "▁सह": 4994,
      "](https://sa.wikipedia.org/wiki/.": 4995,
      "](https://sa.wikipedia.org/wiki/उ": 4996,
      "](https://sa.wikipedia.org/wiki/श": 4997,
      "देशः\")": 4998,
      "▁Con": 4999,
      "तिः": 5000,
      "राज्यानि": 5001,
      "etail": 5002,
      "▁तेन": 5003,
      "url": 5004,
      "chwart": 5005,
      "▁एत": 5006,
      "resent": 5007,
      "igh": 5008,
      "▁who": 5009,
      "ण्डमान": 5010,
      "▁GDP": 5011,
      "मानव": 5012,
      "▁3.": 5013,
      "▁From": 5014,
      "्रीडा": 5015,
      "मुख्य": 5016,
      "▁Press.": 5017,
      "ैदिक": 5018,
      "खण्डस्य": 5019,
      "ock": 5020,
      "_देशाः?action=edit&redlink=1": 5021,
      "▁वर्तते": 5022,
      "▁राजधानी": 5023,
      "जनसङ्ख्या": 5024,
      "भूमिः": 5025,
      "▁years": 5026,
      "▁पाकिस्तान": 5027,
      "वर्येण": 5028,
      "भाषा(ः)": 5029,
      "chwartzberg": 5030,
      "\"](https://web.archive.org/web/20": 5031,
      ".e": 5032,
      "9,": 5033,
      "af": 5034,
      "rar": 5035,
      "2000": 5036,
      "sile": 5037,
      "issile": 5038,
      "istrar": 5039,
      "▁mi": 5040,
      "▁dom": 5041,
      ".html)": 5042,
      "trol": 5043,
      "Pages\\_using\\_": 5044,
      "%7": 5045,
      "-India": 5046,
      "/hindi": 5047,
      "C-0": 5048,
      "RL": 5049,
      "Uttar": 5050,
      "_h": 5051,
      "ban": 5052,
      "hol": 5053,
      "rans": 5054,
      "कृ": 5055,
      "चित": 5056,
      "दर्": 5057,
      "मो": 5058,
      "ीना": 5059,
      "ुरु": 5060,
      "▁ro": 5061,
      "pear": 5062,
      "](https://doi.org/": 5063,
      "tis": 5064,
      "20)": 5065,
      "▁सूर्य": 5066,
      "omas": 5067,
      "state": 5068,
      "2015": 5069,
      "विद्यालय": 5070,
      "asing": 5071,
      "▁India\")\n": 5072,
      "▁प्रभा": 5073,
      "[[14": 5074,
      "loy": 5075,
      "anglad": 5076,
      "▁spe": 5077,
      "▁most": 5078,
      "▁2008": 5079,
      "cture": 5080,
      "▁report": 5081,
      "▁(identifier)\"):[": 5082,
      "_Ma": 5083,
      "_Development": 5084,
      "hindu": 5085,
      "avy": 5086,
      "ative": 5087,
      "▁जयते": 5088,
      "▁Assembly": 5089,
      "censusindia.gov.in/2011census/": 5090,
      "angladesh": 5091,
      "63": 5092,
      "PC": 5093,
      "ox": 5094,
      "ymbol": 5095,
      "ominal": 5096,
      "asia": 5097,
      "▁*The": 5098,
      "▁Economic": 5099,
      "aksh": 5100,
      "inistry_of_": 5101,
      "_top": 5102,
      "ffice": 5103,
      "*](http://": 5104,
      "/ark": 5105,
      "/article": 5106,
      "2).": 5107,
      "3),": 5108,
      "CL": 5109,
      "En": 5110,
      "Taj": 5111,
      "\\*": 5112,
      "_श": 5113,
      "_धर्म": 5114,
      "f.fr": 5115,
      "अंग्रेज़ी": 5116,
      "एन": 5117,
      "गंगा": 5118,
      "गलुरु": 5119,
      "पार": 5120,
      "पदी": 5121,
      "फा": 5122,
      "भग": 5123,
      "भुव": 5124,
      "मरी": 5125,
      "यर": 5126,
      "श्य": 5127,
      "ैत": 5128,
      "ॉल": 5129,
      "ोला": 5130,
      "ौपदी": 5131,
      "०२": 5132,
      "२६": 5133,
      "▁,": 5134,
      "▁औ": 5135,
      "▁८": 5136,
      "▁ले": 5137,
      "▁art": 5138,
      ":/121": 5139,
      "▁[4": 5140,
      "▁[तमिल": 5141,
      "teen": 5142,
      "▁कॉंग्रेस": 5143,
      "](https://hi.wikipedia.org/wiki/न": 5144,
      "](https://hi.wikipedia.org/wiki/ल": 5145,
      "](https://hi.wikipedia.org/wiki/व": 5146,
      "](https://hi.wikipedia.org/wiki/सं": 5147,
      "](https://hi.wikipedia.org/wiki/दक्षिण": 5148,
      "](https://hi.wikipedia.org/wiki/तमिल": 5149,
      "ala": 5150,
      "▁सभा": 5151,
      "▁सित": 5152,
      "राव": 5153,
      "▁मई": 5154,
      "▁मिल": 5155,
      "▁मशीन": 5156,
      "▁(2018),": 5157,
      "ेंगलुरु": 5158,
      "](https://hi.wikipedia.org/wiki/भारत_के": 5159,
      "](https://hi.wikipedia.org/wiki/भारत_के_राज्य": 5160,
      "भाई": 5161,
      "भाज": 5162,
      "sis": 5163,
      "▁में,": 5164,
      "▁जब": 5165,
      "▁प्रार": 5166,
      "▁प्रत्य": 5167,
      "ला\")": 5168,
      "ंगोल": 5169,
      "▁tw": 5170,
      "▁28": 5171,
      "▁आप": 5172,
      "urch": 5173,
      "_से": 5174,
      "▁गई": 5175,
      "नेश्वर": 5176,
      "▁विद्य": 5177,
      "▁शहर": 5178,
      "संधान": 5179,
      "_(भारत)": 5180,
      "त्तरी": 5181,
      "न्तु": 5182,
      "ड़िया": 5183,
      "र्मू": 5184,
      "▁election": 5185,
      "]](https://hi.wikipedia.org/wiki/भारत#cite_note-pib": 5186,
      "_के_अन": 5187,
      "▁लिये": 5188,
      "▁यूनिवर्सि": 5189,
      "▁१२": 5190,
      "▁१५": 5191,
      "जनप": 5192,
      "_of_India.svg": 5193,
      "परे": 5194,
      "▁[South": 5195,
      "्रांस": 5196,
      "ध्ये": 5197,
      "ंग्रेजी": 5198,
      "▁had": 5199,
      "▁group": 5200,
      "ंधी": 5201,
      "](https://en.wikipedia.org/wiki/India#CITEREFS": 5202,
      "सी.": 5203,
      "▁राजनीति": 5204,
      "ternal": 5205,
      "48/c": 5206,
      "ोरम": 5207,
      "_भारतीय_": 5208,
      "द्रौपदी": 5209,
      "PPP": 5210,
      "engali": 5211,
      "ोर्ट": 5212,
      "ikshi": 5213,
      "arch_": 5214,
      "भोपाल": 5215,
      "_देशों_की_सूची": 5216,
      "देहराद": 5217,
      "▁\"जम्मू": 5218,
      "ुवैत": 5219,
      "केरल": 5220,
      "▁साम्राज्य\")": 5221,
      "ोडो": 5222,
      "▁पार्ट": 5223,
      "वितीय": 5224,
      "ताजमह": 5225,
      "_साम्राज्य": 5226,
      "्रह्मपुत्र": 5227,
      "▁Plate": 5228,
      "▁estim": 5229,
      "तिरुवन": 5230,
      "क्षरता": 5231,
      ".bnf.fr": 5232,
      "▁[पाकिस्तान](https://hi.wikipedia.org/wiki/पाकिस्तान": 5233,
      "/ark:/121": 5234,
      "भुवनेश्वर": 5235,
      "_के_अनुसार": 5236,
      "▁यूनिवर्सिटी": 5237,
      "48/cb": 5238,
      "ikshit": 5239,
      "देहरादून": 5240,
      ".bnf.fr/ark:/121": 5241,
      ".bnf.fr/ark:/12148/cb": 5242,
      "\"[[": 5243,
      "-30": 5244,
      "130": 5245,
      "Qu": 5246,
      "_2": 5247,
      "ym": 5248,
      "ze": 5249,
      "208": 5250,
      "alore": 5251,
      "sts": 5252,
      "▁Ar": 5253,
      "angalore": 5254,
      "_of_S": 5255,
      "217": 5256,
      "▁[\"The": 5257,
      "abad": 5258,
      "artment": 5259,
      "actbook": 5260,
      "International_Monetary_Fund": 5261,
      "erritory": 5262,
      "-B": 5263,
      "8-0)": 5264,
      "9-0)": 5265,
      "_n": 5266,
      "cent": 5267,
      "detail": 5268,
      "eth": 5269,
      "ii": 5270,
      "lations": 5271,
      "mi": 5272,
      "oy": 5273,
      "sing": 5274,
      "ssam": 5275,
      "tates": 5276,
      "ua": 5277,
      "ंतर": 5278,
      "अरब": 5279,
      "गध": 5280,
      "दान": 5281,
      "धिका": 5282,
      "ूर्ण": 5283,
      "▁°": 5284,
      "▁over": 5285,
      ".org": 5286,
      "▁[राज्य": 5287,
      "arri": 5288,
      "ानु": 5289,
      "ानगर": 5290,
      "rim": 5291,
      "2017": 5292,
      "राज्यक्षेत्र": 5293,
      "▁tradition": 5294,
      "▁दीव": 5295,
      "▁आन्द": 5296,
      "▁वे": 5297,
      "▁वाल": 5298,
      "क्षी": 5299,
      "▁Machine": 5300,
      "change": 5301,
      "▁total": 5302,
      "266": 5303,
      "वाहरलाल": 5304,
      "gions": 5305,
      "_Pl": 5306,
      "▁Oxford": 5307,
      "ndaman": 5308,
      "▁राष्ट्रपति": 5309,
      "▁depend": 5310,
      "▁status": 5311,
      "ल्ल": 5312,
      "▁शासित": 5313,
      "clu": 5314,
      "व्यक्ति": 5315,
      "०००": 5316,
      "feb": 5317,
      "timesofindia": 5318,
      "ikh": 5319,
      "धिराज्य": 5320,
      "१९४७": 5321,
      "१९५०": 5322,
      "▁Environment": 5323,
      "ृद्धि": 5324,
      "▁सीमा": 5325,
      "▁2006](https://en.wikipedia.org/wiki/India#CITEREF": 5326,
      "etrag": 5327,
      "▁became": 5328,
      "▁Wikidata": 5329,
      "ृषि": 5330,
      "timesofindia.indiatimes.com/": 5331,
      "*\n": 5332,
      "45": 5333,
      "4-0)": 5334,
      "Library": 5335,
      "_జాబితా": 5336,
      "a.": 5337,
      "nominal": 5338,
      "ఆంధ": 5339,
      "కీ": 5340,
      "కాలు": 5341,
      "క్రమ": 5342,
      "గర్": 5343,
      "గాంధీ": 5344,
      "డో": 5345,
      "థి": 5346,
      "నె": 5347,
      "నాలు": 5348,
      "పించ": 5349,
      "బడ్డ": 5350,
      "భర": 5351,
      "మహ": 5352,
      "మై": 5353,
      "యన": 5354,
      "యి": 5355,
      "రంగ": 5356,
      "లయా": 5357,
      "వార": 5358,
      "శీ": 5359,
      "షా": 5360,
      "షనల్": 5361,
      "స్య": 5362,
      "ృద్ధి": 5363,
      "ెంగ": 5364,
      "ేర": 5365,
      "–10": 5366,
      "▁భారతీయ": 5367,
      "▁దా": 5368,
      "▁టెక్నాలజీ": 5369,
      "▁నాగరికత": 5370,
      "thang": 5371,
      "్రై": 5372,
      "్రప్రదేశ్": 5373,
      "](https://te.wikipedia.org/wiki/ఢిల్లీ": 5374,
      "దేశం": 5375,
      "దేశాల": 5376,
      "దేశాలు": 5377,
      "స్\")": 5378,
      "ర్‌": 5379,
      "▁14.": 5380,
      "లు?action=edit&redlink=1": 5381,
      "రాఠ": 5382,
      "▁కి": 5383,
      "▁కో": 5384,
      "క్టో": 5385,
      "ంది": 5386,
      "▁వర్": 5387,
      "▁వారస": 5388,
      "నియా": 5389,
      "ల్వే": 5390,
      "▁సరిహద్దు": 5391,
      "▁మన": 5392,
      "▁మూ": 5393,
      "▁ప్రము": 5394,
      "▁ప్రతి": 5395,
      "▁ప్రస్తు": 5396,
      "▁ప్రకారం": 5397,
      "ండమా": 5398,
      "▁చిన్న": 5399,
      "తాన": 5400,
      "తిక": 5401,
      "త్వం": 5402,
      "▁(సా.శ.17": 5403,
      "▁(సా.శ.14": 5404,
      "▁Data": 5405,
      "ులు,": 5406,
      "–సా.శ.15": 5407,
      "–సా.శ.17": 5408,
      "ంచిన": 5409,
      "కుడు": 5410,
      "నుమ": 5411,
      "E0%B0%": 5412,
      "ింది.\n": 5413,
      "▁రో": 5414,
      "▁రంగ": 5415,
      "▁రవాణా": 5416,
      "▁సాధించ": 5417,
      "ష్టు": 5418,
      "▁Feb": 5419,
      "పాలన": 5420,
      "ం](https://te.wikipedia.org/wiki/భారతీయ": 5421,
      "నేషనల్": 5422,
      "వందే": 5423,
      "▁విభ": 5424,
      "▁Union": 5425,
      "▁రాజ్యం](https://te.wikipedia.org/wiki/": 5426,
      "▁బహు": 5427,
      "▁బెంగ": 5428,
      "ాల్లో": 5429,
      ",_కేంద్రపాలిత": 5430,
      "ంతో": 5431,
      "▁ప్రాంతం": 5432,
      "శ్వా": 5433,
      "ారిటీ": 5434,
      "గోళ": 5435,
      "...": 5436,
      "బడిన": 5437,
      "తున్న": 5438,
      "▁స్వాతంత్ర్య": 5439,
      "న్నిక": 5440,
      "▁కాలంలో": 5441,
      "ధీన": 5442,
      "▁2019.\n": 5443,
      "▁States": 5444,
      "ంపి": 5445,
      "బెంగాల్": 5446,
      "ెలవు": 5447,
      "](https://te.wikipedia.org/wiki/భారతదేశంలో_": 5448,
      "▁ప్రాచ": 5449,
      "▁అధికారిక": 5450,
      "ఆర్ధిక": 5451,
      "▁పట్టణ": 5452,
      "▁అయిన": 5453,
      "▁కాశ్మీరు": 5454,
      "document": 5455,
      "▁రెండు": 5456,
      "ంగ్లీషు": 5457,
      "ాల్దీవులు": 5458,
      "ట్రో": 5459,
      "ుల్తాన": 5460,
      "రాష్ట్రాలు,_కేంద్రపాలిత": 5461,
      "దినోత్సవం": 5462,
      "▁వ్యాసం:": 5463,
      "ార్లమెంట": 5464,
      "▁./వర్గం:Wikipedia\\_articles\\_with\\_": 5465,
      "▁ఏర్ప": 5466,
      "nominal)": 5467,
      "ఆంధ్రప్రదేశ్": 5468,
      "లయాళ": 5469,
      "▁ప్రముఖ": 5470,
      "రాష్ట్రాలు,_కేంద్రపాలిత_ప్రాంత": 5471,
      "-with": 5472,
      "81": 5473,
      "Ludden": 5474,
      "ae": 5475,
      "ced": 5476,
      "eh": 5477,
      "ls": 5478,
      "कु": 5479,
      "मक": 5480,
      "ेक": 5481,
      "▁६": 5482,
      "▁5.": 5483,
      "orn": 5484,
      "onwe": 5485,
      "▁महा": 5486,
      "riod": 5487,
      "ised": 5488,
      "▁तत्": 5489,
      "▁Budd": 5490,
      "▁BCE": 5491,
      "igved": 5492,
      "_मु": 5493,
      "ics": 5494,
      "ountry": 5495,
      "▁[Singh": 5496,
      "549": 5497,
      "ublication": 5498,
      "general": 5499,
      "दिल्ली\")": 5500,
      "चेरी": 5501,
      "▁2021.\n": 5502,
      "गोलिक": 5503,
      "apita": 5504,
      "etraglia": 5505,
      "onwealth": 5506,
      "65": 5507,
      "p)": 5508,
      "▁\"United": 5509,
      "2019": 5510,
      "ality": 5511,
      "\\_(": 5512,
      "\\_country": 5513,
      "▁cons": 5514,
      "▁General": 5515,
      "1996": 5516,
      "ruary": 5517,
      "27)": 5518,
      "obox": 5519,
      "infobox": 5520,
      "ymbols": 5521,
      "9/": 5522,
      "Congress": 5523,
      "Wolpert": 5524,
      "_एशिया": 5525,
      "britannica": 5526,
      "ele": 5527,
      "ft": 5528,
      "lor": 5529,
      "nai": 5530,
      "oint": 5531,
      "vat": 5532,
      "vol": 5533,
      "y\")": 5534,
      "इन": 5535,
      "कुर": 5536,
      "क्रीडा": 5537,
      "घर": 5538,
      "चें": 5539,
      "जें": 5540,
      "टि": 5541,
      "द्या": 5542,
      "दिश": 5543,
      "पञ्जाब": 5544,
      "मन्": 5545,
      "मिका": 5546,
      "मराव": 5547,
      "ळि": 5548,
      "शाल": 5549,
      "स\")": 5550,
      "ाणि": 5551,
      "ाटी": 5552,
      "ोङ्": 5553,
      "्](https://sa.wikipedia.org/wiki/": 5554,
      "–18": 5555,
      "▁ऋ": 5556,
      "▁up": 5557,
      "▁[United": 5558,
      "](https://hi.wikipedia.org/wiki/ओ": 5559,
      "](https://hi.wikipedia.org/wiki/श": 5560,
      "्यू": 5561,
      "▁सभ्यता": 5562,
      "▁(2006": 5563,
      "म्\n": 5564,
      "stani": 5565,
      "](https://sa.wikipedia.org/wiki/च": 5566,
      "](https://sa.wikipedia.org/wiki/म": 5567,
      "](https://sa.wikipedia.org/wiki/भारतस्य_": 5568,
      "िक्ष": 5569,
      "ripur": 5570,
      "▁अपि": 5571,
      "▁अमेर": 5572,
      "▁अलग": 5573,
      "▁हाला": 5574,
      "](https://hi.wikipedia.org/wiki/भारत_स": 5575,
      "ough": 5576,
      "भाजन": 5577,
      "\\_क": 5578,
      "वियत": 5579,
      "नाङ्": 5580,
      "▁जिन": 5581,
      "ियां": 5582,
      "[[10": 5583,
      "[[120": 5584,
      "▁बंगाल": 5585,
      "▁बड़े": 5586,
      "▁बृह": 5587,
      "▁सेवा": 5588,
      "▁Pakistan": 5589,
      "▁काम": 5590,
      "teracy": 5591,
      "50)": 5592,
      "ादयः": 5593,
      "काश्मीर": 5594,
      "▁ag": 5595,
      "rop": 5596,
      "संबर": 5597,
      "र्वोच्च": 5598,
      "▁*मुख्य": 5599,
      "त्ति": 5600,
      "iger": 5601,
      "ियन": 5602,
      "▁रक्षा": 5603,
      "]](https://hi.wikipedia.org/wiki/भारत#cite_note-langoff-1": 5604,
      "ण्डोनेशिया": 5605,
      "▁भाषाः": 5606,
      "धर्मः,": 5607,
      "हाँ": 5608,
      "24)": 5609,
      "ः](https://sa.wikipedia.org/wiki/म": 5610,
      "पुरम": 5611,
      "गुप्त": 5612,
      "▁\"बाङ्गला": 5613,
      "ंग्रेज": 5614,
      "लेखः": 5615,
      "▁[बाङ्गला": 5616,
      "-7mar": 5617,
      "▁नेतृत": 5618,
      "गढ़": 5619,
      "ब्ध": 5620,
      "▁\"पञ्जाब": 5621,
      "▁[पञ्जाब": 5622,
      "orical": 5623,
      "](https://hi.wikipedia.org/wiki/मध्य": 5624,
      "▁राष्ट्रध्वज": 5625,
      "▁होती": 5626,
      "तुल": 5627,
      "▁It": 5628,
      "▁१९९": 5629,
      "▁विश्वे": 5630,
      "हाराज्य": 5631,
      "▁घाट": 5632,
      "olitics": 5633,
      "_Empire": 5634,
      "एशियाखण्डस्य": 5635,
      "](https://hi.wikipedia.org/wiki/पश्चिम": 5636,
      "](https://hi.wikipedia.org/wiki/पंजाब": 5637,
      "त्पत्ति": 5638,
      "ों_की_सूची?action=edit&redlink=1": 5639,
      "▁CITEREFStein1998": 5640,
      "▁CITEREFSingh2009": 5641,
      "कालीन": 5642,
      "लयालम": 5643,
      "lishing": 5644,
      "बंधीय": 5645,
      "](https://hi.wikipedia.org/wiki/भारत#CITEREFStein1998": 5646,
      "](https://hi.wikipedia.org/wiki/भारत#CITEREFSingh2009": 5647,
      "▁वर्षों": 5648,
      "india.gov.in/india-glance": 5649,
      "▁उपमहाद्वीप": 5650,
      "▁देख": 5651,
      "धीरे": 5652,
      "▁भूमिका": 5653,
      "ायिका": 5654,
      "](https://sa.wikipedia.org/wiki/बाङ्गला": 5655,
      "ओडिशा": 5656,
      "▁थे": 5657,
      "▁गीतस्य": 5658,
      "MetcalfMetcalf2006),": 5659,
      "▁मंदिर\")": 5660,
      "usiness": 5661,
      "रोहर": 5662,
      "भ्यः": 5663,
      "ान्ताल": 5664,
      "ष्ठसद": 5665,
      "▁दिसंबर": 5666,
      "शाब्द": 5667,
      "ठागोर": 5668,
      "ठाकुर": 5669,
      "प्राचीन": 5670,
      "ङ्ग्लभाषा": 5671,
      "▁व्यवस्था": 5672,
      "हिमाचलप्रदेश": 5673,
      "langoff_12": 5674,
      "तेलङ्गा": 5675,
      "▁2009](https://hi.wikipedia.org/wiki/भारत#CITEREFSingh2009": 5676,
      "7,26": 5677,
      "▁स्तर": 5678,
      "▁प्रधानमंत्री": 5679,
      "्लेट": 5680,
      "रूप्यक": 5681,
      "लयाळम्": 5682,
      "रुणाचलप्रदेश": 5683,
      "hennai": 5684,
      "▁सिनेमा\"),": 5685,
      "हित्य": 5686,
      "▁दृश्य": 5687,
      "चेन्नै": 5688,
      "ुमहासागर": 5689,
      "▁union": 5690,
      "र्णाटक": 5691,
      "▁लगभग": 5692,
      "निकोबारद्वीपसमूह": 5693,
      "▁(eds.": 5694,
      "_सिनेमा": 5695,
      "थियार": 5696,
      "▁देशाः\"))": 5697,
      "▁1998](https://hi.wikipedia.org/wiki/भारत#CITEREFStein1998": 5698,
      "▁\"पाकिस्तान\")": 5699,
      "ण्डमाननिकोबारद्वीपसमूह": 5700,
      "▁प्रारम्भ": 5701,
      "▁two": 5702,
      "britannica.com/": 5703,
      "चेंज": 5704,
      "दिशि": 5705,
      "ोङ्कणी": 5706,
      "नाङ्के": 5707,
      "[[120]](https://hi.wikipedia.org/wiki/भारत#cite_note-langoff-1": 5708,
      "▁*मुख्यलेखः": 5709,
      "▁[बाङ्गला](https://sa.wikipedia.org/wiki/बाङ्गला": 5710,
      "-7mar2011": 5711,
      "▁नेतृत्व": 5712,
      "▁2009](https://hi.wikipedia.org/wiki/भारत#CITEREFSingh2009),": 5713,
      "▁1998](https://hi.wikipedia.org/wiki/भारत#CITEREFStein1998),": 5714,
      "[[120]](https://hi.wikipedia.org/wiki/भारत#cite_note-langoff-128)": 5715,
      "HA": 5716,
      "NA": 5717,
      "dr": 5718,
      "evan": 5719,
      "med": 5720,
      "yy": 5721,
      "▁\"National": 5722,
      "reme": 5723,
      "▁Ac": 5724,
      "agari": 5725,
      "_Indian_": 5726,
      "▁than": 5727,
      ".svg/": 5728,
      "evanagari": 5729,
      ".0": 5730,
      "31": 5731,
      "3TR": 5732,
      "C).": 5733,
      "Census": 5734,
      "M50th": 5735,
      "NCL": 5736,
      "aut": 5737,
      "b)": 5738,
      "ealth": 5739,
      "icha": 5740,
      "osi": 5741,
      "west": 5742,
      "ण्य": 5743,
      "तार": 5744,
      "नु": 5745,
      "बे": 5746,
      "महा": 5747,
      "सार": 5748,
      "▁ई": 5749,
      "▁res": 5750,
      "▁[O": 5751,
      "▁[धर्म": 5752,
      "an\")": 5753,
      "](https://en.wikipedia.org/wiki/The": 5754,
      "estic": 5755,
      "2016": 5756,
      "देशिक": 5757,
      "](https://en.wikipedia.org/wiki/Indian_": 5758,
      "▁प्रकार": 5759,
      "ता\")": 5760,
      "▁Sanskrit": 5761,
      "▁summit\")": 5762,
      "▁caste": 5763,
      "▁आग": 5764,
      "ulti": 5765,
      "0%E0%A4%": 5766,
      "ung": 5767,
      "▁Be": 5768,
      "▁2025": 5769,
      "त्स": 5770,
      "duct": 5771,
      "_in_S": 5772,
      "_Asian": 5773,
      "ublishing": 5774,
      "%20A": 5775,
      "▁Fund": 5776,
      "imalay": 5777,
      "ध्यम": 5778,
      "ध्यक्ष": 5779,
      "▁general": 5780,
      "under": 5781,
      "vision": 5782,
      "▁War": 5783,
      "▁original](https://": 5784,
      "▁*[The": 5785,
      "erala": 5786,
      "स्थाप": 5787,
      "_GDP": 5788,
      "▁सिंह": 5789,
      "ankar": 5790,
      "34)": 5791,
      "▁cont": 5792,
      "exis": 5793,
      "▁मातर": 5794,
      "▁\"Economy": 5795,
      "](https://en.wikipedia.org/wiki/Economy": 5796,
      "thnologue.com/": 5797,
      "▁[संयुक्त": 5798,
      "▁2024.": 5799,
      "catal": 5800,
      "inister": 5801,
      "hasha": 5802,
      "Report.pdf)": 5803,
      ".png)": 5804,
      "ustralia": 5805,
      "nclm.nic.in/shared/linkimages/NCL": 5806,
      "▁प्रसिद्ध": 5807,
      "arnataka": 5808,
      "3TRt": 5809,
      "M50thReport.pdf)": 5810,
      "ichael": 5811,
      "nclm.nic.in/shared/linkimages/NCLM50thReport.pdf)": 5812,
      "\"](http://": 5813,
      "Lot": 5814,
      "aus": 5815,
      "m2": 5816,
      "ning": 5817,
      "sources": 5818,
      "uth": 5819,
      "▁7.": 5820,
      "cia": 5821,
      "-07": 5822,
      "ammu": 5823,
      "-230": 5824,
      "▁1960": 5825,
      "ments": 5826,
      "▁[\"A": 5827,
      "osed": 5828,
      "emon": 5829,
      "-language\\_sources": 5830,
      ".jpeg": 5831,
      "▁February": 5832,
      "Lotus": 5833,
      "-language\\_sources\\_(": 5834,
      "-[": 5835,
      "/g": 5836,
      "68": 5837,
      ";\n": 5838,
      "IJ": 5839,
      "_वि": 5840,
      "adi": 5841,
      "hand": 5842,
      "ihar": 5843,
      "minist": 5844,
      "rac": 5845,
      "rdu": 5846,
      "thi": 5847,
      "ton": 5848,
      "wal": 5849,
      "खित": 5850,
      "डिया": 5851,
      "तन": 5852,
      "बो": 5853,
      "ौह": 5854,
      "▁i": 5855,
      "▁४": 5856,
      "▁९": 5857,
      "▁land": 5858,
      "▁[India": 5859,
      "▁[doi": 5860,
      "▁\"चीन": 5861,
      "anas": 5862,
      "reli": 5863,
      "](https://en.wikipedia.org/wiki/O": 5864,
      "ान्म": 5865,
      "िकास": 5866,
      "rial": 5867,
      "right": 5868,
      "\\_links": 5869,
      "astern": 5870,
      "▁India*](https://books.google.com/books?id=": 5871,
      "ooperation": 5872,
      "\"),[": 5873,
      "-00": 5874,
      "atar": 5875,
      "▁बह": 5876,
      "▁दिवस": 5877,
      "raj": 5878,
      "chite": 5879,
      "itz": 5880,
      "▁उच्च": 5881,
      "_(India)": 5882,
      "▁David": 5883,
      "127": 5884,
      "▁BRICS": 5885,
      "▁British": 5886,
      "duction": 5887,
      "cond": 5888,
      "contain": 5889,
      "द्दाख": 5890,
      "1990": 5891,
      "_Air": 5892,
      "▁[*The": 5893,
      "▁[कु": 5894,
      "सीमा": 5895,
      "▁२०११": 5896,
      "शासन": 5897,
      "शास्त्र": 5898,
      "▁K.": 5899,
      "48)": 5900,
      "▁\"सिक्किम": 5901,
      "▁original](http://www.": 5902,
      "▁[सिक्किम": 5903,
      "▁Press](https://en.wikipedia.org/wiki/": 5904,
      "▁\"Doi": 5905,
      "](https://en.wikipedia.org/wiki/Doi": 5906,
      "_and_depend": 5907,
      "_dom": 5908,
      "▁period": 5909,
      "edic": 5910,
      "olden": 5911,
      "-lead": 5912,
      "▁northern": 5913,
      "rganisation": 5914,
      "Fisher2018": 5915,
      "▁प्रभाव": 5916,
      "_Mahal": 5917,
      "teenth": 5918,
      "igveda": 5919,
      "Wolpert2003": 5920,
      "▁[doi](https://en.wikipedia.org/wiki/Doi": 5921,
      "▁[doi](https://en.wikipedia.org/wiki/Doi_(identifier)": 5922,
      "-F": 5923,
      "-an": 5924,
      "ey": 5925,
      "▁vi": 5926,
      "▁9.": 5927,
      "lem": 5928,
      "▁power": 5929,
      "▁Al": 5930,
      "▁sq": 5931,
      "129": 5932,
      "403": 5933,
      "▁Languages": 5934,
      "▁Increase": 5935,
      "▁disp": 5936,
      "8012": 5937,
      "on_territ": 5938,
      "▁1965": 5939,
      "a/a": 5940,
      "▁km2": 5941,
      "ject": 5942,
      "\"](https://books.google.com/books?id=": 5943,
      "%)": 5944,
      "-च": 5945,
      "-india": 5946,
      "/D": 5947,
      "230": 5948,
      "320": 5949,
      "6).": 5950,
      "7_": 5951,
      "Craven": 5952,
      "Chennai": 5953,
      "Gua": 5954,
      "JIJ": 5955,
      "PO": 5956,
      "Zva": 5957,
      "_వి": 5958,
      "_కాశ్మీ": 5959,
      "aha": 5960,
      "election": 5961,
      "her": 5962,
      "rin": 5963,
      "slam": 5964,
      "yana": 5965,
      "ईद": 5966,
      "ऍथ": 5967,
      "ऑक्सफोर्ड": 5968,
      "को": 5969,
      "ख़": 5970,
      "चाल": 5971,
      "दल": 5972,
      "नोल": 5973,
      "फ्रांस": 5974,
      "बन": 5975,
      "बा": 5976,
      "बू": 5977,
      "म्र": 5978,
      "मृत": 5979,
      "रूस": 5980,
      "ल-": 5981,
      "लैंड": 5982,
      "वल": 5983,
      "हम": 5984,
      "ुरा": 5985,
      "ूबर": 5986,
      "ेड": 5987,
      "ैज": 5988,
      "ैण्ड": 5989,
      "ॉग": 5990,
      "२०११": 5991,
      "५७": 5992,
      "ంస్కృ": 5993,
      "ఉత్తరా": 5994,
      "ఖో": 5995,
      "ఘాలయ": 5996,
      "చ్": 5997,
      "టై": 5998,
      "టర్": 5999,
      "డఖ": 6000,
      "డమ్": 6001,
      "ణే": 6002,
      "ణంగా": 6003,
      "తే": 6004,
      "తెల": 6005,
      "దరంగ": 6006,
      "ధు": 6007,
      "ధార": 6008,
      "నో": 6009,
      "నంద": 6010,
      "బర్": 6011,
      "బార్": 6012,
      "యె": 6013,
      "లడఖ": 6014,
      "ళా": 6015,
      "ళి": 6016,
      "శు": 6017,
      "హించ": 6018,
      "ాంగ": 6019,
      "ుకు": 6020,
      "ెన్న": 6021,
      "ెట్రో": 6022,
      "ేతిక": 6023,
      "ేఘాలయ": 6024,
      "ైనిక": 6025,
      "ొగలు": 6026,
      "ోళ": 6027,
      "‌కా": 6028,
      "‌మహ": 6029,
      "▁j": 6030,
      "▁ఐ": 6031,
      "▁ఖ": 6032,
      "▁hi": 6033,
      "▁ref": 6034,
      "▁am": 6035,
      "▁–సా.శ.": 6036,
      "▁జా": 6037,
      "orest": 6038,
      "▁[978": 6039,
      "▁[రాష్ట్ర": 6040,
      "▁[జన": 6041,
      "▁[గో": 6042,
      "▁\"పా": 6043,
      "▁\"జన": 6044,
      "▁\"గో": 6045,
      "▁\"साँचा:": 6046,
      "▁\"మూస:": 6047,
      "▁\"साँचा": 6048,
      "्रार": 6049,
      "](https://hi.wikipedia.org/wiki/हिन्द": 6050,
      "](https://hi.wikipedia.org/wiki/साँचा:": 6051,
      "](https://hi.wikipedia.org/wiki/साँचा": 6052,
      "्यों": 6053,
      "्यूर": 6054,
      "ar,": 6055,
      "▁सक": 6056,
      "▁सुरक्षा": 6057,
      "▁सदस्य": 6058,
      "India_G": 6059,
      "](https://en.wikipedia.org/wiki/I": 6060,
      "रात": 6061,
      "](https://te.wikipedia.org/wiki/B": 6062,
      "](https://te.wikipedia.org/wiki/G": 6063,
      "](https://te.wikipedia.org/wiki/భారతదేశ": 6064,
      "](https://te.wikipedia.org/wiki/గో": 6065,
      "](https://te.wikipedia.org/wiki/మూస:": 6066,
      "ారస్వ": 6067,
      "▁मन्दिर": 6068,
      "▁पड़": 6069,
      "▁प्लेट": 6070,
      "ాలె": 6071,
      "achal": 6072,
      "िकी": 6073,
      "▁अधिकार": 6074,
      "▁हथियार": 6075,
      "ould": 6076,
      "స్ట": 6077,
      "స్వాతంత్ర్య": 6078,
      "▁పర": 6079,
      "▁పండు": 6080,
      "\\_par": 6081,
      "ालर": 6082,
      "स्वा": 6083,
      "▁ज़": 6084,
      "లు](https://te.wikipedia.org/wiki/": 6085,
      "రాన్": 6086,
      "రాస్య": 6087,
      "▁बार": 6088,
      "▁बने": 6089,
      "▁बड़ा": 6090,
      "▁కే": 6091,
      "▁కోర్": 6092,
      "▁नौसेना": 6093,
      "త్రిక": 6094,
      "రికా": 6095,
      "క్స్": 6096,
      "క్కి": 6097,
      "▁दिल्": 6098,
      "▁sup": 6099,
      "▁వె": 6100,
      "▁वार्ता:": 6101,
      "▁वृद्धि": 6102,
      "uran": 6103,
      "▁Per": 6104,
      "ంగో": 6105,
      "▁సముద్ర": 6106,
      "▁సూచ": 6107,
      "▁సౌక": 6108,
      "क्षण": 6109,
      "▁ప్రజా": 6110,
      "▁गठ": 6111,
      "ండా": 6112,
      "ండీ": 6113,
      "ండ్య": 6114,
      "chool": 6115,
      "कांक": 6116,
      "▁modern": 6117,
      "తాజ్": 6118,
      "నాథ": 6119,
      "▁शुर": 6120,
      "త్వా": 6121,
      "▁Rothermund": 6122,
      "▁(సా.శ.16": 6123,
      "ులు?action=edit&redlink=1": 6124,
      "▁परंप": 6125,
      "్రామ": 6126,
      ".in)\n": 6127,
      "▁అభి": 6128,
      "తం?action=edit&redlink=1": 6129,
      "▁...": 6130,
      "పూర్": 6131,
      "▁Europe": 6132,
      "ण्डल": 6133,
      "_in_M": 6134,
      "▁ఉంట": 6135,
      "▁ఉత్తర": 6136,
      "▁लिया": 6137,
      "ప్రిల్": 6138,
      "▁రూప": 6139,
      "▁సామా": 6140,
      "వాద": 6141,
      "1997": 6142,
      "▁सागर": 6143,
      "elang": 6144,
      "ंडमान": 6145,
      "ార్ఖండ్": 6146,
      "విధ": 6147,
      "క్షరాస్య": 6148,
      "▁one": 6149,
      "ంటి": 6150,
      "▁करना": 6151,
      "▁करता": 6152,
      "పుర": 6153,
      "▁నడి": 6154,
      "्रांति": 6155,
      "▁ఇండియా": 6156,
      "▁గు": 6157,
      "▁राजनीतिक": 6158,
      "ार्कट": 6159,
      "డుకు": 6160,
      "నేషియా": 6161,
      "▁జన": 6162,
      "ంగాణ": 6163,
      "▁सूची": 6164,
      "లియా": 6165,
      "▁వివిధ": 6166,
      "గుప్": 6167,
      "▁సంఘ": 6168,
      "తరం": 6169,
      "](https://hi.wikipedia.org/wiki/महाराष्ट्र": 6170,
      "न्नड़": 6171,
      "ండిచ్చేరి": 6172,
      "▁deve": 6173,
      "▁[మధ్య": 6174,
      "हुँच": 6175,
      "జీరియా": 6176,
      "▁./వర్గం:Articles": 6177,
      "ంకేతిక": 6178,
      "ffer": 6179,
      "▁घरेलू": 6180,
      "▁घाटी": 6181,
      "వేలీ": 6182,
      "स्ट्रार": 6183,
      "](https://hi.wikipedia.org/wiki/पूर्व": 6184,
      "▁निभाई": 6185,
      "शासित_प्रदेश": 6186,
      "हारजि": 6187,
      "బియా": 6188,
      "డామన్": 6189,
      "▁రాష్ట్రపతి": 6190,
      "जयनगर": 6191,
      "▁था,": 6192,
      "త్రిపుర": 6193,
      "▁ప్రాంతాలు\")": 6194,
      "_కాల": 6195,
      "▁రైల్వే": 6196,
      "endra": 6197,
      "_और_": 6198,
      "▁2007\n": 6199,
      "మెరికా": 6200,
      "య్యూ": 6201,
      "▁ప్రదేశ్](https://te.wikipedia.org/wiki/": 6202,
      "త్తీస్": 6203,
      "▁[जम्मू": 6204,
      "ultan": 6205,
      "national-language": 6206,
      "ohn": 6207,
      "मीरात": 6208,
      "ंपन": 6209,
      "నాగాలా": 6210,
      "▁अपने": 6211,
      "▁\"జమ్మూ": 6212,
      "pib.nic.in/": 6213,
      "▁పాకిస్తాన్": 6214,
      "▁तटीय": 6215,
      "Hinduism": 6216,
      "కోవ": 6217,
      "కోబార్": 6218,
      "](https://te.wikipedia.org/wiki/జమ్మూ": 6219,
      "ల్లవ": 6220,
      "1947)": 6221,
      "▁दोनों": 6222,
      "do-A": 6223,
      "▁భారతదేశానికి": 6224,
      "▁पार्टी": 6225,
      "రేబియా": 6226,
      "నేపాల్": 6227,
      "▁जलवायु": 6228,
      "ainting": 6229,
      "టాక్": 6230,
      "▁మాత్ర": 6231,
      "్రిటిష్": 6232,
      "_न्याया": 6233,
      "_वार्ता:": 6234,
      "पातकाल": 6235,
      "వెను": 6236,
      "ూచి": 6237,
      "భారతదేశ_రాష్ట్రాలు,_కేంద్రపాలిత_ప్రాంత": 6238,
      "▁ప్రపంచంలో": 6239,
      "▁See": 6240,
      "नागालैंड": 6241,
      "ప్పటిక": 6242,
      "onsoon_": 6243,
      "खनऊ": 6244,
      "లేషియా": 6245,
      "▁దేశంలోని": 6246,
      "▁మొదల": 6247,
      "syayan": 6248,
      "ద్యు": 6249,
      "न्हें": 6250,
      "▁చిత్ర": 6251,
      "ద్వీప్": 6252,
      "▁ఉపఖండ": 6253,
      "▁[पंजाब](https://hi.wikipedia.org/wiki/पंजाब": 6254,
      "▁కాంగ్రెసు": 6255,
      "_राजवंश": 6256,
      "फगानि": 6257,
      "ఆగష్టు": 6258,
      "లక్షద్వీప్": 6259,
      "హాయం:": 6260,
      "ీకరణ": 6261,
      "ోల్‌కా": 6262,
      "▁తరువాత": 6263,
      "మిజోరా": 6264,
      "तिब्बत": 6265,
      "▁अनेक": 6266,
      "▁[महाराष्ट्र](https://hi.wikipedia.org/wiki/महाराष्ट्र": 6267,
      "▁\"महाराष्ट्र\")": 6268,
      "ర్యానా": 6269,
      "▁[ఢిల్లీ](https://te.wikipedia.org/wiki/ఢిల్లీ": 6270,
      "టిబెట్": 6271,
      "ricket": 6272,
      "Taj_Mahal": 6273,
      "फाएं": 6274,
      "भाजपा": 6275,
      "परेशन": 6276,
      "arch_2004": 6277,
      "బడ్డీ": 6278,
      "ేరళ": 6279,
      "్రైస్త": 6280,
      "ండమాన్": 6281,
      "ెలవుదిన": 6282,
      "जेंस": 6283,
      "तुल्य": 6284,
      "langoff_128": 6285,
      "3TRtDwAAQBAJ&pg=PA": 6286,
      "chitecture": 6287,
      "GuaJIJ": 6288,
      "ZvaGuaJIJ": 6289,
      "ऍथनोल": 6290,
      "తెలంగాణ": 6291,
      "ెన్నై": 6292,
      "‌మహల్": 6293,
      "](https://hi.wikipedia.org/wiki/साँचा_वार्ता:": 6294,
      "्यूरो": 6295,
      "India_Goa": 6296,
      "\\_parame": 6297,
      "▁సౌకర్య": 6298,
      "తాజ్‌మహల్": 6299,
      "▁शुरू": 6300,
      "▁परंपरा": 6301,
      "_in_March_2004": 6302,
      "క్షరాస్యత": 6303,
      "ार्कटिका": 6304,
      "हारजिस्ट्रार": 6305,
      "నాగాలాండ్": 6306,
      "](https://te.wikipedia.org/wiki/జమ్మూ_కాశ్మీ": 6307,
      "ోల్‌కాతా": 6308,
      "Taj_Mahal_in_March_2004": 6309,
      "ZvaGuaJIJgo": 6310,
      "ऍथनोलॉग": 6311,
      "/files/": 6312,
      "7-0)": 6313,
      "Mumbai": 6314,
      "bc": 6315,
      "ser": 6316,
      "▁40": 6317,
      "report": 6318,
      "str": 6319,
      "rief": 6320,
      "ide": 6321,
      "▁Affairs": 6322,
      "▁[\"India": 6323,
      "epartment": 6324,
      "rust": 6325,
      "▁original](https://www.": 6326,
      "_population": 6327,
      "▁8.": 6328,
      "quality": 6329,
      "▁Reg": 6330,
      "▁2021.": 6331,
      "▁Minorities,": 6332,
      "-r": 6333,
      ".world": 6334,
      "3-0)": 6335,
      ":**": 6336,
      "Col": 6337,
      "QAAQBAJ&pg=PA": 6338,
      "S.": 6339,
      "_V": 6340,
      "_ad": 6341,
      "_Island": 6342,
      "ahar": 6343,
      "can": 6344,
      "gned": 6345,
      "nal": 6346,
      "ple": 6347,
      "pic": 6348,
      "yan": 6349,
      "णाली": 6350,
      "थी": 6351,
      "दश": 6352,
      "दि": 6353,
      "यं": 6354,
      "रि": 6355,
      "सर": 6356,
      "ुष": 6357,
      "ूना": 6358,
      "ौगोलिक": 6359,
      "▁ra": 6360,
      "▁under": 6361,
      "▁[ख": 6362,
      "▁[Kulke": 6363,
      "▁[दिल्ली": 6364,
      "▁[तेलुगु": 6365,
      "▁\"19": 6366,
      "▁\"तेलुगु": 6367,
      "▁\"दिल्ली\")": 6368,
      "्रिक": 6369,
      "2024": 6370,
      "reat": 6371,
      "arti": 6372,
      "arge": 6373,
      "▁समा": 6374,
      "▁समान": 6375,
      "thehindu": 6376,
      "lion": 6377,
      "-13": 6378,
      "atu": 6379,
      "atter": 6380,
      "▁जग": 6381,
      "▁ब्रिटिश": 6382,
      "▁बौद्ध": 6383,
      "▁such": 6384,
      "▁आधुनिक": 6385,
      "▁वी": 6386,
      "ussia": 6387,
      "▁Main": 6388,
      "▁million": 6389,
      "rown": 6390,
      "_Sh": 6391,
      "▁भौगोलिक": 6392,
      "_Affairs": 6393,
      "gical": 6394,
      "hina": 6395,
      "ains": 6396,
      "▁Ocean": 6397,
      "▁[Asher": 6398,
      "▁Kashmir": 6399,
      "2011religion": 6400,
      "_BRICS": 6401,
      "▁later": 6402,
      "%E0%A4%B0%E0%A4%": 6403,
      "html).": 6404,
      "ovember": 6405,
      "meric": 6406,
      "athak": 6407,
      "▁right": 6408,
      "-level": 6409,
      "-lord": 6410,
      "business/": 6411,
      "countries_by_GDP": 6412,
      "▁classical": 6413,
      "▁विभिन्न": 6414,
      "ehru": 6415,
      "Congress2004": 6416,
      "vatsyayan": 6417,
      "Census2011religion": 6418,
      "ZvaGuaJIJgoC&pg=PA": 6419,
      "countries_by_GDP_(": 6420,
      "vatsyayan-lord": 6421,
      ",4": 6422,
      "-n": 6423,
      ".ni": 6424,
      "Front": 6425,
      "KI": 6426,
      "_for": 6427,
      "bbc": 6428,
      "ogue": 6429,
      "anchi": 6430,
      "ties/": 6431,
      "the-": 6432,
      "\\_of": 6433,
      "▁CE": 6434,
      "umeration": 6435,
      "▁some": 6436,
      "unknown": 6437,
      "10)": 6438,
      "269,": 6439,
      "287,26": 6440,
      "-19-5": 6441,
      "▁(1,269,": 6442,
      "▁3,287,26": 6443,
      "cript": 6444,
      "Mumbai_": 6445,
      "▁(1,269,2": 6446,
      "-on-": 6447,
      "Pe": 6448,
      "Vu": 6449,
      "ZVu": 6450,
      "]](https://sa.wikipedia.org/wiki/भारतम्": 6451,
      "_17": 6452,
      "aul": 6453,
      "bhasha": 6454,
      "gan": 6455,
      "kZVu": 6456,
      "lu": 6457,
      "ner": 6458,
      "war": 6459,
      "yle": 6460,
      "ः\n": 6461,
      "ः?action=edit&redlink=1": 6462,
      "ः\")\n": 6463,
      "आङ्ग्लभाषा": 6464,
      "जना": 6465,
      "मं": 6466,
      "षु": 6467,
      "११": 6468,
      "▁out": 6469,
      "▁[चीन": 6470,
      "▁[तमिळ": 6471,
      "▁\"रा": 6472,
      "▁\"तमिळ": 6473,
      "anth": 6474,
      "▁कवि": 6475,
      "▁कृत": 6476,
      "than": 6477,
      "arly": 6478,
      "▁सप्त": 6479,
      "es_": 6480,
      "ess": 6481,
      "▁(a)": 6482,
      "▁(b)": 6483,
      "म्\"),": 6484,
      "stru": 6485,
      "](https://sa.wikipedia.org/wiki/इ": 6486,
      "](https://sa.wikipedia.org/wiki/ज": 6487,
      "▁प्रचल": 6488,
      "▁बि": 6489,
      "▁नद्य": 6490,
      "▁south": 6491,
      "▁since": 6492,
      "स्तीर्ण": 6493,
      "▁21.": 6494,
      "▁28.": 6495,
      "▁mathe": 6496,
      "▁R.": 6497,
      "▁Raj": 6498,
      "त्त्व": 6499,
      "न्तः": 6500,
      "▁च\")": 6501,
      "upta": 6502,
      "▁Bank": 6503,
      "oung": 6504,
      "ङ्गान": 6505,
      "▁[असम": 6506,
      "▁\"असम": 6507,
      "▁\"बिहार": 6508,
      "▁\"कु": 6509,
      "▁[बिहार": 6510,
      "▁अभव": 6511,
      "▁house": 6512,
      "म्](https://sa.wikipedia.org/wiki/म": 6513,
      "म्](https://sa.wikipedia.org/wiki/संस्कृत": 6514,
      "▁[![](https://upload.wikimedia.org/wikipedia/commons/thumb/7/": 6515,
      "owland": 6516,
      "ालयः": 6517,
      "▁राष्ट्रप": 6518,
      "▁मुद्रा": 6519,
      "57)": 6520,
      "ान्द्र": 6521,
      "▁\"Template": 6522,
      "▁\"आङ्ग्ल": 6523,
      "ञ्छ": 6524,
      "58)": 6525,
      "मी2": 6526,
      "▁2019.": 6527,
      "law": 6528,
      "indus": 6529,
      "▁स्थाने": 6530,
      "▁[चण्डीगढ": 6531,
      "▁दिनाङ्के": 6532,
      "▁\"चण्डीगढ": 6533,
      "▁medi": 6534,
      "_at_the": 6535,
      "lower": 6536,
      "](https://sa.wikipedia.org/wiki/भारतम्#cite_ref-": 6537,
      "limate": 6538,
      "ईरान": 6539,
      "▁Programme": 6540,
      "स्‍य": 6541,
      "▁used": 6542,
      "rowth": 6543,
      "ervation": 6544,
      "%E0%A5%8D%E0%A4%A": 6545,
      "▁2018](https://en.wikipedia.org/wiki/India#CITEREF": 6546,
      "▁\"मानव": 6547,
      "▁प्रत्येक": 6548,
      "](https://sa.wikipedia.org/wiki/चण्डीगढ": 6549,
      "तेलङ्गाणाराज्य": 6550,
      "▁[बाङ्गला](https://sa.wikipedia.org/wiki/बाङ्गलाभाषा": 6551,
      "Craven1997": 6552,
      "]](https://sa.wikipedia.org/wiki/भारतम्#cite_note-": 6553,
      "म्](https://sa.wikipedia.org/wiki/संस्कृतम्": 6554,
      "▁[चण्डीगढ](https://sa.wikipedia.org/wiki/चण्डीगढ": 6555,
      "▁\"चण्डीगढ\")": 6556,
      "240": 6557,
      "3/": 6558,
      "76": 6559,
      "Official": 6560,
      "_30": 6561,
      "ek": 6562,
      "hl": 6563,
      "ph": 6564,
      "▁web": 6565,
      "▁[National": 6566,
      "\")[[": 6567,
      "enni": 6568,
      "▁(c": 6569,
      "lect": 6570,
      "ict": 6571,
      "content": 6572,
      "▁Government": 6573,
      "238": 6574,
      "▁number": 6575,
      "aries": 6576,
      "union_territ": 6577,
      "onstitutional": 6578,
      "▁People": 6579,
      "olkata": 6580,
      "uthority": 6581,
      "-गंगा": 6582,
      "5.pdf)": 6583,
      "62": 6584,
      "Ali": 6585,
      "Dikshit": 6586,
      "European": 6587,
      "F)": 6588,
      "Home": 6589,
      "OLA": 6590,
      "Schwartzberg": 6591,
      "YS": 6592,
      "_15": 6593,
      "ao": 6594,
      "cul": 6595,
      "cted": 6596,
      "dones": 6597,
      "gence": 6598,
      "ns": 6599,
      "ose": 6600,
      "press": 6601,
      "s=": 6602,
      "ँकि": 6603,
      "इल": 6604,
      "ऊर्जा": 6605,
      "गरा": 6606,
      "जल": 6607,
      "जोल": 6608,
      "धा": 6609,
      "नत": 6610,
      "मल": 6611,
      "ल्त": 6612,
      "वर्": 6613,
      "शील": 6614,
      "सत": 6615,
      "सैन": 6616,
      "ुख": 6617,
      "ुस्तान": 6618,
      "ेत": 6619,
      "ैली": 6620,
      "ोत्तर": 6621,
      "्ञ": 6622,
      "१५": 6623,
      "▁[U": 6624,
      "▁[m": 6625,
      "▁[ए": 6626,
      "▁[ड": 6627,
      "▁[ह": 6628,
      "▁\"ड": 6629,
      "▁\"विशेष:EditPage/साँचा:": 6630,
      "tered": 6631,
      "temple": 6632,
      "inance": 6633,
      "ार्ड": 6634,
      "anat": 6635,
      "▁कम": 6636,
      "▁कर्ज": 6637,
      "](https://hi.wikipedia.org/wiki/ग": 6638,
      "](https://hi.wikipedia.org/wiki/मे": 6639,
      "](https://hi.wikipedia.org/wiki/मु": 6640,
      "](https://hi.wikipedia.org/wiki/संस्कृत": 6641,
      "](https://hi.wikipedia.org/wiki/दिल्ली": 6642,
      "](https://hi.wikipedia.org/wiki/विशेष:EditPage/साँचा:": 6643,
      "rele": 6644,
      "read": 6645,
      "भारत)\")": 6646,
      "arak": 6647,
      "arna": 6648,
      "▁सदन": 6649,
      "esearch": 6650,
      "▁मील": 6651,
      "▁(भारत)\")": 6652,
      "▁पै": 6653,
      "▁पहुँच": 6654,
      "न्म": 6655,
      "asp?": 6656,
      "geoh": 6657,
      "=1&": 6658,
      "▁ज्ञ": 6659,
      "▁industry": 6660,
      "ला,": 6661,
      "लावा": 6662,
      "▁बनी": 6663,
      "▁बड़ी": 6664,
      "ety": 6665,
      "▁निय": 6666,
      "▁नृत्य": 6667,
      "▁न्यायपालिका": 6668,
      "ingdom": 6669,
      "ंगला": 6670,
      "पुणे": 6671,
      "0000": 6672,
      "▁तीस": 6673,
      "▁आक": 6674,
      "ित्व": 6675,
      "रीक्षण": 6676,
      "_सूचना": 6677,
      "rain": 6678,
      "rative": 6679,
      "▁गए": 6680,
      "▁गान": 6681,
      "नेट": 6682,
      "▁विभाग": 6683,
      "▁विवाद": 6684,
      "▁विशाल": 6685,
      "▁many": 6686,
      "▁maint": 6687,
      "लेह": 6688,
      "लेबन": 6689,
      "▁संख्या": 6690,
      "▁इसी": 6691,
      "▁चार": 6692,
      "▁पर्यटन": 6693,
      "▁परमाणु": 6694,
      "▁B.;": 6695,
      "▁\"महा": 6696,
      "र्मीन": 6697,
      "गरत": 6698,
      "▁war": 6699,
      "_महासागर": 6700,
      "सां": 6701,
      "ियान": 6702,
      "जापान": 6703,
      "267": 6704,
      "](https://hi.wikipedia.org/wiki/भारत#cite_ref-langoff_128": 6705,
      "ण्डिया": 6706,
      "_के_देश": 6707,
      "वाहन": 6708,
      "archive.org/detail": 6709,
      "▁H.": 6710,
      "▁[\"P": 6711,
      "▁भाषाएँ": 6712,
      "ी](https://hi.wikipedia.org/wiki/प": 6713,
      "▁[भारत](https://hi.wikipedia.org/wiki/भारत": 6714,
      "-34": 6715,
      "_Parliament": 6716,
      "▁\"ब्रिटिश": 6717,
      "ake": 6718,
      "्राम": 6719,
      "द्यान": 6720,
      "ast_Asia": 6721,
      "harm": 6722,
      "▁२८": 6723,
      "▁२०१": 6724,
      "थिति": 6725,
      "▁जनता": 6726,
      "utra": 6727,
      "मिन्": 6728,
      "िसपुर": 6729,
      "दावरी": 6730,
      "▁जाते": 6731,
      "ोरिया": 6732,
      "-19-9": 6733,
      "▁समूह": 6734,
      "वरत्त": 6735,
      "▁long": 6736,
      "▁large": 6737,
      "newsite": 6738,
      "▁घोष": 6739,
      "▁स्वतन्त्र": 6740,
      "anka": 6741,
      "ंबर": 6742,
      "▁control": 6743,
      "ase.aspx?": 6744,
      "गोवा": 6745,
      "गोदावरी": 6746,
      "MetcalfMetcalf201": 6747,
      "▁किन्तु": 6748,
      "_Force": 6749,
      "नागपुर": 6750,
      "](https://hi.wikipedia.org/wiki/उत्तर": 6751,
      "_का_खाना": 6752,
      "्यटन\")": 6753,
      "▁./श्रेणी:CS1\\_": 6754,
      "▁[↑](https://hi.wikipedia.org/wiki/भारत#cite_ref-10": 6755,
      "]](https://hi.wikipedia.org/wiki/भारत#cite_note-10": 6756,
      "▁डॉल": 6757,
      "▁अपनी": 6758,
      "▁उत्तर-प": 6759,
      "▁[t](https://hi.wikipedia.org/wiki/साँचा_वार्ता:": 6760,
      "▁people": 6761,
      "क्रमण": 6762,
      "hattis": 6763,
      "countries_and_depend": 6764,
      "▁एशिया\")": 6765,
      "▁वर्तमान": 6766,
      "माजिक": 6767,
      "▁प्रतिशत": 6768,
      "▁[e](https://hi.wikipedia.org/wiki/विशेष:EditPage/साँचा:": 6769,
      "_उत्पाद": 6770,
      "_उद्यान": 6771,
      "ईसाई": 6772,
      "▁[v](https://hi.wikipedia.org/wiki/साँचा:": 6773,
      "▁जिसके": 6774,
      "टानगर": 6775,
      "▁ऊँच": 6776,
      "▁ऊर्जा": 6777,
      "▁हुआ।": 6778,
      "▁territory": 6779,
      "▁[2](https://en.wikipedia.org/wiki/India#cite_ref-FOOTNOTE": 6780,
      "▁[1](https://en.wikipedia.org/wiki/India#cite_ref-FOOTNOTE": 6781,
      "ताजिकि": 6782,
      "ोपीय": 6783,
      "स्थल": 6784,
      "_एवं": 6785,
      "encies_by": 6786,
      "चेन्नई": 6787,
      "onsoon": 6788,
      "प्रधानमंत्री": 6789,
      "▁वायु": 6790,
      "rishn": 6791,
      "▁2004](https://hi.wikipedia.org/wiki/भारत#CITEREF": 6792,
      "▁उद्यान": 6793,
      "▁उद्यान\")": 6794,
      "▁शक्तिपीठ": 6795,
      "pecial:BookSources/978-81": 6796,
      "▁rule": 6797,
      "म्प्रदा": 6798,
      "▁रहे": 6799,
      "▁राजवंश\")": 6800,
      "▁व्यापार": 6801,
      "१८५७": 6802,
      "▁विदेशी": 6803,
      "_और_संघ_क्षेत्र": 6804,
      "▁सहयोग": 6805,
      "▁सितंबर": 6806,
      "▁जबकि": 6807,
      "तिरुवनन्त": 6808,
      "_के_अनुसार_देशों_की_सूची": 6809,
      "▁dependencies": 6810,
      "▁हालाँकि": 6811,
      "▁(eds.).": 6812,
      "बेकि": 6813,
      "](https://en.wikipedia.org/wiki/Economy_of_": 6814,
      "-language\\_sources\\_(en": 6815,
      "▁among": 6816,
      "▁गठबंधन": 6817,
      "pib.nic.in/newsite": 6818,
      "DikshitSchwartzberg": 6819,
      "donesia": 6820,
      "ल्तनत": 6821,
      "सैनिक": 6822,
      "release.aspx?": 6823,
      "geohack": 6824,
      "archive.org/details/": 6825,
      "▁डॉलर": 6826,
      "countries_and_dependencies_by": 6827,
      "DikshitSchwartzberg2023": 6828,
      "release.aspx?reli": 6829,
      "115": 6830,
      "1-4": 6831,
      "br": 6832,
      "c/": 6833,
      "cor": 6834,
      "hdr": 6835,
      "rect": 6836,
      "\\_contain": 6837,
      "lingu": 6838,
      "as,": 6839,
      "▁Centre": 6840,
      "▁India\").": 6841,
      "adwe": 6842,
      "urn": 6843,
      "-29": 6844,
      "▁1971": 6845,
      "▁D.": 6846,
      "Harv\\_and\\_Sfn\\_no-target\\_errors\n": 6847,
      "2221": 6848,
      "▁[![](https://upload.wikimedia.org/wikipedia/commons/thumb/a/a": 6849,
      "53)": 6850,
      "IAF": 6851,
      "d/d": 6852,
      "text": 6853,
      "akshadwe": 6854,
      "▁estimate": 6855,
      "\\_of\\_": 6856,
      "akshadweep": 6857,
      "/S": 6858,
      "Allchin": 6859,
      "EX": 6860,
      "Language": 6861,
      "Petraglia": 6862,
      "Sanskrit": 6863,
      "ather": 6864,
      "cog": 6865,
      "lm": 6866,
      "way": 6867,
      "work": 6868,
      "तान्त": 6869,
      "प्": 6870,
      "भु": 6871,
      "ोसी": 6872,
      "२,": 6873,
      "▁`": 6874,
      "▁history": 6875,
      "▁term": 6876,
      "ortheast": 6877,
      "pee": 6878,
      "▁[लोक": 6879,
      "▁[Oxford": 6880,
      "▁\"ख": 6881,
      "▁\"India": 6882,
      "▁\"धर्म": 6883,
      "▁\"हैदराबाद": 6884,
      "\")\"": 6885,
      "tes": 6886,
      "telli": 6887,
      "hief": 6888,
      "oni": 6889,
      "▁क्रि": 6890,
      "tig": 6891,
      "▁पर्व": 6892,
      "िके": 6893,
      "▁अस्": 6894,
      "▁they": 6895,
      "▁हे": 6896,
      "\\_or": 6897,
      "-15": 6898,
      "▁जै": 6899,
      "▁11": 6900,
      "▁12.": 6901,
      "▁inf": 6902,
      "▁inclu": 6903,
      "▁Afric": 6904,
      "▁Science": 6905,
      "hed": 6906,
      "▁Michael": 6907,
      "▁विध": 6908,
      "▁विधान": 6909,
      "्यां": 6910,
      "india.com/": 6911,
      "▁उल्": 6912,
      "▁परि": 6913,
      "ilk": 6914,
      "_Summit": 6915,
      "vert": 6916,
      "icon": 6917,
      "त्मा": 6918,
      "▁economic": 6919,
      "द्वितीय": 6920,
      "▁१०": 6921,
      "▁१३": 6922,
      "▁१८": 6923,
      "ubcontinent": 6924,
      "▁२००": 6925,
      "]](https://en.wikipedia.org/wiki/India#cite_note-FOOTNOTEMetcalfMetcalf2006": 6926,
      "ुसूच": 6927,
      "FOOTNOTEStein2010": 6928,
      "key": 6929,
      "िवार": 6930,
      "ummer": 6931,
      "▁नागर": 6932,
      "▁Valley": 6933,
      "times.indiatimes.com/": 6934,
      "arket": 6935,
      "▁मानचित्र": 6936,
      "▁भूमि": 6937,
      "▁सर्वोच्च": 6938,
      "▁न्यायाधीश": 6939,
      "f/f": 6940,
      "ynast": 6941,
      "akhand": 6942,
      "▁Islands": 6943,
      "▁\"संयुक्त": 6944,
      "]](https://en.wikipedia.org/wiki/India#cite_note-FOOTNOTEStein2010": 6945,
      "chedu": 6946,
      "भरत": 6947,
      "pring": 6948,
      "▁\"गुजरात\")": 6949,
      "▁पत्रिका": 6950,
      "-of-india-": 6951,
      "कृष्ण": 6952,
      "urchasing": 6953,
      "_in_South_Asia": 6954,
      "kZVuDwAAQBAJ&pg=PA": 6955,
      "ast_Asia_Summit": 6956,
      "PetragliaAllchin": 6957,
      "तान्त्रिक": 6958,
      "%E0%B0%": 6959,
      ".co": 6960,
      ".JPG": 6961,
      "112": 6962,
      "5–సా.శ.": 6963,
      "61": 6964,
      "Gum": 6965,
      "HQ": 6966,
      "LD": 6967,
      "Ministry_of_": 6968,
      "Sanchi": 6969,
      "TC": 6970,
      "Yum": 6971,
      "_అ": 6972,
      "_ఎ": 6973,
      "_ర": 6974,
      "_యు": 6975,
      "_రాజ": 6976,
      "_శాస్త్ర": 6977,
[...]
