{
  "version": "1.0",
  "truncation": null,
  "padding": null,
  "added_tokens": [
    {
      "id": 0,
      "content": "[UNK]",
      "single_word": false,
      "lstrip": false,
      "rstrip": false,
      "normalized": false,
      "special": true
    }
  ],
  "normalizer": {
    "type": "Sequence",
    "normalizers": [
      {
        "type": "NFKC"
      },
      {
        "type": "Replace",
        "pattern": {
          "Regex": "[^\\p{L}\\p{M}\\p{N}]+"
        },
        "content": " "
      }
    ]
  },
  "pre_tokenizer": {
    "type": "Whitespace"
  },
  "post_processor": null,
  "decoder": null,
  "model": {
    "type": "BPE",
    "dropout": null,
    "unk_token": "[UNK]",
    "continuing_subword_prefix": null,
    "end_of_word_suffix": null,
    "fuse_unk": false,
    "byte_fallback": false,
    "ignore_merges": false,
    "vocab": {
      "[UNK]": 0,
      "0": 1,
      "1": 2,
      "2": 3,
      "3": 4,
      "4": 5,
      "5": 6,
      "6": 7,
      "7": 8,
      "8": 9,
      "9": 10,
      "A": 11,
      "B": 12,
      "C": 13,
      "D": 14,
      "E": 15,
      "F": 16,
      "G": 17,
      "H": 18,
      "I": 19,
      "J": 20,
      "K": 21,
      "L": 22,
      "M": 23,
      "N": 24,
      "O": 25,
      "P": 26,
      "Q": 27,
      "R": 28,
      "S": 29,
      "T": 30,
      "U": 31,
      "V": 32,
      "W": 33,
      "X": 34,
      "Y": 35,
      "Z": 36,
      "a": 37,
      "b": 38,
      "c": 39,
      "d": 40,
      "e": 41,
      "f": 42,
      "g": 43,
      "h": 44,
      "i": 45,
      "j": 46,
      "k": 47,
      "l": 48,
      "m": 49,
      "n": 50,
      "o": 51,
      "p": 52,
      "q": 53,
      "r": 54,
      "s": 55,
      "t": 56,
      "u": 57,
      "v": 58,
      "w": 59,
      "x": 60,
      "y": 61,
      "z": 62,
      "Ö": 63,
      "á": 64,
      "â": 65,
      "æ": 66,
      "ç": 67,
      "è": 68,
      "é": 69,
      "í": 70,
      "ñ": 71,
      "ö": 72,
      "ü": 73,
      "ā": 74,
      "ī": 75,
      "İ": 76,
      "Ś": 77,
      "ś": 78,
      "ū": 79,
      "ș": 80,
      "ə": 81,
      "ɦ": 82,
      "ɪ": 83,
      "ɾ": 84,
      "ʊ": 85,
      "ʼ": 86,
      "ˈ": 87,
      "ː": 88,
      "ί": 89,
      "α": 90,
      "δ": 91,
      "θ": 92,
      "ν": 93,
      "π": 94,
      "ς": 95,
      "ό": 96,
      "ँ": 97,
      "ं": 98,
      "ः": 99,
      "अ": 100,
      "आ": 101,
      "इ": 102,
      "ई": 103,
      "उ": 104,
      "ऊ": 105,
      "ऋ": 106,
      "ऍ": 107,
      "ए": 108,
      "ऐ": 109,
      "ऑ": 110,
      "ओ": 111,
      "औ": 112,
      "क": 113,
      "ख": 114,
      "ग": 115,
      "घ": 116,
      "ङ": 117,
      "च": 118,
      "छ": 119,
      "ज": 120,
      "झ": 121,
      "ञ": 122,
      "ट": 123,
      "ठ": 124,
      "ड": 125,
      "ढ": 126,
      "ण": 127,
      "त": 128,
      "थ": 129,
      "द": 130,
      "ध": 131,
      "न": 132,
      "ऩ": 133,
      "प": 134,
      "फ": 135,
      "ब": 136,
      "भ": 137,
      "म": 138,
      "य": 139,
      "र": 140,
      "ल": 141,
      "ळ": 142,
      "व": 143,
      "श": 144,
      "ष": 145,
      "स": 146,
      "ह": 147,
      "ऻ": 148,
      "़": 149,
      "ऽ": 150,
      "ा": 151,
      "ि": 152,
      "ी": 153,
      "ु": 154,
      "ू": 155,
      "ृ": 156,
      "े": 157,
      "ै": 158,
      "ॉ": 159,
      "ॊ": 160,
      "ो": 161,
      "ौ": 162,
      "्": 163,
      "॔": 164,
      "०": 165,
      "१": 166,
      "२": 167,
      "३": 168,
      "४": 169,
      "५": 170,
      "६": 171,
      "७": 172,
      "८": 173,
      "९": 174,
      "ం": 175,
      "ః": 176,
      "అ": 177,
      "ఆ": 178,
      "ఇ": 179,
      "ఈ": 180,
      "ఉ": 181,
      "ఋ": 182,
      "ఎ": 183,
      "ఏ": 184,
      "ఐ": 185,
      "ఒ": 186,
      "ఓ": 187,
      "ఔ": 188,
      "క": 189,
      "ఖ": 190,
      "గ": 191,
      "ఘ": 192,
      "చ": 193,
      "ఛ": 194,
      "జ": 195,
      "ఞ": 196,
      "ట": 197,
      "ఠ": 198,
      "డ": 199,
      "ఢ": 200,
      "ణ": 201,
      "త": 202,
      "థ": 203,
      "ద": 204,
      "ధ": 205,
      "న": 206,
      "ప": 207,
      "ఫ": 208,
      "బ": 209,
      "భ": 210,
      "మ": 211,
      "య": 212,
      "ర": 213,
      "ల": 214,
      "ళ": 215,
      "వ": 216,
      "శ": 217,
      "ష": 218,
      "స": 219,
      "హ": 220,
      "ా": 221,
      "ి": 222,
      "ీ": 223,
      "ు": 224,
      "ూ": 225,
      "ృ": 226,
      "ె": 227,
      "ే": 228,
      "ై": 229,
      "ొ": 230,
      "ో": 231,
      "ౌ": 232,
      "్": 233,
      "ṅ": 234,
      "ṇ": 235,
      "Ṛ": 236,
      "ṣ": 237,
      "ṭ": 238,
      "Ἰ": 239,
      "wi": 240,
      "ki": 241,
      "wiki": 242,
      "ia": 243,
      "dia": 244,
      "or": 245,
      "tt": 246,
      "htt": 247,
      "http": 248,
      "pe": 249,
      "https": 250,
      "org": 251,
      "pedia": 252,
      "wikipedia": 253,
      "en": 254,
      "te": 255,
      "in": 256,
      "an": 257,
      "on": 258,
      "In": 259,
      "th": 260,
      "ti": 261,
      "hi": 262,
      "India": 263,
      "er": 264,
      "ar": 265,
      "20": 266,
      "al": 267,
      "es": 268,
      "ार": 269,
      "re": 270,
      "of": 271,
      "्र": 272,
      "is": 273,
      "the": 274,
      "ci": 275,
      "भार": 276,
      "भारत": 277,
      "tion": 278,
      "and": 279,
      "om": 280,
      "ed": 281,
      "cite": 282,
      "it": 283,
      "ou": 284,
      "as": 285,
      "201": 286,
      "ic": 287,
      "्य": 288,
      "le": 289,
      "के": 290,
      "OT": 291,
      "19": 292,
      "oo": 293,
      "no": 294,
      "్ర": 295,
      "id": 296,
      "ate": 297,
      "रा": 298,
      "tr": 299,
      "200": 300,
      "ent": 301,
      "am": 302,
      "मे": 303,
      "ation": 304,
      "ార": 305,
      "ing": 306,
      "ान": 307,
      "ad": 308,
      "ge": 309,
      "at": 310,
      "र्": 311,
      "us": 312,
      "ac": 313,
      "स्": 314,
      "ref": 315,
      "का": 316,
      "note": 317,
      "ook": 318,
      "ur": 319,
      "में": 320,
      "78": 321,
      "ve": 322,
      "क्": 323,
      "li": 324,
      "10": 325,
      "com": 326,
      "lo": 327,
      "या": 328,
      "ch": 329,
      "ang": 330,
      "to": 331,
      "um": 332,
      "ాల": 333,
      "st": 334,
      "fi": 335,
      "ver": 336,
      "की": 337,
      "IS": 338,
      "we": 339,
      "ीय": 340,
      "ul": 341,
      "FO": 342,
      "et": 343,
      "Sou": 344,
      "NOT": 345,
      "OTNOT": 346,
      "FOOTNOT": 347,
      "FOOTNOTE": 348,
      "प्र": 349,
      "్య": 350,
      "978": 351,
      "il": 352,
      "BN": 353,
      "he": 354,
      "ISBN": 355,
      "ww": 356,
      "ial": 357,
      "वि": 358,
      "ter": 359,
      "ce": 360,
      "భార": 361,
      "As": 362,
      "భారత": 363,
      "न्": 364,
      "దే": 365,
      "ों": 366,
      "un": 367,
      "ory": 368,
      "ol": 369,
      "ति": 370,
      "దేశ": 371,
      "స్": 372,
      "pg": 373,
      "enti": 374,
      "से": 375,
      "ist": 376,
      "ons": 377,
      "ना": 378,
      "त्र": 379,
      "for": 380,
      "rc": 381,
      "क्ष": 382,
      "है": 383,
      "ri": 384,
      "identi": 385,
      "fier": 386,
      "identifier": 387,
      "सं": 388,
      "lin": 389,
      "12": 390,
      "సా": 391,
      "ro": 392,
      "tic": 393,
      "ma": 394,
      "ra": 395,
      "Indian": 396,
      "ర్": 397,
      "web": 398,
      "िया": 399,
      "राज": 400,
      "ला": 401,
      "red": 402,
      "book": 403,
      "న్": 404,
      "ेश": 405,
      "ment": 406,
      "00": 407,
      "res": 408,
      "con": 409,
      "ind": 410,
      "सा": 411,
      "ता": 412,
      "The": 413,
      "202": 414,
      "भा": 415,
      "cial": 416,
      "ni": 417,
      "books": 418,
      "और": 419,
      "em": 420,
      "age": 421,
      "ig": 422,
      "11": 423,
      "link": 424,
      "ag": 425,
      "IT": 426,
      "edit": 427,
      "action": 428,
      "ity": 429,
      "angu": 430,
      "पु": 431,
      "ER": 432,
      "Re": 433,
      "Spe": 434,
      "ंग": 435,
      "CIT": 436,
      "EF": 437,
      "CITER": 438,
      "redlink": 439,
      "CITEREF": 440,
      "ir": 441,
      "jpg": 442,
      "ay": 443,
      "ly": 444,
      "లు": 445,
      "पर": 446,
      "50": 447,
      "ाल": 448,
      "13": 449,
      "రా": 450,
      "ప్ర": 451,
      "भारतीय": 452,
      "िक": 453,
      "me": 454,
      "्रे": 455,
      "india": 456,
      "Special": 457,
      "199": 458,
      "ion": 459,
      "fr": 460,
      "rces": 461,
      "pl": 462,
      "देश": 463,
      "14": 464,
      "భారతదేశ": 465,
      "cal": 466,
      "tri": 467,
      "ld": 468,
      "18": 469,
      "Asia": 470,
      "26": 471,
      "chi": 472,
      "Book": 473,
      "de": 474,
      "లో": 475,
      "17": 476,
      "Uni": 477,
      "16": 478,
      "go": 479,
      "ved": 480,
      "15": 481,
      "ने": 482,
      "ha": 483,
      "त्": 484,
      "up": 485,
      "Sources": 486,
      "को": 487,
      "BookSources": 488,
      "ber": 489,
      "langu": 490,
      "oun": 491,
      "राज्य": 492,
      "न्द": 493,
      "se": 494,
      "षा": 495,
      "by": 496,
      "www": 497,
      "her": 498,
      "ab": 499,
      "हि": 500,
      "త్ర": 501,
      "स्त": 502,
      "ष्": 503,
      "tu": 504,
      "ాలు": 505,
      "ateg": 506,
      "मा": 507,
      "30": 508,
      "రి": 509,
      "सि": 510,
      "క్": 511,
      "err": 512,
      "archi": 513,
      "28": 514,
      "ategory": 515,
      "South": 516,
      "ress": 517,
      "Category": 518,
      "po": 519,
      "ంద": 520,
      "ew": 521,
      "De": 522,
      "calf": 523,
      "ని": 524,
      "्व": 525,
      "etcalf": 526,
      "भाषा": 527,
      "ary": 528,
      "Metcalf": 529,
      "ational": 530,
      "Ch": 531,
      "ub": 532,
      "be": 533,
      "24": 534,
      "archive": 535,
      "from": 536,
      "ts": 537,
      "सू": 538,
      "हा": 539,
      "vers": 540,
      "25": 541,
      "ల్": 542,
      "2011": 543,
      "భారతదేశం": 544,
      "वा": 545,
      "ak": 546,
      "40": 547,
      "im": 548,
      "tem": 549,
      "था": 550,
      "23": 551,
      "णी": 552,
      "ची": 553,
      "Har": 554,
      "ంగ": 555,
      "di": 556,
      "जा": 557,
      "rit": 558,
      "पा": 559,
      "ted": 560,
      "error": 561,
      "ड़": 562,
      "ट्र": 563,
      "language": 564,
      "orld": 565,
      "री": 566,
      "सम": 567,
      "ast": 568,
      "gh": 569,
      "Hind": 570,
      "goo": 571,
      "har": 572,
      "दि": 573,
      "pp": 574,
      "List": 575,
      "fn": 576,
      "gle": 577,
      "ther": 578,
      "ex": 579,
      "ain": 580,
      "AA": 581,
      "versity": 582,
      "per": 583,
      "est": 584,
      "29": 585,
      "श्रे": 586,
      "ष्ट्र": 587,
      "श्रेणी": 588,
      "ీయ": 589,
      "plate": 590,
      "ct": 591,
      "google": 592,
      "ము": 593,
      "with": 594,
      "conom": 595,
      "ండ": 596,
      "कि": 597,
      "क्षे": 598,
      "ले": 599,
      "Com": 600,
      "comm": 601,
      "क्षेत्र": 602,
      "विश": 603,
      "नि": 604,
      "సి": 605,
      "्या": 606,
      "umb": 607,
      "ud": 608,
      "कर": 609,
      "por": 610,
      "ित": 611,
      "27": 612,
      "do": 613,
      "try": 614,
      "ens": 615,
      "జ్య": 616,
      "Press": 617,
      "ng": 618,
      "ज़": 619,
      "తా": 620,
      "जन": 621,
      "నా": 622,
      "వి": 623,
      "2018": 624,
      "inal": 625,
      "बा": 626,
      "తి": 627,
      "్ట": 628,
      "gov": 629,
      "uc": 630,
      "कार": 631,
      "ली": 632,
      "University": 633,
      "br": 634,
      "px": 635,
      "ish": 636,
      "der": 637,
      "av": 638,
      "bo": 639,
      "मि": 640,
      "ap": 641,
      "el": 642,
      "par": 643,
      "2006": 644,
      "media": 645,
      "हिन्द": 646,
      "Harv": 647,
      "21": 648,
      "errors": 649,
      "త్": 650,
      "Ste": 651,
      "ती": 652,
      "मु": 653,
      "Ro": 654,
      "op": 655,
      "22": 656,
      "sh": 657,
      "our": 658,
      "PA": 659,
      "ff": 660,
      "Se": 661,
      "Sfn": 662,
      "umm": 663,
      "2010": 664,
      "ong": 665,
      "2014": 666,
      "coun": 667,
      "ys": 668,
      "लि": 669,
      "కు": 670,
      "राष्ट्र": 671,
      "मी": 672,
      "ates": 673,
      "र्व": 674,
      "load": 675,
      "nd": 676,
      "43": 677,
      "wikimedia": 678,
      "les": 679,
      "upload": 680,
      "orig": 681,
      "ence": 682,
      "मान": 683,
      "ance": 684,
      "యా": 685,
      "mo": 686,
      "commons": 687,
      "ंड": 688,
      "thumb": 689,
      "Stein": 690,
      "चि": 691,
      "cl": 692,
      "co": 693,
      "मन": 694,
      "ans": 695,
      "47": 696,
      "33": 697,
      "दी": 698,
      "शा": 699,
      "ను": 700,
      "2007": 701,
      "tern": 702,
      "उत्": 703,
      "original": 704,
      "pr": 705,
      "land": 706,
      "all": 707,
      "वर्": 708,
      "get": 709,
      "ear": 710,
      "lig": 711,
      "pi": 712,
      "प्रदेश": 713,
      "ages": 714,
      "90": 715,
      "తం": 716,
      "log": 717,
      "सी": 718,
      "ంది": 719,
      "ार्": 720,
      "aj": 721,
      "Arc": 722,
      "చి": 723,
      "हैं": 724,
      "सूची": 725,
      "ass": 726,
      "ine": 727,
      "eved": 728,
      "यु": 729,
      "हु": 730,
      "196": 731,
      "St": 732,
      "ut": 733,
      "तर": 734,
      "ian": 735,
      "ana": 736,
      "Archi": 737,
      "ho": 738,
      "over": 739,
      "జ్యం": 740,
      "are": 741,
      "गर": 742,
      "म्": 743,
      "Retri": 744,
      "Retrieved": 745,
      "eral": 746,
      "ल्": 747,
      "Hist": 748,
      "ll": 749,
      "జా": 750,
      "పూ": 751,
      "వా": 752,
      "ిక": 753,
      "్రా": 754,
      "अन": 755,
      "भि": 756,
      "थि": 757,
      "मू": 758,
      "36": 759,
      "Econom": 760,
      "ata": 761,
      "ke": 762,
      "नी": 763,
      "पू": 764,
      "und": 765,
      "2009": 766,
      "ensus": 767,
      "ummit": 768,
      "ical": 769,
      "ations": 770,
      "pro": 771,
      "45": 772,
      "80": 773,
      "tal": 774,
      "మా": 775,
      "70": 776,
      "Ar": 777,
      "ies": 778,
      "nic": 779,
      "ंग्रे": 780,
      "tar": 781,
      "National": 782,
      "35": 783,
      "आध": 784,
      "ai": 785,
      "wer": 786,
      "46": 787,
      "titu": 788,
      "inis": 789,
      "ism": 790,
      "భా": 791,
      "ులు": 792,
      "gen": 793,
      "ht": 794,
      "was": 795,
      "History": 796,
      "nment": 797,
      "ture": 798,
      "mar": 799,
      "ore": 800,
      "Archived": 801,
      "Pa": 802,
      "ank": 803,
      "ద్": 804,
      "स्थ": 805,
      "द्": 806,
      "ati": 807,
      "ेष": 808,
      "has": 809,
      "ते": 810,
      "ulation": 811,
      "ile": 812,
      "धान": 813,
      "template": 814,
      "cy": 815,
      "Em": 816,
      "भी": 817,
      "Is": 818,
      "ंध": 819,
      "श्": 820,
      "मेला": 821,
      "ubl": 822,
      "CS": 823,
      "ue": 824,
      "Asher": 825,
      "2C": 826,
      "ani": 827,
      "artic": 828,
      "्रा": 829,
      "स्तान": 830,
      "पुरा": 831,
      "ess": 832,
      "अभि": 833,
      "target": 834,
      "Tem": 835,
      "ard": 836,
      "ust": 837,
      "iss": 838,
      "En": 839,
      "जि": 840,
      "द्व": 841,
      "tries": 842,
      "ction": 843,
      "Ma": 844,
      "World": 845,
      "సం": 846,
      "कृ": 847,
      "सर": 848,
      "esh": 849,
      "विशेष": 850,
      "ers": 851,
      "Cons": 852,
      "కా": 853,
      "రు": 854,
      "ाना": 855,
      "భారతీయ": 856,
      "ాం": 857,
      "so": 858,
      "49": 859,
      "77": 860,
      "BA": 861,
      "िण": 862,
      "र्म": 863,
      "tics": 864,
      "38": 865,
      "New": 866,
      "rad": 867,
      "लेख": 868,
      "man": 869,
      "cont": 870,
      "हिन्दी": 871,
      "Mo": 872,
      "QBA": 873,
      "world": 874,
      "QBAJ": 875,
      "ingh": 876,
      "ty": 877,
      "mai": 878,
      "og": 879,
      "ష్ట": 880,
      "ార్": 881,
      "క్ష": 882,
      "2016": 883,
      "अंग्रे": 884,
      "48": 885,
      "ंत्र": 886,
      "टि": 887,
      "दक्ष": 888,
      "ोग": 889,
      "కి": 890,
      "పా": 891,
      "udd": 892,
      "os": 893,
      "pd": 894,
      "ash": 895,
      "ford": 896,
      "Hindu": 897,
      "whi": 898,
      "गु": 899,
      "చరి": 900,
      "పు": 901,
      "2019": 902,
      "స్థ": 903,
      "दक्षिण": 904,
      "చరిత్ర": 905,
      "new": 906,
      "au": 907,
      "एक": 908,
      "जी": 909,
      "డి": 910,
      "port": 911,
      "vi": 912,
      "टी": 913,
      "AAQBAJ": 914,
      "fe": 915,
      "mil": 916,
      "సామ": 917,
      "39": 918,
      "2004": 919,
      "xford": 920,
      "htm": 921,
      "pdf": 922,
      "యి": 923,
      "వం": 924,
      "న్న": 925,
      "ties": 926,
      "गण": 927,
      "dis": 928,
      "eng": 929,
      "तथा": 930,
      "tral": 931,
      "MetcalfMetcalf": 932,
      "मूल": 933,
      "ach": 934,
      "bot": 935,
      "హి": 936,
      "्रो": 937,
      "stan": 938,
      "Pro": 939,
      "ik": 940,
      "दे": 941,
      "महा": 942,
      "2008": 943,
      "Oxford": 944,
      "ven": 945,
      "हो": 946,
      "countries": 947,
      "RI": 948,
      "धर्म": 949,
      "Par": 950,
      "gr": 951,
      "गमन": 952,
      "tim": 953,
      "off": 954,
      "Comm": 955,
      "Mar": 956,
      "रू": 957,
      "तिथि": 958,
      "द्य": 959,
      "पी": 960,
      "ది": 961,
      "పాల": 962,
      "Chin": 963,
      "राष्ट्रीय": 964,
      "वं": 965,
      "ोल": 966,
      "PD": 967,
      "Tal": 968,
      "ँच": 969,
      "ंद": 970,
      "रे": 971,
      "1998": 972,
      "which": 973,
      "अनु": 974,
      "Ed": 975,
      "An": 976,
      "ord": 977,
      "his": 978,
      "ph": 979,
      "Ind": 980,
      "ame": 981,
      "ढ़": 982,
      "ష్ట్ర": 983,
      "సామ్రా": 984,
      "lop": 985,
      "Asian": 986,
      "its": 987,
      "पुर": 988,
      "पूर्व": 989,
      "icial": 990,
      "form": 991,
      "na": 992,
      "राज्यों": 993,
      "अभिगमन": 994,
      "2012": 995,
      "53": 996,
      "ions": 997,
      "्री": 998,
      "आधार": 999,
      "BRI": 1000,
      "Talbot": 1001,
      "स्रो": 1002,
      "టి": 1003,
      "నే": 1004,
      "स्रोत": 1005,
      "56": 1006,
      "ated": 1007,
      "Cam": 1008,
      "out": 1009,
      "Singh": 1010,
      "ru": 1011,
      "మి": 1012,
      "వర్": 1013,
      "reg": 1014,
      "ult": 1015,
      "PDF": 1016,
      "द्ध": 1017,
      "74": 1018,
      "Gu": 1019,
      "led": 1020,
      "sub": 1021,
      "summit": 1022,
      "मह": 1023,
      "ంచ": 1024,
      "languages": 1025,
      "cent": 1026,
      "ous": 1027,
      "war": 1028,
      "that": 1029,
      "कु": 1030,
      "खाना": 1031,
      "ज्": 1032,
      "ange": 1033,
      "पुस्त": 1034,
      "titution": 1035,
      "ublic": 1036,
      "पुस्तक": 1037,
      "territ": 1038,
      "सार": 1039,
      "सरकार": 1040,
      "East": 1041,
      "ta": 1042,
      "बर": 1043,
      "ree": 1044,
      "ज़ी": 1045,
      "భాష": 1046,
      "2003": 1047,
      "हर": 1048,
      "120": 1049,
      "pop": 1050,
      "pire": 1051,
      "Eur": 1052,
      "ele": 1053,
      "संघ": 1054,
      "ाली": 1055,
      "United": 1056,
      "BRICS": 1057,
      "Bri": 1058,
      "Co": 1059,
      "ya": 1060,
      "विश्व": 1061,
      "बाद": 1062,
      "Li": 1063,
      "ple": 1064,
      "end": 1065,
      "aste": 1066,
      "wn": 1067,
      "గం": 1068,
      "లీ": 1069,
      "logy": 1070,
      "250": 1071,
      "ome": 1072,
      "2023": 1073,
      "Pl": 1074,
      "si": 1075,
      "संस्": 1076,
      "ign": 1077,
      "Island": 1078,
      "sv": 1079,
      "idge": 1080,
      "ब्र": 1081,
      "స్తా": 1082,
      "రాష్ట్ర": 1083,
      "Del": 1084,
      "Po": 1085,
      "cons": 1086,
      "vis": 1087,
      "Paki": 1088,
      "85": 1089,
      "File": 1090,
      "cre": 1091,
      "इस": 1092,
      "वी": 1093,
      "tical": 1094,
      "पुरालेख": 1095,
      "Template": 1096,
      "प्": 1097,
      "FOOTNOTEStein": 1098,
      "मिल": 1099,
      "Ne": 1100,
      "Sh": 1101,
      "hist": 1102,
      "एश": 1103,
      "तक": 1104,
      "మూ": 1105,
      "र्थ": 1106,
      "81": 1107,
      "la": 1108,
      "od": 1109,
      "लो": 1110,
      "ali": 1111,
      "2005": 1112,
      "2021": 1113,
      "GD": 1114,
      "MetcalfMetcalf2006": 1115,
      "pur": 1116,
      "ध्य": 1117,
      "lim": 1118,
      "Hindi": 1119,
      "Empire": 1120,
      "अंग्रेज़ी": 1121,
      "సామ్రాజ్యం": 1122,
      "पुरालेखित": 1123,
      "pend": 1124,
      "Bi": 1125,
      "मो": 1126,
      "tish": 1127,
      "प्रा": 1128,
      "British": 1129,
      "For": 1130,
      "dom": 1131,
      "iki": 1132,
      "यों": 1133,
      "జి": 1134,
      "ాన": 1135,
      "ारा": 1136,
      "2017": 1137,
      "amil": 1138,
      "దేశ్": 1139,
      "census": 1140,
      "national": 1141,
      "बी": 1142,
      "ब्": 1143,
      "2024": 1144,
      "తీయ": 1145,
      "bridge": 1146,
      "चित्र": 1147,
      "एशिया": 1148,
      "Langu": 1149,
      "econom": 1150,
      "Indo": 1151,
      "Minis": 1152,
      "दा": 1153,
      "relig": 1154,
      "ames": 1155,
      "velop": 1156,
      "Cambridge": 1157,
      "svg": 1158,
      "Sch": 1159,
      "फ़": 1160,
      "గా": 1161,
      "मुख": 1162,
      "val": 1163,
      "वे": 1164,
      "क्त": 1165,
      "72": 1166,
      "contin": 1167,
      "Delhi": 1168,
      "ope": 1169,
      "सेना": 1170,
      "ँचा": 1171,
      "స్తాన్": 1172,
      "hel": 1173,
      "अध": 1174,
      "रु": 1175,
      "किस्तान": 1176,
      "times": 1177,
      "संस्कृ": 1178,
      "Dys": 1179,
      "Gover": 1180,
      "dern": 1181,
      "Dyson": 1182,
      "59": 1183,
      "Fr": 1184,
      "lia": 1185,
      "కే": 1186,
      "గు": 1187,
      "డు": 1188,
      "ack": 1189,
      "100": 1190,
      "स्थान": 1191,
      "88": 1192,
      "Dw": 1193,
      "Sans": 1194,
      "Wiki": 1195,
      "gover": 1196,
      "Economy": 1197,
      "Sansk": 1198,
      "ीप": 1199,
      "१९": 1200,
      "Beng": 1201,
      "qu": 1202,
      "ంట": 1203,
      "లి": 1204,
      "్రీ": 1205,
      "usic": 1206,
      "రాజ": 1207,
      "05": 1208,
      "Am": 1209,
      "IN": 1210,
      "RC": 1211,
      "76": 1212,
      "lar": 1213,
      "स्व": 1214,
      "Ass": 1215,
      "द्वीप": 1216,
      "71": 1217,
      "ves": 1218,
      "ater": 1219,
      "Sanskrit": 1220,
      "E0": 1221,
      "ंदि": 1222,
      "उप": 1223,
      "त्य": 1224,
      "ें": 1225,
      "డ్": 1226,
      "ulture": 1227,
      "ంగా": 1228,
      "html": 1229,
      "Edit": 1230,
      "ashm": 1231,
      "velopment": 1232,
      "पं": 1233,
      "व्य": 1234,
      "isation": 1235,
      "ज्ञ": 1236,
      "Pakistan": 1237,
      "alay": 1238,
      "uring": 1239,
      "ure": 1240,
      "भू": 1241,
      "रब": 1242,
      "ంలో": 1243,
      "alth": 1244,
      "ase": 1245,
      "क्षा": 1246,
      "000": 1247,
      "రాజ్యం": 1248,
      "सूच": 1249,
      "భారతదేశంలో": 1250,
      "ef": 1251,
      "pan": 1252,
      "rel": 1253,
      "oup": 1254,
      "adi": 1255,
      "ck": 1256,
      "orth": 1257,
      "सित": 1258,
      "mund": 1259,
      "thermund": 1260,
      "Rothermund": 1261,
      "GDP": 1262,
      "521": 1263,
      "च्": 1264,
      "रो": 1265,
      "वन": 1266,
      "తర": 1267,
      "lion": 1268,
      "స్త్ర": 1269,
      "साँचा": 1270,
      "पाकिस्तान": 1271,
      "Pe": 1272,
      "pa": 1273,
      "Europe": 1274,
      "75": 1275,
      "Kul": 1276,
      "तु": 1277,
      "पश्": 1278,
      "स्था": 1279,
      "Indus": 1280,
      "Kulke": 1281,
      "पश्चि": 1282,
      "Prad": 1283,
      "ath": 1284,
      "oc": 1285,
      "ug": 1286,
      "entral": 1287,
      "Pradesh": 1288,
      "Raj": 1289,
      "गया": 1290,
      "ण्": 1291,
      "सद": 1292,
      "కో": 1293,
      "ణా": 1294,
      "దక్ష": 1295,
      "ధిక": 1296,
      "వ్య": 1297,
      "శ్": 1298,
      "anc": 1299,
      "సియా": 1300,
      "జాతీయ": 1301,
      "population": 1302,
      "Government": 1303,
      "CE": 1304,
      "Off": 1305,
      "SAA": 1306,
      "data": 1307,
      "मै": 1308,
      "one": 1309,
      "were": 1310,
      "SAARC": 1311,
      "Kashm": 1312,
      "250px": 1313,
      "Th": 1314,
      "af": 1315,
      "चल": 1316,
      "ury": 1317,
      "ండి": 1318,
      "उत्तर": 1319,
      "87": 1320,
      "aman": 1321,
      "articles": 1322,
      "government": 1323,
      "lish": 1324,
      "ric": 1325,
      "sys": 1326,
      "नाम": 1327,
      "ब्रि": 1328,
      "DwAAQBAJ": 1329,
      "Eng": 1330,
      "ओं": 1331,
      "किया": 1332,
      "रि": 1333,
      "ही": 1334,
      "ంబ": 1335,
      "లా": 1336,
      "ప్రాం": 1337,
      "ogra": 1338,
      "news": 1339,
      "ंद्र": 1340,
      "వర్గం": 1341,
      "ined": 1342,
      "2013": 1343,
      "1947": 1344,
      "ound": 1345,
      "44": 1346,
      "iv": 1347,
      "pu": 1348,
      "ख्या": 1349,
      "सु": 1350,
      "doi": 1351,
      "fir": 1352,
      "ne": 1353,
      "पाल": 1354,
      "मंदि": 1355,
      "isher": 1356,
      "2015": 1357,
      "1950": 1358,
      "Singh2009": 1359,
      "continent": 1360,
      "దక్షి": 1361,
      "मंदिर": 1362,
      "air": 1363,
      "iness": 1364,
      "usiness": 1365,
      "States": 1366,
      "help": 1367,
      "yn": 1368,
      "न्या": 1369,
      "बे": 1370,
      "not": 1371,
      "साम": 1372,
      "58": 1373,
      "Act": 1374,
      "PP": 1375,
      "ough": 1376,
      "public": 1377,
      "माल": 1378,
      "यू": 1379,
      "దీ": 1380,
      "పే": 1381,
      "ిల్": 1382,
      "ice": 1383,
      "स्ट": 1384,
      "స్త": 1385,
      "matics": 1386,
      "न्द्र": 1387,
      "सम्": 1388,
      "Economic": 1389,
      "Pop": 1390,
      "Tamil": 1391,
      "phi": 1392,
      "ats": 1393,
      "ace": 1394,
      "AsherTalbot": 1395,
      "सब": 1396,
      "king": 1397,
      "न्न": 1398,
      "सागर": 1399,
      "चीन": 1400,
      "Islands": 1401,
      "ese": 1402,
      "mber": 1403,
      "int": 1404,
      "क्ति": 1405,
      "ప్రదేశ్": 1406,
      "ission": 1407,
      "Constitution": 1408,
      "पंजा": 1409,
      "ण्ड": 1410,
      "pic": 1411,
      "sou": 1412,
      "une": 1413,
      "system": 1414,
      "51": 1415,
      "60": 1416,
      "Budd": 1417,
      "जरा": 1418,
      "तट": 1419,
      "मध्य": 1420,
      "చే": 1421,
      "ట్": 1422,
      "మత": 1423,
      "Intern": 1424,
      "सबसे": 1425,
      "Page": 1426,
      "minis": 1427,
      "uary": 1428,
      "old": 1429,
      "Census": 1430,
      "Mu": 1431,
      "107": 1432,
      "रूप": 1433,
      "Population": 1434,
      "Do": 1435,
      "Or": 1436,
      "subcontinent": 1437,
      "खा": 1438,
      "बंध": 1439,
      "చ్": 1440,
      "దా": 1441,
      "state": 1442,
      "देशों": 1443,
      "ctor": 1444,
      "69": 1445,
      "ss": 1446,
      "Reg": 1447,
      "article": 1448,
      "China": 1449,
      "Res": 1450,
      "during": 1451,
      "yan": 1452,
      "अरब": 1453,
      "तमिल": 1454,
      "२०": 1455,
      "ories": 1456,
      "class": 1457,
      "युक्त": 1458,
      "ser": 1459,
      "cies": 1460,
      "2022": 1461,
      "Central": 1462,
      "shi": 1463,
      "आई": 1464,
      "शि": 1465,
      "వే": 1466,
      "केंद्र": 1467,
      "2001": 1468,
      "states": 1469,
      "uly": 1470,
      "fl": 1471,
      "hind": 1472,
      "sfn": 1473,
      "93": 1474,
      "A4": 1475,
      "गा": 1476,
      "ैन": 1477,
      "ins": 1478,
      "general": 1479,
      "Ministry": 1480,
      "EditPage": 1481,
      "73": 1482,
      "Union": 1483,
      "country": 1484,
      "42": 1485,
      "Tim": 1486,
      "year": 1487,
      "टे": 1488,
      "यह": 1489,
      "ఆర్": 1490,
      "ధ్య": 1491,
      "ork": 1492,
      "union": 1493,
      "ంద్ర": 1494,
      "अनुसार": 1495,
      "స్త్రం": 1496,
      "first": 1497,
      "Doi": 1498,
      "Apr": 1499,
      "All": 1500,
      "ah": 1501,
      "bi": 1502,
      "April": 1503,
      "music": 1504,
      "बंग": 1505,
      "tes": 1506,
      "region": 1507,
      "57": 1508,
      "Con": 1509,
      "Dem": 1510,
      "Ge": 1511,
      "ail": 1512,
      "ket": 1513,
      "2020": 1514,
      "ood": 1515,
      "Bengal": 1516,
      "सभ": 1517,
      "కాల": 1518,
      "త్య": 1519,
      "బె": 1520,
      "this": 1521,
      "साथ": 1522,
      "िकार": 1523,
      "part": 1524,
      "68": 1525,
      "July": 1526,
      "Sik": 1527,
      "than": 1528,
      "tive": 1529,
      "tra": 1530,
      "urr": 1531,
      "Commission": 1532,
      "330": 1533,
      "79": 1534,
      "Bang": 1535,
      "gan": 1536,
      "num": 1537,
      "वरी": 1538,
      "peration": 1539,
      "att": 1540,
      "bet": 1541,
      "pt": 1542,
      "जु": 1543,
      "ज्य": 1544,
      "ట్ట": 1545,
      "శా": 1546,
      "ైన": 1547,
      "2025": 1548,
      "ంగ్": 1549,
      "ద్ధ": 1550,
      "హింద": 1551,
      "प्त": 1552,
      "च्च": 1553,
      "caste": 1554,
      "dance": 1555,
      "ities": 1556,
      "ms": 1557,
      "med": 1558,
      "ise": 1559,
      "righ": 1560,
      "Cong": 1561,
      "कश्": 1562,
      "बि": 1563,
      "तिहा": 1564,
      "ople": 1565,
      "ब्रिटि": 1566,
      "English": 1567,
      "International": 1568,
      "Congress": 1569,
      "कश्मी": 1570,
      "Cent": 1571,
      "Col": 1572,
      "Summit": 1573,
      "indus": 1574,
      "uch": 1575,
      "णा": 1576,
      "दू": 1577,
      "पे": 1578,
      "చె": 1579,
      "జీ": 1580,
      "ప్": 1581,
      "మీ": 1582,
      "మే": 1583,
      "యు": 1584,
      "హా": 1585,
      "als": 1586,
      "ley": 1587,
      "संख्या": 1588,
      "Development": 1589,
      "जिस": 1590,
      "election": 1591,
      "लोक": 1592,
      "bined": 1593,
      "life": 1594,
      "Ex": 1595,
      "spe": 1596,
      "गो": 1597,
      "ade": 1598,
      "FOOTNOTEMetcalfMetcalf2006": 1599,
      "most": 1600,
      "शास": 1601,
      "ative": 1602,
      "तिहास": 1603,
      "Ag": 1604,
      "Fisher": 1605,
      "territories": 1606,
      "Kashmir": 1607,
      "Coun": 1608,
      "टन": 1609,
      "तंत्र": 1610,
      "बहु": 1611,
      "ంచి": 1612,
      "కూ": 1613,
      "ority": 1614,
      "संग": 1615,
      "128": 1616,
      "ंग्": 1617,
      "पर्य": 1618,
      "्राज्य": 1619,
      "పాలి": 1620,
      "ledge": 1621,
      "साम्राज्य": 1622,
      "ब्रिटिश": 1623,
      "63": 1624,
      "ari": 1625,
      "litical": 1626,
      "iron": 1627,
      "KulkeRothermund": 1628,
      "Bra": 1629,
      "एस": 1630,
      "क्र": 1631,
      "धी": 1632,
      "वै": 1633,
      "शी": 1634,
      "सभा": 1635,
      "lear": 1636,
      "दिल्": 1637,
      "Sep": 1638,
      "Mugh": 1639,
      "दिल्ली": 1640,
      "And": 1641,
      "Eth": 1642,
      "ters": 1643,
      "bb": 1644,
      "du": 1645,
      "je": 1646,
      "एवं": 1647,
      "गढ़": 1648,
      "కృ": 1649,
      "తో": 1650,
      "బ్": 1651,
      "काल": 1652,
      "ాల్": 1653,
      "ियाँ": 1654,
      "have": 1655,
      "माण": 1656,
      "ज्ञान": 1657,
      "Ara": 1658,
      "cu": 1659,
      "cri": 1660,
      "more": 1661,
      "ural": 1662,
      "emb": 1663,
      "1994": 1664,
      "55": 1665,
      "tw": 1666,
      "ica": 1667,
      "108": 1668,
      "here": 1669,
      "Combined": 1670,
      "गुजरा": 1671,
      "न्याया": 1672,
      "Br": 1673,
      "So": 1674,
      "viron": 1675,
      "uman": 1676,
      "igh": 1677,
      "vironment": 1678,
      "aw": 1679,
      "other": 1680,
      "str": 1681,
      "जय": 1682,
      "नगर": 1683,
      "జన": 1684,
      "anges": 1685,
      "tember": 1686,
      "ड़ा": 1687,
      "తంత్ర": 1688,
      "Language": 1689,
      "దక్షిణ": 1690,
      "September": 1691,
      "gest": 1692,
      "घा": 1693,
      "डी": 1694,
      "बै": 1695,
      "िका": 1696,
      "also": 1697,
      "ide": 1698,
      "row": 1699,
      "शासित": 1700,
      "Bh": 1701,
      "gy": 1702,
      "into": 1703,
      "cient": 1704,
      "uclear": 1705,
      "European": 1706,
      "number": 1707,
      "Di": 1708,
      "bu": 1709,
      "dr": 1710,
      "एं": 1711,
      "दान": 1712,
      "लु": 1713,
      "ఆసియా": 1714,
      "పంచ": 1715,
      "బి": 1716,
      "మధ్య": 1717,
      "వు": 1718,
      "శం": 1719,
      "ష్": 1720,
      "ాన్": 1721,
      "CITEREFStein": 1722,
      "नीति": 1723,
      "official": 1724,
      "కేంద్ర": 1725,
      "Official": 1726,
      "ప్రాంత": 1727,
      "ిల్లీ": 1728,
      "पर्यटन": 1729,
      "01": 1730,
      "son": 1731,
      "estern": 1732,
      "their": 1733,
      "330px": 1734,
      "No": 1735,
      "act": 1736,
      "Compan": 1737,
      "FOOTNOTEStein2010": 1738,
      "Dyson2018": 1739,
      "शासन": 1740,
      "Him": 1741,
      "mi": 1742,
      "ama": 1743,
      "had": 1744,
      "oh": 1745,
      "sch": 1746,
      "इंड": 1747,
      "कर्": 1748,
      "बो": 1749,
      "मंत्र": 1750,
      "మొ": 1751,
      "केन्द्र": 1752,
      "ారి": 1753,
      "ారు": 1754,
      "लाई": 1755,
      "ember": 1756,
      "118": 1757,
      "akh": 1758,
      "बांग्": 1759,
      "ishing": 1760,
      "उत्त": 1761,
      "वर्ष": 1762,
      "Environment": 1763,
      "economic": 1764,
      "संस्कृत": 1765,
      "ographi": 1766,
      "बांग्ला": 1767,
      "Gen": 1768,
      "Ri": 1769,
      "Rout": 1770,
      "ban": 1771,
      "ges": 1772,
      "jab": 1773,
      "ince": 1774,
      "idd": 1775,
      "fore": 1776,
      "line": 1777,
      "ayan": 1778,
      "industry": 1779,
      "Routledge": 1780,
      "41": 1781,
      "Oc": 1782,
      "annic": 1783,
      "tober": 1784,
      "ritannic": 1785,
      "समय": 1786,
      "निर्": 1787,
      "October": 1788,
      "ritannica": 1789,
      "Aug": 1790,
      "Pr": 1791,
      "War": 1792,
      "To": 1793,
      "थी": 1794,
      "కొ": 1795,
      "దు": 1796,
      "ధాన": 1797,
      "మ్": 1798,
      "विज्ञान": 1799,
      "ंगा": 1800,
      "त्व": 1801,
      "्वर": 1802,
      "गणराज्य": 1803,
      "history": 1804,
      "liament": 1805,
      "सूचना": 1806,
      "Times": 1807,
      "Mughal": 1808,
      "ls": 1809,
      "ara": 1810,
      "cience": 1811,
      "brary": 1812,
      "largest": 1813,
      "54": 1814,
      "89": 1815,
      "Jan": 1816,
      "Ludd": 1817,
      "जो": 1818,
      "बई": 1819,
      "िय": 1820,
      "acy": 1821,
      "Ludden": 1822,
      "but": 1823,
      "Hinduism": 1824,
      "hism": 1825,
      "century": 1826,
      "after": 1827,
      "Al": 1828,
      "ual": 1829,
      "असम": 1830,
      "ంధ": 1831,
      "క్రీ": 1832,
      "ఖ్య": 1833,
      "ఢిల్లీ": 1834,
      "మె": 1835,
      "ర్య": 1836,
      "time": 1837,
      "chno": 1838,
      "ween": 1839,
      "नेमा": 1840,
      "सिनेमा": 1841,
      "pib": 1842,
      "పాకి": 1843,
      "వంశం": 1844,
      "द्योग": 1845,
      "महारा": 1846,
      "Plate": 1847,
      "మూస": 1848,
      "వ్యవ": 1849,
      "जुलाई": 1850,
      "महाराष्ट्र": 1851,
      "June": 1852,
      "Min": 1853,
      "Pun": 1854,
      "kno": 1855,
      "tz": 1856,
      "uk": 1857,
      "tions": 1858,
      "able": 1859,
      "August": 1860,
      "nor": 1861,
      "who": 1862,
      "मार्": 1863,
      "श्री": 1864,
      "art": 1865,
      "uss": 1866,
      "change": 1867,
      "प्रधान": 1868,
      "religion": 1869,
      "व्यव": 1870,
      "gar": 1871,
      "ote": 1872,
      "depend": 1873,
      "Centre": 1874,
      "अप": 1875,
      "इतिहास": 1876,
      "पार्": 1877,
      "తు": 1878,
      "adu": 1879,
      "विका": 1880,
      "विधान": 1881,
      "Relig": 1882,
      "Chand": 1883,
      "जाति": 1884,
      "मुख्य": 1885,
      "Af": 1886,
      "Aus": 1887,
      "CO": 1888,
      "Fl": 1889,
      "Lo": 1890,
      "Pres": 1891,
      "des": 1892,
      "wing": 1893,
      "2000": 1894,
      "River": 1895,
      "ym": 1896,
      "अन्": 1897,
      "मल": 1898,
      "tex": 1899,
      "ड़ी": 1900,
      "पश्चिम": 1901,
      "500": 1902,
      "Ram": 1903,
      "ann": 1904,
      "lead": 1905,
      "tradi": 1906,
      "ext": 1907,
      "vision": 1908,
      "AsherTalbot2008": 1909,
      "Commissioner": 1910,
      "Bl": 1911,
      "Pal": 1912,
      "Tr": 1913,
      "cap": 1914,
      "lad": 1915,
      "ंप": 1916,
      "इन": 1917,
      "चे": 1918,
      "दर": 1919,
      "ून": 1920,
      "ఉత్": 1921,
      "టు": 1922,
      "టె": 1923,
      "దస్త్రం": 1924,
      "omen": 1925,
      "edi": 1926,
      "ప్రధాన": 1927,
      "1997": 1928,
      "aint": 1929,
      "अन्य": 1930,
      "gency": 1931,
      "సంస్": 1932,
      "right": 1933,
      "పాలిత": 1934,
      "Arab": 1935,
      "కేంద్రపాలిత": 1936,
      "96": 1937,
      "98": 1938,
      "ant": 1939,
      "tional": 1940,
      "vement": 1941,
      "904": 1942,
      "group": 1943,
      "Kar": 1944,
      "Ti": 1945,
      "ep": 1946,
      "report": 1947,
      "संयुक्त": 1948,
      "been": 1949,
      "thern": 1950,
      "chnology": 1951,
      "Punjab": 1952,
      "व्यवस्था": 1953,
      "230": 1954,
      "67": 1955,
      "99": 1956,
      "Be": 1957,
      "Cra": 1958,
      "Nadu": 1959,
      "Ved": 1960,
      "va": 1961,
      "tec": 1962,
      "ures": 1963,
      "Harle": 1964,
      "Guj": 1965,
      "years": 1966,
      "iddle": 1967,
      "Craven": 1968,
      "94": 1969,
      "Chi": 1970,
      "Dav": 1971,
      "ive": 1972,
      "rish": 1973,
      "ंक": 1974,
      "दो": 1975,
      "शक्ति": 1976,
      "िकी": 1977,
      "గో": 1978,
      "డా": 1979,
      "బ్ర": 1980,
      "సు": 1981,
      "संविधान": 1982,
      "ffair": 1983,
      "CS1": 1984,
      "March": 1985,
      "वंश": 1986,
      "स्वतंत्र": 1987,
      "between": 1988,
      "कश्मीर": 1989,
      "विकास": 1990,
      "ffairs": 1991,
      "31": 1992,
      "Me": 1993,
      "ttar": 1994,
      "Ins": 1995,
      "andhi": 1996,
      "pos": 1997,
      "uction": 1998,
      "Modern": 1999,
      "Fund": 2000,
      "Mon": 2001,
      "ran": 2002,
      "पति": 2003,
      "bec": 2004,
      "harma": 2005,
      "embly": 2006,
      "2F": 2007,
      "86": 2008,
      "Mad": 2009,
      "Nations": 2010,
      "ident": 2011,
      "ature": 2012,
      "ument": 2013,
      "ucation": 2014,
      "David": 2015,
      "119": 2016,
      "Publ": 2017,
      "men": 2018,
      "कल": 2019,
      "लग": 2020,
      "గణ": 2021,
      "తే": 2022,
      "వర": 2023,
      "సభ": 2024,
      "people": 2025,
      "ारी": 2026,
      "low": 2027,
      "stat": 2028,
      "FOOTNOTESingh2009": 2029,
      "भाग": 2030,
      "ालय": 2031,
      "రాజ్య": 2032,
      "ప్రపంచ": 2033,
      "जनसंख्या": 2034,
      "तीस": 2035,
      "territory": 2036,
      "రాష్ట్రాలు": 2037,
      "FOOTNOTEStein1998": 2038,
      "censusindia": 2039,
      "पंजाब": 2040,
      "మతము": 2041,
      "ప్రాంతాలు": 2042,
      "వ్యవస్థ": 2043,
      "Man": 2044,
      "Ur": 2045,
      "mu": 2046,
      "pre": 2047,
      "ond": 2048,
      "ones": 2049,
      "berg": 2050,
      "logue": 2051,
      "auth": 2052,
      "Affairs": 2053,
      "He": 2054,
      "ft": 2055,
      "ks": 2056,
      "van": 2057,
      "cyc": 2058,
      "06": 2059,
      "Ad": 2060,
      "Vi": 2061,
      "order": 2062,
      "istan": 2063,
      "Republic": 2064,
      "umbai": 2065,
      "317": 2066,
      "Afr": 2067,
      "Gr": 2068,
      "Jain": 2069,
      "Nar": 2070,
      "fic": 2071,
      "lang": 2072,
      "एँ": 2073,
      "जल": 2074,
      "टक": 2075,
      "గి": 2076,
      "పె": 2077,
      "లం": 2078,
      "incl": 2079,
      "arch": 2080,
      "nologue": 2081,
      "ular": 2082,
      "प्रति": 2083,
      "123": 2084,
      "ेश्वर": 2085,
      "త్రి": 2086,
      "ports": 2087,
      "view": 2088,
      "Library": 2089,
      "limate": 2090,
      "बंगाल": 2091,
      "Brah": 2092,
      "Company": 2093,
      "Gujar": 2094,
      "Uttar": 2095,
      "bal": 2096,
      "pol": 2097,
      "pri": 2098,
      "istic": 2099,
      "121": 2100,
      "52": 2101,
      "Bank": 2102,
      "can": 2103,
      "han": 2104,
      "ped": 2105,
      "peri": 2106,
      "cember": 2107,
      "संसद": 2108,
      "December": 2109,
      "पूर्वी": 2110,
      "BCE": 2111,
      "It": 2112,
      "Keral": 2113,
      "May": 2114,
      "Sri": 2115,
      "203": 2116,
      "modern": 2117,
      "wartz": 2118,
      "Schwartz": 2119,
      "Schwartzberg": 2120,
      "ling": 2121,
      "ये": 2122,
      "रक्षा": 2123,
      "वार्": 2124,
      "నల్": 2125,
      "బడి": 2126,
      "మార్": 2127,
      "రై": 2128,
      "ortal": 2129,
      "used": 2130,
      "क्स": 2131,
      "नाथ": 2132,
      "कार्य": 2133,
      "देव": 2134,
      "బెంగ": 2135,
      "సంస్కృ": 2136,
      "84": 2137,
      "Mani": 2138,
      "West": 2139,
      "back": 2140,
      "ces": 2141,
      "ale": 2142,
      "them": 2143,
      "ird": 2144,
      "area": 2145,
      "Assembly": 2146,
      "34": 2147,
      "oon": 2148,
      "णि": 2149,
      "बौ": 2150,
      "2002": 2151,
      "1996": 2152,
      "relations": 2153,
      "ladesh": 2154,
      "II": 2155,
      "cia": 2156,
      "arb": 2157,
      "term": 2158,
      "two": 2159,
      "Go": 2160,
      "ID": 2161,
      "San": 2162,
      "Val": 2163,
      "cro": 2164,
      "ob": 2165,
      "ving": 2166,
      "vol": 2167,
      "अग": 2168,
      "चु": 2169,
      "दरा": 2170,
      "सैन": 2171,
      "తమి": 2172,
      "పం": 2173,
      "పతి": 2174,
      "use": 2175,
      "103": 2176,
      "న్ని": 2177,
      "న్నా": 2178,
      "वायु": 2179,
      "जाता": 2180,
      "Hindust": 2181,
      "राष्ट्रपति": 2182,
      "నుండి": 2183,
      "News": 2184,
      "महासागर": 2185,
      "मैदान": 2186,
      "स्वतंत्रता": 2187,
      "తమిళ": 2188,
      "Dik": 2189,
      "Ganges": 2190,
      "Joh": 2191,
      "Mic": 2192,
      "eth": 2193,
      "sar": 2194,
      "theast": 2195,
      "icy": 2196,
      "ool": 2197,
      "Temple": 2198,
      "shit": 2199,
      "Austral": 2200,
      "Dikshit": 2201,
      "97": 2202,
      "Science": 2203,
      "bas": 2204,
      "ze": 2205,
      "अम": 2206,
      "अर्थ": 2207,
      "आर्थ": 2208,
      "योग": 2209,
      "encies": 2210,
      "erv": 2211,
      "1990": 2212,
      "def": 2213,
      "Robb": 2214,
      "अधिक": 2215,
      "आर्थिक": 2216,
      "08": 2217,
      "91": 2218,
      "Bhar": 2219,
      "Gandhi": 2220,
      "Mal": 2221,
      "cur": 2222,
      "ger": 2223,
      "lam": 2224,
      "sc": 2225,
      "orities": 2226,
      "eds": 2227,
      "122": 2228,
      "Fisher2018": 2229,
      "January": 2230,
      "Valley": 2231,
      "07": 2232,
      "IM": 2233,
      "Lank": 2234,
      "PM": 2235,
      "Sharma": 2236,
      "business": 2237,
      "cat": 2238,
      "hen": 2239,
      "ious": 2240,
      "oor": 2241,
      "rate": 2242,
      "tain": 2243,
      "उद्य": 2244,
      "गंगा": 2245,
      "डिया": 2246,
      "पो": 2247,
      "पर्व": 2248,
      "रवरी": 2249,
      "అధిక": 2250,
      "ద్ర": 2251,
      "పి": 2252,
      "పార": 2253,
      "ఫ్": 2254,
      "మం": 2255,
      "ont": 2256,
      "wealth": 2257,
      "ola": 2258,
      "క్కు": 2259,
      "ड़े": 2260,
      "summits": 2261,
      "वीं": 2262,
      "హిందూ": 2263,
      "Andaman": 2264,
      "न्यायाल": 2265,
      "मंत्री": 2266,
      "పాకిస్తాన్": 2267,
      "Africa": 2268,
      "Kerala": 2269,
      "న్నాయి": 2270,
      "उद्यान": 2271,
      "83": 2272,
      "Data": 2273,
      "ble": 2274,
      "ini": 2275,
      "Infor": 2276,
      "power": 2277,
      "Encyc": 2278,
      "120px": 2279,
      "Informatics": 2280,
      "65": 2281,
      "Ele": 2282,
      "Mumbai": 2283,
      "col": 2284,
      "hy": 2285,
      "sup": 2286,
      "उर्": 2287,
      "्यता": 2288,
      "106": 2289,
      "1960": 2290,
      "how": 2291,
      "प्राचीन": 2292,
      "ographic": 2293,
      "langoff": 2294,
      "95": 2295,
      "Caste": 2296,
      "ka": 2297,
      "kh": 2298,
      "pres": 2299,
      "oral": 2300,
      "onwealth": 2301,
      "ern": 2302,
      "thematics": 2303,
      "onsoon": 2304,
      "Report": 2305,
      "many": 2306,
      "million": 2307,
      "classical": 2308,
      "Bangladesh": 2309,
      "General": 2310,
      "CN": 2311,
      "Fe": 2312,
      "len": 2313,
      "png": 2314,
      "ंति": 2315,
      "डु": 2316,
      "दिया": 2317,
      "सो": 2318,
      "ఆఫ్": 2319,
      "కార": 2320,
      "క్య": 2321,
      "నాలు": 2322,
      "భూ": 2323,
      "య్య": 2324,
      "రే": 2325,
      "ofindia": 2326,
      "files": 2327,
      "దేశాల": 2328,
      "नाव": 2329,
      "राजस्थान": 2330,
      "राजनीति": 2331,
      "116": 2332,
      "माज": 2333,
      "Chr": 2334,
      "पाद": 2335,
      "दिसम्": 2336,
      "क्षेत्रों": 2337,
      "doc": 2338,
      "दीव": 2339,
      "उत्पाद": 2340,
      "हुई": 2341,
      "ution": 2342,
      "ort": 2343,
      "andard": 2344,
      "come": 2345,
      "cond": 2346,
      "ourt": 2347,
      "Languages": 2348,
      "became": 2349,
      "period": 2350,
      "7C": 2351,
      "Jam": 2352,
      "TR": 2353,
      "Tur": 2354,
      "jan": 2355,
      "long": 2356,
      "non": 2357,
      "nat": 2358,
      "ry": 2359,
      "wal": 2360,
      "way": 2361,
      "eration": 2362,
      "1970": 2363,
      "ada": 2364,
      "litics": 2365,
      "115": 2366,
      "पुरी": 2367,
      "indiatimes": 2368,
      "162": 2369,
      "432": 2370,
      "earch": 2371,
      "स्थल": 2372,
      "अंग्रेजी": 2373,
      "संस्कृति": 2374,
      "219": 2375,
      "work": 2376,
      "incre": 2377,
      "ised": 2378,
      "266": 2379,
      "known": 2380,
      "cord": 2381,
      "ंबई": 2382,
      "ईसा": 2383,
      "जम्": 2384,
      "पार": 2385,
      "बढ़": 2386,
      "ोड़": 2387,
      "ఒరి": 2388,
      "చూ": 2389,
      "ణం": 2390,
      "ధీ": 2391,
      "మైన": 2392,
      "యం": 2393,
      "వీ": 2394,
      "వులు": 2395,
      "సంగ": 2396,
      "హార": 2397,
      "ict": 2398,
      "ाने": 2399,
      "स्त्र": 2400,
      "illion": 2401,
      "under": 2402,
      "नाग": 2403,
      "राजवंश": 2404,
      "play": 2405,
      "abad": 2406,
      "निर": 2407,
      "నాగ": 2408,
      "लिए": 2409,
      "युद्ध": 2410,
      "हुआ": 2411,
      "पूर्": 2412,
      "కాశ్": 2413,
      "ोलन": 2414,
      "रेल": 2415,
      "Political": 2416,
      "फ़रवरी": 2417,
      "भूमि": 2418,
      "शिक्षा": 2419,
      "द्योगिकी": 2420,
      "न्यायालय": 2421,
      "उर्दू": 2422,
      "కాశ్మీ": 2423,
      "Civ": 2424,
      "Russ": 2425,
      "ae": 2426,
      "ca": 2427,
      "hal": 2428,
      "hat": 2429,
      "ology": 2430,
      "page": 2431,
      "shar": 2432,
      "istr": 2433,
      "ami": 2434,
      "loy": 2435,
      "etail": 2436,
      "126": 2437,
      "map": 2438,
      "113": 2439,
      "253": 2440,
      "aka": 2441,
      "Row": 2442,
      "rule": 2443,
      "Civil": 2444,
      "Pur": 2445,
      "ंस": 2446,
      "गोल": 2447,
      "बन": 2448,
      "मरा": 2449,
      "city": 2450,
      "asia": 2451,
      "रान": 2452,
      "FOOTNOTEKulkeRothermund": 2453,
      "2026": 2454,
      "जनगण": 2455,
      "हिन्दू": 2456,
      "्रीका": 2457,
      "बौद्ध": 2458,
      "जनगणना": 2459,
      "03": 2460,
      "37": 2461,
      "EO": 2462,
      "WEO": 2463,
      "press": 2464,
      "reat": 2465,
      "tionary": 2466,
      "Bro": 2467,
      "Climate": 2468,
      "Nuclear": 2469,
      "Public": 2470,
      "Taj": 2471,
      "Trad": 2472,
      "kar": 2473,
      "west": 2474,
      "अफ": 2475,
      "जून": 2476,
      "नव": 2477,
      "बल": 2478,
      "भो": 2479,
      "लं": 2480,
      "शु": 2481,
      "सर्व": 2482,
      "हार": 2483,
      "ఉప": 2484,
      "క్ర": 2485,
      "ణి": 2486,
      "తె": 2487,
      "రో": 2488,
      "లే": 2489,
      "ైనా": 2490,
      "dian": 2491,
      "teen": 2492,
      "arna": 2493,
      "omin": 2494,
      "astern": 2495,
      "leg": 2496,
      "ooperation": 2497,
      "atar": 2498,
      "FOOTNOTEAsherTalbot2008": 2499,
      "प्रे": 2500,
      "olk": 2501,
      "संबंध": 2502,
      "ेशिया": 2503,
      "परि": 2504,
      "परमाण": 2505,
      "148": 2506,
      "ष्ण": 2507,
      "ండ్": 2508,
      "मानव": 2509,
      "జాబి": 2510,
      "ंधी": 2511,
      "Nep": 2512,
      "पश्चिमी": 2513,
      "articleshow": 2514,
      "यूनि": 2515,
      "pics": 2516,
      "ganisation": 2517,
      "उत्तरा": 2518,
      "मार्च": 2519,
      "प्रधानमंत्री": 2520,
      "groups": 2521,
      "Brahma": 2522,
      "IMF": 2523,
      "दिसम्बर": 2524,
      "जम्मू": 2525,
      "परमाणु": 2526,
      "At": 2527,
      "Business": 2528,
      "UN": 2529,
      "left": 2530,
      "CITEREFMetcalfMetcalf2006": 2531,
      "64": 2532,
      "Ac": 2533,
      "दर्": 2534,
      "tel": 2535,
      "ering": 2536,
      "omas": 2537,
      "aspx": 2538,
      "bruary": 2539,
      "ances": 2540,
      "south": 2541,
      "Himalay": 2542,
      "Publishing": 2543,
      "February": 2544,
      "300": 2545,
      "Des": 2546,
      "Human": 2547,
      "Sub": 2548,
      "app": 2549,
      "cms": 2550,
      "dyn": 2551,
      "min": 2552,
      "ploy": 2553,
      "such": 2554,
      "yayan": 2555,
      "logo": 2556,
      "ilg": 2557,
      "cean": 2558,
      "maj": 2559,
      "Spear": 2560,
      "132": 2561,
      "key": 2562,
      "80904": 2563,
      "Islam": 2564,
      "ultan": 2565,
      "economy": 2566,
      "ricket": 2567,
      "atsyayan": 2568,
      "Organisation": 2569,
      "ainting": 2570,
      "tecture": 2571,
      "Craven1997": 2572,
      "Gujarat": 2573,
      "32": 2574,
      "Mus": 2575,
      "Un": 2576,
      "bn": 2577,
      "bol": 2578,
      "uistic": 2579,
      "खंड": 2580,
      "टा": 2581,
      "दश": 2582,
      "दृ": 2583,
      "पह": 2584,
      "बना": 2585,
      "रल": 2586,
      "र्य": 2587,
      "िर": 2588,
      "ैंड": 2589,
      "జనా": 2590,
      "పరి": 2591,
      "బా": 2592,
      "మహా": 2593,
      "వె": 2594,
      "వచ్": 2595,
      "urn": 2596,
      "प्रमुख": 2597,
      "न्ध": 2598,
      "స్వా": 2599,
      "त्रि": 2600,
      "సాం": 2601,
      "CITEREFSingh2009": 2602,
      "भाषाओं": 2603,
      "पात": 2604,
      "ండు": 2605,
      "मुंबई": 2606,
      "ंग्रेस": 2607,
      "द्वारा": 2608,
      "భాషలు": 2609,
      "इसके": 2610,
      "ब्दी": 2611,
      "वेबै": 2612,
      "రాజవంశం": 2613,
      "स्थाप": 2614,
      "हीं": 2615,
      "गुजरात": 2616,
      "CITEREFStein1998": 2617,
      "पार्टी": 2618,
      "status": 2619,
      "अगस्त": 2620,
      "पर्वत": 2621,
      "वेबैक": 2622,
      "Curr": 2623,
      "Gold": 2624,
      "Terr": 2625,
      "day": 2626,
      "chin": 2627,
      "124": 2628,
      "ments": 2629,
      "contr": 2630,
      "upta": 2631,
      "dire": 2632,
      "Artic": 2633,
      "ministr": 2634,
      "northern": 2635,
      "02": 2636,
      "110": 2637,
      "Cooperation": 2638,
      "Main": 2639,
      "Per": 2640,
      "Tri": 2641,
      "culture": 2642,
      "detail": 2643,
      "hru": 2644,
      "lord": 2645,
      "later": 2646,
      "my": 2647,
      "member": 2648,
      "ncl": 2649,
      "painting": 2650,
      "since": 2651,
      "vil": 2652,
      "vatsyayan": 2653,
      "कन्न": 2654,
      "गान": 2655,
      "फल": 2656,
      "मणि": 2657,
      "शता": 2658,
      "though": 2659,
      "1971": 2660,
      "among": 2661,
      "र्ड": 2662,
      "vember": 2663,
      "linki": 2664,
      "diversity": 2665,
      "there": 2666,
      "social": 2667,
      "महाद्वीप": 2668,
      "Commonwealth": 2669,
      "php": 2670,
      "Nehru": 2671,
      "Force": 2672,
      "November": 2673,
      "Lanka": 2674,
      "Russia": 2675,
      "मराठ": 2676,
      "nclm": 2677,
      "शताब्दी": 2678,
      "Pol": 2679,
      "Portal": 2680,
      "Wol": 2681,
      "lobal": 2682,
      "231": 2683,
      "diff": 2684,
      "pert": 2685,
      "prov": 2686,
      "ankar": 2687,
      "Constitu": 2688,
      "Health": 2689,
      "Wolpert": 2690,
      "Malay": 2691,
      "Wil": 2692,
      "north": 2693,
      "अव": 2694,
      "कटि": 2695,
      "खण्ड": 2696,
      "निक": 2697,
      "मौ": 2698,
      "वेश": 2699,
      "ौद्योगिकी": 2700,
      "१८": 2701,
      "ఇండ": 2702,
      "ఉంది": 2703,
      "దం": 2704,
      "ధి": 2705,
      "నగ": 2706,
      "నై": 2707,
      "పో": 2708,
      "ould": 2709,
      "क्कि": 2710,
      "प्रौद्योगिकी": 2711,
      "దేశం": 2712,
      "దేశాలు": 2713,
      "नाडु": 2714,
      "ప్రా": 2715,
      "हिमाल": 2716,
      "सिक्कि": 2717,
      "నికి": 2718,
      "సింధ": 2719,
      "222": 2720,
      "prod": 2721,
      "achal": 2722,
      "visions": 2723,
      "पालिका": 2724,
      "ఆర్ధిక": 2725,
      "capit": 2726,
      "वार्ता": 2727,
      "Manipur": 2728,
      "Bharat": 2729,
      "సంగీ": 2730,
      "జాబితా": 2731,
      "జనాభా": 2732,
      "सिक्किम": 2733,
      "BC": 2734,
      "Fin": 2735,
      "Fore": 2736,
      "Games": 2737,
      "North": 2738,
      "grow": 2739,
      "mal": 2740,
      "inf": 2741,
      "ert": 2742,
      "ouse": 2743,
      "ples": 2744,
      "State": 2745,
      "gram": 2746,
      "From": 2747,
      "Buddhism": 2748,
      "Registr": 2749,
      "hindi": 2750,
      "Religion": 2751,
      "John": 2752,
      "Rowland": 2753,
      "Registrar": 2754,
      "IA": 2755,
      "Ocean": 2756,
      "ie": 2757,
      "iz": 2758,
      "mer": 2759,
      "पि": 2760,
      "रिया": 2761,
      "main": 2762,
      "avy": 2763,
      "आधिकार": 2764,
      "dispu": 2765,
      "Chinese": 2766,
      "pura": 2767,
      "Wikipedia": 2768,
      "२०१": 2769,
      "Ethnologue": 2770,
      "IMFWEO": 2771,
      "Constituent": 2772,
      "आधिकारिक": 2773,
      "Nor": 2774,
      "Qu": 2775,
      "SCO": 2776,
      "bed": 2777,
      "105": 2778,
      "total": 2779,
      "129": 2780,
      "135": 2781,
      "242": 2782,
      "logical": 2783,
      "President": 2784,
      "posed": 2785,
      "Territ": 2786,
      "Bas": 2787,
      "Fir": 2788,
      "Gar": 2789,
      "JP": 2790,
      "King": 2791,
      "Western": 2792,
      "britannica": 2793,
      "gl": 2794,
      "sis": 2795,
      "ton": 2796,
      "अप्र": 2797,
      "अल्": 2798,
      "धा": 2799,
      "पान": 2800,
      "बार": 2801,
      "मार": 2802,
      "लों": 2803,
      "हन": 2804,
      "ृत्य": 2805,
      "ैल": 2806,
      "ఉన్న": 2807,
      "ఉన్నాయి": 2808,
      "చు": 2809,
      "చల్": 2810,
      "చైనా": 2811,
      "నీ": 2812,
      "భి": 2813,
      "మతం": 2814,
      "యన్": 2815,
      "యాలు": 2816,
      "రీ": 2817,
      "శ్రీ": 2818,
      "షు": 2819,
      "ాయి": 2820,
      "ests": 2821,
      "trans": 2822,
      "maint": 2823,
      "ర్వ": 2824,
      "ago": 2825,
      "हिमा": 2826,
      "वादी": 2827,
      "aksh": 2828,
      "ముంబ": 2829,
      "సిన": 2830,
      "్టీ": 2831,
      "वर्ग": 2832,
      "तेलु": 2833,
      "phy": 2834,
      "Indones": 2835,
      "నేష": 2836,
      "రాష్ట్రపతి": 2837,
      "प्राप्त": 2838,
      "జినల్": 2839,
      "large": 2840,
      "पंजाबी": 2841,
      "Research": 2842,
      "२००": 2843,
      "गांधी": 2844,
      "ఉత్తర": 2845,
      "తేదీ": 2846,
      "బడింది": 2847,
      "సంస్కృతి": 2848,
      "चुनाव": 2849,
      "DikshitSchwartzberg": 2850,
      "పార్టీ": 2851,
      "Jammu": 2852,
      "ఒరిజినల్": 2853,
      "Foreign": 2854,
      "First": 2855,
      "Kingdom": 2856,
      "Indonesia": 2857,
      "415": 2858,
      "Home": 2859,
      "Le": 2860,
      "cb": 2861,
      "dy": 2862,
      "vo": 2863,
      "orical": 2864,
      "high": 2865,
      "ered": 2866,
      "edu": 2867,
      "tro": 2868,
      "ross": 2869,
      "ternal": 2870,
      "1965": 2871,
      "Liter": 2872,
      "Amer": 2873,
      "AC": 2874,
      "Dic": 2875,
      "Ear": 2876,
      "some": 2877,
      "एन": 2878,
      "फो": 2879,
      "हरा": 2880,
      "न्त्र": 2881,
      "ung": 2882,
      "तिक": 2883,
      "117": 2884,
      "265": 2885,
      "ourn": 2886,
      "paper": 2887,
      "Allchin": 2888,
      "074": 2889,
      "400": 2890,
      "By": 2891,
      "Cor": 2892,
      "Ka": 2893,
      "Kath": 2894,
      "Ling": 2895,
      "Nic": 2896,
      "if": 2897,
      "technology": 2898,
      "ines": 2899,
      "ergy": 2900,
      "alore": 2901,
      "astr": 2902,
      "liter": 2903,
      "force": 2904,
      "125": 2905,
      "11162": 2906,
      "181": 2907,
      "asty": 2908,
      "2905": 2909,
      "parliament": 2910,
      "movement": 2911,
      "code": 2912,
      "ineering": 2913,
      "viol": 2914,
      "law": 2915,
      "882905": 2916,
      "Bangalore": 2917,
      "Total": 2918,
      "traditional": 2919,
      "Urdu": 2920,
      "includ": 2921,
      "Goa": 2922,
      "dynasty": 2923,
      "Articles": 2924,
      "Territory": 2925,
      "Te": 2926,
      "ds": 2927,
      "ंट": 2928,
      "उच्च": 2929,
      "छत्": 2930,
      "दु": 2931,
      "रण": 2932,
      "हरी": 2933,
      "ूह": 2934,
      "ृत": 2935,
      "గాం": 2936,
      "జ్": 2937,
      "జమ్": 2938,
      "తూ": 2939,
      "నె": 2940,
      "పశ్": 2941,
      "వరి": 2942,
      "inger": 2943,
      "र्ट": 2944,
      "using": 2945,
      "न्स": 2946,
      "नाटक": 2947,
      "हैदरा": 2948,
      "111": 2949,
      "నిస్తాన్": 2950,
      "ల్ల": 2951,
      "समूह": 2952,
      "दिव": 2953,
      "करने": 2954,
      "నులు": 2955,
      "सीमा": 2956,
      "युग": 2957,
      "हुए": 2958,
      "1962": 2959,
      "ద్ద": 2960,
      "స్థాన్": 2961,
      "నేపాల": 2962,
      "endra": 2963,
      "उपमहाद्वीप": 2964,
      "तुल": 2965,
      "PPP": 2966,
      "పేజీ": 2967,
      "पेक्ष": 2968,
      "इंडिया": 2969,
      "कर्नाटक": 2970,
      "श्रीलं": 2971,
      "dependencies": 2972,
      "ymbol": 2973,
      "బ్రి": 2974,
      "Australia": 2975,
      "అధికార": 2976,
      "చూసిన": 2977,
      "निरपेक्ष": 2978,
      "छत्तीस": 2979,
      "జమ్మూ": 2980,
      "పశ్చి": 2981,
      "పేజీని": 2982,
      "श्रीलंका": 2983,
      "Cl": 2984,
      "Court": 2985,
      "bank": 2986,
      "epend": 2987,
      "western": 2988,
      "win": 2989,
      "tition": 2990,
      "they": 2991,
      "109": 2992,
      "ulti": 2993,
      "ety": 2994,
      "independ": 2995,
      "tribu": 2996,
      "sector": 2997,
      "243": 2998,
      "proje": 2999,
      "ingham": 3000,
      "Sikh": 3001,
      "ervation": 3002,
      "66": 3003,
      "Bo": 3004,
      "Bal": 3005,
      "Can": 3006,
      "Dal": 3007,
      "Dra": 3008,
      "Krish": 3009,
      "Law": 3010,
      "Middle": 3011,
      "Pers": 3012,
      "Tel": 3013,
      "ave": 3014,
      "ball": 3015,
      "eign": 3016,
      "iri": 3017,
      "ria": 3018,
      "yle": 3019,
      "जैन": 3020,
      "भर": 3021,
      "रह": 3022,
      "itary": 3023,
      "oot": 3024,
      "urton": 3025,
      "ility": 3026,
      "river": 3027,
      "1999": 3028,
      "2011census": 3029,
      "ake": 3030,
      "ghan": 3031,
      "करण": 3032,
      "apan": 3033,
      "ligence": 3034,
      "overeign": 3035,
      "talk": 3036,
      "Paper": 3037,
      "contain": 3038,
      "ultural": 3039,
      "कुल": 3040,
      "ज्ञा": 3041,
      "putra": 3042,
      "गुजराती": 3043,
      "Afghan": 3044,
      "मलया": 3045,
      "Group": 3046,
      "Jainism": 3047,
      "teenth": 3048,
      "telligence": 3049,
      "Spear1990": 3050,
      "मराठी": 3051,
      "growth": 3052,
      "1200": 3053,
      "316": 3054,
      "92": 3055,
      "BBC": 3056,
      "lm": 3057,
      "104": 3058,
      "CITEREFKulkeRothermund": 3059,
      "Christ": 3060,
      "Muslim": 3061,
      "fes": 3062,
      "jo": 3063,
      "nar": 3064,
      "net": 3065,
      "ंह": 3066,
      "इस्": 3067,
      "ऊर्": 3068,
      "ओड़": 3069,
      "कई": 3070,
      "घरेल": 3071,
      "झार": 3072,
      "टान": 3073,
      "तन": 3074,
      "नौ": 3075,
      "नहीं": 3076,
      "नृत्य": 3077,
      "मशी": 3078,
      "यार": 3079,
      "रक्ष": 3080,
      "रहा": 3081,
      "लिया": 3082,
      "लोग": 3083,
      "शहर": 3084,
      "सहा": 3085,
      "सकल": 3086,
      "िस्तान": 3087,
      "ीत": 3088,
      "ोच्च": 3089,
      "ఒక": 3090,
      "కై": 3091,
      "కర్": 3092,
      "నో": 3093,
      "నది": 3094,
      "రె": 3095,
      "వార": 3096,
      "సము": 3097,
      "సమా": 3098,
      "హ్": 3099,
      "ుత్": 3100,
      "estim": 3101,
      "reme": 3102,
      "केरल": 3103,
      "etary": 3104,
      "130": 3105,
      "267": 3106,
      "160": 3107,
      "254": 3108,
      "करोड़": 3109,
      "जनजाति": 3110,
      "early": 3111,
      "द्वार": 3112,
      "Modi": 3113,
      "Ancient": 3114,
      "Bib": 3115,
      "Bihar": 3116,
      "దీవులు": 3117,
      "పేరు": 3118,
      "तमिलनाडु": 3119,
      "కూడా": 3120,
      "క్రీడ": 3121,
      "सर्वोच्च": 3122,
      "प्रेस": 3123,
      "ఇండో": 3124,
      "हिमालय": 3125,
      "Dictionary": 3126,
      "इस्ला": 3127,
      "ऊर्जा": 3128,
      "घरेलू": 3129,
      "मशीन": 3130,
      "सहाय": 3131,
      "Agency": 3132,
      "Culture": 3133,
      "Gre": 3134,
      "Gree": 3135,
      "IU": 3136,
      "Iran": 3137,
      "Rig": 3138,
      "Sind": 3139,
      "US": 3140,
      "York": 3141,
      "ba": 3142,
      "billion": 3143,
      "house": 3144,
      "women": 3145,
      "pee": 3146,
      "now": 3147,
      "urban": 3148,
      "lies": 3149,
      "verse": 3150,
      "well": 3151,
      "Asso": 3152,
      "agar": 3153,
      "agric": 3154,
      "139": 3155,
      "political": 3156,
      "both": 3157,
      "cog": 3158,
      "Park": 3159,
      "Parliament": 3160,
      "regions": 3161,
      "flu": 3162,
      "garh": 3163,
      "Vedic": 3164,
      "Afghanistan": 3165,
      "IUCN": 3166,
      "Associa": 3167,
      "3TR": 3168,
      "Britannica": 3169,
      "Dr": 3170,
      "OL": 3171,
      "RL": 3172,
      "sm": 3173,
      "tDwAAQBAJ": 3174,
      "कम": 3175,
      "चार": 3176,
      "धार": 3177,
      "फा": 3178,
      "ark": 3179,
      "ISO": 3180,
      "127": 3181,
      "सां": 3182,
      "ताज": 3183,
      "143": 3184,
      "न्दा": 3185,
      "imf": 3186,
      "Office": 3187,
      "सभ्यता": 3188,
      "अन्तर": 3189,
      "document": 3190,
      "अफ्रीका": 3191,
      "3TRtDwAAQBAJ": 3192,
      "Day": 3193,
      "NA": 3194,
      "hya": 3195,
      "via": 3196,
      "ancy": 3197,
      "ciety": 3198,
      "141": 3199,
      "MetcalfMetcalf2012": 3200,
      "formation": 3201,
      "Plateau": 3202,
      "capita": 3203,
      "Du": 3204,
      "Japan": 3205,
      "Myan": 3206,
      "found": 3207,
      "gani": 3208,
      "hum": 3209,
      "tree": 3210,
      "zation": 3211,
      "ईरान": 3212,
      "ओर": 3213,
      "कॉ": 3214,
      "कंप": 3215,
      "ङ्": 3216,
      "चंड": 3217,
      "डि": 3218,
      "तीय": 3219,
      "भु": 3220,
      "मत": 3221,
      "मन्द": 3222,
      "समाज": 3223,
      "కత": 3224,
      "కళ": 3225,
      "టక": 3226,
      "మన": 3227,
      "మై": 3228,
      "రం": 3229,
      "సై": 3230,
      "pen": 3231,
      "Intelligence": 3232,
      "asp": 3233,
      "20140": 3234,
      "ads": 3235,
      "ating": 3236,
      "स्वा": 3237,
      "78074": 3238,
      "FOOTNOTEHarle": 3239,
      "FOOTNOTESpear1990": 3240,
      "్యం": 3241,
      "్యా": 3242,
      "न्ह": 3243,
      "స్ట": 3244,
      "forest": 3245,
      "संस्थान": 3246,
      "003": 3247,
      "साल": 3248,
      "emic": 3249,
      "emale": 3250,
      "1992": 3251,
      "dec": 3252,
      "राज्यक्षेत्र": 3253,
      "second": 3254,
      "स्तर": 3255,
      "రియా": 3256,
      "सिटी": 3257,
      "सिंह": 3258,
      "Chola": 3259,
      "began": 3260,
      "सून": 3261,
      "वाद": 3262,
      "लेट": 3263,
      "कारण": 3264,
      "See": 3265,
      "मानसून": 3266,
      "वर्सिटी": 3267,
      "भीम": 3268,
      "होता": 3269,
      "Education": 3270,
      "rupee": 3271,
      "Bio": 3272,
      "बीच": 3273,
      "अधि": 3274,
      "qual": 3275,
      "Assam": 3276,
      "వ్యా": 3277,
      "ography": 3278,
      "minister": 3279,
      "Organi": 3280,
      "Democ": 3281,
      "హిందీ": 3282,
      "बिहार": 3283,
      "చెయ్య": 3284,
      "जिसमें": 3285,
      "गोआ": 3286,
      "Social": 3287,
      "CITEREFStein2010": 3288,
      "visional": 3289,
      "Karnat": 3290,
      "గణతంత్ర": 3291,
      "లంక": 3292,
      "prime": 3293,
      "सैन्य": 3294,
      "अर्थव्यवस्था": 3295,
      "మంత్రి": 3296,
      "increas": 3297,
      "shared": 3298,
      "यूनिवर्सिटी": 3299,
      "ultanate": 3300,
      "వచ్చి": 3301,
      "control": 3302,
      "ministrative": 3303,
      "సంగీతం": 3304,
      "gramme": 3305,
      "हिमाचल": 3306,
      "ముంబై": 3307,
      "DikshitSchwartzberg2023": 3308,
      "Kathak": 3309,
      "గాంధీ": 3310,
      "పశ్చిమ": 3311,
      "Krishna": 3312,
      "Myanmar": 3313,
      "मन्दिर": 3314,
      "చెయ్యబడింది": 3315,
      "Karnataka": 3316,
      "Non": 3317,
      "Pages": 3318,
      "SE": 3319,
      "cess": 3320,
      "gre": 3321,
      "ward": 3322,
      "wide": 3323,
      "tice": 3324,
      "itz": 3325,
      "138": 3326,
      "140": 3327,
      "development": 3328,
      "156": 3329,
      "pringer": 3330,
      "Standard": 3331,
      "partment": 3332,
      "akhand": 3333,
      "Centre2005": 3334,
      "Uttarakhand": 3335,
      "Linguistic": 3336,
      "CITEREFKulkeRothermund2004": 3337,
      "Journ": 3338,
      "Member": 3339,
      "Monsoon": 3340,
      "On": 3341,
      "ii": 3342,
      "made": 3343,
      "कों": 3344,
      "तृ": 3345,
      "पत्": 3346,
      "मिक": 3347,
      "लम": 3348,
      "oro": 3349,
      "pect": 3350,
      "url": 3351,
      "local": 3352,
      "विजय": 3353,
      "mages": 3354,
      "राजधान": 3355,
      "सिख": 3356,
      "407": 3357,
      "तेल": 3358,
      "Thomas": 3359,
      "Journal": 3360,
      "210": 3361,
      "2nd": 3362,
      "Ak": 3363,
      "Dance": 3364,
      "Fed": 3365,
      "Kum": 3366,
      "Mach": 3367,
      "bl": 3368,
      "cted": 3369,
      "gra": 3370,
      "nam": 3371,
      "nuclear": 3372,
      "racy": 3373,
      "sur": 3374,
      "ors": 3375,
      "tter": 3376,
      "aries": 3377,
      "anda": 3378,
      "ental": 3379,
      "lowing": 3380,
      "very": 3381,
      "ists": 3382,
      "mathematics": 3383,
      "hael": 3384,
      "ountain": 3385,
      "sey": 3386,
      "Chha": 3387,
      "406": 3388,
      "dives": 3389,
      "Aryan": 3390,
      "Provisional": 3391,
      "Shankar": 3392,
      "Buddhist": 3393,
      "Reser": 3394,
      "awa": 3395,
      "Michael": 3396,
      "Maldives": 3397,
      "Trade": 3398,
      "Nepal": 3399,
      "Brahmaputra": 3400,
      "Totals": 3401,
      "Organization": 3402,
      "61": 3403,
      "QAAQBAJ": 3404,
      "Springer": 3405,
      "nom": 3406,
      "ps": 3407,
      "इल": 3408,
      "जान": 3409,
      "तो": 3410,
      "पक": 3411,
      "पट": 3412,
      "भग": 3413,
      "यर": 3414,
      "ीगढ़": 3415,
      "००": 3416,
      "కం": 3417,
      "కీ": 3418,
      "జో": 3419,
      "తల": 3420,
      "తీ": 3421,
      "దార": 3422,
      "బంగ్": 3423,
      "రహ": 3424,
      "రంగ": 3425,
      "సరి": 3426,
      "enn": 3427,
      "्यू": 3428,
      "tric": 3429,
      "trag": 3430,
      "102": 3431,
      "तिब्": 3432,
      "क्षर": 3433,
      "ర్పు": 3434,
      "ेशन": 3435,
      "links": 3436,
      "136": 3437,
      "269": 3438,
      "లోక్": 3439,
      "षाण": 3440,
      "ष्ठ": 3441,
      "सिंध": 3442,
      "క్క": 3443,
      "क्षेत्रीय": 3444,
      "ज़ा": 3445,
      "త్స": 3446,
      "ल्स": 3447,
      "जिन": 3448,
      "స్థాన": 3449,
      "constitution": 3450,
      "Petrag": 3451,
      "లాదేశ్": 3452,
      "सुरक्षा": 3453,
      "मालदीव": 3454,
      "స్తు": 3455,
      "तटीय": 3456,
      "ఆర్కై": 3457,
      "ంచిన": 3458,
      "संगीत": 3459,
      "घाट": 3460,
      "మొద": 3461,
      "जलवायु": 3462,
      "పెద్ద": 3463,
      "राजनीतिक": 3464,
      "उत्तराखण्ड": 3465,
      "స్వాతంత్ర": 3466,
      "अप्रैल": 3467,
      "శ్రీలంక": 3468,
      "తూర్పు": 3469,
      "हैदराबाद": 3470,
      "బ్రిటి": 3471,
      "चंडीगढ़": 3472,
      "దారులు": 3473,
      "బంగ్లాదేశ్": 3474,
      "तिब्ब": 3475,
      "सिंधु": 3476,
      "Petraglia": 3477,
      "ఆర్కైవు": 3478,
      "216": 3479,
      "DS": 3480,
      "Summ": 3481,
      "only": 3482,
      "trod": 3483,
      "1991": 3484,
      "4020": 3485,
      "1967": 3486,
      "20160": 3487,
      "Region": 3488,
      "ship": 3489,
      "Country": 3490,
      "Himachal": 3491,
      "Golden": 3492,
      "62": 3493,
      "G8": 3494,
      "IJ": 3495,
      "Ku": 3496,
      "Music": 3497,
      "Sab": 3498,
      "Tay": 3499,
      "Va": 3500,
      "Women": 3501,
      "cast": 3502,
      "dra": 3503,
      "east": 3504,
      "gro": 3505,
      "lor": 3506,
      "name": 3507,
      "operation": 3508,
      "range": 3509,
      "where": 3510,
      "गू": 3511,
      "पै": 3512,
      "पाली": 3513,
      "यत": 3514,
      "वृ": 3515,
      "श्य": 3516,
      "tte": 3517,
      "inter": 3518,
      "influ": 3519,
      "onom": 3520,
      "onic": 3521,
      "third": 3522,
      "ican": 3523,
      "amb": 3524,
      "amental": 3525,
      "काली": 3526,
      "FOOTNOTECraven1997": 3527,
      "Indians": 3528,
      "साहि": 3529,
      "147": 3530,
      "163": 3531,
      "नेपाली": 3532,
      "287": 3533,
      "जनवरी": 3534,
      "Secur": 3535,
      "areas": 3536,
      "market": 3537,
      "Energy": 3538,
      "millen": 3539,
      "Programme": 3540,
      "देख": 3541,
      "Politics": 3542,
      "Front": 3543,
      "Wikidata": 3544,
      "मैथि": 3545,
      "Ethnic": 3546,
      "घाटी": 3547,
      "Trans": 3548,
      "linkimages": 3549,
      "Rowland1970": 3550,
      "glance": 3551,
      "independence": 3552,
      "Persian": 3553,
      "Greek": 3554,
      "Sabha": 3555,
      "Taylor": 3556,
      "345": 3557,
      "CL": 3558,
      "ned": 3559,
      "rise": 3560,
      "ofile": 3561,
      "education": 3562,
      "ight": 3563,
      "50th": 3564,
      "Dec": 3565,
      "238": 3566,
      "Marath": 3567,
      "site": 3568,
      "religious": 3569,
      "Chief": 3570,
      "details": 3571,
      "nominal": 3572,
      "Gupta": 3573,
      "La": 3574,
      "Mil": 3575,
      "PC": 3576,
      "border": 3577,
      "dlife": 3578,
      "eb": 3579,
      "ful": 3580,
      "ose": 3581,
      "symbol": 3582,
      "ंत": 3583,
      "अलग": 3584,
      "आन्द": 3585,
      "उन": 3586,
      "कला": 3587,
      "जं": 3588,
      "जब": 3589,
      "डा": 3590,
      "पद": 3591,
      "लका": 3592,
      "सत": 3593,
      "ौर": 3594,
      "ఇతర": 3595,
      "గల": 3596,
      "టీ": 3597,
      "టాన్": 3598,
      "పద": 3599,
      "పీ": 3600,
      "పట్ట": 3601,
      "బీ": 3602,
      "రణ": 3603,
      "వల": 3604,
      "anth": 3605,
      "ancient": 3606,
      "208": 3607,
      "्यों": 3608,
      "్రె": 3609,
      "मेघ": 3610,
      "विक": 3611,
      "विष": 3612,
      "विदेश": 3613,
      "స్వ": 3614,
      "पुलि": 3615,
      "ప్రత్య": 3616,
      "142": 3617,
      "146": 3618,
      "नेपाल": 3619,
      "जाती": 3620,
      "ड़ो": 3621,
      "expect": 3622,
      "ముఖ్య": 3623,
      "సిని": 3624,
      "ज़ो": 3625,
      "తావర": 3626,
      "నాడు": 3627,
      "मिज़ो": 3628,
      "వాతావర": 3629,
      "worldbank": 3630,
      "जीवन": 3631,
      "कुछ": 3632,
      "हरिया": 3633,
      "Bengali": 3634,
      "सदन": 3635,
      "ణాసియా": 3636,
      "కాలం": 3637,
      "cript": 3638,
      "इंडो": 3639,
      "उत्तरी": 3640,
      "बांग्लादेश": 3641,
      "టెడ్": 3642,
      "ప్రధానమంత్రి": 3643,
      "policy": 3644,
      "మార్గ": 3645,
      "రైలు": 3646,
      "పంజా": 3647,
      "Hindustan": 3648,
      "ఆఫ్ఘ": 3649,
      "భూటాన్": 3650,
      "दशक": 3651,
      "पहले": 3652,
      "Wolpert2003": 3653,
      "Wildlife": 3654,
      "produc": 3655,
      "चुनावों": 3656,
      "నేపాల్": 3657,
      "छत्तीसगढ़": 3658,
      "రహదారులు": 3659,
      "आन्दोलन": 3660,
      "पुलिस": 3661,
      "expectancy": 3662,
      "వాతావరణం": 3663,
      "7c": 3664,
      "Air": 3665,
      "Bah": 3666,
      "Ca": 3667,
      "Cal": 3668,
      "Clo": 3669,
      "JIJ": 3670,
      "Pan": 3671,
      "Pud": 3672,
      "Sal": 3673,
      "Thar": 3674,
      "This": 3675,
      "Wright": 3676,
      "Zva": 3677,
      "aJIJ": 3678,
      "curr": 3679,
      "eastern": 3680,
      "far": 3681,
      "fun": 3682,
      "fact": 3683,
      "global": 3684,
      "ning": 3685,
      "pand": 3686,
      "rd": 3687,
      "sim": 3688,
      "kim": 3689,
      "ora": 3690,
      "ency": 3691,
      "tival": 3692,
      "lief": 3693,
      "lopedia": 3694,
      "che": 3695,
      "ulp": 3696,
      "index": 3697,
      "nium": 3698,
      "employ": 3699,
      "1993": 3700,
      "187": 3701,
      "261": 3702,
      "goC": 3703,
      "erry": 3704,
      "Department": 3705,
      "beach": 3706,
      "dies": 3707,
      "harm": 3708,
      "avi": 3709,
      "orea": 3710,
      "ctions": 3711,
      "Maur": 3712,
      "Conservation": 3713,
      "vidian": 3714,
      "milk": 3715,
      "GuaJIJ": 3716,
      "Sikkim": 3717,
      "ucherry": 3718,
      "Blurton": 3719,
      "Monetary": 3720,
      "obar": 3721,
      "volution": 3722,
      "colle": 3723,
      "present": 3724,
      "Nicobar": 3725,
      "including": 3726,
      "Dravidian": 3727,
      "quality": 3728,
      "millennium": 3729,
      "Puducherry": 3730,
      "ZvaGuaJIJ": 3731,
      "ZvaGuaJIJgoC": 3732,
      "213": 3733,
      "NI": 3734,
      "Sang": 3735,
      "Vu": 3736,
      "ZVu": 3737,
      "kZVu": 3738,
      "miss": 3739,
      "निया": 3740,
      "व्या": 3741,
      "्स": 3742,
      "vel": 3743,
      "12148": 3744,
      "152": 3745,
      "नेतृ": 3746,
      "external": 3747,
      "स्थित": 3748,
      "क्रम": 3749,
      "Minorities": 3750,
      "fication": 3751,
      "Encyclop": 3752,
      "Publications": 3753,
      "bnf": 3754,
      "kZVuDwAAQBAJ": 3755,
      "212": 3756,
      "Ah": 3757,
      "Date": 3758,
      "Gil": 3759,
      "Mang": 3760,
      "gu": 3761,
      "tered": 3762,
      "Information": 3763,
      "estic": 3764,
      "isl": 3765,
      "cil": 3766,
      "179": 3767,
      "bert": 3768,
      "Art": 3769,
      "ogue": 3770,
      "cording": 3771,
      "differ": 3772,
      "B0": 3773,
      "EC": 3774,
      "SA": 3775,
      "Shi": 3776,
      "Sam": 3777,
      "Sing": 3778,
      "Var": 3779,
      "Wile": 3780,
      "Ze": 3781,
      "bhas": 3782,
      "cour": 3783,
      "dem": 3784,
      "ec": 3785,
      "hol": 3786,
      "lal": 3787,
      "middle": 3788,
      "rough": 3789,
      "sha": 3790,
      "summ": 3791,
      "yam": 3792,
      "आर्": 3793,
      "आंध": 3794,
      "ऑक्स": 3795,
      "कं": 3796,
      "क़": 3797,
      "कै": 3798,
      "कड़": 3799,
      "खन": 3800,
      "ग्व": 3801,
      "टका": 3802,
      "णाली": 3803,
      "धन": 3804,
      "नेशिया": 3805,
      "पब्": 3806,
      "बड़े": 3807,
      "वाल": 3808,
      "श्र": 3809,
      "सर्": 3810,
      "ूर": 3811,
      "ेद": 3812,
      "ॉल": 3813,
      "అతి": 3814,
      "అయి": 3815,
      "అత్య": 3816,
      "ఇన్": 3817,
      "ఇరా": 3818,
      "ఇంగ్": 3819,
      "ఒడి": 3820,
      "కీయ": 3821,
      "గలు": 3822,
      "జె": 3823,
      "జరా": 3824,
      "నాల": 3825,
      "భుత్": 3826,
      "మాల": 3827,
      "మన్": 3828,
      "లలో": 3829,
      "లకు": 3830,
      "లక్ష": 3831,
      "వై": 3832,
      "శతా": 3833,
      "సె": 3834,
      "ియా": 3835,
      "ేక": 3836,
      "tta": 3837,
      "Inter": 3838,
      "thur": 3839,
      "trade": 3840,
      "addi": 3841,
      "uled": 3842,
      "प्रस": 3843,
      "प्रणाली": 3844,
      "hell": 3845,
      "विभा": 3846,
      "विस्त": 3847,
      "वियत": 3848,
      "దేశంలో": 3849,
      "rim": 3850,
      "rest": 3851,
      "iger": 3852,
      "ंगाना": 3853,
      "ayback": 3854,
      "परी": 3855,
      "ప్రభుత్": 3856,
      "कोरिया": 3857,
      "कोलका": 3858,
      "search": 3859,
      "abs": 3860,
      "ability": 3861,
      "architecture": 3862,
      "286": 3863,
      "నిక": 3864,
      "409": 3865,
      "ంగ్రె": 3866,
      "ritsar": 3867,
      "harlal": 3868,
      "ains": 3869,
      "aves": 3870,
      "త్వ": 3871,
      "439": 3872,
      "పూర్": 3873,
      "अभिज्ञा": 3874,
      "కాంగ్రె": 3875,
      "गुप्त": 3876,
      "देवी": 3877,
      "रूस": 3878,
      "पीठ": 3879,
      "पीपी": 3880,
      "పాలన": 3881,
      "సామ్రాజ్య": 3882,
      "पुरम": 3883,
      "timesofindia": 3884,
      "Franc": 3885,
      "గుజరా": 3886,
      "రాజకీయ": 3887,
      "Amritsar": 3888,
      "च्छ": 3889,
      "occ": 3890,
      "Kashmiri": 3891,
      "बेटका": 3892,
      "kingdom": 3893,
      "न्नई": 3894,
      "sources": 3895,
      "बंधन": 3896,
      "శాస్త్రం": 3897,
      "लोकसभा": 3898,
      "Exchange": 3899,
      "Countries": 3900,
      "बहुत": 3901,
      "ంచింది": 3902,
      "ject": 3903,
      "numbers": 3904,
      "केन्द्रीय": 3905,
      "निर्माण": 3906,
      "Ludden2014": 3907,
      "असमिया": 3908,
      "चेन्नई": 3909,
      "शक्तिपीठ": 3910,
      "ondon": 3911,
      "బెంగాల్": 3912,
      "Hindustani": 3913,
      "తమిళనాడు": 3914,
      "पूर्ण": 3915,
      "majority": 3916,
      "त्रिपुरा": 3917,
      "तेलुगू": 3918,
      "फोर्ड": 3919,
      "ootball": 3920,
      "झारखंड": 3921,
      "नौसेना": 3922,
      "సముద్ర": 3923,
      "agriculture": 3924,
      "कॉंग्रेस": 3925,
      "भीमबेटका": 3926,
      "तेलंगाना": 3927,
      "Kumar": 3928,
      "Reserve": 3929,
      "awaharlal": 3930,
      "ప్రత్యేక": 3931,
      "इंडोनेशिया": 3932,
      "Wiley": 3933,
      "bhasha": 3934,
      "आंध्र": 3935,
      "ऑक्सफोर्ड": 3936,
      "శతాబ్": 3937,
      "कोलकाता": 3938,
      "अभिज्ञापक": 3939,
      "Francis": 3940,
      "350": 3941,
      "Kon": 3942,
      "Vol": 3943,
      "den": 3944,
      "que": 3945,
      "set": 3946,
      "ude": 3947,
      "var": 3948,
      "uni": 3949,
      "133": 3950,
      "134": 3951,
      "255": 3952,
      "338": 3953,
      "atis": 3954,
      "bbc": 3955,
      "Policy": 3956,
      "Christian": 3957,
      "428": 3958,
      "82": 3959,
      "BI": 3960,
      "Ko": 3961,
      "Su": 3962,
      "Vis": 3963,
      "band": 3964,
      "human": 3965,
      "गठ": 3966,
      "गि": 3967,
      "द्र": 3968,
      "दमन": 3969,
      "ुनिक": 3970,
      "recog": 3971,
      "omo": 3972,
      "1980": 3973,
      "र्ष": 3974,
      "FOOTNOTENational": 3975,
      "114": 3976,
      "ables": 3977,
      "aryana": 3978,
      "251": 3979,
      "जापान": 3980,
      "क्षेत्रफल": 3981,
      "आधुनिक": 3982,
      "feb": 3983,
      "Coast": 3984,
      "मोदी": 3985,
      "domestic": 3986,
      "People": 3987,
      "duct": 3988,
      "Society": 3989,
      "Environmental": 3990,
      "FOOTNOTEKulkeRothermund200": 3991,
      "दर्श": 3992,
      "direct": 3993,
      "मलयालम": 3994,
      "Ahmed": 3995,
      "674": 3996,
      "Carna": 3997,
      "Domin": 3998,
      "Eigh": 3999,
      "Egy": 4000,
      "HA": 4001,
      "Jha": 4002,
      "Kolk": 4003,
      "Korea": 4004,
      "Mac": 4005,
      "Odis": 4006,
      "Si": 4007,
      "Sar": 4008,
      "Sovereign": 4009,
      "Tar": 4010,
      "bre": 4011,
      "bro": 4012,
      "ced": 4013,
      "cise": 4014,
      "cricket": 4015,
      "da": 4016,
      "ez": 4017,
      "iti": 4018,
      "jpe": 4019,
      "ker": 4020,
      "oples": 4021,
      "phere": 4022,
      "ris": 4023,
      "sing": 4024,
      "when": 4025,
      "wild": 4026,
      "iam": 4027,
      "oram": 4028,
      "peoples": 4029,
      "these": 4030,
      "him": 4031,
      "erg": 4032,
      "aro": 4033,
      "ala": 4034,
      "aland": 4035,
      "alli": 4036,
      "republic": 4037,
      "isine": 4038,
      "cities": 4039,
      "ital": 4040,
      "20150": 4041,
      "ently": 4042,
      "adcast": 4043,
      "vey": 4044,
      "like": 4045,
      "lower": 4046,
      "topics": 4047,
      "style": 4048,
      "rock": 4049,
      "contribu": 4050,
      "igr": 4051,
      "agari": 4052,
      "Devan": 4053,
      "divisions": 4054,
      "party": 4055,
      "Army": 4056,
      "sites": 4057,
      "Buddha": 4058,
      "Demographic": 4059,
      "Sikhism": 4060,
      "Flag": 4061,
      "Tibet": 4062,
      "PMC": 4063,
      "PMID": 4064,
      "Encyclopedia": 4065,
      "Finance": 4066,
      "info": 4067,
      "JPG": 4068,
      "festival": 4069,
      "Bibcode": 4070,
      "Association": 4071,
      "Regional": 4072,
      "Carnatic": 4073,
      "Egypt": 4074,
      "Kolkata": 4075,
      "Odisha": 4076,
      "Tarlo": 4077,
      "jpeg": 4078,
      "adcasting": 4079,
      "Devanagari": 4080,
      "Demographics": 4081,
      "Barb": 4082,
      "Ga": 4083,
      "Na": 4084,
      "NCL": 4085,
      "nc": 4086,
      "nan": 4087,
      "ues": 4088,
      "ँची": 4089,
      "अमे": 4090,
      "अरु": 4091,
      "आय": 4092,
      "गई": 4093,
      "गार": 4094,
      "घर": 4095,
      "तम": 4096,
      "त्या": 4097,
      "तन्त्र": 4098,
      "थे": 4099,
      "दल": 4100,
      "नै": 4101,
      "फ्रा": 4102,
      "मई": 4103,
      "मक": 4104,
      "रम": 4105,
      "लक्ष": 4106,
      "वल": 4107,
      "वार": 4108,
      "सह": 4109,
      "१५": 4110,
      "ఆగ": 4111,
      "ఇండి": 4112,
      "గఢ": 4113,
      "గంగా": 4114,
      "చర్": 4115,
      "పట": 4116,
      "పార్": 4117,
      "బహ": 4118,
      "బౌ": 4119,
      "మల": 4120,
      "మౌ": 4121,
      "లను": 4122,
      "ళు": 4123,
      "షన్": 4124,
      "సమ": 4125,
      "సూ": 4126,
      "भारतक": 4127,
      "्यान": 4128,
      "ాలీ": 4129,
      "प्रार": 4130,
      "विद्य": 4131,
      "न्तु": 4132,
      "unknown": 4133,
      "सेवा": 4134,
      "संधान": 4135,
      "लाल": 4136,
      "साइ": 4137,
      "साक्षर": 4138,
      "भाई": 4139,
      "भाष": 4140,
      "ंगलु": 4141,
      "లుగు": 4142,
      "186": 4143,
      "260": 4144,
      "पाषाण": 4145,
      "commun": 4146,
      "270": 4147,
      "जनता": 4148,
      "విస్త": 4149,
      "लिंग": 4150,
      "लिये": 4151,
      "म्भ": 4152,
      "వాణా": 4153,
      "ికి": 4154,
      "353": 4155,
      "content": 4156,
      "अनुसंधान": 4157,
      "महल": 4158,
      "अधिकार": 4159,
      "भूगोल": 4160,
      "सुधार": 4161,
      "దక్షిణాసియా": 4162,
      "बेंगलु": 4163,
      "ద్ధం": 4164,
      "ద్ధి": 4165,
      "యునై": 4166,
      "ష్ణ": 4167,
      "अन्त": 4168,
      "rishnan": 4169,
      "Madhya": 4170,
      "लगभग": 4171,
      "బెంగాలీ": 4172,
      "based": 4173,
      "अमरी": 4174,
      "पोर्ट": 4175,
      "కాశ్మీరు": 4176,
      "दृश्य": 4177,
      "दिवस": 4178,
      "containing": 4179,
      "సమాఖ్య": 4180,
      "ताजमहल": 4181,
      "अधिराज्य": 4182,
      "तिब्बत": 4183,
      "पब्लि": 4184,
      "ఇంగ్లీ": 4185,
      "శతాబ్దం": 4186,
      "अरुणा": 4187,
      "గఢ్": 4188,
      "బౌద్ధ": 4189,
      "साक्षरता": 4190,
      "बेंगलुरु": 4191,
      "యునైటెడ్": 4192,
      "227": 4193,
      "A5": 4194,
      "Her": 4195,
      "sign": 4196,
      "ino": 4197,
      "along": 4198,
      "reed": 4199,
      "20190": 4200,
      "trial": 4201,
      "liest": 4202,
      "101": 4203,
      "1017": 4204,
      "composed": 4205,
      "top": 4206,
      "0000": 4207,
      "137": 4208,
      "place": 4209,
      "247": 4210,
      "good": 4211,
      "438": 4212,
      "Minister": 4213,
      "Bhut": 4214,
      "Dire": 4215,
      "text": 4216,
      "Time": 4217,
      "View": 4218,
      "Narendra": 4219,
      "catal": 4220,
      "Himalayas": 4221,
      "Northeast": 4222,
      "178": 4223,
      "321": 4224,
      "349": 4225,
      "Bar": 4226,
      "Cro": 4227,
      "FT": 4228,
      "Gh": 4229,
      "G20": 4230,
      "Gate": 4231,
      "High": 4232,
      "Have": 4233,
      "Jawaharlal": 4234,
      "LC": 4235,
      "Laksh": 4236,
      "London": 4237,
      "Mol": 4238,
      "Multi": 4239,
      "Redi": 4240,
      "Wayback": 4241,
      "bir": 4242,
      "famil": 4243,
      "grad": 4244,
      "ji": 4245,
      "lan": 4246,
      "mon": 4247,
      "ological": 4248,
      "pass": 4249,
      "pilg": 4250,
      "ren": 4251,
      "ras": 4252,
      "ram": 4253,
      "ten": 4254,
      "turn": 4255,
      "yy": 4256,
      "अब": 4257,
      "कणी": 4258,
      "घो": 4259,
      "चा": 4260,
      "थाली": 4261,
      "नई": 4262,
      "नरे": 4263,
      "हम": 4264,
      "iary": 4265,
      "orship": 4266,
      "ttis": 4267,
      "pecial": 4268,
      "ened": 4269,
      "tea": 4270,
      "through": 4271,
      "tici": 4272,
      "arh": 4273,
      "especial": 4274,
      "ofker": 4275,
      "asi": 4276,
      "ashi": 4277,
      "1988": 4278,
      "ately": 4279,
      "adwe": 4280,
      "loc": 4281,
      "Southeast": 4282,
      "FOOTNOTESharma": 4283,
      "rime": 4284,
      "संथाली": 4285,
      "raj": 4286,
      "emi": 4287,
      "igarh": 4288,
      "CITEREFDyson2018": 4289,
      "veda": 4290,
      "hai": 4291,
      "exist": 4292,
      "AAJ": 4293,
      "within": 4294,
      "मुम्": 4295,
      "लिपि": 4296,
      "lands": 4297,
      "aja": 4298,
      "1961": 4299,
      "arden": 4300,
      "384": 4301,
      "crease": 4302,
      "रुप": 4303,
      "उपराष्ट्रपति": 4304,
      "ynth": 4305,
      "notation": 4306,
      "attle": 4307,
      "कश्मीरी": 4308,
      "Coll": 4309,
      "species": 4310,
      "धीश": 4311,
      "न्यायाधीश": 4312,
      "mitt": 4313,
      "ographical": 4314,
      "ually": 4315,
      "dependent": 4316,
      "Chandigarh": 4317,
      "Before": 4318,
      "मणिपुरी": 4319,
      "२०११": 4320,
      "Quote": 4321,
      "violence": 4322,
      "increased": 4323,
      "कोंकणी": 4324,
      "पत्ति": 4325,
      "Machine": 4326,
      "Chhattis": 4327,
      "influen": 4328,
      "कालीन": 4329,
      "साहित्य": 4330,
      "मैथिली": 4331,
      "Deccan": 4332,
      "ulpture": 4333,
      "नेतृत्व": 4334,
      "Lakshadwe": 4335,
      "Rediff": 4336,
      "family": 4337,
      "pilgrim": 4338,
      "especially": 4339,
      "मुम्बई": 4340,
      "Lakshadweep": 4341,
      "Alig": 4342,
      "Map": 4343,
      "bar": 4344,
      "nlm": 4345,
      "tary": 4346,
      "vent": 4347,
      "198": 4348,
      "lio": 4349,
      "nih": 4350,
      "145": 4351,
      "263": 4352,
      "deb": 4353,
      "151": 4354,
      "post": 4355,
      "posi": 4356,
      "405": 4357,
      "iance": 4358,
      "feat": 4359,
      "Short": 4360,
      "others": 4361,
      "ncbi": 4362,
      "Aligned": 4363,
      "09": 4364,
      "324": 4365,
      "340": 4366,
      "545": 4367,
      "7mar": 4368,
      "Bure": 4369,
      "Dun": 4370,
      "Ho": 4371,
      "Kal": 4372,
      "Med": 4373,
      "Miss": 4374,
      "Stu": 4375,
      "bur": 4376,
      "car": 4377,
      "ece": 4378,
      "hra": 4379,
      "nation": 4380,
      "ंतर": 4381,
      "आयुक्त": 4382,
      "ईल": 4383,
      "उष्ण": 4384,
      "कान": 4385,
      "क्रा": 4386,
      "गत": 4387,
      "गति": 4388,
      "चें": 4389,
      "जवा": 4390,
      "जपा": 4391,
      "जें": 4392,
      "दिक": 4393,
      "धरो": 4394,
      "नदी": 4395,
      "पहा": 4396,
      "यो": 4397,
      "रत्": 4398,
      "वली": 4399,
      "शो": 4400,
      "हथि": 4401,
      "ॉक": 4402,
      "ोत्": 4403,
      "అస్": 4404,
      "అరు": 4405,
      "ఇస్": 4406,
      "ఇది": 4407,
      "కన్న": 4408,
      "కలి": 4409,
      "కరణ": 4410,
      "ఖండ": 4411,
      "గ్ర": 4412,
      "చా": 4413,
      "డీ": 4414,
      "డే": 4415,
      "తరా": 4416,
      "తులు": 4417,
      "ద్య": 4418,
      "ద్రా": 4419,
      "పండు": 4420,
      "బాం": 4421,
      "బడ్": 4422,
      "మాల్": 4423,
      "రవాణా": 4424,
      "ళ్": 4425,
      "సార": 4426,
      "ానికి": 4427,
      "organ": 4428,
      "thehind": 4429,
      "स्ट्र": 4430,
      "काम": 4431,
      "ాలో": 4432,
      "ults": 4433,
      "विभाग": 4434,
      "संबर": 4435,
      "న్స్": 4436,
      "भाजपा": 4437,
      "ालैंड": 4438,
      "ప్రదా": 4439,
      "144": 4440,
      "153": 4441,
      "రికత": 4442,
      "క్నాల": 4443,
      "282": 4444,
      "भाषाएँ": 4445,
      "248": 4446,
      "हाँ": 4447,
      "हाला": 4448,
      "पास": 4449,
      "दिसंबर": 4450,
      "ండర్": 4451,
      "निय": 4452,
      "సిక్కు": 4453,
      "విశ్": 4454,
      "ource": 4455,
      "शांति": 4456,
      "शास्त्र": 4457,
      "वर्ण": 4458,
      "वर्षा": 4459,
      "aith": 4460,
      "ద్వీ": 4461,
      "Asher2006": 4462,
      "AsherAsher2006": 4463,
      "्राम": 4464,
      "कृष": 4465,
      "type": 4466,
      "गुफा": 4467,
      "హిమాల": 4468,
      "होती": 4469,
      "द्धि": 4470,
      "प्लेट": 4471,
      "फ़ि": 4472,
      "१९४": 4473,
      "१९९": 4474,
      "ంటు": 4475,
      "व्यक्ति": 4476,
      "భారతదేశంలోని": 4477,
      "बंधीय": 4478,
      "చ్చే": 4479,
      "आईएस": 4480,
      "వేద": 4481,
      "Agni": 4482,
      "संग्राम": 4483,
      "धीरे": 4484,
      "वैदिक": 4485,
      "Andhra": 4486,
      "बैंक": 4487,
      "वर्षों": 4488,
      "ర్యా": 4489,
      "अपने": 4490,
      "Religious": 4491,
      "ఉత్తరా": 4492,
      "టెక్నాల": 4493,
      "Punjabi": 4494,
      "दोन": 4495,
      "poll": 4496,
      "सैनिक": 4497,
      "ईसाई": 4498,
      "नागालैंड": 4499,
      "నాగరికత": 4500,
      "भूमिका": 4501,
      "తెలుగు": 4502,
      "कटिबंधीय": 4503,
      "నగర": 4504,
      "సింధు": 4505,
      "క్రీడలు": 4506,
      "इस्लाम": 4507,
      "कंपनी": 4508,
      "వచ్చింది": 4509,
      "సరిహ": 4510,
      "స్వాతంత్ర్య": 4511,
      "troduction": 4512,
      "मेघालय": 4513,
      "సినిమా": 4514,
      "हरियाणा": 4515,
      "ఆఫ్ఘనిస్తాన్": 4516,
      "different": 4517,
      "कड़ियाँ": 4518,
      "विभाजन": 4519,
      "अमेरि": 4520,
      "गारो": 4521,
      "फ्रांस": 4522,
      "చర్చ": 4523,
      "ళుక్య": 4524,
      "प्रारम्भ": 4525,
      "विद्यालय": 4526,
      "अरुणाचल": 4527,
      "7mar2011": 4528,
      "Bureau": 4529,
      "क्रांति": 4530,
      "चेंज": 4531,
      "धरोहर": 4532,
      "हथियार": 4533,
      "కన్నడ": 4534,
      "చాళుక్య": 4535,
      "మాల్దీవులు": 4536,
      "టెక్నాలజీ": 4537,
      "026": 4538,
      "226": 4539,
      "577": 4540,
      "960": 4541,
      "Ani": 4542,
      "Ajan": 4543,
      "Cup": 4544,
      "Caves": 4545,
      "Dis": 4546,
      "Gond": 4547,
      "Hel": 4548,
      "Jhar": 4549,
      "Mc": 4550,
      "Nat": 4551,
      "Old": 4552,
      "Phi": 4553,
      "Sup": 4554,
      "Saint": 4555,
      "Tw": 4556,
      "Thi": 4557,
      "Tha": 4558,
      "Trit": 4559,
      "ded": 4560,
      "hr": 4561,
      "last": 4562,
      "mand": 4563,
      "ner": 4564,
      "pact": 4565,
      "su": 4566,
      "ste": 4567,
      "utical": 4568,
      "wana": 4569,
      "yer": 4570,
      "zil": 4571,
      "iation": 4572,
      "orn": 4573,
      "orama": 4574,
      "enter": 4575,
      "tection": 4576,
      "onial": 4577,
      "Inf": 4578,
      "thing": 4579,
      "alam": 4580,
      "eduled": 4581,
      "asian": 4582,
      "icts": 4583,
      "amy": 4584,
      "atna": 4585,
      "refor": 4586,
      "789": 4587,
      "lock": 4588,
      "angra": 4589,
      "anghai": 4590,
      "tock": 4591,
      "today": 4592,
      "stani": 4593,
      "wever": 4594,
      "identifiers": 4595,
      "confl": 4596,
      "1995": 4597,
      "before": 4598,
      "become": 4599,
      "235": 4600,
      "parties": 4601,
      "ourba": 4602,
      "Sea": 4603,
      "337": 4604,
      "inema": 4605,
      "ians": 4606,
      "Mahal": 4607,
      "382": 4608,
      "military": 4609,
      "Partition": 4610,
      "Eurasian": 4611,
      "Pakistani": 4612,
      "Shanghai": 4613,
      "Forests": 4614,
      "amese": 4615,
      "aceutical": 4616,
      "series": 4617,
      "rights": 4618,
      "Congress2004": 4619,
      "After": 4620,
      "Flood": 4621,
      "texts": 4622,
      "Black": 4623,
      "Insur": 4624,
      "Madras": 4625,
      "Davidson": 4626,
      "Michell": 4627,
      "khand": 4628,
      "Broadcasting": 4629,
      "legisl": 4630,
      "vill": 4631,
      "Canada": 4632,
      "PetragliaAllchin": 4633,
      "Security": 4634,
      "harmaceutical": 4635,
      "kingdoms": 4636,
      "Eighth": 4637,
      "Bhutan": 4638,
      "Molnar": 4639,
      "Collingham": 4640,
      "Jharkhand": 4641,
      "Tritsch": 4642,
      "ourbaki": 4643,
      "Aks": 4644,
      "Cha": 4645,
      "Haryana": 4646,
      "M50th": 4647,
      "Names": 4648,
      "Web": 4649,
      "bri": 4650,
      "km": 4651,
      "las": 4652,
      "sq": 4653,
      "yal": 4654,
      "अर्": 4655,
      "ईस्ट": 4656,
      "उद": 4657,
      "धिकार": 4658,
      "पहु": 4659,
      "फि": 4660,
      "शै": 4661,
      "२६": 4662,
      "५७": 4663,
      "ources": 4664,
      "asing": 4665,
      "level": 4666,
      "197": 4667,
      "amp": 4668,
      "ams": 4669,
      "स्क": 4670,
      "ume": 4671,
      "held": 4672,
      "agen": 4673,
      "305": 4674,
      "सिन्ध": 4675,
      "289": 4676,
      "मानक": 4677,
      "333": 4678,
      "Historical": 4679,
      "former": 4680,
      "क्रि": 4681,
      "कन्नड़": 4682,
      "missing": 4683,
      "व्यापार": 4684,
      "NCLM50th": 4685,
      "brief": 4686,
      "km2": 4687,
      "सिन्धु": 4688,
      "NCLM50thReport": 4689,
      "04": 4690,
      "1st": 4691,
      "313": 4692,
      "412": 4693,
      "Aut": 4694,
      "Gross": 4695,
      "LA": 4696,
      "Medi": 4697,
      "PR": 4698,
      "Pre": 4699,
      "SI": 4700,
      "Water": 4701,
      "eval": 4702,
      "lic": 4703,
      "own": 4704,
      "ption": 4705,
      "wa": 4706,
      "zone": 4707,
      "wikidata": 4708,
      "Inde": 4709,
      "1951": 4710,
      "ator": 4711,
      "atan": 4712,
      "atab": 4713,
      "1000": 4714,
      "ets": 4715,
      "CITEREFAsherTalbot2008": 4716,
      "pland": 4717,
      "149": 4718,
      "184": 4719,
      "1857": 4720,
      "308": 4721,
      "257": 4722,
      "459": 4723,
      "489": 4724,
      "Copland": 4725,
      "ctorate": 4726,
      "served": 4727,
      "Express": 4728,
      "Council": 4729,
      "authority": 4730,
      "Current": 4731,
      "estimate": 4732,
      "widely": 4733,
      "Ahmedabad": 4734,
      "reedom": 4735,
      "Medieval": 4736,
      "112": 4737,
      "211": 4738,
      "215": 4739,
      "600": 4740,
      "Au": 4741,
      "A7C": 4742,
      "Cricket": 4743,
      "Don": 4744,
      "Dog": 4745,
      "Kann": 4746,
      "Line": 4747,
      "Miz": 4748,
      "Natar": 4749,
      "Sa": 4750,
      "Sat": 4751,
      "Sur": 4752,
      "Sino": 4753,
      "Tele": 4754,
      "apor": 4755,
      "ckey": 4756,
      "cultural": 4757,
      "ding": 4758,
      "fer": 4759,
      "fol": 4760,
      "four": 4761,
      "gi": 4762,
      "kel": 4763,
      "mountain": 4764,
      "migr": 4765,
      "ow": 4766,
      "oli": 4767,
      "rural": 4768,
      "sia": 4769,
      "tial": 4770,
      "vara": 4771,
      "would": 4772,
      "अमी": 4773,
      "अंड": 4774,
      "अफ़": 4775,
      "अतुल": 4776,
      "अहम": 4777,
      "अशो": 4778,
      "आर": 4779,
      "आदि": 4780,
      "आंद": 4781,
      "आपात": 4782,
      "ईद": 4783,
      "ऍथ": 4784,
      "ऑपर": 4785,
      "ख़": 4786,
      "गध": 4787,
      "चन": 4788,
      "चोल": 4789,
      "जपुरी": 4790,
      "डे": 4791,
      "डाल": 4792,
      "धि": 4793,
      "नद": 4794,
      "नान": 4795,
      "नोल": 4796,
      "नन्दा": 4797,
      "पीय": 4798,
      "बू": 4799,
      "बने": 4800,
      "बड़ा": 4801,
      "ब्यू": 4802,
      "म्यान": 4803,
      "मगध": 4804,
      "यन": 4805,
      "यान": 4806,
      "यपुर": 4807,
      "लखन": 4808,
      "शत": 4809,
      "षण": 4810,
      "सश": 4811,
      "ुक": 4812,
      "ूबर": 4813,
      "ॉग": 4814,
      "ोला": 4815,
      "ఖండ్": 4816,
      "చీ": 4817,
      "జరి": 4818,
      "జార్": 4819,
      "ట్ర": 4820,
      "తై": 4821,
      "తరు": 4822,
      "పై": 4823,
      "ఫర్": 4824,
      "మహ": 4825,
      "మలు": 4826,
      "మహార": 4827,
      "మయన్": 4828,
      "యో": 4829,
      "రూ": 4830,
      "శో": 4831,
      "సౌ": 4832,
      "సార్": 4833,
      "హార్": 4834,
      "ాష్ట్ర": 4835,
      "perc": 4836,
      "orge": 4837,
      "any": 4838,
      "thang": 4839,
      "tile": 4840,
      "ergency": 4841,
      "arl": 4842,
      "arts": 4843,
      "ारजि": 4844,
      "thema": 4845,
      "itation": 4846,
      "asthan": 4847,
      "20170": 4848,
      "केश": 4849,
      "194": 4850,
      "195": 4851,
      "1972": 4852,
      "idy": 4853,
      "रात": 4854,
      "राम": 4855,
      "truction": 4856,
      "स्थि": 4857,
      "कांक": 4858,
      "liber": 4859,
      "changes": 4860,
      "angana": 4861,
      "angered": 4862,
      "ాలా": 4863,
      "FOOTNOTERobb": 4864,
      "FOOTNOTEDikshitSchwartzberg2023": 4865,
      "FOOTNOTEProvisional": 4866,
      "FOOTNOTERowland1970": 4867,
      "iland": 4868,
      "భారత్": 4869,
      "क्षण": 4870,
      "rig": 4871,
      "roti": 4872,
      "mage": 4873,
      "mathema": 4874,
      "ratic": 4875,
      "राजभाषा": 4876,
      "ताल": 4877,
      "emerg": 4878,
      "CITEREFAsherTalbot": 4879,
      "irates": 4880,
      "परंप": 4881,
      "ప్రజ": 4882,
      "183": 4883,
      "లోయ": 4884,
      "168": 4885,
      "285": 4886,
      "politics": 4887,
      "भाषाएं": 4888,
      "240": 4889,
      "सूर": 4890,
      "वाला": 4891,
      "aks": 4892,
      "थाईल": 4893,
      "237": 4894,
      "div": 4895,
      "किला": 4896,
      "निभाई": 4897,
      "సిక్": 4898,
      "करना": 4899,
      "करता": 4900,
      "कारी": 4901,
      "bodia": 4902,
      "हिन्दु": 4903,
      "త్మా": 4904,
      "Seven": 4905,
      "मील": 4906,
      "clar": 4907,
      "alls": 4908,
      "वर्त": 4909,
      "ार्कटि": 4910,
      "hockey": 4911,
      "भिन्न": 4912,
      "మాచల్": 4913,
      "mark": 4914,
      "ద్దు": 4915,
      "द्वि": 4916,
      "Emirates": 4917,
      "Mathematics": 4918,
      "Moh": 4919,
      "osphere": 4920,
      "millan": 4921,
      "న్నో": 4922,
      "హిమాచల్": 4923,
      "Protection": 4924,
      "vention": 4925,
      "దినో": 4926,
      "ameez": 4927,
      "Cambodia": 4928,
      "మిజో": 4929,
      "महान": 4930,
      "महारजि": 4931,
      "लोर": 4932,
      "मोर": 4933,
      "दाख": 4934,
      "religions": 4935,
      "School": 4936,
      "రాజస్థాన్": 4937,
      "द्वीपसमूह": 4938,
      "भूटान": 4939,
      "सूचकांक": 4940,
      "తరం": 4941,
      "Rajasthan": 4942,
      "सदस": 4943,
      "కోర్": 4944,
      "ణాచల్": 4945,
      "ణాటక": 4946,
      "These": 4947,
      "Engineering": 4948,
      "ప్రాంతం": 4949,
      "यूरो": 4950,
      "स्टॉक": 4951,
      "unei": 4952,
      "691": 4953,
      "ట్టు": 4954,
      "మేషన్": 4955,
      "యుద్ధం": 4956,
      "Brazil": 4957,
      "Brunei": 4958,
      "जयपुर": 4959,
      "मलेशिया": 4960,
      "Veda": 4961,
      "tected": 4962,
      "include": 4963,
      "प्रतिशत": 4964,
      "कार्यपालिका": 4965,
      "క్కువ": 4966,
      "Turk": 4967,
      "Civilisation": 4968,
      "Puran": 4969,
      "Brown": 4970,
      "भोजपुरी": 4971,
      "शुरू": 4972,
      "Desert": 4973,
      "appro": 4974,
      "మహాత్మా": 4975,
      "मणिपुर": 4976,
      "Malaysia": 4977,
      "edule": 4978,
      "literacy": 4979,
      "parliamentary": 4980,
      "Telangana": 4981,
      "ओड़िया": 4982,
      "కర్ణాటక": 4983,
      "सहायता": 4984,
      "Sindhi": 4985,
      "FOOTNOTEHarle199": 4986,
      "FOOTNOTESpear1990242": 4987,
      "न्हें": 4988,
      "స్టా": 4989,
      "Democracy": 4990,
      "विजयनगर": 4991,
      "త్సవం": 4992,
      "जिनमें": 4993,
      "वृद्धि": 4994,
      "Laos": 4995,
      "బీహార్": 4996,
      "मिज़ोरम": 4997,
      "మార్గాలు": 4998,
      "పంజాబ్": 4999,
      "employed": 5000,
      "Singapor": 5001,
      "ఇరాన్": 5002,
      "సామ్రాజ్యము": 5003,
      "గుజరాత్": 5004,
      "occup": 5005,
      "Dominion": 5006,
      "Macmillan": 5007,
      "Tarlo1996": 5008,
      "लक्षद्वीप": 5009,
      "మౌర్య": 5010,
      "साइप्रस": 5011,
      "అరుణాచల్": 5012,
      "स्ट्रार": 5013,
      "कृषि": 5014,
      "गुफाएं": 5015,
      "చ్చేరి": 5016,
      "दोनों": 5017,
      "సరిహద్దు": 5018,
      "Animal": 5019,
      "Ajanta": 5020,
      "Thailand": 5021,
      "Dogri": 5022,
      "अमीरात": 5023,
      "अंडमान": 5024,
      "अतुल्य": 5025,
      "अशोक": 5026,
      "आंदोलन": 5027,
      "आपातकाल": 5028,
      "ऍथनोल": 5029,
      "ऑपरेशन": 5030,
      "डालर": 5031,
      "ब्यूरो": 5032,
      "लखनऊ": 5033,
      "తరువా": 5034,
      "ఫర్మేషన్": 5035,
      "మహారాష్ట్ర": 5036,
      "మయన్మార్": 5037,
      "परंपरा": 5038,
      "ार्कटिका": 5039,
      "దినోత్సవం": 5040,
      "महारजिस्ट्रार": 5041,
      "Singapore": 5042,
      "ऍथनोलॉग": 5043,
      "424": 5044,
      "613": 5045,
      "EX": 5046,
      "Out": 5047,
      "TO": 5048,
      "Witz": 5049,
      "ault": 5050,
      "monsoon": 5051,
      "inated": 5052,
      "Increase": 5053,
      "20110": 5054,
      "del": 5055,
      "280": 5056,
      "Movement": 5057,
      "worldcat": 5058,
      "Part": 5059,
      "ground": 5060,
      "France": 5061,
      "alaya": 5062,
      "3166": 5063,
      "Marathi": 5064,
      "Konk": 5065,
      "Witzel": 5066,
      "318": 5067,
      "Age": 5068,
      "Id": 5069,
      "NG": 5070,
      "ctri": 5071,
      "आइ": 5072,
      "इला": 5073,
      "इजरा": 5074,
      "ग्री": 5075,
      "चला": 5076,
      "205": 5077,
      "1975": 5078,
      "1016": 5079,
      "cha": 5080,
      "stre": 5081,
      "fig": 5082,
      "प्रकार": 5083,
      "प्रशासन": 5084,
      "ily": 5085,
      "olia": 5086,
      "rain": 5087,
      "results": 5088,
      "185": 5089,
      "170": 5090,
      "159": 5091,
      "ablish": 5092,
      "Hindus": 5093,
      "box": 5094,
      "body": 5095,
      "म्प": 5096,
      "product": 5097,
      "8012": 5098,
      "titute": 5099,
      "संघीय": 5100,
      "7545": 5101,
      "Industrial": 5102,
      "ights": 5103,
      "Karanth": 5104,
      "ethnologue": 5105,
      "१८५७": 5106,
      "Literacy": 5107,
      "राजधानी": 5108,
      "Gilbert": 5109,
      "recogni": 5110,
      "infobox": 5111,
      "घोष": 5112,
      "नरेन्द्र": 5113,
      "Chhattisgarh": 5114,
      "Index": 5115,
      "220": 5116,
      "423": 5117,
      "Border": 5118,
      "Cy": 5119,
      "DA": 5120,
      "Female": 5121,
      "Football": 5122,
      "Gange": 5123,
      "HD": 5124,
      "Ir": 5125,
      "Jud": 5126,
      "Navy": 5127,
      "Oly": 5128,
      "Prime": 5129,
      "Ra": 5130,
      "Sp": 5131,
      "Sund": 5132,
      "Wood": 5133,
      "clo": 5134,
      "cts": 5135,
      "ctive": 5136,
      "coral": 5137,
      "ey": 5138,
      "ecu": 5139,
      "flow": 5140,
      "hā": 5141,
      "nations": 5142,
      "pub": 5143,
      "pped": 5144,
      "rid": 5145,
      "raman": 5146,
      "sa": 5147,
      "science": 5148,
      "spre": 5149,
      "sultanate": 5150,
      "tin": 5151,
      "tou": 5152,
      "ute": 5153,
      "wat": 5154,
      "enous": 5155,
      "test": 5156,
      "ants": 5157,
      "anim": 5158,
      "thority": 5159,
      "tig": 5160,
      "ardian": 5161,
      "recent": 5162,
      "record": 5163,
      "relief": 5164,
      "ison": 5165,
      "andoor": 5166,
      "itar": 5167,
      "icon": 5168,
      "1977": 5169,
      "ents": 5170,
      "acred": 5171,
      "uries": 5172,
      "ches": 5173,
      "chess": 5174,
      "umeration": 5175,
      "stud": 5176,
      "una": 5177,
      "reser": 5178,
      "emen": 5179,
      "igenous": 5180,
      "Revolution": 5181,
      "CITEREFFisher2018": 5182,
      "ayana": 5183,
      "indian": 5184,
      "plain": 5185,
      "165": 5186,
      "upper": 5187,
      "sever": 5188,
      "Chenn": 5189,
      "akers": 5190,
      "40px": 5191,
      "exports": 5192,
      "274": 5193,
      "279": 5194,
      "appe": 5195,
      "Harvard": 5196,
      "shall": 5197,
      "ourism": 5198,
      "Secre": 5199,
      "coast": 5200,
      "prac": 5201,
      "Architecture": 5202,
      "351": 5203,
      "358": 5204,
      "Emergency": 5205,
      "Maha": 5206,
      "385": 5207,
      "osa": 5208,
      "engineering": 5209,
      "forms": 5210,
      "centuries": 5211,
      "wars": 5212,
      "Schedule": 5213,
      "Industry": 5214,
      "serv": 5215,
      "speakers": 5216,
      "cuisine": 5217,
      "buil": 5218,
      "ymn": 5219,
      "Palace": 5220,
      "Fundamental": 5221,
      "Urban": 5222,
      "arbans": 5223,
      "Sanchi": 5224,
      "major": 5225,
      "American": 5226,
      "Early": 5227,
      "forcement": 5228,
      "Class": 5229,
      "Green": 5230,
      "Rigveda": 5231,
      "small": 5232,
      "34549": 5233,
      "Wright2010": 5234,
      "courts": 5235,
      "democ": 5236,
      "Tibetan": 5237,
      "Ghats": 5238,
      "02649": 5239,
      "village": 5240,
      "Authority": 5241,
      "Nataraja": 5242,
      "Gangetic": 5243,
      "Olym": 5244,
      "Sundarbans": 5245,
      "touch": 5246,
      "Chennai": 5247,
      "150": 5248,
      "BE": 5249,
      "GE": 5250,
      "Gini": 5251,
      "If": 5252,
      "Net": 5253,
      "NGDP": 5254,
      "Sy": 5255,
      "TS": 5256,
      "URL": 5257,
      "Vice": 5258,
      "aut": 5259,
      "fa": 5260,
      "hdr": 5261,
      "pc": 5262,
      "rul": 5263,
      "ँकि": 5264,
      "ंबर": 5265,
      "इन्": 5266,
      "इसी": 5267,
      "ऋतु": 5268,
      "एम": 5269,
      "ऑफ": 5270,
      "ओडि": 5271,
      "ख्य": 5272,
      "गए": 5273,
      "ग्र": 5274,
      "चाल": 5275,
      "जै": 5276,
      "डो": 5277,
      "डॉल": 5278,
      "तग": 5279,
      "थल": 5280,
      "दार": 5281,
      "पृ": 5282,
      "पक्ष": 5283,
      "बहा": 5284,
      "बनी": 5285,
      "बड़ी": 5286,
      "मंड": 5287,
      "सक": 5288,
      "सल्": 5289,
      "हॉ": 5290,
      "हवे": 5291,
      "ेल": 5292,
      "५०": 5293,
      "ంక": 5294,
      "అనే": 5295,
      "అమె": 5296,
      "ఎన్నో": 5297,
      "ఏర్": 5298,
      "కను": 5299,
      "ఖ్": 5300,
      "గీ": 5301,
      "గ్": 5302,
      "టో": 5303,
      "నం": 5304,
      "పర": 5305,
      "పొ": 5306,
      "మణి": 5307,
      "లతో": 5308,
      "లవు": 5309,
      "లమె": 5310,
      "ళం": 5311,
      "వృ": 5312,
      "శ్ర": 5313,
      "షా": 5314,
      "స్య": 5315,
      "హర్": 5316,
      "ూరు": 5317,
      "anthem": 5318,
      "केट": 5319,
      "ారం": 5320,
      "र्तग": 5321,
      "acts": 5322,
      "स्ता": 5323,
      "काश": 5324,
      "कांग्रेस": 5325,
      "standard": 5326,
      "FOOTNOTEWolpert2003": 5327,
      "प्रभा": 5328,
      "प्रवेश": 5329,
      "वित": 5330,
      "ర్లు": 5331,
      "ियां": 5332,
      "सामाज": 5333,
      "पुर्तग": 5334,
      "ప్రతి": 5335,
      "ప్రస్తు": 5336,
      "नेट": 5337,
      "hak": 5338,
      "त्त": 5339,
      "माध्य": 5340,
      "जाते": 5341,
      "पांड": 5342,
      "दियों": 5343,
      "किन्तु": 5344,
      "निवेश": 5345,
      "తిక": 5346,
      "త్తం": 5347,
      "కుటు": 5348,
      "मान्य": 5349,
      "చిత్ర": 5350,
      "మాతరం": 5351,
      "अभियान": 5352,
      "సంఘ": 5353,
      "गुट": 5354,
      "newsite": 5355,
      "వందే": 5356,
      "गणतंत्र": 5357,
      "టిబె": 5358,
      "రాష్ట్రాల": 5359,
      "मोहन": 5360,
      "दादरा": 5361,
      "relid": 5362,
      "सितंबर": 5363,
      "కోబ": 5364,
      "न्याय": 5365,
      "కాలంలో": 5366,
      "శాఖ": 5367,
      "जिसके": 5368,
      "शील": 5369,
      "జనవరి": 5370,
      "कर्ज": 5371,
      "మొత్తం": 5372,
      "निर्भर": 5373,
      "పాకిస్థాన్": 5374,
      "श्रीनगर": 5375,
      "अपनी": 5376,
      "authorities": 5377,
      "పెనీ": 5378,
      "తమిళం": 5379,
      "కారం": 5380,
      "ఉపఖండ": 5381,
      "Atlas": 5382,
      "दृष्": 5383,
      "బాద్": 5384,
      "मौसम": 5385,
      "voy": 5386,
      "तुलना": 5387,
      "అధికారిక": 5388,
      "रहे": 5389,
      "రెండు": 5390,
      "వారస": 5391,
      "హ్మ": 5392,
      "imf2": 5393,
      "కంపెనీ": 5394,
      "మొదటి": 5395,
      "బ్రిటిషు": 5396,
      "symbols": 5397,
      "जबकि": 5398,
      "పట్టణ": 5399,
      "विषय": 5400,
      "विदेशी": 5401,
      "అత్యధిక": 5402,
      "गठबंधन": 5403,
      "सहयोग": 5404,
      "ఇండియా": 5405,
      "పార్లమె": 5406,
      "బహు": 5407,
      "ोत्तर": 5408,
      "हालाँकि": 5409,
      "హిమాలయాలు": 5410,
      "अमेरिका": 5411,
      "पहुँच": 5412,
      "स्थिति": 5413,
      "हिन्दुस्तान": 5414,
      "वर्तमान": 5415,
      "यूरोपीय": 5416,
      "डॉलर": 5417,
      "पृष्ठ": 5418,
      "मंडल": 5419,
      "सल्तन": 5420,
      "हॉकी": 5421,
      "हवेली": 5422,
      "అమెరి": 5423,
      "सामाजिक": 5424,
      "కుటుంబ": 5425,
      "223": 5426,
      "AS": 5427,
      "DNA": 5428,
      "Gop": 5429,
      "bird": 5430,
      "dd": 5431,
      "ease": 5432,
      "hor": 5433,
      "tegr": 5434,
      "tiger": 5435,
      "reach": 5436,
      "ices": 5437,
      "enty": 5438,
      "adop": 5439,
      "vert": 5440,
      "indic": 5441,
      "Rel": 5442,
      "131": 5443,
      "172": 5444,
      "173": 5445,
      "oung": 5446,
      "Def": 5447,
      "establish": 5448,
      "inequality": 5449,
      "359": 5450,
      "486": 5451,
      "Power": 5452,
      "Assamese": 5453,
      "orthographic": 5454,
      "4217": 5455,
      "regional": 5456,
      "economictimes": 5457,
      "Australian": 5458,
      "According": 5459,
      "Malayalam": 5460,
      "projection": 5461,
      "addition": 5462,
      "Directorate": 5463,
      "Aksai": 5464,
      "Konkani": 5465,
      "Gopal": 5466,
      "1L": 5467,
      "310": 5468,
      "410": 5469,
      "429": 5470,
      "Ab": 5471,
      "Ali": 5472,
      "Ber": 5473,
      "Cap": 5474,
      "Cinema": 5475,
      "Dom": 5476,
      "Eastern": 5477,
      "Food": 5478,
      "Hy": 5479,
      "Lad": 5480,
      "MAAJ": 5481,
      "Nass": 5482,
      "Nilg": 5483,
      "Nanda": 5484,
      "Onew": 5485,
      "Open": 5486,
      "Pall": 5487,
      "Sun": 5488,
      "Sons": 5489,
      "Tiger": 5490,
      "UK": 5491,
      "Yarl": 5492,
      "central": 5493,
      "cular": 5494,
      "daro": 5495,
      "even": 5496,
      "fin": 5497,
      "fami": 5498,
      "gir": 5499,
      "gAAQBAJ": 5500,
      "ij": 5501,
      "kameez": 5502,
      "lf": 5503,
      "mid": 5504,
      "mang": 5505,
      "put": 5506,
      "rol": 5507,
      "rup": 5508,
      "sl": 5509,
      "suc": 5510,
      "source": 5511,
      "uters": 5512,
      "xim": 5513,
      "इव": 5514,
      "इरा": 5515,
      "इटे": 5516,
      "उज्": 5517,
      "ओस": 5518,
      "ओमान": 5519,
      "घन": 5520,
      "जग": 5521,
      "डोग": 5522,
      "थम": 5523,
      "पदी": 5524,
      "बन्ध": 5525,
      "यल": 5526,
      "यमन": 5527,
      "शेष": 5528,
      "सत्य": 5529,
      "ौपदी": 5530,
      "orke": 5531,
      "ina": 5532,
      "ancial": 5533,
      "onome": 5534,
      "Indi": 5535,
      "till": 5536,
      "era": 5537,
      "209": 5538,
      "alisation": 5539,
      "rea": 5540,
      "rele": 5541,
      "often": 5542,
      "isa": 5543,
      "isted": 5544,
      "civil": 5545,
      "ito": 5546,
      "ico": 5547,
      "leavy": 5548,
      "190": 5549,
      "ids": 5550,
      "administrative": 5551,
      "र्न": 5552,
      "र्मू": 5553,
      "uscript": 5554,
      "स्लि": 5555,
      "liz": 5556,
      "losis": 5557,
      "story": 5558,
      "fied": 5559,
      "eton": 5560,
      "FOOTNOTEAsherTalbot": 5561,
      "प्रथम": 5562,
      "नाइटे": 5563,
      "rove": 5564,
      "tices": 5565,
      "लाओस": 5566,
      "ayashi": 5567,
      "indias": 5568,
      "deci": 5569,
      "176": 5570,
      "1500": 5571,
      "त्मा": 5572,
      "bercu": 5573,
      "abel": 5574,
      "302": 5575,
      "288": 5576,
      "2011religion": 5577,
      "वासी": 5578,
      "akar": 5579,
      "tempor": 5580,
      "therine": 5581,
      "AAMAAJ": 5582,
      "ensive": 5583,
      "ishes": 5584,
      "मुर्मू": 5585,
      "मुस्लि": 5586,
      "Roy": 5587,
      "Roorke": 5588,
      "show": 5589,
      "prom": 5590,
      "getar": 5591,
      "aju": 5592,
      "361": 5593,
      "362": 5594,
      "357": 5595,
      "marria": 5596,
      "maraju": 5597,
      "2C5": 5598,
      "्राष्ट्र": 5599,
      "issions": 5600,
      "387": 5601,
      "Mohen": 5602,
      "audi": 5603,
      "महात्मा": 5604,
      "Party": 5605,
      "ords": 5606,
      "कुवै": 5607,
      "endangered": 5608,
      "Plofker": 5609,
      "historical": 5610,
      "nationalism": 5611,
      "related": 5612,
      "Peers": 5613,
      "तुर्": 5614,
      "ishers": 5615,
      "oldest": 5616,
      "Census2011religion": 5617,
      "Demon": 5618,
      "Georg": 5619,
      "Geology": 5620,
      "Geography": 5621,
      "Colle": 5622,
      "तिहासिक": 5623,
      "school": 5624,
      "बोडिया": 5625,
      "Prin": 5626,
      "whose": 5627,
      "desc": 5628,
      "Ramayana": 5629,
      "Publishers": 5630,
      "Administrative": 5631,
      "Vij": 5632,
      "longer": 5633,
      "caused": 5634,
      "Curry": 5635,
      "members": 5636,
      "Financial": 5637,
      "highest": 5638,
      "astronom": 5639,
      "Dalit": 5640,
      "Greater": 5641,
      "अन्तर्राष्ट्र": 5642,
      "Dutt": 5643,
      "Biodiversity": 5644,
      "Kathakali": 5645,
      "Federal": 5646,
      "growing": 5647,
      "Catherine": 5648,
      "Clothing": 5649,
      "colleges": 5650,
      "Shiva": 5651,
      "summer": 5652,
      "द्रौपदी": 5653,
      "Coastal": 5654,
      "wildlife": 5655,
      "रुपया": 5656,
      "Dunleavy": 5657,
      "Supreme": 5658,
      "Davidson2014": 5659,
      "emerged": 5660,
      "इजरायल": 5661,
      "ecutive": 5662,
      "Ladakh": 5663,
      "Oneworld": 5664,
      "Pallav": 5665,
      "Yarlung": 5666,
      "families": 5667,
      "घनत्व": 5668,
      "डोगरी": 5669,
      "Indira": 5670,
      "नाइटेड": 5671,
      "berculosis": 5672,
      "मुस्लिम": 5673,
      "Roorkee": 5674,
      "Mohenjo": 5675,
      "कुवैत": 5676,
      "BS": 5677,
      "Gana": 5678,
      "IB": 5679,
      "IC": 5680,
      "Jana": 5681,
      "Mur": 5682,
      "Mana": 5683,
      "Sim": 5684,
      "UT": 5685,
      "aim": 5686,
      "bhar": 5687,
      "date": 5688,
      "hl": 5689,
      "ustice": 5690,
      "Univers": 5691,
      "157": 5692,
      "ghalaya": 5693,
      "centre": 5694,
      "plex": 5695,
      "consid": 5696,
      "Century": 5697,
      "Meghalaya": 5698,
      "blem": 5699,
      "dispute": 5700,
      "documents": 5701,
      "constitutional": 5702,
      "225": 5703,
      "319": 5704,
      "312": 5705,
      "420": 5706,
      "422": 5707,
      "AD": 5708,
      "Bur": 5709,
      "Cres": 5710,
      "KI": 5711,
      "Khan": 5712,
      "Land": 5713,
      "MD": 5714,
      "MKI": 5715,
      "Suk": 5716,
      "Young": 5717,
      "ek": 5718,
      "jp": 5719,
      "kes": 5720,
      "kash": 5721,
      "nearly": 5722,
      "p1": 5723,
      "uin": 5724,
      "zed": 5725,
      "ंजन": 5726,
      "अभी": 5727,
      "आकार": 5728,
      "आर्य": 5729,
      "उस": 5730,
      "उद्योग": 5731,
      "उड़ी": 5732,
      "एक्": 5733,
      "कह": 5734,
      "खि": 5735,
      "ग्": 5736,
      "डम": 5737,
      "णार्": 5738,
      "धिक": 5739,
      "फै": 5740,
      "रख": 5741,
      "रत": 5742,
      "वर": 5743,
      "शे": 5744,
      "शाली": 5745,
      "षिक": 5746,
      "सों": 5747,
      "सहि": 5748,
      "समा": 5749,
      "सभी": 5750,
      "िशा": 5751,
      "ियों": 5752,
      "ूल": 5753,
      "ेरी": 5754,
      "అను": 5755,
      "ఆంధ": 5756,
      "ఎన్ని": 5757,
      "ఎక్కువ": 5758,
      "కథ": 5759,
      "కాలు": 5760,
      "కల్": 5761,
      "జన్": 5762,
      "జైన": 5763,
      "డో": 5764,
      "తము": 5765,
      "థి": 5766,
      "న్యా": 5767,
      "పల్ల": 5768,
      "ఫై": 5769,
      "భర": 5770,
      "మరా": 5771,
      "యక": 5772,
      "శీ": 5773,
      "సహా": 5774,
      "ుల": 5775,
      "tten": 5776,
      "in2": 5777,
      "Introduction": 5778,
      "around": 5779,
      "1974": 5780,
      "1983": 5781,
      "్రప్రదేశ్": 5782,
      "ided": 5783,
      "adas": 5784,
      "adminis": 5785,
      "geoh": 5786,
      "atch": 5787,
      "across": 5788,
      "स्चेंज": 5789,
      "refer": 5790,
      "living": 5791,
      "ాలలో": 5792,
      "sts": 5793,
      "verage": 5794,
      "ilar": 5795,
      "विवाद": 5796,
      "विभिन्न": 5797,
      "olas": 5798,
      "దేశము": 5799,
      "नागर": 5800,
      "ritten": 5801,
      "संरक्ष": 5802,
      "సాధి": 5803,
      "लाख": 5804,
      "ंगडम": 5805,
      "ప్రము": 5806,
      "ప్రకారం": 5807,
      "262": 5808,
      "171": 5809,
      "त्ता": 5810,
      "कोणार्": 5811,
      "हिल्स": 5812,
      "माता": 5813,
      "క్టో": 5814,
      "ందు": 5815,
      "నియా": 5816,
      "being": 5817,
      "सूर्य": 5818,
      "ల్తా": 5819,
      "ల్వే": 5820,
      "वाँ": 5821,
      "408": 5822,
      "समान": 5823,
      "ండమా": 5824,
      "किंगडम": 5825,
      "लेकर": 5826,
      "्याचल": 5827,
      "276": 5828,
      "విధ": 5829,
      "విద్య": 5830,
      "तीर्थ": 5831,
      "కుడు": 5832,
      "मीडिया": 5833,
      "मान्यता": 5834,
      "యాళం": 5835,
      "वर्ती": 5836,
      "वर्ल्": 5837,
      "वर्तन": 5838,
      "प्रदेशों": 5839,
      "ందిన": 5840,
      "చిన్న": 5841,
      "వాహ": 5842,
      "360": 5843,
      "भील": 5844,
      "पुराण": 5845,
      "సంస్థ": 5846,
      "సంఖ్య": 5847,
      "ష్టు": 5848,
      "ंत्रिक": 5849,
      "टियों": 5850,
      "డిన": 5851,
      "disease": 5852,
      "मूल्य": 5853,
      "దినాలు": 5854,
      "ंदर": 5855,
      "पूर्वोत्तर": 5856,
      "विश्वविद्यालय": 5857,
      "संस्था": 5858,
      "గుర్": 5859,
      "१९७": 5860,
      "१९८": 5861,
      "१९५०": 5862,
      "లిం": 5863,
      "सूचियाँ": 5864,
      "స్త్రీయ": 5865,
      "కోల్": 5866,
      "anced": 5867,
      "यूनाइटेड": 5868,
      "तटवर्ती": 5869,
      "खासी": 5870,
      "Coningham": 5871,
      "త్యం": 5872,
      "శాస్త్రీయ": 5873,
      "మేఘ": 5874,
      "बहुमत": 5875,
      "बहुमूल्य": 5876,
      "ాల్లో": 5877,
      "मंत्रि": 5878,
      "ారిటీ": 5879,
      "Profile": 5880,
      "अपना": 5881,
      "తున్న": 5882,
      "leader": 5883,
      "tradition": 5884,
      "चेरी": 5885,
      "సుల్తా": 5886,
      "రాజ్యాలు": 5887,
      "तीसरी": 5888,
      "గిన": 5889,
      "संसदीय": 5890,
      "वार्षिक": 5891,
      "బడిన": 5892,
      "రైల్వే": 5893,
      "పిక్": 5894,
      "కాశ్మీర్": 5895,
      "FOOTNOTEAsherTalbot200853": 5896,
      "परिष": 5897,
      "स्थापित": 5898,
      "कन्नड": 5899,
      "నేషనల్": 5900,
      "ओड़िशा": 5901,
      "सहायक": 5902,
      "వ్యాసం": 5903,
      "వలస": 5904,
      "స్వతంత్ర": 5905,
      "similar": 5906,
      "वाले": 5907,
      "అయిన": 5908,
      "विस्तृत": 5909,
      "परीक्षण": 5910,
      "ప్రభుత్వం": 5911,
      "కాంగ్రెసు": 5912,
      "సముద్రం": 5913,
      "दर्शन": 5914,
      "तन्त्रता": 5915,
      "ఆగష్టు": 5916,
      "మలయాళం": 5917,
      "ఇంగ్లీషు": 5918,
      "rajbhasha": 5919,
      "Missile": 5920,
      "उष्णकटिबंधीय": 5921,
      "कानून": 5922,
      "रत्न": 5923,
      "thehindu": 5924,
      "విశ్వా": 5925,
      "१९४७": 5926,
      "ంటుంది": 5927,
      "pollution": 5928,
      "చాళుక్యులు": 5929,
      "ట్రో": 5930,
      "द्वितीय": 5931,
      "వృద్ధి": 5932,
      "न्यायपालिका": 5933,
      "పార్లమెంట": 5934,
      "सल्तनत": 5935,
      "tegration": 5936,
      "indicator": 5937,
      "Related": 5938,
      "उड़ीसा": 5939,
      "एक्स्चेंज": 5940,
      "ఆంధ్రప్రదేశ్": 5941,
      "మరాఠ": 5942,
      "administered": 5943,
      "geohack": 5944,
      "ప్రముఖ": 5945,
      "कोणार्क": 5946,
      "वर्ल्ड": 5947,
      "సుల్తానులు": 5948,
      "214": 5949,
      "325": 5950,
      "343": 5951,
      "478": 5952,
      "Az": 5953,
      "Ait": 5954,
      "Ban": 5955,
      "BJP": 5956,
      "Battle": 5957,
      "Bourbaki": 5958,
      "Cynth": 5959,
      "Fishing": 5960,
      "Fie": 5961,
      "Ger": 5962,
      "Justice": 5963,
      "Ke": 5964,
      "Kad": 5965,
      "Mong": 5966,
      "Nag": 5967,
      "Nature": 5968,
      "Oj": 5969,
      "PT": 5970,
      "Pra": 5971,
      "Pover": 5972,
      "Rail": 5973,
      "Ravi": 5974,
      "Some": 5975,
      "Syn": 5976,
      "Sultanate": 5977,
      "Saudi": 5978,
      "Up": 5979,
      "VID": 5980,
      "Zoro": 5981,
      "bit": 5982,
      "bul": 5983,
      "cor": 5984,
      "dic": 5985,
      "eat": 5986,
      "fed": 5987,
      "female": 5988,
      "gas": 5989,
      "garden": 5990,
      "hand": 5991,
      "ited": 5992,
      "jur": 5993,
      "just": 5994,
      "kesh": 5995,
      "mas": 5996,
      "mortal": 5997,
      "nu": 5998,
      "pts": 5999,
      "pati": 6000,
      "rin": 6001,
      "rang": 6002,
      "sil": 6003,
      "tre": 6004,
      "vid": 6005,
      "ws": 6006,
      "ément": 6007,
      "orne": 6008,
      "ena": 6009,
      "entr": 6010,
      "inces": 6011,
      "income": 6012,
      "anat": 6013,
      "three": 6014,
      "arti": 6015,
      "ally": 6016,
      "alys": 6017,
      "remain": 6018,
      "ising": 6019,
      "oms": 6020,
      "itor": 6021,
      "1949": 6022,
      "1987": 6023,
      "ample": 6024,
      "aco": 6025,
      "acher": 6026,
      "velo": 6027,
      "lipp": 6028,
      "topic": 6029,
      "verty": 6030,
      "etnam": 6031,
      "ill": 6032,
      "olad": 6033,
      "riya": 6034,
      "lines": 6035,
      "006": 6036,
      "nific": 6037,
      "emor": 6038,
      "ignific": 6039,
      "agara": 6040,
      "Review": 6041,
      "CITEREFHarle": 6042,
      "CITEREFCraven1997": 6043,
      "1300": 6044,
      "chison": 6045,
      "Books": 6046,
      "develo": 6047,
      "161": 6048,
      "166": 6049,
      "169": 6050,
      "158": 6051,
      "abour": 6052,
      "about": 6053,
      "281": 6054,
      "poverty": 6055,
      "Depend": 6056,
      "Cham": 6057,
      "tspo": 6058,
      "akes": 6059,
      "akrishnan": 6060,
      "402": 6061,
      "232": 6062,
      "239": 6063,
      "harash": 6064,
      "express": 6065,
      "ained": 6066,
      "292": 6067,
      "dog": 6068,
      "ension": 6069,
      "uced": 6070,
      "ell": 6071,
      "parks": 6072,
      "Sele": 6073,
      "Search": 6074,
      "cos": 6075,
      "cover": 6076,
      "codi": 6077,
      "prus": 6078,
      "363": 6079,
      "ically": 6080,
      "461": 6081,
      "Enforcement": 6082,
      "Maury": 6083,
      "Maharash": 6084,
      "7733": 6085,
      "391": 6086,
      "394": 6087,
      "398": 6088,
      "disc": 6089,
      "ultures": 6090,
      "Gukesh": 6091,
      "subject": 6092,
      "popular": 6093,
      "histor": 6094,
      "laci": 6095,
      "Biosphere": 6096,
      "value": 6097,
      "ugu": 6098,
      "Rajya": 6099,
      "Thali": 6100,
      "governments": 6101,
      "phib": 6102,
      "sourc": 6103,
      "bio": 6104,
      "Concise": 6105,
      "cutta": 6106,
      "crimin": 6107,
      "incely": 6108,
      "ayanagara": 6109,
      "Janata": 6110,
      "Although": 6111,
      "Minority": 6112,
      "COVID": 6113,
      "Lok": 6114,
      "Trust": 6115,
      "Arabia": 6116,
      "967733": 6117,
      "Child": 6118,
      "Vietnam": 6119,
      "Gujarati": 6120,
      "Santal": 6121,
      "default": 6122,
      "sculpture": 6123,
      "supp": 6124,
      "Turkey": 6125,
      "player": 6126,
      "Tradi": 6127,
      "legal": 6128,
      "Nepali": 6129,
      "Subraman": 6130,
      "Trib": 6131,
      "Police": 6132,
      "IAF": 6133,
      "astrian": 6134,
      "Clément": 6135,
      "Board": 6136,
      "Balakrishnan": 6137,
      "Telugu": 6138,
      "Parliamentary": 6139,
      "humans": 6140,
      "penins": 6141,
      "wards": 6142,
      "Akbar": 6143,
      "survey": 6144,
      "Calcutta": 6145,
      "Maurya": 6146,
      "NIFT": 6147,
      "Mango": 6148,
      "Zealand": 6149,
      "Christianity": 6150,
      "birth": 6151,
      "Studies": 6152,
      "Philipp": 6153,
      "Michell2000": 6154,
      "Molnar2015": 6155,
      "Kannada": 6156,
      "Mizoram": 6157,
      "following": 6158,
      "mountains": 6159,
      "migration": 6160,
      "liberalisation": 6161,
      "approxim": 6162,
      "Cyprus": 6163,
      "reserves": 6164,
      "touchability": 6165,
      "Dommaraju": 6166,
      "temporary": 6167,
      "getarian": 6168,
      "Vijayanagara": 6169,
      "Aitchison": 6170,
      "Cynthia": 6171,
      "Field": 6172,
      "Ojha": 6173,
      "Poverty": 6174,
      "Zoroastrian": 6175,
      "eaten": 6176,
      "mortality": 6177,
      "alysis": 6178,
      "CITEREFHarle1994": 6179,
      "developed": 6180,
      "Maharashtra": 6181,
      "Clémentin": 6182,
      "NIFTY": 6183,
      "Philippines": 6184,
      "421": 6185,
      "447": 6186,
      "Daman": 6187,
      "ES": 6188,
      "Fact": 6189,
      "Global": 6190,
      "Pos": 6191,
      "ause": 6192,
      "eff": 6193,
      "list": 6194,
      "mus": 6195,
      "ued": 6196,
      "ऐतिहासिक": 6197,
      "ठा": 6198,
      "द्रा": 6199,
      "मन्त्र": 6200,
      "सिया": 6201,
      "सफल": 6202,
      "१०": 6203,
      "१३": 6204,
      "cir": 6205,
      "ick": 6206,
      "ading": 6207,
      "FOOTNOTEMinistry": 6208,
      "make": 6209,
      "पुत्र": 6210,
      "505": 6211,
      "180": 6212,
      "हिस्": 6213,
      "मिला": 6214,
      "मुद्रा": 6215,
      "मी2": 6216,
      "claim": 6217,
      "1964": 6218,
      "1968": 6219,
      "IND": 6220,
      "स्वरूप": 6221,
      "oupadi": 6222,
      "Diu": 6223,
      "प्रधानमन्त्र": 6224,
      "Present": 6225,
      "11934": 6226,
      "increase": 6227,
      "पारसी": 6228,
      "aedia": 6229,
      "Tripura": 6230,
      "Manipuri": 6231,
      "disputes": 6232,
      "cb11934": 6233,
      "भरत": 6234,
      "Droupadi": 6235,
      "238p": 6236,
      "Encyclopaedia": 6237,
      "Volume": 6238,
      "Barbara": 6239,
      "LCCN": 6240,
      "features": 6241,
      "दृष्टि": 6242,
      "Murmu": 6243,
      "Factbook": 6244,
      "प्रधानमन्त्री": 6245,
      "cb11934238p": 6246,
      "323": 6247,
      "418": 6248,
      "700": 6249,
      "870": 6250,
      "Hand": 6251,
      "Lat": 6252,
      "PK": 6253,
      "Ph": 6254,
      "Rai": 6255,
      "Rights": 6256,
      "Serv": 6257,
      "There": 6258,
      "Ver": 6259,
      "average": 6260,
      "fast": 6261,
      "home": 6262,
      "multi": 6263,
      "ove": 6264,
      "pages": 6265,
      "vanced": 6266,
      "init": 6267,
      "thme": 6268,
      "tives": 6269,
      "20111": 6270,
      "icine": 6271,
      "1956": 6272,
      "1984": 6273,
      "ficient": 6274,
      "olar": 6275,
      "called": 6276,
      "164": 6277,
      "above": 6278,
      "404": 6279,
      "impact": 6280,
      "272": 6281,
      "435": 6282,
      "mode": 6283,
      "profile": 6284,
      "Paul": 6285,
      "383": 6286,
      "size": 6287,
      "AgAAQBAJ": 6288,
      "annual": 6289,
      "Institute": 6290,
      "defence": 6291,
      "Literature": 6292,
      "laws": 6293,
      "Technology": 6294,
      "catalogue": 6295,
      "atabase": 6296,
      "ctricity": 6297,
      "adopted": 6298,
      "Defence": 6299,
      "thmetic": 6300,
      "228": 6301,
      "224": 6302,
      "341": 6303,
      "414": 6304,
      "5th": 6305,
      "6th": 6306,
      "7th": 6307,
      "981": 6308,
      "Att": 6309,
      "Che": 6310,
      "Dh": 6311,
      "Eight": 6312,
      "Fa": 6313,
      "Four": 6314,
      "Falls": 6315,
      "G4": 6316,
      "Gum": 6317,
      "HQ": 6318,
      "Hass": 6319,
      "Hote": 6320,
      "Im": 6321,
      "Ira": 6322,
      "Its": 6323,
      "Iyer": 6324,
      "JS": 6325,
      "Jim": 6326,
      "Kha": 6327,
      "Kangra": 6328,
      "Lear": 6329,
      "Lord": 6330,
      "Mall": 6331,
      "Make": 6332,
      "Magen": 6333,
      "ND": 6334,
      "Nav": 6335,
      "Operation": 6336,
      "Peng": 6337,
      "Range": 6338,
      "Ratna": 6339,
      "SN": 6340,
      "Ser": 6341,
      "Sport": 6342,
      "Sach": 6343,
      "Sacred": 6344,
      "Tod": 6345,
      "Tung": 6346,
      "Tourism": 6347,
      "Whe": 6348,
      "YS": 6349,
      "Yum": 6350,
      "Yaks": 6351,
      "cul": 6352,
      "climate": 6353,
      "court": 6354,
      "cultures": 6355,
      "dances": 6356,
      "eag": 6357,
      "epic": 6358,
      "fam": 6359,
      "fund": 6360,
      "folk": 6361,
      "gadi": 6362,
      "jolad": 6363,
      "kb": 6364,
      "kher": 6365,
      "llion": 6366,
      "mc": 6367,
      "mt": 6368,
      "met": 6369,
      "nami": 6370,
      "pred": 6371,
      "ski": 6372,
      "sun": 6373,
      "sports": 6374,
      "signific": 6375,
      "tle": 6376,
      "tap": 6377,
      "vict": 6378,
      "wk": 6379,
      "wan": 6380,
      "won": 6381,
      "zz": 6382,
      "ædia": 6383,
      "ंटे": 6384,
      "ंमार": 6385,
      "अभ": 6386,
      "अला": 6387,
      "अंट": 6388,
      "अजं": 6389,
      "आग": 6390,
      "आठ": 6391,
      "आया": 6392,
      "इंदि": 6393,
      "इंट": 6394,
      "उल": 6395,
      "ऋग्व": 6396,
      "एफ": 6397,
      "एजें": 6398,
      "ओआई": 6399,
      "ओडिया": 6400,
      "औसत": 6401,
      "कप": 6402,
      "कर्म": 6403,
      "कमिल": 6404,
      "खर": 6405,
      "खान": 6406,
      "खगोल": 6407,
      "गल": 6408,
      "ग़": 6409,
      "चंप": 6410,
      "छा": 6411,
      "छो": 6412,
      "जॉ": 6413,
      "जिया": 6414,
      "जाना": 6415,
      "जलो": 6416,
      "जहाँ": 6417,
      "झी": 6418,
      "ठन": 6419,
      "ठार": 6420,
      "णे": 6421,
      "तः": 6422,
      "थु": 6423,
      "दों": 6424,
      "धता": 6425,
      "धोला": 6426,
      "नम": 6427,
      "नार": 6428,
      "पत्र": 6429,
      "पड़ो": 6430,
      "पठार": 6431,
      "बु": 6432,
      "बलि": 6433,
      "बहरी": 6434,
      "भरा": 6435,
      "मना": 6436,
      "मंग": 6437,
      "म्या": 6438,
      "मृत": 6439,
      "मपुत्र": 6440,
      "मथु": 6441,
      "यण": 6442,
      "यमु": 6443,
      "रिक": 6444,
      "रजवा": 6445,
      "लौ": 6446,
      "लद्": 6447,
      "वरण": 6448,
      "शल": 6449,
      "सौ": 6450,
      "ह्": 6451,
      "हम्": 6452,
      "िक्ष": 6453,
      "ीकरण": 6454,
      "ुट": 6455,
      "ुष": 6456,
      "ूदी": 6457,
      "ोबार": 6458,
      "्मार": 6459,
      "१२": 6460,
      "१६": 6461,
      "१७": 6462,
      "२४": 6463,
      "४०": 6464,
      "అర": 6465,
      "అక్ష": 6466,
      "అరే": 6467,
      "అభి": 6468,
      "అశో": 6469,
      "అండమా": 6470,
      "ఆధ": 6471,
      "ఇంట": 6472,
      "ఉంట": 6473,
      "ఎక్": 6474,
      "ఏప్ర": 6475,
      "కల": 6476,
      "కలు": 6477,
      "కర్య": 6478,
      "కబడ్": 6479,
      "ఖో": 6480,
      "గే": 6481,
      "గర్": 6482,
      "చద": 6483,
      "చో": 6484,
      "చండ": 6485,
      "జం": 6486,
      "జయ": 6487,
      "టై": 6488,
      "టర్": 6489,
      "డమ్": 6490,
      "డయ్య": 6491,
      "డఖ్": 6492,
      "ణే": 6493,
      "ణంగా": 6494,
      "నంద": 6495,
      "నడి": 6496,
      "నంలో": 6497,
      "పత": 6498,
      "పచ్": 6499,
      "బో": 6500,
      "బర్": 6501,
      "బంధ": 6502,
      "మో": 6503,
      "మాలు": 6504,
      "మలే": 6505,
      "యె": 6506,
      "రళ": 6507,
      "లాం": 6508,
      "లంగా": 6509,
      "లడఖ్": 6510,
      "ళా": 6511,
      "ళి": 6512,
      "వారి": 6513,
      "వనాలు": 6514,
      "శి": 6515,
      "శు": 6516,
      "షియా": 6517,
      "సహ": 6518,
      "సే": 6519,
      "సత్య": 6520,
      "హొ": 6521,
      "హవే": 6522,
      "హర్యా": 6523,
      "ైస్త": 6524,
      "ias": 6525,
      "enac": 6526,
      "tely": 6527,
      "anasi": 6528,
      "thomas": 6529,
      "til": 6530,
      "erce": 6531,
      "aria": 6532,
      "alwar": 6533,
      "real": 6534,
      "andy": 6535,
      "omed": 6536,
      "eded": 6537,
      "्यु": 6538,
      "केवल": 6539,
      "1936": 6540,
      "1948": 6541,
      "ooking": 6542,
      "nold": 6543,
      "్రి": 6544,
      "idget": 6545,
      "atel": 6546,
      "रामा": 6547,
      "रात्रि": 6548,
      "राधा": 6549,
      "राइल": 6550,
      "trop": 6551,
      "amas": 6552,
      "मेर": 6553,
      "मेव": 6554,
      "ings": 6555,
      "ush": 6556,
      "usion": 6557,
      "acus": 6558,
      "acter": 6559,
      "स्तिक": 6560,
      "कामा": 6561,
      "काशी": 6562,
      "urther": 6563,
      "क्ट": 6564,
      "lie": 6565,
      "lite": 6566,
      "10th": 6567,
      "1093": 6568,
      "compar": 6569,
      "compan": 6570,
      "याँ": 6571,
      "यां": 6572,
      "यास": 6573,
      "char": 6574,
      "chae": 6575,
      "angam": 6576,
      "ాలయ": 6577,
      "ాలె": 6578,
      "ాలను": 6579,
      "film": 6580,
      "ula": 6581,
      "FOOTNOTEBlurton": 6582,
      "FOOTNOTELudden2014": 6583,
      "FOOTNOTEWright2010": 6584,
      "प्रत्य": 6585,
      "प्रभु": 6586,
      "प्रयास": 6587,
      "विरो": 6588,
      "terr": 6589,
      "तिरु": 6590,
      "तिमोर": 6591,
      "entire": 6592,
      "नास्तिक": 6593,
      "क्षम": 6594,
      "సామా": 6595,
      "roban": 6596,
      "may": 6597,
      "ravan": 6598,
      "ర్ణం": 6599,
      "ర్చు": 6600,
      "redi": 6601,
      "ेशिय": 6602,
      "indigenous": 6603,
      "साँची": 6604,
      "ताम": 6605,
      "agran": 6606,
      "agola": 6607,
      "agogue": 6608,
      "agwat": 6609,
      "पुदु": 6610,
      "Reuters": 6611,
      "CITEREFRobb": 6612,
      "CITEREFDikshitSchwartzberg2023": 6613,
      "CITEREFLudden2014": 6614,
      "iris": 6615,
      "రాం": 6616,
      "రాస్య": 6617,
      "ప్రజా": 6618,
      "భారతదేశపు": 6619,
      "భారతదేశానికి": 6620,
      "tripura": 6621,
      "declar": 6622,
      "లోని": 6623,
      "17th": 6624,
      "17feb": 6625,
      "154": 6626,
      "hawk": 6627,
      "कोष": 6628,
      "राज्यसभा": 6629,
      "राज्यक्षेत्रों": 6630,
      "sett": 6631,
      "heredit": 6632,
      "abhad": 6633,
      "मात्र": 6634,
      "सिल": 6635,
      "सिस": 6636,
      "सियों": 6637,
      "Southern": 6638,
      "Southwest": 6639,
      "point": 6640,
      "Devi": 6641,
      "నికోబ": 6642,
      "Chur": 6643,
      "Chang": 6644,
      "bett": 6645,
      "bellion": 6646,
      "245": 6647,
      "252": 6648,
      "वागढ़": 6649,
      "चीनी": 6650,
      "ంగో": 6651,
      "पाँच": 6652,
      "पाइन": 6653,
      "पावागढ़": 6654,
      "समर्थ": 6655,
      "ghat": 6656,
      "exp": 6657,
      "expand": 6658,
      "AAAAMAAJ": 6659,
      "293": 6660,
      "ండా": 6661,
      "ండ్య": 6662,
      "निम्": 6663,
      "नियों": 6664,
      "సింది": 6665,
      "करते": 6666,
      "poration": 6667,
      "271": 6668,
      "does": 6669,
      "తాజ్": 6670,
      "जनसां": 6671,
      "जनपद": 6672,
      "నాథ": 6673,
      "వివిధ": 6674,
      "बाग": 6675,
      "लीपी": 6676,
      "avoor": 6677,
      "मिन": 6678,
      "मित्व": 6679,
      "api": 6680,
      "aphr": 6681,
      "త్తీ": 6682,
      "तीन": 6683,
      "ysHQ": 6684,
      "కుల": 6685,
      "కుంట": 6686,
      "माना": 6687,
      "मानचित्र": 6688,
      "earliest": 6689,
      "anathan": 6690,
      "hoti": 6691,
      "however": 6692,
      "म्बर": 6693,
      "म्ब्रि": 6694,
      "lled": 6695,
      "పూర్వ": 6696,
      "వాదం": 6697,
      "ికీ": 6698,
      "్రామ": 6699,
      "367": 6700,
      "नीताल": 6701,
      "మాత్ర": 6702,
      "Archae": 6703,
      "భాగం": 6704,
      "gener": 6705,
      "marg": 6706,
      "Mathur": 6707,
      "సంప్రదా": 6708,
      "कृष्ण": 6709,
      "కాతా": 6710,
      "soci": 6711,
      "manuscript": 6712,
      "కిం": 6713,
      "కింగ్": 6714,
      "పాండి": 6715,
      "పాండ్య": 6716,
      "osysHQ": 6717,
      "పుర": 6718,
      "స్థా": 6719,
      "miling": 6720,
      "న్నై": 6721,
      "गणित": 6722,
      "discrimin": 6723,
      "Prospe": 6724,
      "देखा": 6725,
      "देहरा": 6726,
      "महाबलि": 6727,
      "महाजनपद": 6728,
      "होली": 6729,
      "होते": 6730,
      "धर्मनिरपेक्ष": 6731,
      "द्यनाथ": 6732,
      "पीएम": 6733,
      "Chinna": 6734,
      "रेखा": 6735,
      "Anti": 6736,
      "phan": 6737,
      "formed": 6738,
      "565": 6739,
      "566": 6740,
      "ज्जि": 6741,
      "संघर्ष": 6742,
      "Coal": 6743,
      "six": 6744,
      "svara": 6745,
      "ब्रह्": 6746,
      "Delta": 6747,
      "consum": 6748,
      "construction": 6749,
      "इसकी": 6750,
      "वीरा": 6751,
      "Shravan": 6752,
      "तकनी": 6753,
      "Forest": 6754,
      "domin": 6755,
      "జిల్": 6756,
      "दाबाद": 6757,
      "కేరళ": 6758,
      "గుప్": 6759,
      "1007": 6760,
      "स्थानीय": 6761,
      "१९६": 6762,
      "లియా": 6763,
      "स्वतन्त्रता": 6764,
      "cked": 6765,
      "वनेश्वर": 6766,
      "वनवर्ल्ड": 6767,
      "uggle": 6768,
      "मैकमिल": 6769,
      "चलचित्र": 6770,
      "ynus": 6771,
      "माल्": 6772,
      "मालिया": 6773,
      "तटरक्ष": 6774,
      "చేయ": 6775,
      "దాద్రా": 6776,
      "Regions": 6777,
      "आईडी": 6778,
      "వేగంగా": 6779,
      "institution": 6780,
      "टेली": 6781,
      "यहूदी": 6782,
      "Alla": 6783,
      "बंगलोर": 6784,
      "च्चेरी": 6785,
      "Colonial": 6786,
      "दून": 6787,
      "చెన్నై": 6788,
      "జీరియా": 6789,
      "ప్పట": 6790,
      "మేన": 6791,
      "యుగం": 6792,
      "elections": 6793,
      "गोवा": 6794,
      "संगठन": 6795,
      "एसएन": 6796,
      "क्रय": 6797,
      "वैद्यनाथ": 6798,
      "twater": 6799,
      "Bridget": 6800,
      "जयते": 6801,
      "జనతా": 6802,
      "జనగణ": 6803,
      "జనపద": 6804,
      "डीओआई": 6805,
      "Bhute": 6806,
      "బియా": 6807,
      "FOOTNOTEStein2010118": 6808,
      "మొగలు": 6809,
      "foreign": 6810,
      "निर्धन": 6811,
      "కొరియా": 6812,
      "मार्शल": 6813,
      "otechnology": 6814,
      "Presid": 6815,
      "desert": 6816,
      "Ramsar": 6817,
      "Ramnami": 6818,
      "traditions": 6819,
      "Palghat": 6820,
      "Arabian": 6821,
      "గోళ": 6822,
      "గోవా": 6823,
      "గోదా": 6824,
      "డామన్": 6825,
      "uments": 6826,
      "వరాలు": 6827,
      "ప్రపంచము": 6828,
      "ప్రపంచంలో": 6829,
      "FOOTNOTEStein1998119": 6830,
      "Narayan": 6831,
      "త్రిపుర": 6832,
      "कार्यालय": 6833,
      "देवनाग": 6834,
      "देवघर": 6835,
      "సంస్కృతం": 6836,
      "crocodi": 6837,
      "वायुसेना": 6838,
      "महासागरीय": 6839,
      "zette": 6840,
      "अमर": 6841,
      "పించ": 6842,
      "Election": 6843,
      "support": 6844,
      "सोम": 6845,
      "सोवियत": 6846,
      "सोमालिया": 6847,
      "ानेर": 6848,
      "నాగాలా": 6849,
      "बनाने": 6850,
      "FOOTNOTEKulkeRothermund2016": 6851,
      "नवरात्रि": 6852,
      "भोपाल": 6853,
      "క్రైస్త": 6854,
      "తెలంగా": 6855,
      "संबंधी": 6856,
      "Himalaya": 6857,
      "दशहरा": 6858,
      "వెను": 6859,
      "సాంకే": 6860,
      "स्थापना": 6861,
      "Perform": 6862,
      "linkid": 6863,
      "निकोबार": 6864,
      "मौर्य": 6865,
      "production": 6866,
      "hindirele": 6867,
      "Basu": 6868,
      "Baspa": 6869,
      "अल्प": 6870,
      "अल्पाइन": 6871,
      "భిన్న": 6872,
      "तेलुगु": 6873,
      "నేషియా": 6874,
      "२००४": 6875,
      "Corbett": 6876,
      "Kaz": 6877,
      "literature": 6878,
      "दिवाली": 6879,
      "शहरों": 6880,
      "ఒకటి": 6881,
      "estimated": 6882,
      "इस्लामी": 6883,
      "Sindoor": 6884,
      "agarwal": 6885,
      "भुवनेश्वर": 6886,
      "కళలు": 6887,
      "సైనిక": 6888,
      "स्वामित्व": 6889,
      "FOOTNOTEHarle1994": 6890,
      "FOOTNOTESpear1990243": 6891,
      "Democratic": 6892,
      "Online": 6893,
      "राजधानियाँ": 6894,
      "Thomason": 6895,
      "जानकारी": 6896,
      "पटना": 6897,
      "బ్రిటిష్": 6898,
      "Summer": 6899,
      "Vaidy": 6900,
      "onics": 6901,
      "FrontView": 6902,
      "जंघा": 6903,
      "స్వతం": 6904,
      "ముఖ్యమైన": 6905,
      "producer": 6906,
      "Saltwater": 6907,
      "factbook": 6908,
      "pandemic": 6909,
      "index1": 6910,
      "Sangla": 6911,
      "Encyclopædia": 6912,
      "SAGE": 6913,
      "Samaj": 6914,
      "Varanasi": 6915,
      "कंचन": 6916,
      "क़तर": 6917,
      "कैम्ब्रि": 6918,
      "లక్షద్వీ": 6919,
      "thurai": 6920,
      "वियतनाम": 6921,
      "దేశంలోని": 6922,
      "पीपीपी": 6923,
      "atistics": 6924,
      "directly": 6925,
      "नैनीताल": 6926,
      "సమరం": 6927,
      "సూచి": 6928,
      "भाषी": 6929,
      "अमरीका": 6930,
      "पब्लिकेश": 6931,
      "Gateway": 6932,
      "Havelock": 6933,
      "FOOTNOTESharma2007": 6934,
      "पहाड़ी": 6935,
      "అస్సాం": 6936,
      "సారస్వతం": 6937,
      "नियंत्र": 6938,
      "आईएसएसएन": 6939,
      "InfosysHQ": 6940,
      "Blackwell": 6941,
      "Insurance": 6942,
      "Madrasah": 6943,
      "उदयपुर": 6944,
      "Copland2001": 6945,
      "Satpura": 6946,
      "अफ़्रीका": 6947,
      "अहमदाबाद": 6948,
      "नदियाँ": 6949,
      "म्यान्मार": 6950,
      "జార్ఖండ్": 6951,
      "మహల్": 6952,
      "సౌకర్య": 6953,
      "percent": 6954,
      "CITEREFAsherTalbot2006": 6955,
      "थाईलैंड": 6956,
      "సిక్కిం": 6957,
      "మిజోరాం": 6958,
      "महानगर": 6959,
      "FOOTNOTEHarle19943": 6960,
      "స్టాక్": 6961,
      "తరువాత": 6962,
      "ridangam": 6963,
      "practices": 6964,
      "built": 6965,
      "Sanchi2": 6966,
      "Classical": 6967,
      "Olympics": 6968,
      "ख्यिकी": 6969,
      "ఏర్ప": 6970,
      "కనుమలు": 6971,
      "మణిపూర్": 6972,
      "प्रभाव": 6973,
      "प्रवेशद्वार": 6974,
      "టిబెట్": 6975,
      "వారసత్వ": 6976,
      "అమెరికా": 6977,
      "Nilgiris": 6978,
      "success": 6979,
      "इराक़": 6980,
      "उज्जैन": 6981,
      "सत्यमेव": 6982,
      "lizard": 6983,
      "FOOTNOTEAsherTalbot2022": 6984,
      "abelagola": 6985,
      "College": 6986,
      "अन्तर्राष्ट्रीय": 6987,
      "Duttaphr": 6988,
      "Crested": 6989,
      "Young2015": 6990,
      "సహాయం": 6991,
      "संरक्षित": 6992,
      "ConinghamYoung2015": 6993,
      "మేఘాలయ": 6994,
      "Kadavoor": 6995,
      "Synagogue": 6996,
      "vidence": 6997,
      "Subramaniam": 6998,
      "peninsular": 6999,
      "approximately": 7000,
      "Attacus": 7001,
      "Dhyan": 7002,
      "Gumpa": 7003,
      "Hassan": 7004,
      "Hotel": 7005,
      "Learning": 7006,
      "Mallalli": 7007,
      "Penguin": 7008,
      "Sachin": 7009,
      "Tungabhad": 7010,
      "Yumthang": 7011,
      "Yakshis": 7012,
      "eagle": 7013,
      "gadiverse": 7014,
      "sunbird": 7015,
      "taproban": 7016,
      "अलावा": 7017,
      "अंटार्कटिका": 7018,
      "अजंता": 7019,
      "इंदिरा": 7020,
      "इंटर": 7021,
      "ऋग्वेद": 7022,
      "खानपान": 7023,
      "खगोलशास्त्र": 7024,
      "चंपानेर": 7025,
      "छोटे": 7026,
      "जलोढ़": 7027,
      "धोलावीरा": 7028,
      "पड़ोसी": 7029,
      "बहरीन": 7030,
      "मंगोल": 7031,
      "म्यांमार": 7032,
      "मथुरा": 7033,
      "रजवाड़े": 7034,
      "लद्दाख": 7035,
      "हम्पी": 7036,
      "అరేబియా": 7037,
      "అండమాన్": 7038,
      "ఎక్స్": 7039,
      "ఏప్రిల్": 7040,
      "కబడ్డీ": 7041,
      "చదరంగ": 7042,
      "చోళ": 7043,
      "చండీ": 7044,
      "డయ్యూ": 7045,
      "పచ్చ": 7046,
      "మలేషియా": 7047,
      "హవేలీ": 7048,
      "హర్యానా": 7049,
      "thomason": 7050,
      "omedary": 7051,
      "रामायण": 7052,
      "राधाकृष्ण": 7053,
      "कामाख्या": 7054,
      "तिरुवन": 7055,
      "नास्तिकता": 7056,
      "पुदुच्चेरी": 7057,
      "రాస్యత": 7058,
      "17feb14": 7059,
      "నికోబార్": 7060,
      "समर्थन": 7061,
      "जनसांख्यिकी": 7062,
      "త్తీస్": 7063,
      "Mathura": 7064,
      "పాండిచ్చేరి": 7065,
      "Prospects": 7066,
      "देहरादून": 7067,
      "महाबलिपुरम": 7068,
      "पीएमआईडी": 7069,
      "Chinnathurai": 7070,
      "ब्रह्मपुत्र": 7071,
      "Shravanabelagola": 7072,
      "मैकमिलन": 7073,
      "तटरक्षक": 7074,
      "జనపదాలు": 7075,
      "Bhutesvara": 7076,
      "निर्धनता": 7077,
      "देवनागरी": 7078,
      "crocodile": 7079,
      "నాగాలాండ్": 7080,
      "తెలంగాణ": 7081,
      "hindirelease": 7082,
      "Vaidyanathan": 7083,
      "कंचनजंघा": 7084,
      "कैम्ब्रिज": 7085,
      "లక్షద్వీప్": 7086,
      "पब्लिकेशन्स": 7087,
      "InfosysHQFrontView": 7088,
      "Duttaphrynus": 7089,
      "Tungabhadra": 7090,
      "taprobanis": 7091,
      "राधाकृष्णन": 7092,
      "1b": 7093,
      "374": 7094,
      "426": 7095,
      "430": 7096,
      "900": 7097,
      "Cos": 7098,
      "Gan": 7099,
      "LD": 7100,
      "ee": 7101,
      "kC": 7102,
      "memor": 7103,
      "ov": 7104,
      "sci": 7105,
      "sang": 7106,
      "library": 7107,
      "chasing": 7108,
      "makes": 7109,
      "resources": 7110,
      "268": 7111,
      "155": 7112,
      "harv": 7113,
      "290": 7114,
      "udget": 7115,
      "parity": 7116,
      "parame": 7117,
      "470": 7118,
      "Shri": 7119,
      "Peter": 7120,
      "734": 7121,
      "Division": 7122,
      "because": 7123,
      "pubmed": 7124,
      "Network": 7125,
      "parameters": 7126,
      "5196": 7127,
      "DD": 7128,
      "EN": 7129,
      "LS": 7130,
      "NGD": 7131,
      "Sc": 7132,
      "Str": 7133,
      "Sher": 7134,
      "Tables": 7135,
      "WP": 7136,
      "W00": 7137,
      "XLS": 7138,
      "a7": 7139,
      "dna": 7140,
      "find": 7141,
      "gad": 7142,
      "gana": 7143,
      "gold": 7144,
      "jana": 7145,
      "kma": 7146,
      "mana": 7147,
      "script": 7148,
      "tats": 7149,
      "ua": 7150,
      "worth": 7151,
      "written": 7152,
      "छि": 7153,
      "पिय": 7154,
      "२२": 7155,
      "enumeration": 7156,
      "Income": 7157,
      "those": 7158,
      "206": 7159,
      "20A": 7160,
      "20MD": 7161,
      "isni": 7162,
      "1901": 7163,
      "trillion": 7164,
      "amang": 7165,
      "र्भ": 7166,
      "weo": 7167,
      "सेपिय": 7168,
      "lins": 7169,
      "trition": 7170,
      "1858": 7171,
      "having": 7172,
      "sex": 7173,
      "ably": 7174,
      "Char": 7175,
      "2542": 7176,
      "Harper": 7177,
      "समस": 7178,
      "down": 7179,
      "partition": 7180,
      "ndl": 7181,
      "cology": 7182,
      "coef": 7183,
      "200709": 7184,
      "उत्पत्ति": 7185,
      "909": 7186,
      "463": 7187,
      "titutes": 7188,
      "कृत": 7189,
      "कृतिक": 7190,
      "4985": 7191,
      "487": 7192,
      "while": 7193,
      "जीत": 7194,
      "display": 7195,
      "होमो": 7196,
      "अनुसूची": 7197,
      "सार्व": 7198,
      "1208": 7199,
      "popul": 7200,
      "wns": 7201,
      "दाय": 7202,
      "वेस्ट": 7203,
      "Rajiv": 7204,
      "news18": 7205,
      "सम्बन्ध": 7206,
      "Internet": 7207,
      "सभक": 7208,
      "684": 7209,
      "Collins": 7210,
      "एसिया": 7211,
      "know": 7212,
      "descri": 7213,
      "Media": 7214,
      "अफगान": 7215,
      "UNHD": 7216,
      "tribution": 7217,
      "viaf": 7218,
      "PCA": 7219,
      "borders": 7220,
      "20833": 7221,
      "Twenty": 7222,
      "शैली": 7223,
      "क्रिसमस": 7224,
      "61389": 7225,
      "figures": 7226,
      "प्रशासनिक": 7227,
      "voyage": 7228,
      "DDW00": 7229,
      "NGDPD": 7230,
      "dnaindia": 7231,
      "tatsama": 7232,
      "20MDDS": 7233,
      "HarperCollins": 7234,
      "coefficient": 7235,
      "498576": 7236,
      "अफगानिस्तान": 7237,
      "UNHDR": 7238,
      "DDW00C": 7239,
      "217": 7240,
      "314": 7241,
      "315": 7242,
      "329": 7243,
      "327": 7244,
      "370": 7245,
      "346": 7246,
      "375": 7247,
      "373": 7248,
      "3rd": 7249,
      "4th": 7250,
      "550": 7251,
      "556": 7252,
      "953": 7253,
      "Ap": 7254,
      "Acha": 7255,
      "Area": 7256,
      "BT": 7257,
      "Bay": 7258,
      "Bel": 7259,
      "Dig": 7260,
      "During": 7261,
      "EAS": 7262,
      "Far": 7263,
      "Found": 7264,
      "Gav": 7265,
      "James": 7266,
      "Ki": 7267,
      "Mas": 7268,
      "Maj": 7269,
      "Num": 7270,
      "PO": 7271,
      "PS": 7272,
      "Put": 7273,
      "Phy": 7274,
      "Pharmaceutical": 7275,
      "Red": 7276,
      "Rak": 7277,
      "Smi": 7278,
      "Since": 7279,
      "Tro": 7280,
      "Tir": 7281,
      "Treat": 7282,
      "Tandoor": 7283,
      "Ud": 7284,
      "VII": 7285,
      "Vict": 7286,
      "XVII": 7287,
      "Year": 7288,
      "buc": 7289,
      "cr": 7290,
      "ctr": 7291,
      "cook": 7292,
      "ceton": 7293,
      "cooking": 7294,
      "did": 7295,
      "dist": 7296,
      "dress": 7297,
      "due": 7298,
      "each": 7299,
      "f5": 7300,
      "forge": 7301,
      "further": 7302,
      "ga": 7303,
      "ili": 7304,
      "ived": 7305,
      "itte": 7306,
      "ming": 7307,
      "much": 7308,
      "nia": 7309,
      "near": 7310,
      "q9": 7311,
      "run": 7312,
      "rates": 7313,
      "sp": 7314,
      "sop": 7315,
      "same": 7316,
      "surr": 7317,
      "sovereign": 7318,
      "stock": 7319,
      "tation": 7320,
      "ting": 7321,
      "tool": 7322,
      "uil": 7323,
      "vast": 7324,
      "vest": 7325,
      "wl": 7326,
      "wAAQBAJ": 7327,
      "what": 7328,
      "worship": 7329,
      "words": 7330,
      "yles": 7331,
      "ores": 7332,
      "oration": 7333,
      "team": 7334,
      "tect": 7335,
      "tell": 7336,
      "inet": 7337,
      "inage": 7338,
      "integration": 7339,
      "onze": 7340,
      "Inves": 7341,
      "tiles": 7342,
      "hib": 7343,
      "hip": 7344,
      "204": 7345,
      "thew": 7346,
      "theory": 7347,
      "cip": 7348,
      "oman": 7349,
      "omic": 7350,
      "ouli": 7351,
      "20130": 7352,
      "ics": 7353,
      "ools": 7354,
      "idar": 7355,
      "ential": 7356,
      "gether": 7357,
      "geography": 7358,
      "geographical": 7359,
      "achi": 7360,
      "lif": 7361,
      "losop": 7362,
      "together": 7363,
      "etah": 7364,
      "health": 7365,
      "Asho": 7366,
      "unachal": 7367,
      "forests": 7368,
      "rivers": 7369,
      "rah": 7370,
      "rael": 7371,
      "00254": 7372,
      "result": 7373,
      "20210": 7374,
      "20250": 7375,
      "empire": 7376,
      "again": 7377,
      "CITEREFMetcalfMetcalf2012": 7378,
      "ays": 7379,
      "5059": 7380,
      "13th": 7381,
      "plant": 7382,
      "188": 7383,
      "189": 7384,
      "18th": 7385,
      "1847": 7386,
      "264": 7387,
      "child": 7388,
      "167": 7389,
      "1649": 7390,
      "abinet": 7391,
      "tuberculosis": 7392,
      "304": 7393,
      "309": 7394,
      "poin": 7395,
      "Dey": 7396,
      "uborne": 7397,
      "249": 7398,
      "256": 7399,
      "259": 7400,
      "import": 7401,
      "Harmand": 7402,
      "295": 7403,
      "common": 7404,
      "277": 7405,
      "2755": 7406,
      "ucture": 7407,
      "ders": 7408,
      "board": 7409,
      "eling": 7410,
      "else": 7411,
      "Roger": 7412,
      "ysical": 7413,
      "mod": 7414,
      "moist": 7415,
      "336": 7416,
      "hotspo": 7417,
      "Economist": 7418,
      "452": 7419,
      "4593": 7420,
      "Armen": 7421,
      "Arunachal": 7422,
      "aipur": 7423,
      "martial": 7424,
      "Israel": 7425,
      "Mahat": 7426,
      "osi": 7427,
      "397": 7428,
      "Protected": 7429,
      "Marshall": 7430,
      "53203": 7431,
      "BRIC": 7432,
      "regard": 7433,
      "tax": 7434,
      "Liber": 7435,
      "Life": 7436,
      "Plain": 7437,
      "tically": 7438,
      "Neuborne": 7439,
      "limited": 7440,
      "domain": 7441,
      "Ministers": 7442,
      "Scheduled": 7443,
      "valli": 7444,
      "liam": 7445,
      "Among": 7446,
      "Ambed": 7447,
      "iva": 7448,
      "ought": 7449,
      "southern": 7450,
      "Geological": 7451,
      "Geographical": 7452,
      "partly": 7453,
      "atter": 7454,
      "medie": 7455,
      "Aravalli": 7456,
      "garment": 7457,
      "Chandra": 7458,
      "Chandram": 7459,
      "Flora": 7460,
      "Lowe": 7461,
      "Local": 7462,
      "Lower": 7463,
      "leading": 7464,
      "Blue": 7465,
      "Palgra": 7466,
      "Monitor": 7467,
      "linguistic": 7468,
      "cross": 7469,
      "News18": 7470,
      "basin": 7471,
      "erner": 7472,
      "share": 7473,
      "appa": 7474,
      "Islamic": 7475,
      "Untouchability": 7476,
      "director": 7477,
      "William": 7478,
      "Garg": 7479,
      "Duff": 7480,
      "humil": 7481,
      "grew": 7482,
      "black": 7483,
      "checked": 7484,
      "bread": 7485,
      "risis": 7486,
      "Barrow": 7487,
      "turned": 7488,
      "ticide": 7489,
      "existence": 7490,
      "influences": 7491,
      "influenced": 7492,
      "Medora": 7493,
      "Thir": 7494,
      "conflicts": 7495,
      "legislative": 7496,
      "ampion": 7497,
      "atantra": 7498,
      "Sahib": 7499,
      "Rao": 7500,
      "Space": 7501,
      "tigation": 7502,
      "recorded": 7503,
      "reliefs": 7504,
      "appear": 7505,
      "service": 7506,
      "democracy": 7507,
      "Syria": 7508,
      "AliAitchison": 7509,
      "finance": 7510,
      "roll": 7511,
      "onometry": 7512,
      "marriage": 7513,
      "Princeton": 7514,
      "astronomy": 7515,
      "Pallava": 7516,
      "Upper": 7517,
      "Mauryan": 7518,
      "sourced": 7519,
      "Traditional": 7520,
      "Ojha2014": 7521,
      "Handbook": 7522,
      "Fauna": 7523,
      "Iraq": 7524,
      "fundamental": 7525,
      "significant": 7526,
      "atellite": 7527,
      "tropical": 7528,
      "CITEREFRobb2011": 7529,
      "Performance": 7530,
      "successful": 7531,
      "5562": 7532,
      "95342": 7533,
      "Achaemen": 7534,
      "Gavin": 7535,
      "Major": 7536,
      "Putin": 7537,
      "Smith": 7538,
      "Treaty": 7539,
      "Udaipur": 7540,
      "Victor": 7541,
      "buck": 7542,
      "surround": 7543,
      "toolforge": 7544,
      "Investigation": 7545,
      "losophy": 7546,
      "Ashoka": 7547,
      "Harmandir": 7548,
      "45932": 7549,
      "Mahatma": 7550,
      "Ambedkar": 7551,
      "medieval": 7552,
      "Chandramouli": 7553,
      "Palgrave": 7554,
      "AliAitchison2005": 7555,
      "320": 7556,
      "377": 7557,
      "3000": 7558,
      "DO": 7559,
      "Eb": 7560,
      "FHA": 7561,
      "Freedom": 7562,
      "GQ": 7563,
      "Image": 7564,
      "Mand": 7565,
      "Of": 7566,
      "P13": 7567,
      "eas": 7568,
      "ium": 7569,
      "kमी2": 7570,
      "mj": 7571,
      "nised": 7572,
      "qy": 7573,
      "sy": 7574,
      "wC": 7575,
      "ंच": 7576,
      "ंपर": 7577,
      "अमान्य": 7578,
      "अक्ट": 7579,
      "आत": 7580,
      "आप": 7581,
      "आम": 7582,
      "आगमन": 7583,
      "आकर्": 7584,
      "आश्र": 7585,
      "एल": 7586,
      "एयर": 7587,
      "औप": 7588,
      "कव": 7589,
      "गै": 7590,
      "गों": 7591,
      "चो": 7592,
      "चित": 7593,
      "छोड़": 7594,
      "जट": 7595,
      "जना": 7596,
      "ट्": 7597,
      "टना": 7598,
      "दौ": 7599,
      "ध्व": 7600,
      "नदियों": 7601,
      "पण": 7602,
      "पॉ": 7603,
      "पमान": 7604,
      "फुट": 7605,
      "बह": 7606,
      "बान": 7607,
      "बाल": 7608,
      "बआर्": 7609,
      "बजट": 7610,
      "भौ": 7611,
      "महि": 7612,
      "मरु": 7613,
      "यिका": 7614,
      "रही": 7615,
      "रंगा": 7616,
      "लै": 7617,
      "लब्": 7618,
      "लगा": 7619,
      "लड़ा": 7620,
      "वत": 7621,
      "वान": 7622,
      "वस्त": 7623,
      "वणी": 7624,
      "वाली": 7625,
      "सँ": 7626,
      "हरू": 7627,
      "हरे": 7628,
      "ेक": 7629,
      "्ट": 7630,
      "ంత": 7631,
      "ంతి": 7632,
      "ంటి": 7633,
      "అంట": 7634,
      "అహ్మ": 7635,
      "ఆకు": 7636,
      "ఆధీ": 7637,
      "ఆహార": 7638,
      "ఇవి": 7639,
      "ఎన్": 7640,
      "ఐరో": 7641,
      "ఒలిం": 7642,
      "కంట": 7643,
      "గతి": 7644,
      "జు": 7645,
      "ఞాన": 7646,
      "టం": 7647,
      "టా": 7648,
      "టన్": 7649,
      "టులు": 7650,
      "ట్యం": 7651,
      "ణులు": 7652,
      "తన": 7653,
      "నృ": 7654,
      "నలు": 7655,
      "పక్ష": 7656,
      "పద్ధ": 7657,
      "మ్య": 7658,
      "మతి": 7659,
      "యాలో": 7660,
      "లె": 7661,
      "వ్": 7662,
      "వహి": 7663,
      "వత్స": 7664,
      "సర": 7665,
      "సీ": 7666,
      "సర్": 7667,
      "స్రా": 7668,
      "హై": 7669,
      "హో": 7670,
      "ాంగ": 7671,
      "ెట్": 7672,
      "will": 7673,
      "ttom": 7674,
      "online": 7675,
      "राई": 7676,
      "र्स": 7677,
      "usel": 7678,
      "काइव": 7679,
      "lobe": 7680,
      "कीय": 7681,
      "wear": 7682,
      "FOOTNOTELibrary": 7683,
      "प्रचल": 7684,
      "प्रदान": 7685,
      "प्रकाश": 7686,
      "विंग": 7687,
      "विंध": 7688,
      "विधा": 7689,
      "न्त": 7690,
      "స్సా": 7691,
      "नागा": 7692,
      "त्री": 7693,
      "राजनै": 7694,
      "लाइ": 7695,
      "साह": 7696,
      "ताओं": 7697,
      "तांत्रिक": 7698,
      "तापमान": 7699,
      "ager": 7700,
      "पुड़ा": 7701,
      "CITEREFWolpert2003": 7702,
      "नेहरू": 7703,
      "त्पत्ति": 7704,
      "कोई": 7705,
      "sehl": 7706,
      "త్రిక": 7707,
      "ष्क": 7708,
      "ष्म": 7709,
      "క్తి": 7710,
      "నిర్": 7711,
      "నిర్వ": 7712,
      "version": 7713,
      "वास": 7714,
      "वास्त": 7715,
      "चीफ": 7716,
      "रीबी": 7717,
      "समझ": 7718,
      "ght": 7719,
      "किए": 7720,
      "किये": 7721,
      "निस्ट": 7722,
      "्यादा": 7723,
      "portal": 7724,
      "ensity": 7725,
      "ज़र्व": 7726,
      "నాయక": 7727,
      "నాట్యం": 7728,
      "విభ": 7729,
      "విజ్": 7730,
      "बाहरी": 7731,
      "bottom": 7732,
      "मिलि": 7733,
      "मुक्त": 7734,
      "201412": 7735,
      "కులు": 7736,
      "मीणा": 7737,
      "मनमोहन": 7738,
      "476": 7739,
      "905": 7740,
      "तरह": 7741,
      "జాతి": 7742,
      "368": 7743,
      "provisions": 7744,
      "మాబాద్": 7745,
      "Emblem": 7746,
      "సంకీ": 7747,
      "సంబంధ": 7748,
      "సంవత్స": 7749,
      "सरे": 7750,
      "రుపు": 7751,
      "రుగు": 7752,
      "ोगा": 7753,
      "పాత్ర": 7754,
      "స్థి": 7755,
      "जीडी": 7756,
      "డియా": 7757,
      "వంట": 7758,
      "వంటి": 7759,
      "रेड": 7760,
      "Anthem": 7761,
      "మించ": 7762,
      "सरकारें": 7763,
      "हरि": 7764,
      "मोड़ा": 7765,
      "वेबआर्": 7766,
      "सेनाएँ": 7767,
      "గువ": 7768,
      "INR": 7769,
      "उपलब्": 7770,
      "व्यंजन": 7771,
      "తరాలు": 7772,
      "కోట్": 7773,
      "रिज़र्व": 7774,
      "లామాబాద్": 7775,
      "ప్రాంతీయ": 7776,
      "పేర్లు": 7777,
      "స్తారు": 7778,
      "मध्यम": 7779,
      "ట్లు": 7780,
      "మతాలు": 7781,
      "टेम्प": 7782,
      "पेन": 7783,
      "जिसका": 7784,
      "लोकतांत्रिक": 7785,
      "కూడు": 7786,
      "632": 7787,
      "కృష్": 7788,
      "struggle": 7789,
      "మధ్యప్రదేశ్": 7790,
      "ప్రాంతాల": 7791,
      "बोली": 7792,
      "కొన్ని": 7793,
      "पार्टियों": 7794,
      "eping": 7795,
      "भागवत": 7796,
      "రాజ్యాంగ": 7797,
      "author": 7798,
      "योग्य": 7799,
      "కార్య": 7800,
      "కారణంగా": 7801,
      "క్యాలె": 7802,
      "దేశాలలో": 7803,
      "docs": 7804,
      "उत्पादन": 7805,
      "पारंपर": 7806,
      "बढ़कर": 7807,
      "మైనది": 7808,
      "Purchasing": 7809,
      "शुरु": 7810,
      "शुष्क": 7811,
      "రోడ్": 7812,
      "बनाई": 7813,
      "పరిపాలన": 7814,
      "పరిశ్ర": 7815,
      "వెబ్": 7816,
      "పోర్చు": 7817,
      "ప్రాచీ": 7818,
      "२०१४": 7819,
      "अल्मोड़ा": 7820,
      "ఉన్నారు": 7821,
      "నేషన్స్": 7822,
      "Americ": 7823,
      "मलयाली": 7824,
      "लोगों": 7825,
      "వ్యాపార": 7826,
      "blue": 7827,
      "०००": 7828,
      "స్థానం": 7829,
      "స్థానంలో": 7830,
      "మొదల": 7831,
      "सतपुड़ा": 7832,
      "పీఠ": 7833,
      "विकसित": 7834,
      "विषयों": 7835,
      "विस्तार": 7836,
      "Jha2018": 7837,
      "अमरीकी": 7838,
      "पोर्टल": 7839,
      "ఇస్లాం": 7840,
      "ఇస్లామాబాద్": 7841,
      "కలిగి": 7842,
      "పండుగలు": 7843,
      "నగరాలు": 7844,
      "अर्ध": 7845,
      "सशस्": 7846,
      "జరిగిన": 7847,
      "పైగా": 7848,
      "ప్రజల": 7849,
      "కోర్టు": 7850,
      "ग्रीष्म": 7851,
      "घोषणा": 7852,
      "ओडिशा": 7853,
      "जैसे": 7854,
      "बहाई": 7855,
      "అనేక": 7856,
      "పరంగా": 7857,
      "లవుదినాలు": 7858,
      "पुर्तगाल": 7859,
      "ప్రస్తుతం": 7860,
      "माध्यम": 7861,
      "निवेशिक": 7862,
      "సంఘం": 7863,
      "పట్టణాలు": 7864,
      "पृष्ठसभ": 7865,
      "उसके": 7866,
      "कहते": 7867,
      "समाप्त": 7868,
      "ఎక్కువగా": 7869,
      "పల్లవులు": 7870,
      "परिषद": 7871,
      "Possehl": 7872,
      "आठवीं": 7873,
      "అభివృద్ధి": 7874,
      "అశోకుడు": 7875,
      "ఉంటాయి": 7876,
      "పతకాలు": 7877,
      "्युनिस्ट": 7878,
      "प्रत्येक": 7879,
      "సంప్రదాయాలు": 7880,
      "గుప్త": 7881,
      "గోదావరి": 7882,
      "नियंत्रण": 7883,
      "महानगरीय": 7884,
      "చండీగఢ్": 7885,
      "EbFHA": 7886,
      "P1308": 7887,
      "अक्टूबर": 7888,
      "आश्रय": 7889,
      "औपनिवेशिक": 7890,
      "गोंड": 7891,
      "महिला": 7892,
      "मरुस्थल": 7893,
      "वस्तु": 7894,
      "ఆకుపచ్చ": 7895,
      "ఎన్ను": 7896,
      "ఐరోపా": 7897,
      "ఒలింపిక్": 7898,
      "uselang": 7899,
      "विधायिका": 7900,
      "राजनैतिक": 7901,
      "విజ్ఞాన": 7902,
      "मिलियन": 7903,
      "जीडीपी": 7904,
      "वेबआर्काइव": 7905,
      "उपलब्धता": 7906,
      "टेम्पलेट": 7907,
      "కృష్ణా": 7908,
      "క్యాలెండర్": 7909,
      "पारंपरिक": 7910,
      "ప్రాచీన": 7911,
      "EbFHAQAAQBAJ": 7912,
      "3D": 7913,
      "413": 7914,
      "425": 7915,
      "825": 7916,
      "CIA": 7917,
      "Faith": 7918,
      "Ken": 7919,
      "Rā": 7920,
      "Rag": 7921,
      "Tex": 7922,
      "Van": 7923,
      "Wall": 7924,
      "cc": 7925,
      "eld": 7926,
      "ite": 7927,
      "rata": 7928,
      "sat": 7929,
      "inct": 7930,
      "207": 7931,
      "1989": 7932,
      "entity": 7933,
      "rawal": 7934,
      "conqu": 7935,
      "CITEREFLibrary": 7936,
      "509": 7937,
      "1320": 7938,
      "1353": 7939,
      "see": 7940,
      "PA78": 7941,
      "PA76": 7942,
      "Second": 7943,
      "431": 7944,
      "339": 7945,
      "originally": 7946,
      "pite": 7947,
      "364": 7948,
      "709": 7949,
      "708012": 7950,
      "distribution": 7951,
      "elements": 7952,
      "Post": 7953,
      "continued": 7954,
      "Amend": 7955,
      "Agrawal": 7956,
      "Alan": 7957,
      "edition": 7958,
      "lingual": 7959,
      "disputed": 7960,
      "Earliest": 7961,
      "20160708012": 7962,
      "full": 7963,
      "organisation": 7964,
      "PetragliaAllchin2007": 7965,
      "stream": 7966,
      "75457": 7967,
      "recognized": 7968,
      "established": 7969,
      "nutrition": 7970,
      "Latin": 7971,
      "Services": 7972,
      "conquest": 7973,
      "135375457": 7974,
      "20160708012438": 7975,
      "0C": 7976,
      "010": 7977,
      "030": 7978,
      "3B": 7979,
      "328": 7980,
      "372": 7981,
      "376": 7982,
      "446": 7983,
      "449": 7984,
      "520": 7985,
      "5261": 7986,
      "5183": 7987,
      "8th": 7988,
      "8122": 7989,
      "922": 7990,
      "936": 7991,
      "9357": 7992,
      "Ast": 7993,
      "Ang": 7994,
      "AQBAJ": 7995,
      "Award": 7996,
      "Bom": 7997,
      "Bird": 7998,
      "Bhim": 7999,
      "Bq9": 8000,
      "Bchecked": 8001,
      "Cher": 8002,
      "Cali": 8003,
      "Coral": 8004,
      "Cabinet": 8005,
      "Dad": 8006,
      "Dhe": 8007,
      "EM": 8008,
      "EBchecked": 8009,
      "Fic": 8010,
      "Fif": 8011,
      "Gamb": 8012,
      "Hud": 8013,
      "Homo": 8014,
      "Hayashi": 8015,
      "IPA": 8016,
      "Ital": 8017,
      "Jo": 8018,
      "Jai": 8019,
      "Kh": 8020,
      "Ky": 8021,
      "Kur": 8022,
      "Kach": 8023,
      "Mor": 8024,
      "Mex": 8025,
      "Maith": 8026,
      "Ni": 8027,
      "Next": 8028,
      "Nagar": 8029,
      "Pā": 8030,
      "Ped": 8031,
      "Pear": 8032,
      "Qut": 8033,
      "Qatar": 8034,
      "Rul": 8035,
      "Rah": 8036,
      "Remi": 8037,
      "Sci": 8038,
      "Set": 8039,
      "Sha": 8040,
      "Shas": 8041,
      "Sarna": 8042,
      "Sitar": 8043,
      "Srin": 8044,
      "Siva": 8045,
      "Satellite": 8046,
      "Tu": 8047,
      "Tis": 8048,
      "Tito": 8049,
      "UA": 8050,
      "Uz": 8051,
      "Ven": 8052,
      "Wai": 8053,
      "acity": 8054,
      "bes": 8055,
      "bra": 8056,
      "big": 8057,
      "bai": 8058,
      "base": 8059,
      "bility": 8060,
      "cer": 8061,
      "ctic": 8062,
      "could": 8063,
      "cgi": 8064,
      "dro": 8065,
      "dishes": 8066,
      "etic": 8067,
      "equ": 8068,
      "free": 8069,
      "food": 8070,
      "gher": 8071,
      "gress": 8072,
      "gap": 8073,
      "great": 8074,
      "gupta": 8075,
      "gital": 8076,
      "hri": 8077,
      "hood": 8078,
      "iN": 8079,
      "ior": 8080,
      "iop": 8081,
      "itime": 8082,
      "iosa": 8083,
      "katar": 8084,
      "lay": 8085,
      "lists": 8086,
      "labour": 8087,
      "lerner": 8088,
      "names": 8089,
      "next": 8090,
      "ota": 8091,
      "pay": 8092,
      "pani": 8093,
      "pharmaceutical": 8094,
      "pmc": 8095,
      "pBq9": 8096,
      "rgy": 8097,
      "rhat": 8098,
      "sed": 8099,
      "sol": 8100,
      "sanc": 8101,
      "scri": 8102,
      "sapi": 8103,
      "tcy": 8104,
      "ui": 8105,
      "vens": 8106,
      "vari": 8107,
      "water": 8108,
      "xx": 8109,
      "yth": 8110,
      "yani": 8111,
      "zstan": 8112,
      "अज": 8113,
      "अछि": 8114,
      "उदी": 8115,
      "ऊपर": 8116,
      "ओम": 8117,
      "ओसे": 8118,
      "कमे": 8119,
      "कम्": 8120,
      "चन्द्र": 8121,
      "टर्": 8122,
      "तार": 8123,
      "द्रो": 8124,
      "प्य": 8125,
      "मस्वरूप": 8126,
      "सिक": 8127,
      "सन्द": 8128,
      "सङ्": 8129,
      "ाबा": 8130,
      "ामस्वरूप": 8131,
      "ुने": 8132,
      "ैजान": 8133,
      "२९": 8134,
      "ṇa": 8135,
      "witz": 8136,
      "kian": 8137,
      "kistan": 8138,
      "iar": 8139,
      "ori": 8140,
      "orti": 8141,
      "ttern": 8142,
      "httpsbooks": 8143,
      "ene": 8144,
      "ender": 8145,
      "ences": 8146,
      "inac": 8147,
      "inho": 8148,
      "aning": 8149,
      "thak": 8150,
      "thod": 8151,
      "higher": 8152,
      "eri": 8153,
      "erbai": 8154,
      "arav": 8155,
      "arwal": 8156,
      "ald": 8157,
      "esis": 8158,
      "estry": 8159,
      "rew": 8160,
      "read": 8161,
      "reet": 8162,
      "rece": 8163,
      "reverse": 8164,
      "remitt": 8165,
      "isaka": 8166,
      "isvara": 8167,
      "isdic": 8168,
      "cid": 8169,
      "citation": 8170,
      "itage": 8171,
      "ason": 8172,
      "193": 8173,
      "19th": 8174,
      "1935": 8175,
      "iding": 8176,
      "idref": 8177,
      "train": 8178,
      "amed": 8179,
      "amble": 8180,
      "gebra": 8181,
      "atory": 8182,
      "र्गि": 8183,
      "र्जिया": 8184,
      "ushan": 8185,
      "स्कृतिक": 8186,
      "काउ": 8187,
      "uru": 8188,
      "vector": 8189,
      "libr": 8190,
      "combooks": 8191,
      "chon": 8192,
      "ched": 8193,
      "chang": 8194,
      "stand": 8195,
      "statistics": 8196,
      "styles": 8197,
      "five": 8198,
      "veri": 8199,
      "ISSN": 8200,
      "weap": 8201,
      "FOOTNOTEB": 8202,
      "FOOTNOTEDyson2018": 8203,
      "FOOTNOTEOrganisation": 8204,
      "FOOTNOTEKumar": 8205,
      "FOOTNOTEMichell2000": 8206,
      "FOOTNOTEMolnar2015": 8207,
      "FOOTNOTEClémentin": 8208,
      "FOOTNOTEAliAitchison2005": 8209,
      "head": 8210,
      "cept": 8211,
      "न्धी": 8212,
      "until": 8213,
      "olom": 8214,
      "olven": 8215,
      "onset": 8216,
      "fort": 8217,
      "fornia": 8218,
      "ticians": 8219,
      "matic": 8220,
      "Indiana": 8221,
      "राजा": 8222,
      "009": 8223,
      "research": 8224,
      "emissions": 8225,
      "agement": 8226,
      "11th": 8227,
      "agencies": 8228,
      "CITEREFSharma": 8229,
      "CITEREFRowland1970": 8230,
      "ayak": 8231,
      "परिण": 8232,
      "ाले": 8233,
      "िकिस्तान": 8234,
      "method": 8235,
      "्रेलिया": 8236,
      "plus": 8237,
      "1881": 8238,
      "Asiatic": 8239,
      "deal": 8240,
      "upa": 8241,
      "कोस": 8242,
      "कोकोस": 8243,
      "tuaries": 8244,
      "ategic": 8245,
      "301": 8246,
      "303": 8247,
      "307": 8248,
      "सिन्धी": 8249,
      "Dev": 8250,
      "Chess": 8251,
      "behind": 8252,
      "bekistan": 8253,
      "241": 8254,
      "244": 8255,
      "246": 8256,
      "tside": 8257,
      "aken": 8258,
      "4051": 8259,
      "234": 8260,
      "ritual": 8261,
      "ड़ला": 8262,
      "hard": 8263,
      "expor": 8264,
      "exchange": 8265,
      "AAAQBAJ": 8266,
      "peruman": 8267,
      "296": 8268,
      "googlecombooks": 8269,
      "withdra": 8270,
      "किर्गि": 8271,
      "लेबन": 8272,
      "निस्तान": 8273,
      "uda": 8274,
      "ensorship": 8275,
      "काराबा": 8276,
      "els": 8277,
      "partic": 8278,
      "partici": 8279,
      "mediately": 8280,
      "Stevens": 8281,
      "short": 8282,
      "ours": 8283,
      "Seth": 8284,
      "count": 8285,
      "less": 8286,
      "origin": 8287,
      "covery": 8288,
      "335": 8289,
      "promin": 8290,
      "pions": 8291,
      "सीरिया": 8292,
      "Street": 8293,
      "uting": 8294,
      "366": 8295,
      "undp": 8296,
      "454": 8297,
      "tarctic": 8298,
      "generation": 8299,
      "Pathak": 8300,
      "atiya": 8301,
      "Mao": 8302,
      "Consorti": 8303,
      "389": 8304,
      "2019c": 8305,
      "395": 8306,
      "discover": 8307,
      "Prov": 8308,
      "Project": 8309,
      "Commerce": 8310,
      "Anand": 8311,
      "Analysis": 8312,
      "Antarctic": 8313,
      "Guardian": 8314,
      "Brihad": 8315,
      "Cocos": 8316,
      "Coinage": 8317,
      "ends": 8318,
      "ended": 8319,
      "Plains": 8320,
      "ब्रुने": 8321,
      "consist": 8322,
      "85168": 8323,
      "created": 8324,
      "Biotechnology": 8325,
      "Forestry": 8326,
      "domii": 8327,
      "ikistan": 8328,
      "religiosa": 8329,
      "Governor": 8330,
      "766": 8331,
      "रबैजान": 8332,
      "although": 8333,
      "Raju": 8334,
      "Thames": 8335,
      "873": 8336,
      "879357": 8337,
      "rich": 8338,
      "441": 8339,
      "nekar": 8340,
      "needed": 8341,
      "बेकिस्तान": 8342,
      "582": 8343,
      "स्टा": 8344,
      "स्ट्रेलिया": 8345,
      "Mukher": 8346,
      "statements": 8347,
      "serving": 8348,
      "Alliance": 8349,
      "Contemporary": 8350,
      "medicine": 8351,
      "बिड़ला": 8352,
      "गोर्न": 8353,
      "Agarwal": 8354,
      "631": 8355,
      "Ethiop": 8356,
      "jee": 8357,
      "strati": 8358,
      "Companion": 8359,
      "FOOTNOTEStein2010116": 8360,
      "Dyson2018p1": 8361,
      "scheduled": 8362,
      "akhstan": 8363,
      "economics": 8364,
      "Gender": 8365,
      "Prac": 8366,
      "Minar": 8367,
      "Austro": 8368,
      "Fluting": 8369,
      "Pala": 8370,
      "Beij": 8371,
      "Vedas": 8372,
      "Insolven": 8373,
      "2F978": 8374,
      "menistan": 8375,
      "Gren": 8376,
      "archus": 8377,
      "Bankrup": 8378,
      "Johann": 8379,
      "Lankan": 8380,
      "tainment": 8381,
      "Andamanese": 8382,
      "1960s": 8383,
      "7C1": 8384,
      "Jamison": 8385,
      "workforce": 8386,
      "playing": 8387,
      "abaddi": 8388,
      "Tajikistan": 8389,
      "FOOTNOTEAsherTalbot2008286": 8390,
      "Brahmagupta": 8391,
      "Atomic": 8392,
      "Acad": 8393,
      "ployment": 8394,
      "Islamabad": 8395,
      "myth": 8396,
      "गान्": 8397,
      "thought": 8398,
      "र्डन": 8399,
      "अवशेष": 8400,
      "Bharatanat": 8401,
      "Northern": 8402,
      "beddomii": 8403,
      "sister": 8404,
      "transmitt": 8405,
      "largely": 8406,
      "Earth": 8407,
      "sometimes": 8408,
      "Corporation": 8409,
      "Kaveri": 8410,
      "violent": 8411,
      "Canal": 8412,
      "Dalits": 8413,
      "ज्ञात": 8414,
      "Christmas": 8415,
      "Associated": 8416,
      "सांस्कृतिक": 8417,
      "ताजिकिस्तान": 8418,
      "Akroti": 8419,
      "Federation": 8420,
      "Kuwa": 8421,
      "onomous": 8422,
      "Milkma": 8423,
      "7c1": 8424,
      "Bahrain": 8425,
      "Close": 8426,
      "Panorama": 8427,
      "Salim": 8428,
      "currency": 8429,
      "func": 8430,
      "Mauriti": 8431,
      "shawl": 8432,
      "Visaria": 8433,
      "omotive": 8434,
      "Sites": 8435,
      "Sarkar": 8436,
      "itis": 8437,
      "oramic": 8438,
      "contributes": 8439,
      "Nax": 8440,
      "Cropped": 8441,
      "Haveli": 8442,
      "position": 8443,
      "carri": 8444,
      "960110": 8445,
      "Discovery": 8446,
      "Gondwana": 8447,
      "Help": 8448,
      "reforms": 8449,
      "Collingham2007": 8450,
      "CollinghamCollingham2007": 8451,
      "Autonomous": 8452,
      "A7CR": 8453,
      "Donald": 8454,
      "Survey": 8455,
      "kelia": 8456,
      "mathematical": 8457,
      "mathematicians": 8458,
      "Seventeenth": 8459,
      "Turkman": 8460,
      "Turkmenistan": 8461,
      "TOR": 8462,
      "Judes": 8463,
      "flows": 8464,
      "animals": 8465,
      "study": 8466,
      "Secretary": 8467,
      "Nasser": 8468,
      "mango": 8469,
      "तुर्कमे": 8470,
      "Demonym": 8471,
      "Georgia": 8472,
      "Azerbai": 8473,
      "Banking": 8474,
      "Germany": 8475,
      "Keeling": 8476,
      "Mongolia": 8477,
      "Nagaland": 8478,
      "federal": 8479,
      "jurisdic": 8480,
      "acotta": 8481,
      "Dependent": 8482,
      "dogamy": 8483,
      "Selection": 8484,
      "discuss": 8485,
      "laciers": 8486,
      "Santali": 8487,
      "supply": 8488,
      "Zoroastrianism": 8489,
      "cirrhat": 8490,
      "Raika": 8491,
      "Chem": 8492,
      "JSTOR": 8493,
      "Series": 8494,
      "character": 8495,
      "hereditary": 8496,
      "Church": 8497,
      "discrimination": 8498,
      "FOOTNOTEKulkeRothermund2016122": 8499,
      "Kazakhstan": 8500,
      "सेपियन्स": 8501,
      "Foundation": 8502,
      "Number": 8503,
      "Phygital": 8504,
      "cooked": 8505,
      "ittee": 8506,
      "vestment": 8507,
      "achie": 8508,
      "important": 8509,
      "Armenia": 8510,
      "Liberation": 8511,
      "Achaemenid": 8512,
      "Astana": 8513,
      "California": 8514,
      "Dadra": 8515,
      "Dhekelia": 8516,
      "Ficus": 8517,
      "Hudson": 8518,
      "Italy": 8519,
      "Kyrgy": 8520,
      "Kachru": 8521,
      "Mexico": 8522,
      "Maithili": 8523,
      "Pednekar": 8524,
      "Pearson": 8525,
      "Qutb": 8526,
      "Remitt": 8527,
      "Shastri": 8528,
      "Sivaperuman": 8529,
      "Tisha": 8530,
      "Uzbekistan": 8531,
      "Venkatar": 8532,
      "Waite": 8533,
      "pBq9DwAAQBAJ": 8534,
      "sanctuaries": 8535,
      "sapiens": 8536,
      "कम्बोडिया": 8537,
      "httpsbooksgooglecombooks": 8538,
      "aravalli": 8539,
      "remittances": 8540,
      "परिणामस्वरूप": 8541,
      "लेबनान": 8542,
      "particip": 8543,
      "Stevenson": 8544,
      "Consortium": 8545,
      "Brihadisvara": 8546,
      "ब्रुनेई": 8547,
      "Mukherjee": 8548,
      "गोर्नो": 8549,
      "Ethiopia": 8550,
      "Beijing": 8551,
      "Insolvency": 8552,
      "Bankruptcy": 8553,
      "Bharatanatyam": 8554,
      "transmitted": 8555,
      "Akrotiri": 8556,
      "Kuwait": 8557,
      "Milkmaids": 8558,
      "Mauritius": 8559,
      "तुर्कमेनिस्तान": 8560,
      "Azerbaijan": 8561,
      "jurisdiction": 8562,
      "cirrhatus": 8563,
      "Kyrgyzstan": 8564,
      "Venkataraman": 8565,
      "2V": 8566,
      "7j": 8567,
      "Database": 8568,
      "Es": 8569,
      "Hor": 8570,
      "H1L": 8571,
      "Nish": 8572,
      "QC": 8573,
      "Rad": 8574,
      "Smt": 8575,
      "Y7j": 8576,
      "dh": 8577,
      "dol": 8578,
      "dri": 8579,
      "density": 8580,
      "fac": 8581,
      "freedom": 8582,
      "give": 8583,
      "sav": 8584,
      "v2": 8585,
      "vp": 8586,
      "inindia": 8587,
      "India1950": 8588,
      "lect": 8589,
      "rati": 8590,
      "nii": 8591,
      "CITEREFMinistry": 8592,
      "plan": 8593,
      "1750": 8594,
      "PA46": 8595,
      "mohan": 8596,
      "496": 8597,
      "Commons": 8598,
      "reement": 8599,
      "Coord": 8600,
      "ques": 8601,
      "586": 8602,
      "Constitutional": 8603,
      "jabi": 8604,
      "lsC": 8605,
      "Ludden2002": 8606,
      "garhi": 8607,
      "CON": 8608,
      "500px": 8609,
      "964": 8610,
      "background": 8611,
      "additional": 8612,
      "univers": 8613,
      "community": 8614,
      "signed": 8615,
      "201908": 8616,
      "Ifqy": 8617,
      "hakrishnan": 8618,
      "horse": 8619,
      "Universal": 8620,
      "claimed": 8621,
      "mjIfqy": 8622,
      "Americana": 8623,
      "2VH1L": 8624,
      "Radhakrishnan": 8625,
      "Y7jlsC": 8626,
      "mjIfqyY7jlsC": 8627,
      "2VH1LO": 8628,
      "322": 8629,
      "647": 8630,
      "B8": 8631,
      "CDS": 8632,
      "DOL": 8633,
      "HO": 8634,
      "LIB": 8635,
      "Muse": 8636,
      "OP": 8637,
      "Qm": 8638,
      "SU": 8639,
      "Sex": 8640,
      "Symbol": 8641,
      "Tamang": 8642,
      "Wi": 8643,
      "bin": 8644,
      "boo": 8645,
      "c8": 8646,
      "cust": 8647,
      "ix": 8648,
      "image": 8649,
      "jang": 8650,
      "jagran": 8651,
      "lag": 8652,
      "mism": 8653,
      "sk": 8654,
      "ster": 8655,
      "tb": 8656,
      "ंभ": 8657,
      "ंश": 8658,
      "ंची": 8659,
      "ंकर": 8660,
      "अं": 8661,
      "अति": 8662,
      "अंग": 8663,
      "अने": 8664,
      "अध्य": 8665,
      "अक्त": 8666,
      "अंतर": 8667,
      "आज": 8668,
      "आस": 8669,
      "आयोग": 8670,
      "इसे": 8671,
      "इम्": 8672,
      "इण्ड": 8673,
      "इंटे": 8674,
      "उसे": 8675,
      "उन्हें": 8676,
      "ऊँची": 8677,
      "एव": 8678,
      "एंड": 8679,
      "कट": 8680,
      "कथा": 8681,
      "करी": 8682,
      "क्यों": 8683,
      "खु": 8684,
      "गढ": 8685,
      "गी": 8686,
      "चौ": 8687,
      "चली": 8688,
      "जन्": 8689,
      "जों": 8690,
      "जमा": 8691,
      "जित": 8692,
      "जाने": 8693,
      "टै": 8694,
      "डन": 8695,
      "ढा": 8696,
      "तं": 8697,
      "तत्व": 8698,
      "तनाव": 8699,
      "तराई": 8700,
      "दाल": 8701,
      "धु": 8702,
      "ध्या": 8703,
      "नर्म": 8704,
      "न्यू": 8705,
      "नेशन": 8706,
      "पों": 8707,
      "पवन": 8708,
      "बरा": 8709,
      "बडी": 8710,
      "बदल": 8711,
      "मण्ड": 8712,
      "यें": 8713,
      "यहाँ": 8714,
      "रद": 8715,
      "रंग": 8716,
      "व्": 8717,
      "वारा": 8718,
      "शस": 8719,
      "श्व": 8720,
      "शैल": 8721,
      "शहरी": 8722,
      "शर्स": 8723,
      "शंकर": 8724,
      "शरद": 8725,
      "सफ": 8726,
      "सव": 8727,
      "सॉ": 8728,
      "सक्र": 8729,
      "हाल": 8730,
      "ावली": 8731,
      "िलों": 8732,
      "िचेरी": 8733,
      "ीन": 8734,
      "ुम": 8735,
      "ुपात": 8736,
      "ुलिपि": 8737,
      "ुत्पत्ति": 8738,
      "ूप": 8739,
      "ृद्ध": 8740,
      "ैण्ड": 8741,
      "१४": 8742,
      "२८": 8743,
      "అణ": 8744,
      "అథ": 8745,
      "అని": 8746,
      "అల్": 8747,
      "ఆక్ర": 8748,
      "ఈస్": 8749,
      "ఉర్": 8750,
      "ఎడ": 8751,
      "ఎల": 8752,
      "ఐక్య": 8753,
      "గల్": 8754,
      "గ్రీ": 8755,
      "చవి": 8756,
      "జపా": 8757,
      "టిక": 8758,
      "డం": 8759,
      "డాల": 8760,
      "ఢా": 8761,
      "తాల": 8762,
      "తంగా": 8763,
      "థా": 8764,
      "థిక": 8765,
      "దూ": 8766,
      "దరా": 8767,
      "దంబ": 8768,
      "దక్క": 8769,
      "ధా": 8770,
      "ధు": 8771,
      "పర్": 8772,
      "పతా": 8773,
      "పది": 8774,
      "పరీ": 8775,
      "పర్యా": 8776,
      "ఫి": 8777,
      "బల": 8778,
      "బే": 8779,
      "బై": 8780,
      "బంగ": 8781,
      "భౌ": 8782,
      "మర": 8783,
      "మార": 8784,
      "మహి": 8785,
      "యూ": 8786,
      "రష": 8787,
      "రల్": 8788,
      "రకాల": 8789,
      "వో": 8790,
      "వార్": 8791,
      "వాల్": 8792,
      "వలం": 8793,
      "వత్రిక": 8794,
      "వడం": 8795,
      "శక": 8796,
      "శె": 8797,
      "శకు": 8798,
      "సల": 8799,
      "సో": 8800,
      "హర": 8801,
      "ీం": 8802,
      "ుకు": 8803,
      "ూపం": 8804,
      "ెలు": 8805,
      "ోత్": 8806,
      "ౌర": 8807,
      "anana": 8808,
      "ontal": 8809,
      "ery": 8810,
      "eros": 8811,
      "्रान": 8812,
      "cific": 8813,
      "191": 8814,
      "राव": 8815,
      "मेज": 8816,
      "ानुपात": 8817,
      "ado": 8818,
      "र्मा": 8819,
      "काज": 8820,
      "liGa": 8821,
      "cher": 8822,
      "umph": 8823,
      "field": 8824,
      "FOOTNOTEConinghamYoung2015": 8825,
      "प्रो": 8826,
      "प्रसि": 8827,
      "प्रती": 8828,
      "प्रमाण": 8829,
      "प्रिय": 8830,
      "प्रबंधन": 8831,
      "प्रत्या": 8832,
      "प्रस्ता": 8833,
      "प्रवर्तन": 8834,
      "प्रदर्शन": 8835,
      "विमान": 8836,
      "భారతం": 8837,
      "unrecognized": 8838,
      "దేశానికి": 8839,
      "संवै": 8840,
      "संचार": 8841,
      "సాహి": 8842,
      "ర్కొ": 8843,
      "ర్జె": 8844,
      "ర్నేషనల్": 8845,
      "राजस्व": 8846,
      "साधु": 8847,
      "भाबर": 8848,
      "agore": 8849,
      "पुन": 8850,
      "aya": 8851,
      "पर्या": 8852,
      "50205": 8853,
      "రాయ": 8854,
      "రాతి": 8855,
      "ప్రారం": 8856,
      "ప్రీం": 8857,
      "देशमे": 8858,
      "death": 8859,
      "లోన్": 8860,
      "లోమీ": 8861,
      "174": 8862,
      "16mar": 8863,
      "1526": 8864,
      "नेता": 8865,
      "त्मक": 8866,
      "कोपेन": 8867,
      "मातर": 8868,
      "मापद": 8869,
      "30MKI": 8870,
      "Dead": 8871,
      "నిడ్": 8872,
      "నియన్": 8873,
      "भाषाई": 8874,
      "below": 8875,
      "हाबाद": 8876,
      "वांग": 8877,
      "वाहन": 8878,
      "वासियों": 8879,
      "401": 8880,
      "temper": 8881,
      "पाक": 8882,
      "पाया": 8883,
      "ट्रो": 8884,
      "समु": 8885,
      "समृद्ध": 8886,
      "perial": 8887,
      "ముద్ర": 8888,
      "किसी": 8889,
      "సింగ్": 8890,
      "करती": 8891,
      "portion": 8892,
      "ज़िलों": 8893,
      "जनवादी": 8894,
      "విష్ణ": 8895,
      "వివరాలు": 8896,
      "बादी": 8897,
      "తిరుగు": 8898,
      "मिश्र": 8899,
      "త్త": 8900,
      "త్వా": 8901,
      "త్వం": 8902,
      "लिख": 8903,
      "लिजें": 8904,
      "334": 8905,
      "prof": 8906,
      "906": 8907,
      "सीट": 8908,
      "చిరు": 8909,
      "చిహ్": 8910,
      "assam": 8911,
      "1969": 8912,
      "तरण": 8913,
      "hoi": 8914,
      "म्बे": 8915,
      "జాతులు": 8916,
      "వాణి": 8917,
      "नीचे": 8918,
      "पूरा": 8919,
      "पूरे": 8920,
      "451": 8921,
      "మాన": 8922,
      "మాట్": 8923,
      "354": 8924,
      "genf": 8925,
      "धानिक": 8926,
      "templates": 8927,
      "पुरातत्व": 8928,
      "जिन्हें": 8929,
      "कृष्": 8930,
      "కాక": 8931,
      "కాహార": 8932,
      "భారతీయులు": 8933,
      "కిలోమీ": 8934,
      "పాద": 8935,
      "పాక్": 8936,
      "పాటు": 8937,
      "పుట్టు": 8938,
      "aug": 8939,
      "जीव": 8940,
      "टीवी": 8941,
      "సామీ": 8942,
      "होना": 8943,
      "धर्मों": 8944,
      "अनुसूच": 8945,
      "पुरुष": 8946,
      "టిలో": 8947,
      "నేరే": 8948,
      "మితి": 8949,
      "వర్ష": 8950,
      "सरकारी": 8951,
      "భాషా": 8952,
      "हरलाल": 8953,
      "विश्वनाथ": 8954,
      "इसका": 8955,
      "इसमें": 8956,
      "Netra": 8957,
      "మూర్": 8958,
      "మూడు": 8959,
      "puran": 8960,
      "फ़्रान": 8961,
      "वेयर": 8962,
      "अधिका": 8963,
      "కేవలం": 8964,
      "రాజు": 8965,
      "उपयोग": 8966,
      "उपखंड": 8967,
      "व्युत्पत्ति": 8968,
      "वन्य": 8969,
      "नाममात्र": 8970,
      "లాడే": 8971,
      "లాహో": 8972,
      "सुरत": 8973,
      "सामरिक": 8974,
      "publications": 8975,
      "స్తులు": 8976,
      "सम्प्रभु": 8977,
      "ण्डिचेरी": 8978,
      "तटों": 8979,
      "చేర": 8980,
      "केंद्र2005": 8981,
      "केंद्रशासित": 8982,
      "गाँ": 8983,
      "731": 8984,
      "ఆర్థిక": 8985,
      "बंगाली": 8986,
      "కాలే": 8987,
      "पेय": 8988,
      "చెట్టు": 8989,
      "చెందు": 8990,
      "చెందిన": 8991,
      "ప్ల": 8992,
      "యుగ": 8993,
      "హాకీ": 8994,
      "जिसने": 8995,
      "लोकप्रिय": 8996,
      "కూడిన": 8997,
      "संगम": 8998,
      "పాలిటన్": 8999,
      "దక్షిణాన": 9000,
      "Bhagwat": 9001,
      "bueros": 9002,
      "बोड़ो": 9003,
      "కొంక": 9004,
      "కొత్త": 9005,
      "మెట్రో": 9006,
      "knowin": 9007,
      "తువు": 9008,
      "extinct": 9009,
      "సంస్కరణ": 9010,
      "బ్రె": 9011,
      "సుప్రీం": 9012,
      "विकासशील": 9013,
      "Meite": 9014,
      "గణి": 9015,
      "సభ్య": 9016,
      "FOOTNOTESingh2009181": 9017,
      "FOOTNOTESingh2009255": 9018,
      "FOOTNOTESingh2009186": 9019,
      "FOOTNOTESingh2009545": 9020,
      "भागी": 9021,
      "FOOTNOTEStein1998121": 9022,
      "FOOTNOTEStein1998132": 9023,
      "Advanced": 9024,
      "రైళ్": 9025,
      "कार्यकाल": 9026,
      "कार्यक्रम": 9027,
      "बौक्स": 9028,
      "Sanatan": 9029,
      "मैदानी": 9030,
      "ethno": 9031,
      "defined": 9032,
      "पोषण": 9033,
      "supreme": 9034,
      "TROP": 9035,
      "बढ़ा": 9036,
      "बढ़ने": 9037,
      "बढ़ती": 9038,
      "पूर्ति": 9039,
      "FOOTNOTEKulkeRothermund2004": 9040,
      "लंबे": 9041,
      "లేని": 9042,
      "संबंधों": 9043,
      "परिस्थिति": 9044,
      "दर्जा": 9045,
      "बनाया": 9046,
      "బాదు": 9047,
      "బాటు": 9048,
      "మహాసముద్రం": 9049,
      "వెల్ల": 9050,
      "స్వామ్య": 9051,
      "సాంప్రదా": 9052,
      "स्थापत्य": 9053,
      "पर्वतीय": 9054,
      "సింధ్": 9055,
      "izontal": 9056,
      "Ethnologue2": 9057,
      "धाम": 9058,
      "वर्गीकरण": 9059,
      "paper2": 9060,
      "నేపాలీ": 9061,
      "छत्तीसगढ": 9062,
      "josh": 9063,
      "झारखण्ड": 9064,
      "రెండ": 9065,
      "హ్వాల్": 9066,
      "క్రీడలలో": 9067,
      "कम्युनिस्ट": 9068,
      "कंपनियों": 9069,
      "మైథి": 9070,
      "स्तरीय": 9071,
      "पट्": 9072,
      "Summary": 9073,
      "MilliGa": 9074,
      "उनके": 9075,
      "उनकी": 9076,
      "పంజాబీ": 9077,
      "produced": 9078,
      "కాంగ్రెస్": 9079,
      "BIBS": 9080,
      "सेवाओं": 9081,
      "విస్తరి": 9082,
      "लिंगानुपात": 9083,
      "पब्लिशर्स": 9084,
      "ఇంగ్లీష్": 9085,
      "LCH": 9086,
      "जवाहरलाल": 9087,
      "योजना": 9088,
      "అస్సామీ": 9089,
      "బాంబే": 9090,
      "ళ్ళ": 9091,
      "कामकाज": 9092,
      "प्रारम्भिक": 9093,
      "स्कूल": 9094,
      "क्रिकेट": 9095,
      "नन्दादेवी": 9096,
      "రూప": 9097,
      "సార్వత్రిక": 9098,
      "सदस्य": 9099,
      "सदस्यों": 9100,
      "परंपरागत": 9101,
      "इलाहाबाद": 9102,
      "oliath": 9103,
      "चालुक": 9104,
      "पांडुलिपि": 9105,
      "వందేమాతరం": 9106,
      "हिन्दुस्तानी": 9107,
      "Simon": 9108,
      "Sukhoi": 9109,
      "फैली": 9110,
      "सहितक": 9111,
      "జన్మ": 9112,
      "న్యాయ": 9113,
      "ఫైల్": 9114,
      "భరత": 9115,
      "नागरिक": 9116,
      "క్టోరల్": 9117,
      "విద్యుత్": 9118,
      "గుర్తి": 9119,
      "मंत्रिमण्ड": 9120,
      "పార్లమెంటరీ": 9121,
      "మరాఠీ": 9122,
      "initia": 9123,
      "lawsofindia": 9124,
      "एजेंसी": 9125,
      "అక్షరాస్యత": 9126,
      "ఇంటర్నేషనల్": 9127,
      "జంతువు": 9128,
      "నడిపించ": 9129,
      "సహకార": 9130,
      "क्षमता": 9131,
      "సామాను": 9132,
      "निम्न": 9133,
      "పూర్వోత్": 9134,
      "మాత్రం": 9135,
      "కింగ్డమ్": 9136,
      "टेलीवि": 9137,
      "ప్పటికీ": 9138,
      "జనగణమన": 9139,
      "సాంకేతిక": 9140,
      "जानकारीबौक्स": 9141,
      "इंटरनेट": 9142,
      "एसियाक": 9143,
      "गैर": 9144,
      "ध्वज": 9145,
      "पॉण्डिचेरी": 9146,
      "्टवेयर": 9147,
      "ఆధీనంలో": 9148,
      "ఆహారం": 9149,
      "సర్వీ": 9150,
      "హైదరా": 9151,
      "विंध्याचल": 9152,
      "విభజన": 9153,
      "స్థితి": 9154,
      "రాజ్యాంగం": 9155,
      "शुरुआत": 9156,
      "రోడ్డు": 9157,
      "పోర్చుగీ": 9158,
      "పీఠభూ": 9159,
      "ग्रीष्मकालीन": 9160,
      "Possehl2003": 9161,
      "satp": 9162,
      "Amendment": 9163,
      "LIBR": 9164,
      "Museum": 9165,
      "Symbols": 9166,
      "janganana": 9167,
      "mismatch": 9168,
      "अनेक": 9169,
      "अक्तूबर": 9170,
      "इण्डिया": 9171,
      "इंटेलिजें": 9172,
      "नर्मदा": 9173,
      "सक्रिय": 9174,
      "అథారిటీ": 9175,
      "ఈస్ట్": 9176,
      "ఉర్దూ": 9177,
      "ఎలక్టోరల్": 9178,
      "ఢాకా": 9179,
      "పరీక్ష": 9180,
      "FOOTNOTEConinghamYoung2015104": 9181,
      "प्रतीक": 9182,
      "प्रस्तावित": 9183,
      "संवैधानिक": 9184,
      "సాహిత్యం": 9185,
      "पर्यावरण": 9186,
      "16mar12": 9187,
      "मातरम्": 9188,
      "मापदण्ड": 9189,
      "తిరుగుబాటు": 9190,
      "వాణిజ్య": 9191,
      "మాట్లాడే": 9192,
      "పుట్టుపూర్వోత్": 9193,
      "अनुसूचित": 9194,
      "నేరేడు": 9195,
      "फ़्रान्स": 9196,
      "अधिकांश": 9197,
      "లాహోర్": 9198,
      "చెందుతున్న": 9199,
      "కొంకణి": 9200,
      "మెట్రోపాలిటన్": 9201,
      "knowindia": 9202,
      "Meitei": 9203,
      "TROPEX": 9204,
      "సాంప్రదాయ": 9205,
      "MilliGazette": 9206,
      "BIBSYS": 9207,
      "मंत्रिमण्डल": 9208,
      "इंटेलिजेंस": 9209,
      "పుట్టుపూర్వోత్తరాలు": 9210,
      "011": 9211,
      "0266": 9212,
      "278": 9213,
      "326": 9214,
      "380": 9215,
      "411": 9216,
      "512": 9217,
      "7000": 9218,
      "9th": 9219,
      "933": 9220,
      "973": 9221,
      "AL": 9222,
      "Agr": 9223,
      "Ala": 9224,
      "But": 9225,
      "Burton": 9226,
      "Boro": 9227,
      "Bhak": 9228,
      "Cr": 9229,
      "Cu": 9230,
      "Cul": 9231,
      "Cour": 9232,
      "Center": 9233,
      "CiN": 9234,
      "Das": 9235,
      "Dup": 9236,
      "ED": 9237,
      "Ev": 9238,
      "Epic": 9239,
      "Folk": 9240,
      "GI": 9241,
      "Gi": 9242,
      "Gul": 9243,
      "Gro": 9244,
      "Guss": 9245,
      "Garden": 9246,
      "HM": 9247,
      "Hi": 9248,
      "Hear": 9249,
      "IL": 9250,
      "IIT": 9251,
      "Iori": 9252,
      "Jun": 9253,
      "Judd": 9254,
      "Jones": 9255,
      "Kes": 9256,
      "Kult": 9257,
      "Kail": 9258,
      "Lal": 9259,
      "Lic": 9260,
      "Long": 9261,
      "Lake": 9262,
      "Moun": 9263,
      "Makar": 9264,
      "Mridangam": 9265,
      "Nair": 9266,
      "Nayak": 9267,
      "Ow": 9268,
      "Odia": 9269,
      "One": 9270,
      "Orig": 9271,
      "Pi": 9272,
      "Ping": 9273,
      "Pyle": 9274,
      "Rv": 9275,
      "Ror": 9276,
      "Rama": 9277,
      "Sis": 9278,
      "Sand": 9279,
      "Sent": 9280,
      "She": 9281,
      "Sange": 9282,
      "Sultan": 9283,
      "Sif": 9284,
      "Stock": 9285,
      "Still": 9286,
      "Smiling": 9287,
      "Tan": 9288,
      "Test": 9289,
      "Tend": 9290,
      "Tsang": 9291,
      "UC": 9292,
      "VIAF": 9293,
      "Wind": 9294,
      "Wik": 9295,
      "Word": 9296,
      "When": 9297,
      "XX": 9298,
      "Xavi": 9299,
      "YC": 9300,
      "YM": 9301,
      "Yep": 9302,
      "Yaksh": 9303,
      "Zoo": 9304,
      "blo": 9305,
      "best": 9306,
      "bury": 9307,
      "bhā": 9308,
      "budget": 9309,
      "cle": 9310,
      "care": 9311,
      "came": 9312,
      "cago": 9313,
      "cattle": 9314,
      "centr": 9315,
      "das": 9316,
      "drew": 9317,
      "ees": 9318,
      "eli": 9319,
      "ely": 9320,
      "eties": 9321,
      "eck": 9322,
      "epics": 9323,
      "every": 9324,
      "event": 9325,
      "evidence": 9326,
      "fo": 9327,
      "fy": 9328,
      "fish": 9329,
      "fishing": 9330,
      "football": 9331,
      "gf": 9332,
      "gin": 9333,
      "gal": 9334,
      "games": 9335,
      "gative": 9336,
      "glaciers": 9337,
      "hu": 9338,
      "hon": 9339,
      "hus": 9340,
      "hous": 9341,
      "iis": 9342,
      "ima": 9343,
      "iper": 9344,
      "jid": 9345,
      "jhol": 9346,
      "kn": 9347,
      "kov": 9348,
      "mb": 9349,
      "mā": 9350,
      "mist": 9351,
      "must": 9352,
      "mone": 9353,
      "mumbai": 9354,
      "nt": 9355,
      "ny": 9356,
      "nla": 9357,
      "n8012": 9358,
      "pul": 9359,
      "pons": 9360,
      "pical": 9361,
      "rof": 9362,
      "rsis": 9363,
      "san": 9364,
      "sal": 9365,
      "spic": 9366,
      "sari": 9367,
      "side": 9368,
      "slow": 9369,
      "synth": 9370,
      "sitar": 9371,
      "took": 9372,
      "tag": 9373,
      "uj": 9374,
      "uit": 9375,
      "ured": 9376,
      "udi": 9377,
      "vul": 9378,
      "wani": 9379,
      "wood": 9380,
      "worn": 9381,
      "wakar": 9382,
      "zi": 9383,
      "zes": 9384,
      "zat": 9385,
      "iated": 9386,
      "orem": 9387,
      "energy": 9388,
      "tead": 9389,
      "inational": 9390,
      "inel": 9391,
      "inmore": 9392,
      "invol": 9393,
      "anti": 9394,
      "onner": 9395,
      "thin": 9396,
      "thic": 9397,
      "thorn": 9398,
      "ercial": 9399,
      "erous": 9400,
      "20India": 9401,
      "eso": 9402,
      "rema": 9403,
      "rell": 9404,
      "ises": 9405,
      "isul": 9406,
      "isol": 9407,
      "theorem": 9408,
      "cils": 9409,
      "ciples": 9410,
      "outside": 9411,
      "asa": 9412,
      "asad": 9413,
      "asaro": 9414,
      "ich": 9415,
      "ication": 9416,
      "iculture": 9417,
      "leav": 9418,
      "letin": 9419,
      "1900": 9420,
      "1938": 9421,
      "tras": 9422,
      "tration": 9423,
      "trol": 9424,
      "trig": 9425,
      "amgir": 9426,
      "ades": 9427,
      "adur": 9428,
      "ge129": 9429,
      "usive": 9430,
      "accom": 9431,
      "uram": 9432,
      "urNav": 9433,
      "vegetarian": 9434,
      "lied": 9435,
      "live": 9436,
      "licies": 9437,
      "comprom": 9438,
      "comics": 9439,
      "lost": 9440,
      "cho": 9441,
      "chap": 9442,
      "chose": 9443,
      "champion": 9444,
      "stor": 9445,
      "fire": 9446,
      "IST": 9447,
      "welf": 9448,
      "ulkar": 9449,
      "unal": 9450,
      "riti": 9451,
      "1233": 9452,
      "rainf": 9453,
      "website": 9454,
      "reduced": 9455,
      "0056": 9456,
      "0057": 9457,
      "concise": 9458,
      "inder": 9459,
      "emp": 9460,
      "agana": 9461,
      "ague": 9462,
      "Rebellion": 9463,
      "meal": 9464,
      "meat": 9465,
      "indiabudget": 9466,
      "fruit": 9467,
      "plac": 9468,
      "1885": 9469,
      "defe": 9470,
      "develop": 9471,
      "177": 9472,
      "gods": 9473,
      "habit": 9474,
      "seal": 9475,
      "separ": 9476,
      "sequ": 9477,
      "seats": 9478,
      "secu": 9479,
      "self": 9480,
      "abacher": 9481,
      "tual": 9482,
      "283": 9483,
      "pot": 9484,
      "poor": 9485,
      "polio": 9486,
      "policies": 9487,
      "becom": 9488,
      "beto": 9489,
      "4071": 9490,
      "40267": 9491,
      "impro": 9492,
      "imple": 9493,
      "immediately": 9494,
      "temple": 9495,
      "233": 9496,
      "expend": 9497,
      "existed": 9498,
      "executive": 9499,
      "example": 9500,
      "without": 9501,
      "commonwealth": 9502,
      "commercial": 9503,
      "umbia": 9504,
      "2728": 9505,
      "ucted": 9506,
      "ished": 9507,
      "derabad": 9508,
      "apti": 9509,
      "apatna": 9510,
      "elam": 9511,
      "opin": 9512,
      "PA48": 9513,
      "437": 9514,
      "cott": 9515,
      "coali": 9516,
      "471": 9517,
      "princely": 9518,
      "alliance": 9519,
      "earth": 9520,
      "90577": 9521,
      "llate": 9522,
      "process": 9523,
      "protected": 9524,
      "451208": 9525,
      "801": 9526,
      "Ary": 9527,
      "352": 9528,
      "356": 9529,
      "3569": 9530,
      "466": 9531,
      "Mahā": 9532,
      "Mathew": 9533,
      "society": 9534,
      "mantle": 9535,
      "485": 9536,
      "uddin": 9537,
      "ossil": 9538,
      "396": 9539,
      "ength": 9540,
      "Prolif": 9541,
      "Progress": 9542,
      "Market": 9543,
      "Marria": 9544,
      "Asians": 9545,
      "formal": 9546,
      "ultinational": 9547,
      "Guide": 9548,
      "subsequ": 9549,
      "2003b": 9550,
      "1206": 9551,
      "Eurasia": 9552,
      "Code": 9553,
      "yaṇa": 9554,
      "Pokh": 9555,
      "Posey": 9556,
      "854": 9557,
      "latter": 9558,
      "alite": 9559,
      "purpos": 9560,
      "5948": 9561,
      "Dwyer": 9562,
      "Wikibooks": 9563,
      "Wikiversity": 9564,
      "Wikisource": 9565,
      "Wikivoyage": 9566,
      "Amphib": 9567,
      "relative": 9568,
      "cker": 9569,
      "Peace": 9570,
      "occur": 9571,
      "8728": 9572,
      "rick": 9573,
      "444": 9574,
      "Economics": 9575,
      "philosophy": 9576,
      "Regul": 9577,
      "classes": 9578,
      "Control": 9579,
      "aily": 9580,
      "numeral": 9581,
      "atts": 9582,
      "Columbia": 9583,
      "spee": 9584,
      "Agiary": 9585,
      "Mughals": 9586,
      "emble": 9587,
      "strategic": 9588,
      "Bhamb": 9589,
      "Bhangra": 9590,
      "Diwakar": 9591,
      "schools": 9592,
      "Alka": 9593,
      "Alamgir": 9594,
      "garlic": 9595,
      "dependence": 9596,
      "Afro": 9597,
      "textile": 9598,
      "textiles": 9599,
      "Ramdas": 9600,
      "extant": 9601,
      "extreme": 9602,
      "Trisul": 9603,
      "capacity": 9604,
      "Arabic": 9605,
      "Tipu": 9606,
      "Tibeto": 9607,
      "Beach": 9608,
      "Beinho": 9609,
      "Megadiverse": 9610,
      "Monuments": 9611,
      "Management": 9612,
      "Maneck": 9613,
      "Manasaro": 9614,
      "Heitz": 9615,
      "Jainoor": 9616,
      "Sripati": 9617,
      "Srirang": 9618,
      "gery": 9619,
      "colonial": 9620,
      "orally": 9621,
      "ernet": 9622,
      "natal": 9623,
      "Puri": 9624,
      "Purple": 9625,
      "asiatic": 9626,
      "reatened": 9627,
      "southwest": 9628,
      "Himalayan": 9629,
      "Subbul": 9630,
      "Musical": 9631,
      "Under": 9632,
      "urnell": 9633,
      "Goldar": 9634,
      "12410": 9635,
      "Perkov": 9636,
      "Trig": 9637,
      "therefore": 9638,
      "diffusion": 9639,
      "provided": 9640,
      "oulder": 9641,
      "Basak": 9642,
      "Gargan": 9643,
      "akshmi": 9644,
      "Leon": 9645,
      "highly": 9646,
      "projected": 9647,
      "Sikhs": 9648,
      "agricultural": 9649,
      "Dromedary": 9650,
      "founded": 9651,
      "adsabs": 9652,
      "003407": 9653,
      "decades": 9654,
      "increasing": 9655,
      "greater": 9656,
      "Machher": 9657,
      "grail": 9658,
      "survi": 9659,
      "Chhau": 9660,
      "Michaels": 9661,
      "Kuiper": 9662,
      "intervention": 9663,
      "markets": 9664,
      "Military": 9665,
      "Bahadur": 9666,
      "Calvert": 9667,
      "Panch": 9668,
      "simple": 9669,
      "cheetah": 9670,
      "college": 9671,
      "Sangam": 9672,
      "21267": 9673,
      "Mangrove": 9674,
      "guardian": 9675,
      "Kot": 9676,
      "Kochi": 9677,
      "broad": 9678,
      "brother": 9679,
      "likely": 9680,
      "rocky": 9681,
      "communities": 9682,
      "Crown": 9683,
      "liozat": 9684,
      "However": 9685,
      "burg": 9686,
      "organised": 9687,
      "Mcgrail": 9688,
[...]
