{"version": "1.0", "truncation": null, "padding": null, "added_tokens": [{"id": 0, "content": "<unk>", "single_word": false, "lstrip": false, "rstrip": false, "normalized": false, "special": true}], "normalizer": {"type": "NFKC"}, "pre_tokenizer": {"type": "WhitespaceSplit"}, "post_processor": null, "decoder": {"type": "Sequence", "decoders": [{"type": "ByteFallback"}, {"type": "Fuse"}]}, "model": {"type": "BPE", "dropout": null, "unk_token": "<unk>", "continuing_subword_prefix": null, "end_of_word_suffix": null, "fuse_unk": false, "byte_fallback": true, "ignore_merges": false, "vocab": {"<unk>": 0, "\"": 1, "$": 2, "%": 3, "&": 4, "'": 5, "(": 6, ")": 7, ",": 8, "-": 9, ".": 10, "/": 11, "0": 12, "1": 13, "2": 14, "3": 15, "4": 16, "5": 17, "6": 18, "7": 19, "8": 20, "9": 21, ":": 22, ";": 23, "=": 24, "?": 25, "A": 26, "B": 27, "C": 28, "D": 29, "E": 30, "F": 31, "G": 32, "H": 33, "I": 34, "J": 35, "K": 36, "L": 37, "M": 38, "N": 39, "O": 40, "P": 41, "Q": 42, "R": 43, "S": 44, "T": 45, "U": 46, "V": 47, "W": 48, "Y": 49, "Z": 50, "^": 51, "a": 52, "b": 53, "c": 54, "d": 55, "e": 56, "f": 57, "g": 58, "h": 59, "i": 60, "j": 61, "k": 62, "l": 63, "m": 64, "n": 65, "o": 66, "p": 67, "q": 68, "r": 69, "s": 70, "t": 71, "u": 72, "v": 73, "w": 74, "x": 75, "y": 76, "z": 77, "ú": 78, "ā": 79, "ɑ": 80, "ɦ": 81, "ʌ": 82, "ˈ": 83, "ː": 84, "̪": 85, "Ι": 86, "ί": 87, "δ": 88, "ν": 89, "ο": 90, "ँ": 91, "ं": 92, "ः": 93, "अ": 94, "आ": 95, "इ": 96, "ई": 97, "उ": 98, "ऊ": 99, "ऋ": 100, "ए": 101, "ऐ": 102, "ऑ": 103, "ओ": 104, "औ": 105, "क": 106, "ख": 107, "ग": 108, "घ": 109, "च": 110, "छ": 111, "ज": 112, "झ": 113, "ञ": 114, "ट": 115, "ठ": 116, "ड": 117, "ढ": 118, "ण": 119, "त": 120, "थ": 121, "द": 122, "ध": 123, "न": 124, "प": 125, "फ": 126, "ब": 127, "भ": 128, "म": 129, "य": 130, "र": 131, "ल": 132, "व": 133, "श": 134, "ष": 135, "स": 136, "ह": 137, "़": 138, "ा": 139, "ि": 140, "ी": 141, "ु": 142, "ू": 143, "ृ": 144, "े": 145, "ै": 146, "ॉ": 147, "ो": 148, "ौ": 149, "्": 150, "।": 151, "०": 152, "१": 153, "२": 154, "३": 155, "४": 156, "५": 157, "६": 158, "७": 159, "८": 160, "९": 161, "ం": 162, "ః": 163, "అ": 164, "ఆ": 165, "ఇ": 166, "ఈ": 167, "ఉ": 168, "ఋ": 169, "ఎ": 170, "ఏ": 171, "ఐ": 172, "ఒ": 173, "ఓ": 174, "ఔ": 175, "క": 176, "ఖ": 177, "గ": 178, "ఘ": 179, "చ": 180, "ఛ": 181, "జ": 182, "ఞ": 183, "ట": 184, "ఠ": 185, "డ": 186, "ఢ": 187, "ణ": 188, "త": 189, "థ": 190, "ద": 191, "ధ": 192, "న": 193, "ప": 194, "ఫ": 195, "బ": 196, "భ": 197, "మ": 198, "య": 199, "ర": 200, "ల": 201, "ళ": 202, "వ": 203, "శ": 204, "ష": 205, "స": 206, "హ": 207, "ా": 208, "ి": 209, "ీ": 210, "ు": 211, "ూ": 212, "ృ": 213, "ె": 214, "ే": 215, "ై": 216, "ొ": 217, "ో": 218, "ౌ": 219, "్": 220, "ṇ": 221, "‌": 222, "–": 223, "—": 224, "th": 225, "an": 226, "in": 227, "er": 228, "the": 229, "on": 230, "en": 231, "st": 232, "re": 233, "di": 234, "at": 235, "al": 236, "In": 237, "ar": 238, "ed": 239, "and": 240, "్ర": 241, "or": 242, "it": 243, "ార": 244, "of": 245, "Indi": 246, "ion": 247, "is": 248, "ాల": 249, "ic": 250, "es": 251, "as": 252, "्र": 253, "ent": 254, "ार": 255, "ing": 256, "India": 257, "లో": 258, "के": 259, "om": 260, "స్": 261, "to": 262, "ec": 263, "ें": 264, "్య": 265, "ou": 266, "में": 267, "న్": 268, "ది": 269, "ిం": 270, "దే": 271, "ప్ర": 272, "లు": 273, "దేశ": 274, "्य": 275, "am": 276, "ర్": 277, "ని": 278, "li": 279, "భార": 280, "ur": 281, "భారత": 282, "ul": 283, "र्": 284, "ly": 285, "है": 286, "भार": 287, "भारत": 288, "em": 289, "um": 290, "et": 291, "स्": 292, "ol": 293, "ver": 294, "का": 295, "he": 296, "ిక": 297, "ాలు": 298, "19": 299, "ad": 300, "న్న": 301, "గా": 302, "या": 303, "00": 304, "ri": 305, "il": 306, "से": 307, "ది.": 308, "us": 309, "ation": 310, "ने": 311, "ों": 312, "కు": 313, "le": 314, "est": 315, "की": 316, "ना": 317, "रा": 318, "प्र": 319, "ాయ": 320, "ist": 321, "था": 322, "వి": 323, "con": 324, "క్": 325, "The": 326, "un": 327, "ాత": 328, "res": 329, "ra": 330, "ता": 331, "और": 332, "ro": 333, "ut": 334, "se": 335, "by": 336, "ast": 337, "क्": 338, "ను": 339, "దేశం": 340, "iv": 341, "s,": 342, "de": 343, "రా": 344, "ce": 345, "్ట": 346, "ate": 347, "ag": 348, "ex": 349, "ch": 350, "for": 351, "ter": 352, "िया": 353, "Indian": 354, "सा": 355, "im": 356, "ము": 357, "el": 358, "su": 359, "ct": 360, "ండ": 361, "ిన": 362, "िक": 363, "ద్": 364, "ీయ": 365, "ab": 366, "'s": 367, "क्ष": 368, "ow": 369, "wh": 370, "స్త": 371, "ించ": 372, "తి": 373, "త్": 374, "ల్": 375, "gh": 376, "ong": 377, "was": 378, "ci": 379, "ang": 380, "ern": 381, "du": 382, "पर": 383, "है।": 384, "qu": 385, "ult": 386, "si": 387, "wi": 388, "मा": 389, "ంత": 390, "ాన": 391, "op": 392, "రి": 393, "ies": 394, "ంగ": 395, "ir": 396, "par": 397, "वि": 398, "कर": 399, "त्र": 400, "ere": 401, "over": 402, "ect": 403, "with": 404, "mo": 405, "s.": 406, "రు": 407, "त्": 408, "राज": 409, "सं": 410, "ीय": 411, "పు": 412, "ain": 413, "ay": 414, "हु": 415, "ులు": 416, "be": 417, "ంట": 418, "inc": 419, "స్థ": 420, "ింది.": 421, "ాయి": 422, "rit": 423, "ित": 424, "ical": 425, "को": 426, "ति": 427, "न्": 428, "ంలో": 429, "సం": 430, "భారతదేశం": 431, "cont": 432, "are": 433, "fr": 434, "ment": 435, "pl": 436, "ड़": 437, "ich": 438, "భా": 439, "ైన": 440, "ism": 441, "ant": 442, "per": 443, "so": 444, "ాయి.": 445, "gion": 446, "y,": 447, "जा": 448, "ూడ": 449, "outh": 450, "me": 451, "ంగా": 452, "ంది.": 453, "కి": 454, "వా": 455, "సా": 456, "క్ష": 457, "a,": 458, "co": 459, "ear": 460, "end": 461, "ive": 462, "which": 463, "com": 464, "ఉన్న": 465, "ారు": 466, "cent": 467, "econ": 468, "ap": 469, "pro": 470, "तथा": 471, "టి": 472, "ధిక": 473, "పా": 474, "पा": 475, "हा": 476, "its": 477, "ae": 478, "ud": 479, "from": 480, "20": 481, "ac": 482, "has": 483, "द्": 484, "India's": 485, "av": 486, "ure": 487, "్చ": 488, "ill": 489, "sub": 490, "ak": 491, "hi": 492, "ot": 493, "sp": 494, "शा": 495, "gen": 496, "id": 497, "तर": 498, "हैं": 499, "ंग": 500, "ary": 501, "ార్": 502, "ish": 503, "oun": 504, "min": 505, "वा": 506, "arg": 507, "ld": 508, "पू": 509, "िण": 510, "కూడ": 511, "ష్ట": 512, "ిత": 513, "part": 514, "econom": 515, "नी": 516, "ity": 517, "एक": 518, "ం,": 519, "కో": 520, "జాత": 521, "र्व": 522, "రాజ": 523, "der": 524, "nor": 525, "were": 526, "ans": 527, "stit": 528, "ated": 529, "Ind": 530, "minist": 531, "दक्ष": 532, "नि": 533, "కా": 534, "క్ర": 535, "చ్చ": 536, "నే": 537, "మొ": 538, "ప్రా": 539, "दक्षिण": 540, "200": 541, "fter": 542, "larg": 543, "pri": 544, "ig": 545, "oc": 546, "दे": 547, "वर्": 548, "ంచ": 549, "ట్ట": 550, "దు": 551, "మా": 552, "्या": 553, "భారతీయ": 554, "र्म": 555, "Asi": 556, "low": 557, "ंद": 558, "ती": 559, "भा": 560, "हि": 561, "region": 562, "ame": 563, "aj": 564, "we": 565, "wor": 566, "उत्": 567, "कि": 568, "ला": 569, "ली": 570, "वी": 571, "పే": 572, "సి": 573, "్ల": 574, "India,": 575, "भारतीय": 576, "ress": 577, "form": 578, "od": 579, "west": 580, "इस": 581, "कार": 582, "into": 583, "000": 584, "शास": 585, "Hin": 586, "bec": 587, "ire": 588, "land": 589, "por": 590, "जि": 591, "हो": 592, "నా": 593, "లి": 594, "eral": 595, "all": 596, "ough": 597, "ారు.": 598, "stitut": 599, "lat": 600, "os": 601, "मु": 602, "overn": 603, "राज्य": 604, "har": 605, "pt": 606, "sh": 607, "south": 608, "ub": 609, "किया": 610, "दी": 611, "भी": 612, "रू": 613, "्ट": 614, "గు": 615, "తో": 616, "యా": 617, "రై": 618, "వ్య": 619, "వాత": 620, "వచ్చ": 621, "ally": 622, "రాష్ట": 623, "ద్ధ": 624, "ల్ల": 625, "contin": 626, "జాతీయ": 627, "north": 628, "minister": 629, "రాష్ట్ర": 630, "govern": 631, "tr": 632, "श्": 633, "elect": 634, "ni": 635, "og": 636, "year": 637, "धर्म": 638, "మైన": 639, "వే": 640, "ాన్": 641, "any": 642, "es,": 643, "्रा": 644, "ous": 645, "భారతదేశ": 646, "త్వ": 647, "ంత్ర": 648, "a.": 649, "e,": 650, "ru": 651, "uag": 652, "िम": 653, "ence": 654, "स्था": 655, "ext": 656, "anguag": 657, "incl": 658, "Cong": 659, "ber": 660, "mer": 661, "pire": 662, "sy": 663, "बा": 664, "అధిక": 665, "ఒక": 666, "కొ": 667, "కాల": 668, "ఖ్య": 669, "డి": 670, "డు": 671, "తర": 672, "పాల": 673, "ass": 674, "ాలు,": 675, "soci": 676, "हैं।": 677, "dh": 678, "uc": 679, "vi": 680, "reli": 681, "our": 682, "istan": 683, "centur": 684, "पूर्व": 685, "port": 686, "government": 687, "Ch": 688, "fo": 689, "languag": 690, "तक": 691, "ले": 692, "ఉంది.": 693, "చే": 694, "తం": 695, "తా": 696, "ద్ర": 697, "ధ్య": 698, "శా": 699, "్‌": 700, "ింద": 701, "దేశాల": 702, "ండి": 703, "prime": 704, "Congress": 705, "cult": 706, "lic": 707, "rul": 708, "y.": 709, "१९": 710, "ament": 711, "साम": 712, "became": 713, "continent": 714, "Brit": 715, "CE": 716, "bo": 717, "fe": 718, "fl": 719, "had": 720, "ib": 721, "mill": 722, "ान": 723, "ంది": 724, "టు": 725, "పార": 726, "పంచ": 727, "stem": 728, "నికి": 729, "194": 730, "ఉన్నాయి.": 731, "देश": 732, "ajor": 733, "शासन": 734, "Hindu": 735, "stitution": 736, "వ్యవ": 737, "system": 738, "1,": 739, "ff": 740, "ral": 741, "ts": 742, "ते": 743, "यु": 744, "री": 745, "ens": 746, "reat": 747, "क्षे": 748, "ublic": 749, "50": 750, "Em": 751, "act": 752, "east": 753, "fic": 754, "ne": 755, "non": 756, "ंध": 757, "ंत्र": 758, "ल्": 759, "सम": 760, "చె": 761, "ణా": 762, "దా": 763, "ిన్న": 764, "ీ,": 765, "ెండ": 766, "ine": 767, "erv": 768, "reas": 769, "es.": 770, "న్ని": 771, "uring": 772, "स्व": 773, "used": 774, "imal": 775, "ell": 776, "ులు,": 777, "భారతదేశంలో": 778, "election": 779, "क्षेत्र": 780, "18": 781, "An": 782, "but": 783, "dom": 784, "dec": 785, "gan": 786, "led": 787, "long": 788, "pe": 789, "public": 790, "कृ": 791, "ढ़": 792, "ीन": 793, "that": 794, "ann": 795, "olog": 796, "मान": 797, "comp": 798, "world": 799, "उत्तर": 800, "Con": 801, "South": 802, "ca": 803, "major": 804, "pre": 805, "pol": 806, "अन": 807, "प्": 808, "मि": 809, "महा": 810, "ంబ": 811, "కార": 812, "డ్": 813, "తు": 814, "ధాన": 815, "పె": 816, "మత": 817, "మార్": 818, "వీ": 819, "హింద": 820, "eng": 821, "196": 822, "199": 823, "नाम": 824, "స్తు": 825, "కూడా": 826, "మొద": 827, "fore": 828, "వ్యవస్థ": 829, "Pak": 830, "ia": 831, "ंड": 832, "जन": 833, "increas": 834, "subcontinent": 835, "Pakistan": 836, ",000": 837, "coun": 838, "o-": 839, "ris": 840, "tw": 841, "ज्य": 842, "लि": 843, "ఎన్న": 844, "కృ": 845, "కే": 846, "త్య": 847, "దక్ష": 848, "పర": 849, "పరి": 850, "మీ": 851, "మే": 852, "మధ్య": 853, "సు": 854, "ి,": 855, "arum": 856, "India.": 857, "ప్రపంచ": 858, "ప్రధాన": 859, "ural": 860, "etwe": 861, "river": 862, "ational": 863, "unt": 864, "हुआ": 865, "భాష": 866, "app": 867, "రాజ్య": 868, "largest": 869, "रूप": 870, "years": 871, "्राज्य": 872, "అధికార": 873, "साम्राज्य": 874, "British": 875, "Empire": 876, "two": 877, "etween": 878, "17": 879, "7,": 880, "Bud": 881, "after": 882, "e.": 883, "fir": 884, "mar": 885, "rough": 886, "चिम": 887, "चीन": 888, "पश्": 889, "ब्": 890, "रे": 891, "ष्ट": 892, "ैद": 893, "ition": 894, "ement": 895, "प्रा": 896, "ies,": 897, "spec": 898, "economic": 899, "जिस": 900, "Buddh": 901, "first": 902, "पश्चिम": 903, "Th": 904, "civ": 905, "gr": 906, "ose": 907, "pop": 908, "set": 909, "आध": 910, "गया": 911, "जो": 912, "थी": 913, "बसे": 914, "बड़": 915, "सबसे": 916, "కర": 917, "జా": 918, "ట్": 919, "త్ర": 920, "దాయ": 921, "ప్": 922, "వార": 923, "వర్": 924, "సభ": 925, "ానికి": 926, "ther": 927, "erg": 928, "్రా": 929, "ori": 930, "orum": 931, "as,": 932, "्रे": 933, "ome": 934, "క్కు": 935, "ాత్ర": 936, "దేశంలో": 937, "ద్ద": 938, "anges": 939, "స్థాన": 940, "ప్రాంత": 941, "పేరు": 942, "मुख": 943, "పార్ట": 944, "దక్షి": 945, "popul": 946, "6%": 947, "Is": 948, "between": 949, "ian": 950, "ok": 951, "rat": 952, "यह": 953, "diver": 954, "art": 955, "lim": 956, "काल": 957, "leg": 958, "साथ": 959, "sup": 960, "द्ध": 961, "includ": 962, "religion": 963, "),": 964, "After": 965, "BCE": 966, "Pl": 967, "hav": 968, "pow": 969, "ric": 970, "up": 971, "ओं": 972, "दिया": 973, "पु": 974, "लग": 975, "అయ": 976, "బా": 977, "రో": 978, "రెండ": 979, "లా": 980, "వల": 981, "this": 982, "లు,": 983, "liament": 984, "197": 985, "under": 986, "ించింది.": 987, "parliament": 988, "most": 989, "हुई": 990, "began": 991, "जाता": 992, "general": 993, "క్రీ": 994, "రైలు": 995, "बाद": 996, "ibus": 997, "మార్గ": 998, "హిందూ": 999, "power": 1000, "By": 1001, "cl": 1002, "ced": 1003, "fer": 1004, "gre": 1005, "io": 1006, "num": 1007, "serv": 1008, "दो": 1009, "सि": 1010, "ari": 1011, "urb": 1012, "था।": 1013, "dev": 1014, "ction": 1015, "201": 1016, "वर्ष": 1017, "Asia": 1018, "western": 1019, "Ma": 1020, "Un": 1021, "ev": 1022, "hab": 1023, "main": 1024, "rol": 1025, "sc": 1026, "चु": 1027, "जी": 1028, "तिक": 1029, "पार": 1030, "बढ़": 1031, "शता": 1032, "ఆర్": 1033, "ఇతర": 1034, "జనా": 1035, "తరు": 1036, "పో": 1037, "భు": 1038, "మి": 1039, "లకు": 1040, "వహ": 1041, "ష్": 1042, "state": 1043, "itat": 1044, "itary": 1045, "ised": 1046, "isation": 1047, "ాల్": 1048, "out": 1049, "ప్రభు": 1050, "emerg": 1051, "स्कृ": 1052, "స్త్ర": 1053, "ించిన": 1054, "que": 1055, "ically": 1056, "ismus": 1057, "సాం": 1058, "ंगा": 1059, "ंग्रे": 1060, "हिंद": 1061, "వచ్చింది.": 1062, "non-": 1063, "forest": 1064, "ब्दी": 1065, "క్కువ": 1066, "పార్టీ": 1067, "शताब्दी": 1068, "4%": 1069, "5,": 1070, "cor": 1071, "during": 1072, "gl": 1073, "hum": 1074, "mil": 1075, "not": 1076, "ईसा": 1077, "ध्य": 1078, "मैद": 1079, "लो": 1080, "व्य": 1081, "शिया": 1082, "through": 1083, "ince": 1084, "str": 1085, "dit": 1086, "ular": 1087, "स्ता": 1088, "प्रमुख": 1089, "त्व": 1090, "ism,": 1091, "both": 1092, "urban": 1093, "स्तान": 1094, "Com": 1095, "Himal": 1096, "It": 1097, "dern": 1098, "ep": 1099, "ever": 1100, "mult": 1101, "ob": 1102, "ta": 1103, "ti": 1104, "war": 1105, "तृ": 1106, "बी": 1107, "बना": 1108, "मध्य": 1109, "वं": 1110, "ोड़": 1111, "ం.": 1112, "ంద్ర": 1113, "అతి": 1114, "ఉత్": 1115, "ఉంట": 1116, "గి": 1117, "జన": 1118, "జరి": 1119, "పూ": 1120, "పట్ట": 1121, "బడ": 1122, "బె": 1123, "బ్": 1124, "మన": 1125, "మహ": 1126, "లలో": 1127, "వర": 1128, "వు": 1129, "వె": 1130, "వంట": 1131, "శ్ర": 1132, "ుకు": 1133, "ance": 1134, "ins": 1135, "ers": 1136, "ered": 1137, "్రె": 1138, "ited": 1139, "స్కృ": 1140, "్యం": 1141, "నిర్": 1142, "स्थ": 1143, "1950": 1144, "lead": 1145, "విధ": 1146, "row": 1147, "ముఖ్య": 1148, "ultan": 1149, "न्ह": 1150, "భాగ": 1151, "peri": 1152, "202": 1153, "Indo-": 1154, "northern": 1155, "million": 1156, "new": 1157, "పెద్ద": 1158, "increased": 1159, "ప్ప": 1160, "అయిన": 1161, "తరువాత": 1162, "Himalay": 1163, "0%": 1164, "1.": 1165, "Eur": 1166, "Sans": 1167, "eh": 1168, "kh": 1169, "king": 1170, "lam": 1171, "nolog": 1172, "po": 1173, "अध": 1174, "चल": 1175, "चा": 1176, "पना": 1177, "बंध": 1178, "िय": 1179, "their": 1180, "stat": 1181, "life": 1182, "है,": 1183, "lear": 1184, "राष्ट": 1185, "agric": 1186, "able": 1187, "high": 1188, "निर्": 1189, "large": 1190, "समय": 1191, "world's": 1192, "Islam": 1193, "including": 1194, "राष्ट्र": 1195, "agricult": 1196, "Civ": 1197, "Gand": 1198, "Si": 1199, "bas": 1200, "can": 1201, "cre": 1202, "col": 1203, "ded": 1204, "ding": 1205, "grow": 1206, "lit": 1207, "mon": 1208, "many": 1209, "ned": 1210, "pend": 1211, "since": 1212, "te": 1213, "ust": 1214, "ures": 1215, "ude": 1216, "ved": 1217, "इंड": 1218, "गण": 1219, "तु": 1220, "बे": 1221, "सर": 1222, "सी": 1223, "అనే": 1224, "ఇది": 1225, "ఎక్కువ": 1226, "ఏర్": 1227, "కలి": 1228, "గర": 1229, "గ్": 1230, "గిన": 1231, "టిక": 1232, "నాలు": 1233, "బహ": 1234, "మంత్ర": 1235, "లే": 1236, "సిం": 1237, "సరి": 1238, "సంగ": 1239, "ిల్ల": 1240, "ీన": 1241, "era": 1242, "theast": 1243, "dis": 1244, "att": 1245, "ali": 1246, "్రి": 1247, "itical": 1248, "Indiae": 1249, "ech": 1250, "ప్రస్తు": 1251, "ప్రదాయ": 1252, "ade": 1253, "constitution": 1254, "క్క": 1255, "స్తాన్": 1256, "cial": 1257, "ంగ్రె": 1258, "modern": 1259, "संस्कृ": 1260, "हुए": 1261, "been": 1262, "control": 1263, "medi": 1264, "సాధ": 1265, "coast": 1266, "పాకి": 1267, "కాంగ్రె": 1268, "harat": 1269, "కాలంలో": 1270, "social": 1271, "ందిన": 1272, "स्वत": 1273, "political": 1274, "प्त": 1275, "మొదటి": 1276, "countr": 1277, "ఎన్నో": 1278, "కేంద్ర": 1279, "దక్షిణ": 1280, "Plate": 1281, "have": 1282, "క్రీడ": 1283, "ప్రభుత్వ": 1284, "emerged": 1285, "military": 1286, "स्थित": 1287, "Gandhi": 1288, "2,": 1289, "2.": 1290, "Beng": 1291, "aw": 1292, "ace": 1293, "dem": 1294, "fi": 1295, "fin": 1296, "ho": 1297, "ial": 1298, "krit": 1299, "ling": 1300, "mid": 1301, "pres": 1302, "ry": 1303, "एशिया": 1304, "कु": 1305, "टि": 1306, "टे": 1307, "बहु": 1308, "सद": 1309, "सार": 1310, "ers,": 1311, "enni": 1312, "ite": 1313, "ess": 1314, "ारा": 1315, "omin": 1316, "ollow": 1317, "exp": 1318, "more": 1319, "coal": 1320, "commer": 1321, "central": 1322, "द्वी": 1323, "party": 1324, "ign": 1325, "किया।": 1326, "uclear": 1327, "culture": 1328, "majority": 1329, "अन्य": 1330, "प्राचीन": 1331, "Sanskrit": 1332, "Sikh": 1333, "echnolog": 1334, "द्वीप": 1335, "30": 1336, "Bharat": 1337, "East": 1338, "Ganges": 1339, "Mu": 1340, "Re": 1341, "au": 1342, "cit": 1343, "cast": 1344, "cru": 1345, "eth": 1346, "hist": 1347, "ked": 1348, "mem": 1349, "no": 1350, "o,": 1351, "tro": 1352, "ually": 1353, "ya": 1354, "गु": 1355, "गंगा": 1356, "तन": 1357, "दि": 1358, "द्र": 1359, "धान": 1360, "ब्र": 1361, "ये": 1362, "रु": 1363, "वारा": 1364, "००": 1365, "ం:": 1366, "అత్య": 1367, "ఇండి": 1368, "క్య": 1369, "కీయ": 1370, "కల్": 1371, "గల": 1372, "గో": 1373, "చిన్న": 1374, "ణం": 1375, "పై": 1376, "పతి": 1377, "భూ": 1378, "మై": 1379, "మాన": 1380, "యో": 1381, "రంగ": 1382, "రవా": 1383, "లను": 1384, "లతో": 1385, "వత": 1386, "శ్": 1387, "షు": 1388, "ా,": 1389, "ుకో": 1390, "్మ": 1391, "ert": 1392, "rect": 1393, "dian": 1394, "also": 1395, "arch": 1396, "iss": 1397, "ాలో": 1398, "ాలలో": 1399, "ాలను": 1400, "ప్రతి": 1401, "र्थ": 1402, "198": 1403, "ation,": 1404, "नेतृ": 1405, "విస్త": 1406, "cons": 1407, "depend": 1408, "age": 1409, "ండు": 1410, "ghal": 1411, "माण": 1412, "ంగ్ల": 1413, "करना": 1414, "ared": 1415, "produ": 1416, "రాజకీయ": 1417, "Indus": 1418, "క్రమ": 1419, "ंद्र": 1420, "work": 1421, "वीं": 1422, "సిని": 1423, "formed": 1424, "इसके": 1425, "later": 1426, "Chin": 1427, "language": 1428, "శాస్త్ర": 1429, "millenni": 1430, "1947,": 1431, "युग": 1432, "caused": 1433, "parliamentary": 1434, "జనాభా": 1435, "Comp": 1436, "वंश": 1437, "ultanate": 1438, "सरकार": 1439, "సరిహ": 1440, "సంగీ": 1441, "Mughal": 1442, "అత్యధిక": 1443, "రవాణా": 1444, "नेतृत्व": 1445, "16": 1446, "26": 1447, "500": 1448, "Ara": 1449, "Mo": 1450, "Mus": 1451, "National": 1452, "West": 1453, "cur": 1454, "ef": 1455, "fact": 1456, "hm": 1457, "national": 1458, "ron": 1459, "tri": 1460, "tim": 1461, "उन": 1462, "उप": 1463, "गर": 1464, "तार": 1465, "धी": 1466, "भू": 1467, "म्": 1468, "लय": 1469, "शह": 1470, "ही": 1471, "ोल": 1472, "than": 1473, "inter": 1474, "them": 1475, "red": 1476, "reg": 1477, "arm": 1478, "ica": 1479, "्री": 1480, "ing,": 1481, "amm": 1482, "righ": 1483, "ations": 1484, "नाव": 1485, "rain": 1486, "sequ": 1487, "ately": 1488, "owever": 1489, "पाकि": 1490, "द्वारा": 1491, "ident": 1492, "peop": 1493, "हुआ।": 1494, "support": 1495, "number": 1496, "Europ": 1497, "गणराज्य": 1498, "Bengal": 1499, "Muslim": 1500, "owever,": 1501, "पाकिस्तान": 1502, ").": 1503, "-largest": 1504, "0.": 1505, "5.": 1506, "Al": 1507, "BJ": 1508, "Cent": 1509, "Cam": 1510, "Its": 1511, "cour": 1512, "des": 1513, "dam": 1514, "far": 1515, "iam": 1516, "ially": 1517, "ning": 1518, "now": 1519, "pen": 1520, "ren": 1521, "sa": 1522, "some": 1523, "uch": 1524, "ven": 1525, "ving": 1526, "vari": 1527, "ंभ": 1528, "अं": 1529, "अव": 1530, "आक": 1531, "ई।": 1532, "जब": 1533, "ज़": 1534, "वे": 1535, "शे": 1536, "ुन": 1537, "ంధ": 1538, "ఆధ": 1539, "ఉప": 1540, "కాలు": 1541, "గణ": 1542, "జ్య": 1543, "ట్ల": 1544, "ఢిల్ల": 1545, "ణి": 1546, "తె": 1547, "తిక": 1548, "దం": 1549, "దీ": 1550, "దార": 1551, "ధి": 1552, "నె": 1553, "నడి": 1554, "పించ": 1555, "బ్రి": 1556, "భిన్న": 1557, "మె": 1558, "మూడ": 1559, "మాత్ర": 1560, "యు": 1561, "రహ": 1562, "లం": 1563, "వై": 1564, "సై": 1565, "సము": 1566, "సింది.": 1567, "సమా": 1568, "హార": 1569, "ావర": 1570, "ీ;": 1571, "though": 1572, "animal": 1573, "inv": 1574, "ed,": 1575, "ity,": 1576, "offic": 1577, "केंद्र": 1578, "omet": 1579, "స్య": 1580, "స్వా": 1581, "ecut": 1582, "్యాయ": 1583, "ప్రజ": 1584, "ప్రము": 1585, "లు.": 1586, "among": 1587, "ades": 1588, "ild": 1589, "est.": 1590, "प्रार": 1591, "వివిధ": 1592, "rap": 1593, "execut": 1594, "ద్దు": 1595, "sig": 1596, "ంతో": 1597, "ird": 1598, "विस्": 1599, "करने": 1600, "राजनी": 1601, "संघ": 1602, "సంస్కృ": 1603, "plain": 1604, "जाना": 1605, "సామ": 1606, "early": 1607, "endem": 1608, "ack": 1609, "ound": 1610, "ిత్ర": 1611, "కోర్": 1612, "ప్రాచ": 1613, "పేర్": 1614, "lands": 1615, "southern": 1616, "ద్ధి": 1617, "రాష్ట్రపతి": 1618, "स्थापना": 1619, "include": 1620, "viol": 1621, "century,": 1622, "శాఖ": 1623, "eastern": 1624, "Andam": 1625, "domin": 1626, "अनु": 1627, "డ్డ": 1628, "మొదల": 1629, "लिए": 1630, "species": 1631, "sett": 1632, "गया।": 1633, "జాబ": 1634, "దేశంలోని": 1635, "diverse": 1636, "రెండు": 1637, "scri": 1638, "चुनाव": 1639, "ఆర్ధిక": 1640, "ాల్లో": 1641, "పట్టణ": 1642, "బెంగ": 1643, "ప్పటిక": 1644, "liter": 1645, "इंडिया": 1646, "ఏర్ప": 1647, "బహు": 1648, "మంత్రి": 1649, "సింధ": 1650, "स्वतंत्र": 1651, "democ": 1652, "ब्रि": 1653, "ఇండియా": 1654, "millennium": 1655, "Company": 1656, "సరిహద్దు": 1657, "धीरे": 1658, "BJP": 1659, "penins": 1660, "ప్రముఖ": 1661, "Andaman": 1662, "3.": 1663, "42": 1664, "En": 1665, "Jan": 1666, "Se": 1667, "cam": 1668, "dle": 1669, "ean": 1670, "ft": 1671, "follow": 1672, "ili": 1673, "nuclear": 1674, "pr": 1675, "ration": 1676, "rate": 1677, "secon": 1678, "sity": 1679, "tect": 1680, "technolog": 1681, "ve": 1682, "vent": 1683, "vast": 1684, "vement": 1685, "ख्या": 1686, "गा": 1687, "णा": 1688, "द्य": 1689, "पह": 1690, "मी": 1691, "लिया": 1692, "षा": 1693, "ानी": 1694, "ree": 1695, "republic": 1696, "ederal": 1697, "में,": 1698, "स्त्र": 1699, "old": 1700, "सेना": 1701, "क्ति": 1702, "defin": 1703, "who": 1704, "संख्या": 1705, "न्न": 1706, "ively": 1707, "economy": 1708, "regional": 1709, "कारण": 1710, "1947": 1711, "Constitution": 1712, "मिल": 1713, "जनसंख्या": 1714, "population": 1715, "diversity": 1716, "पार्ट": 1717, "human": 1718, "मैदान": 1719, "व्यव": 1720, "country": 1721, "fied": 1722, "caste": 1723, "sequent": 1724, "people": 1725, "European": 1726, "राजनीतिक": 1727, "second": 1728, "8.": 1729, "9.": 1730, "During": 1731, "Gu": 1732, "Neh": 1733, "Pun": 1734, "Pro": 1735, "ai": 1736, "ach": 1737, "bor": 1738, "bian": 1739, "creat": 1740, "cup": 1741, "dent": 1742, "ew": 1743, "five": 1744, "ge": 1745, "hat": 1746, "here": 1747, "igh": 1748, "jab": 1749, "loc": 1750, "oy": 1751, "ood": 1752, "other": 1753, "sol": 1754, "sultanate": 1755, "tem": 1756, "vic": 1757, "way": 1758, "well": 1759, "ँच": 1760, "ंप": 1761, "अप": 1762, "अंग्रे": 1763, "खा": 1764, "गति": 1765, "च्": 1766, "दा": 1767, "फ़": 1768, "भग": 1769, "मत": 1770, "मन": 1771, "मो": 1772, "रों": 1773, "वन": 1774, "सल्": 1775, "ैन": 1776, "ोष": 1777, "ంద": 1778, "ందు": 1779, "అభ": 1780, "అను": 1781, "కళ": 1782, "కీ": 1783, "గే": 1784, "గలు": 1785, "గంగా": 1786, "చార": 1787, "చైన": 1788, "టీ": 1789, "టె": 1790, "తన": 1791, "తూ": 1792, "తమి": 1793, "థిక": 1794, "నీ": 1795, "పత": 1796, "పొ": 1797, "పద్ధ": 1798, "పండు": 1799, "మర": 1800, "మ్య": 1801, "రూ": 1802, "ళ్ల": 1803, "వడ": 1804, "వృ": 1805, "వత్": 1806, "శతా": 1807, "సర": 1808, "సౌ": 1809, "సార": 1810, "సర్": 1811, "ిమ": 1812, "ు.": 1813, "ుంది.": 1814, "్,": 1815, "third": 1816, "indi": 1817, "independ": 1818, "ond": 1819, "ense": 1820, "diff": 1821, "direct": 1822, "ata": 1823, "atic": 1824, "ates": 1825, "als": 1826, "alle": 1827, "ional": 1828, "ాలతో": 1829, "omen": 1830, "స్వాత": 1831, "స్వత": 1832, "outheast": 1833, "ప్రజా": 1834, "्यों": 1835, "నిక": 1836, "lid": 1837, "lig": 1838, "र्ष": 1839, "empire": 1840, "olved": 1841, "head": 1842, "195": 1843, "న్నాయి.": 1844, "గా,": 1845, "प्रधान": 1846, "sever": 1847, "నుక": 1848, "నుండి": 1849, "degre": 1850, "cean": 1851, "term": 1852, "territ": 1853, "िकार": 1854, "whose": 1855, "త్వా": 1856, "త్తం": 1857, "ల్వే": 1858, "angered": 1859, "movement": 1860, "సంఖ్య": 1861, "plant": 1862, "ड़ा": 1863, "endangered": 1864, "comm": 1865, "కూడిన": 1866, "మొత్తం": 1867, "igin": 1868, "occup": 1869, "lower": 1870, "సియా": 1871, "इसी": 1872, "osed": 1873, "राज्यों": 1874, "రైల్వే": 1875, "trans": 1876, "श्व": 1877, "భారతదేశానికి": 1878, "ఒకటి": 1879, "పాలన": 1880, "societ": 1881, "చేయ": 1882, "దేశాలలో": 1883, "cultur": 1884, "ffect": 1885, "election,": 1886, "185": 1887, "महाद्वीप": 1888, "తున్న": 1889, "rise": 1890, "ప్రపంచంలో": 1891, "అధికారిక": 1892, "species,": 1893, "grad": 1894, "बड़े": 1895, "కర్య": 1896, "ప్రాంతాలు": 1897, "మార్గాలు": 1898, "United": 1899, "habet": 1900, "ismus,": 1901, "ंग्रेस": 1902, "glish": 1903, "జరిగిన": 1904, "వంటి": 1905, "నిర్వహ": 1906, "kingdom": 1907, "Islamic": 1908, "created": 1909, "అనేక": 1910, "ఎక్కువగా": 1911, "ప్రస్తుతం": 1912, "संस्कृति": 1913, "కాంగ్రెసు": 1914, "टिश": 1915, "coalition": 1916, "histor": 1917, "तनत": 1918, "उपमहाद्वीप": 1919, "Central": 1920, "court": 1921, "शेष": 1922, "దారులు,": 1923, "నడిపించ": 1924, "సముద్ర": 1925, "प्रारंभ": 1926, "executive": 1927, "జాబిత": 1928, "चुनावों": 1929, "ब्रिटिश": 1930, "peninsular": 1931, "English": 1932, "व्यवस्था": 1933, "Nehru": 1934, "Punjab": 1935, "सल्तनत": 1936, "అభి": 1937, "తమిళ": 1938, "శతాబ్": 1939, "సౌకర్య": 1940, "స్వాతంత్ర": 1941, "degrees": 1942, "10": 1943, "2%": 1944, "3%": 1945, "6,": 1946, "7%": 1947, "Am": 1948, "Act": 1949, "Afr": 1950, "Jain": 1951, "S$": 1952, "US$": 1953, "Wor": 1954, "adi": 1955, "cess": 1956, "fam": 1957, "federal": 1958, "great": 1959, "ject": 1960, "man": 1961, "nal": 1962, "ंस": 1963, "अर्थ": 1964, "आग": 1965, "ओर": 1966, "गठ": 1967, "तः": 1968, "दू": 1969, "फल": 1970, "बन": 1971, "बौ": 1972, "मौ": 1973, "मंत्र": 1974, "रो": 1975, "व्या": 1976, "शि": 1977, "शु": 1978, "ोग": 1979, "१८": 1980, "there": 1981, "ones": 1982, "ste": 1983, "stru": 1984, "ions,": 1985, "र्ण": 1986, "स्ट": 1987, "administ": 1988, "की।": 1989, "istic": 1990, "und": 1991, "क्त": 1992, "export": 1993, "chang": 1994, "such": 1995, "क्षा": 1996, "duced": 1997, "मालय": 1998, "जाति": 1999, "subsequent": 2000, "gener": 2001, "भाग": 2002, "हिमालय": 2003, "लीन": 2004, "oss": 2005, "देशों": 2006, "थी।": 2007, "बड़ा": 2008, "legis": 2009, "grew": 2010, "बीच": 2011, "न्हें": 2012, "अधि": 2013, "निर्माण": 2014, "agriculture": 2015, "based": 2016, "colon": 2017, "अंत": 2018, "raph": 2019, "अनुसार": 2020, "script": 2021, "Africa": 2022, "World": 2023, "बौद्ध": 2024, "struct": 2025, "(en": 2026, "..": 2027, ".n": 2028, "1-": 2029, "55": 2030, "7.": 2031, "9%": 2032, "Ash": 2033, "Bh": 2034, "Bang": 2035, "C.n": 2036, "Des": 2037, "Dra": 2038, "Del": 2039, "Ghat": 2040, "However,": 2041, "Lan": 2042, "Nor": 2043, "Ocean": 2044, "Pop": 2045, "Raj": 2046, "St": 2047, "Sin": 2048, "Sing": 2049, "Sri": 2050, "Southeast": 2051, "bal": 2052, "cy,": 2053, "cap": 2054, "four": 2055, "ga": 2056, "gi": 2057, "hy": 2058, "hou": 2059, "homin": 2060, "i,": 2061, "ium": 2062, "ke": 2063, "ks": 2064, "lin": 2065, "lish": 2066, "line": 2067, "lades": 2068, "ma": 2069, "mun": 2070, "much": 2071, "ns": 2072, "nit": 2073, "o.": 2074, "pical": 2075, "pot": 2076, "rich": 2077, "ss": 2078, "sing": 2079, "ted": 2080, "tur": 2081, "ty,": 2082, "ug": 2083, "uar": 2084, "uli": 2085, "win": 2086, "won": 2087, "wild": 2088, "yan": 2089, "कॉ": 2090, "चना": 2091, "छोड़": 2092, "तम": 2093, "दर": 2094, "दल": 2095, "नों": 2096, "पे": 2097, "पर्व": 2098, "बर": 2099, "बो": 2100, "र्य": 2101, "लं": 2102, "सु": 2103, "सू": 2104, "२०": 2105, "అని": 2106, "ఆఫ": 2107, "కం": 2108, "కల": 2109, "చరి": 2110, "జి": 2111, "జన్": 2112, "టం": 2113, "టా": 2114, "డే": 2115, "ణంగా": 2116, "దన": 2117, "ద్య": 2118, "నాయ": 2119, "నగర": 2120, "న్యాయ": 2121, "పం": 2122, "పద": 2123, "పశ": 2124, "పక్ష": 2125, "పాత్ర": 2126, "మల": 2127, "మలు": 2128, "మించ": 2129, "మ్మ": 2130, "రే": 2131, "ర్య": 2132, "రకాల": 2133, "లక్ష": 2134, "వరి": 2135, "సూ": 2136, "హా": 2137, "ిస్త": 2138, "ిల్": 2139, "ుల": 2140, "ోర": 2141, "indu": 2142, "eri": 2143, "one": 2144, "stant": 2145, "reform": 2146, "remain": 2147, "div": 2148, "als,": 2149, "educ": 2150, "origin": 2151, "itas": 2152, "itur": 2153, "itect": 2154, "off": 2155, "ion,": 2156, "ాలకు": 2157, "ese": 2158, "లోక్": 2159, "స్,": 2160, "స్లా": 2161, "ecul": 2162, "ప్రకార": 2163, "లుగు": 2164, "liber": 2165, "liance": 2166, "empl": 2167, "etic": 2168, "etwork": 2169, "स्तर": 2170, "ిక,": 2171, "ికత": 2172, "ికి": 2173, "ిక్": 2174, "या।": 2175, "ush": 2176, "కుల": 2177, "కుంట": 2178, "కుటు": 2179, "estab": 2180, "వి.": 2181, "conso": 2182, "result": 2183, "roc": 2184, "sept": 2185, "astri": 2186, "నులు,": 2187, "ives": 2188, "రాస్య": 2189, "again": 2190, "ago.": 2191, "ima": 2192, "ము.": 2193, "ములో": 2194, "ముంబ": 2195, "elit": 2196, "ద్వీ": 2197, "own": 2198, "తి,": 2199, "cient": 2200, "cident": 2201, "duct": 2202, "quae": 2203, "quod": 2204, "माज": 2205, "माना": 2206, "oper": 2207, "विश्व": 2208, "राजवंश": 2209, "ంటే": 2210, "స్థాన్": 2211, "సంఘ": 2212, "సంప్రదాయ": 2213, "సంవత్": 2214, "plate": 2215, "soon": 2216, "క్షరాస్య": 2217, "prov": 2218, "టిలో": 2219, "పాక్": 2220, "ure,": 2221, "पूर्ण": 2222, "Indo": 2223, "prim": 2224, "वर्ग": 2225, "वर्त": 2226, "ంచి": 2227, "तीस": 2228, "भाज": 2229, "Hindi": 2230, "होता": 2231, "south-": 2232, "రైళ్ల": 2233, "వాతావర": 2234, "వచ్చిన": 2235, "minister.": 2236, "రాష్ట్రాల": 2237, "రాష్ట్రాలు": 2238, "వేగంగా": 2239, "ously": 2240, "భారతదేశపు": 2241, "a.C.n": 2242, "extens": 2243, "vidian": 2244, "languages": 2245, "लेट": 2246, "rule": 2247, "rule.": 2248, "చెందిన": 2249, "कृष": 2250, "anno": 2251, "उत्तर-": 2252, "प्लेट": 2253, "కార్య": 2254, "ength": 2255, "1991": 2256, "వ్యవస్థలో": 2257, "పరంగా": 2258, "పరిశ్ర": 2259, "మేన": 2260, "ప్రధానమంత్రి": 2261, "unt,": 2262, "రాజ్యాలు": 2263, "civitas": 2264, "आधुन": 2265, "కరణ": 2266, "ట్లు": 2267, "వారస": 2268, "వర్గ": 2269, "సభ్య": 2270, "స్థానంలో": 2271, "దక్షిణా": 2272, "BCE,": 2273, "दिया।": 2274, "लगभग": 2275, "బాద్": 2276, "served": 2277, "2011": 2278, "बढ़ती": 2279, "ఆర్థిక": 2280, "సాంప్రదాయ": 2281, "हिंदू": 2282, "cording": 2283, "मैदानी": 2284, "tax": 2285, "ఉత్తర": 2286, "ఉంటాయి.": 2287, "పూ.": 2288, "పూర్": 2289, "leader": 2290, "leading": 2291, "ముఖ్యమైన": 2292, "భాగం": 2293, "period": 2294, "Indo-A": 2295, "Himalayas": 2296, "बंधन": 2297, "ियों": 2298, "राष्ट्रीय": 2299, "agricultural": 2300, "growing": 2301, "సాధించ": 2302, "పాకిస్తాన్": 2303, "పాకిస్థాన్": 2304, "దక్షిణాన": 2305, "Plateau": 2306, "mid-": 2307, "commercial": 2308, "crust": 2309, "member": 2310, "tropical": 2311, "गुप्त": 2312, "పైగా": 2313, "architect": 2314, "consist": 2315, "సినిమా": 2316, "సంగీతం": 2317, "Western": 2318, "भूमि": 2319, "शहरी": 2320, "rights": 2321, "ident,": 2322, "Camera": 2323, "saecul": 2324, "ज़ी": 2325, "ఆధార": 2326, "ఢిల్లీ": 2327, "బ్రిటి": 2328, "మూడు": 2329, "మాత్రం": 2330, "రహదారులు,": 2331, "స్వామ్య": 2332, "विस्तार": 2333, "సామ్రా": 2334, "endemic": 2335, "ప్రాచీన": 2336, "బెంగాల": 2337, "democrat": 2338, "द्योग": 2339, "సర్వీ": 2340, "స్వతంత్ర": 2341, "kingdoms": 2342, "జాబితా": 2343, "అభివృ": 2344, "శతాబ్దం": 2345, "Banglades": 2346, "Dravidian": 2347, "Delhi": 2348, "Populi": 2349, "Singh": 2350, "mundi": 2351, "turned": 2352, "कॉंग्रेस": 2353, "पर्वत": 2354, "ఆఫ్": 2355, "చరిత్ర": 2356, "పశ్చ": 2357, "employ": 2358, "కుటుంబ": 2359, "establish": 2360, "consolid": 2361, "resulting": 2362, "క్షరాస్యత": 2363, "వాతావరణం": 2364, "a.C.n.": 2365, "आधुनिक": 2366, "Bangladesh": 2367, "4.": 2368, "Ac": 2369, "Ter": 2370, "War": 2371, "aver": 2372, "bill": 2373, "ds": 2374, "her": 2375, "iz": 2376, "ket": 2377, "last": 2378, "mak": 2379, "made": 2380, "ped": 2381, "pay": 2382, "rural": 2383, "sur": 2384, "ty": 2385, "ten": 2386, "tal": 2387, "text": 2388, "ual": 2389, "आन्": 2390, "कह": 2391, "कता": 2392, "त्य": 2393, "त्या": 2394, "धि": 2395, "बनी": 2396, "भरा": 2397, "मार": 2398, "यू": 2399, "लिम": 2400, "सफल": 2401, "४०": 2402, "infl": 2403, "stri": 2404, "stian": 2405, "disp": 2406, "ative": 2407, "ories": 2408, "ion.": 2409, "्यता": 2410, "स्लिम": 2411, "ristian": 2412, "ile": 2413, "ility": 2414, "est,": 2415, "प्रति": 2416, "प्रभा": 2417, "consi": 2418, "reserv": 2419, "ract": 2420, "exter": 2421, "char": 2422, "Indians": 2423, "elop": 2424, "when": 2425, "परंप": 2426, "विज": 2427, "करण": 2428, "करोड़": 2429, "संबंध": 2430, "ains": 2431, "play": 2432, "ड़ी": 2433, "protect": 2434, "पाल": 2435, "spe": 2436, "हैं,": 2437, "Indones": 2438, "वर्ण": 2439, "भाषा": 2440, "मुस्लिम": 2441, "elected": 2442, "nific": 2443, "Christian": 2444, "१९५": 2445, "१९७": 2446, "ंधी": 2447, "longer": 2448, "compan": 2449, "polic": 2450, "मिला": 2451, "1965,": 2452, "increasing": 2453, "Pakistan.": 2454, "market": 2455, "Buddhism": 2456, "पश्चिमी": 2457, "These": 2458, "आधार": 2459, "पुरा": 2460, "हुई।": 2461, "class": 2462, "दोल": 2463, "develop": 2464, "post": 2465, "अधिक": 2466, "lingu": 2467, "middle": 2468, "कुछ": 2469, "Sanskrit,": 2470, "produc": 2471, "China": 2472, "signific": 2473, "technology": 2474, "गांधी": 2475, "च्च": 2476, "directly": 2477, "प्रधानमंत्र": 2478, "Among": 2479, "greater": 2480, "गठबंधन": 2481, "शुरू": 2482, "legislat": 2483, "According": 2484, "billion": 2485, "आन्दोल": 2486, "influ": 2487, "disput": 2488, "external": 2489, "परंपरा": 2490, "प्रधानमंत्री": 2491, "\",": 2492, "(వె": 2493, ".పూ.": 2494, "13": 2495, "100": 2496, "1200": 2497, "35": 2498, "40": 2499, "400": 2500, "54": 2501, "517": 2502, "70%": 2503, "BN": 2504, "Bra": 2505, "Bay": 2506, "Coun": 2507, "DP": 2508, "Dec": 2509, "Fron": 2510, "Gree": 2511, "GDP": 2512, "IS": 2513, "Kas": 2514, "Mal": 2515, "Myan": 2516, "Meri": 2517, "Nic": 2518, "Oc": 2519, "PA": 2520, "Per": 2521, "Qu": 2522, "Sh": 2523, "She": 2524, "Tam": 2525, "Tem": 2526, "Thar": 2527, "Tib": 2528, "Vi": 2529, "air": 2530, "bl": 2531, "bu": 2532, "bes": 2533, "bra": 2534, "bir": 2535, "bell": 2536, "bio": 2537, "back": 2538, "cro": 2539, "crit": 2540, "cy.": 2541, "cens": 2542, "clim": 2543, "dar": 2544, "dri": 2545, "day": 2546, "drain": 2547, "eign": 2548, "elig": 2549, "effect": 2550, "fast": 2551, "fere": 2552, "gar": 2553, "gation": 2554, "gra": 2555, "gain": 2556, "gav": 2557, "guar": 2558, "hen": 2559, "his": 2560, "hol": 2561, "hub": 2562, "ip": 2563, "ius": 2564, "ira": 2565, "idu": 2566, "iqu": 2567, "iae": 2568, "ia.": 2569, "ifer": 2570, "jo-": 2571, "kil": 2572, "lo": 2573, "lay": 2574, "lament": 2575, "loss": 2576, "marg": 2577, "mig": 2578, "mamm": 2579, "nation": 2580, "nun": 2581, "near": 2582, "name": 2583, "och": 2584, "pur": 2585, "ran": 2586, "rion": 2587, "sm": 2588, "sum": 2589, "sover": 2590, "ting": 2591, "tra": 2592, "tak": 2593, "ue": 2594, "vel": 2595, "xim": 2596, "अफ": 2597, "इस्": 2598, "उस": 2599, "ऋतु": 2600, "क्र": 2601, "क्यों": 2602, "गत": 2603, "गई।": 2604, "चे": 2605, "चार": 2606, "छो": 2607, "जलो": 2608, "थे": 2609, "दर्": 2610, "न्या": 2611, "पं": 2612, "पी": 2613, "पहा": 2614, "बार": 2615, "बंगा": 2616, "भ्यता": 2617, "यन": 2618, "रि": 2619, "रहा": 2620, "लु": 2621, "व,": 2622, "वैद": 2623, "शी": 2624, "ष्": 2625, "सभा": 2626, "सभ्यता": 2627, "हार": 2628, "हित": 2629, "िकी": 2630, "ौद्योग": 2631, "ంభ": 2632, "అవ": 2633, "అహ": 2634, "అవి": 2635, "ఆక్రమ": 2636, "ఆహార": 2637, "ఇవ": 2638, "ఇవి": 2639, "ఇంగ్ల": 2640, "ఇస్లా": 2641, "ఉండ": 2642, "ఎన్ని": 2643, "కథ": 2644, "కూ": 2645, "కన్న": 2646, "కత్వ": 2647, "కింద": 2648, "ఖండ": 2649, "గె": 2650, "చన": 2651, "చి": 2652, "చు": 2653, "చాల": 2654, "జాలు": 2655, "జరు": 2656, "జంబ": 2657, "టే": 2658, "టై": 2659, "టర్": 2660, "డిన": 2661, "తల": 2662, "తే": 2663, "తరా": 2664, "తము": 2665, "తులు": 2666, "దర": 2667, "నది": 2668, "పర్": 2669, "పార్": 2670, "ఫల": 2671, "బి": 2672, "బు": 2673, "బ్‌": 2674, "బంగ్ల": 2675, "బంధ": 2676, "బడ్డ": 2677, "భర": 2678, "మౌ": 2679, "మాలు": 2680, "మతి": 2681, "మారు": 2682, "మంది": 2683, "యాలో": 2684, "లె": 2685, "లిం": 2686, "ళ్": 2687, "వం": 2688, "వల్ల": 2689, "సమ": 2690, "సహ": 2691, "సే": 2692, "సులు": 2693, "సార్": 2694, "హై": 2695, "హిమ": 2696, "ాదేశ": 2697, "ాంగ": 2698, "ాపార": 2699, "ిగా": 2700, "ీర": 2701, "ీలు": 2702, "ుకొ": 2703, "ూరు": 2704, "ెల": 2705, "ెట్": 2706, "ే,": 2707, "్వ": 2708, "thor": 2709, "ana,": 2710, "anni": 2711, "in.": 2712, "intro": 2713, "enact": 2714, "sty": 2715, "stan": 2716, "stand": 2717, "refer": 2718, "recor": 2719, "diern": 2720, "diment": 2721, "atis": 2722, "atures": 2723, "along": 2724, "ar,": 2725, "ara": 2726, "and,": 2727, "anding": 2728, "oro": 2729, "ory": 2730, "oral": 2731, "organ": 2732, "ita": 2733, "iti": 2734, "ారంభ": 2735, "Indira": 2736, "Indico": 2737, "Indica": 2738, "ions": 2739, "ాలయ": 2740, "ాలనే": 2741, "ాలెండ": 2742, "es:": 2743, "es;": 2744, "enter": 2745, "took": 2746, "్యా": 2747, "oup": 2748, "ould": 2749, "దిన": 2750, "ప్రారంభ": 2751, "దేశపు": 2752, "దేశానికి": 2753, "amp": 2754, "ర్,": 2755, "ర్ణ": 2756, "ర్త": 2757, "ర్‌": 2758, "నిస్తాన్": 2759, "lium": 2760, "uris": 2761, "urya": 2762, "భారత్": 2763, "um,": 2764, "et,": 2765, "heet": 2766, "ాలు.": 2767, "1900": 2768, "adop": 2769, "న్నది.": 2770, "న్నారు.": 2771, "గాంధ": 2772, "ilway": 2773, "కులు": 2774, "प्रचल": 2775, "प्रणा": 2776, "प्रौद्योग": 2777, "ాయు": 2778, "విధ్య": 2779, "విభిన్న": 2780, "విద్య": 2781, "condit": 2782, "conduct": 2783, "union": 2784, "ాతో": 2785, "resp": 2786, "railway": 2787, "separ": 2788, "నుంచి": 2789, "దేశంగా": 2790, "del": 2791, "ages": 2792, "ago,": 2793, "changes": 2794, "ियाँ": 2795, "सागर": 2796, "super": 2797, "ద్వార": 2798, "abh": 2799, "ించే": 2800, "ించి,": 2801, "తిగా": 2802, "త్తా": 2803, "cilium": 2804, "quo": 2805, "qual": 2806, "sian": 2807, "opp": 2808, "ies.": 2809, "विवा": 2810, "within": 2811, "moist": 2812, "राजा": 2813, "संग": 2814, "संसद": 2815, "పురు": 2816, "పుట్ట": 2817, "ంటు": 2818, "స్థి": 2819, "न्त्र": 2820, "न्तु": 2821, "न्द्र": 2822, "సంకీ": 2823, "సంబంధ": 2824, "place": 2825, "ism.": 2826, "ants": 2827, "antiqu": 2828, "వాహ": 2829, "వాణి": 2830, "ఉన్నారు.": 2831, "process": 2832, "పాటు": 2833, "పాదన": 2834, "हाँ": 2835, "ured": 2836, "oted": 2837, "gency,": 2838, "वास": 2839, "वादी": 2840, "కూడుకు": 2841, "partic": 2842, "partition": 2843, "కోల్": 2844, "ders": 2845, "निय": 2846, "निर": 2847, "కాశ్": 2848, "నేపాల": 2849, "మొట్ట": 2850, "2004": 2851, "occident": 2852, "మాబాద్": 2853, "र्मण": 2854, "Asian": 2855, "Asia,": 2856, "Asia.": 2857, "ंदि": 2858, "regions": 2859, "किन": 2860, "ressed": 2861, "west,": 2862, "become": 2863, "जिन": 2864, "నాగర": 2865, "లిచ": 2866, "alled": 2867, "allis": 2868, "sho": 2869, "किया,": 2870, "గువ": 2871, "గుర్త": 2872, "వ్యాపార": 2873, "వచ్చు.": 2874, "ద్ధం": 2875, "ministers.": 2876, "మైనది.": 2877, "ాన్ని": 2878, "स्थान": 2879, "extin": 2880, "ఒకే": 2881, "కొన్ని": 2882, "పాలించ": 2883, "పాలిత": 2884, "assert": 2885, "ucitur": 2886, "vide": 2887, "religi": 2888, "century": 2889, "centuries": 2890, "centuries,": 2891, "చేసింది.": 2892, "१९८": 2893, "CE,": 2894, "Hinduism": 2895, "Hinduism,": 2896, "Hindustan": 2897, "युक्त": 2898, "east.": 2899, "ल्ली": 2900, "దాపు": 2901, "దాదాపు": 2902, "स्वरूप": 2903, "భారతదేశంలోని": 2904, "elections": 2905, "मानव": 2906, "composed": 2907, "Concilium": 2908, "caus": 2909, "predomin": 2910, "కారణంగా": 2911, "డ్డు": 2912, "తుంది.": 2913, "పెనీ": 2914, "వీటిలో": 2915, "जनता": 2916, "subcontinent,": 2917, "కేవల": 2918, "untur": 2919, "భాషలు": 2920, "appell": 2921, "రాజ్యాంగ": 2922, "Empire.": 2923, "marked": 2924, "जिसका": 2925, "This": 2926, "civitat": 2927, "आधिकार": 2928, "వర్ణ": 2929, "art,": 2930, "supp": 2931, "religions": 2932, "రోడ్డు": 2933, "1977": 2934, "parliament.": 2935, "హిందూదేశం": 2936, "numer": 2937, "devot": 2938, "Maurya": 2939, "habitat": 2940, "जीवन": 2941, "बढ़कर": 2942, "జనాభ": 2943, "ష్ణ": 2944, "itatum": 2945, "సాంస్కృ": 2946, "glob": 2947, "strength": 2948, "multi": 2949, "ఉత్తరా": 2950, "ఉంటుంది.": 2951, "జనగణ": 2952, "బడత": 2953, "బడిన": 2954, "మహా": 2955, "వెబ్‌": 2956, "శ్రీ": 2957, "ుకుంట": 2958, "1950,": 2959, "తరువాతి": 2960, "Himalayan": 2961, "Civil": 2962, "Civitatum": 2963, "deducitur": 2964, "కలిసి": 2965, "కలిగి": 2966, "నాలుగు": 2967, "లేదా": 2968, "constitutional": 2969, "संस्कृत": 2970, "mediately": 2971, "కేంద్రపాలిత": 2972, "ప్రభుత్వం": 2973, "hodiern": 2974, "president,": 2975, "ryan": 2976, "प्राचीनतम": 2977, "crucial": 2978, "दिल्ली": 2979, "క్యాలెండ": 2980, "లతో,": 2981, "ుకోవడ": 2982, "ప్రతిపాదన": 2983, "శాస్త్రీయ": 2984, "శాస్త్రం,": 2985, "Arabian": 2986, "Mohen": 2987, "curren": 2988, "factor": 2989, "hmir": 2990, "time,": 2991, "them.": 2992, "armies": 2993, "nings": 2994, "renew": 2995, "variis": 2996, "आकर्मण": 2997, "ఉపఖండ": 2998, "తెలుగు": 2999, "వైవిధ్య": 3000, "సైటు": 3001, "సమాఖ్య": 3002, "official": 3003, "ometres": 3004, "ప్రజల": 3005, "సంస్కృతి": 3006, "ిత్రక": 3007, "కోర్ట": 3008, "కోర్టు": 3009, "పేర్లు": 3010, "పేర్కొ": 3011, "violent": 3012, "violence": 3013, "మొదలైన": 3014, "ప్పటికీ,": 3015, "literac": 3016, "ఏర్పడ్డ": 3017, "బహుళ": 3018, "సింధు": 3019, "स्वतंत्रता": 3020, "Janata": 3021, "iliz": 3022, "prom": 3023, "पहले": 3024, "oldest": 3025, "पार्टी": 3026, "Gupt": 3027, "vict": 3028, "अपने": 3029, "अंग्रेज़ी": 3030, "చారిత్రక": 3031, "పతకాలు": 3032, "పొందిన": 3033, "పద్ధతి": 3034, "indigen": 3035, "independence": 3036, "ప్రజాస్వామ్య": 3037, "severe": 3038, "నుకటి": 3039, "territori": 3040, "త్వాన్ని": 3041, "gradually": 3042, "నిర్వహణ": 3043, "Punjab,": 3044, "స్వాతంత్ర్య": 3045, "अर्थव्यवस्था": 3046, "मौर्य": 3047, "शिक्षा": 3048, "अंततः": 3049, "55,000": 3050, "Ashok": 3051, "Desert": 3052, "Lank": 3053, "house": 3054, "homines": 3055, "लंबे": 3056, "కంపెనీ": 3057, "జన్మ": 3058, "education": 3059, "ప్రకారం": 3060, "libert": 3061, "rock": 3062, "ముంబై": 3063, "ద్వీప": 3064, "operation": 3065, "సంప్రదాయాలు": 3066, "సంవత్సర": 3067, "वर्तमान": 3068, "రైళ్లను": 3069, "కార్యక్రమ": 3070, "పరిశ్రమలు": 3071, "దక్షిణాసియా": 3072, "సాంప్రదాయిక": 3073, "leader,": 3074, "Indo-Aryan": 3075, "saeculo": 3076, "సామ్రాజ్య": 3077, "బెంగాలీ": 3078, "సర్వీసులు": 3079, "అభివృద్ధి": 3080, "ఆఫ్ఘ": 3081, "established": 3082, "protected": 3083, "disputes": 3084, "(వెనుకటి": 3085, "Brahm": 3086, "Front": 3087, "ISBN": 3088, "Kashmir": 3089, "Myanmar": 3090, "Meridian": 3091, "Nicob": 3092, "Persian": 3093, "Tamil": 3094, "birth": 3095, "bellion": 3096, "census": 3097, "daro,": 3098, "gave": 3099, "guard": 3100, "jo-daro,": 3101, "kilometres": 3102, "loose": 3103, "nunc": 3104, "sovereign": 3105, "tradit": 3106, "इस्ला": 3107, "छोटे": 3108, "जलोढ़": 3109, "दर्श": 3110, "वैदिक": 3111, "ఇస్లామాబాద్": 3112, "కన్నడ": 3113, "చాలా": 3114, "జరుపు": 3115, "జంబూ": 3116, "బంగ్లాదేశ": 3117, "ళ్ళ": 3118, "హిమాలయ": 3119, "enacted": 3120, "recorded": 3121, "గాంధీ": 3122, "प्रणाली": 3123, "प्रौद्योगिकी": 3124, "ద్వారా": 3125, "विवाद": 3126, "వాణిజ్య": 3127, "కాశ్మీ": 3128, "మొట్టమొదటి": 3129, "నాగరికత": 3130, "కేవలం": 3131, "civitatibus": 3132, "आधिकारिक": 3133, "సాంస్కృతిక": 3134, "వెబ్‌సైటు": 3135, "క్యాలెండర్": 3136, "Mohenjo-daro,": 3137, ".१": 3138, "04%": 3139, "1%": 3140, "12": 3141, "15": 3142, "1st": 3143, "3,": 3144, "5%": 3145, "62": 3146, "8%": 3147, "8,": 3148, "aut": 3149, "aff": 3150, "cle": 3151, "catt": 3152, "dro": 3153, "edi": 3154, "flow": 3155, "fund": 3156, "gn": 3157, "good": 3158, "however,": 3159, "ide": 3160, "late": 3161, "nomin": 3162, "oin": 3163, "pover": 3164, "pass": 3165, "tain": 3166, "u,": 3167, "uary": 3168, "vill": 3169, "ंह": 3170, "ं।": 3171, "ंतर": 3172, "अर": 3173, "अने": 3174, "अभी": 3175, "अलग": 3176, "अपना": 3177, "उन्हें": 3178, "एव": 3179, "कई": 3180, "खन": 3181, "गई": 3182, "ग्र": 3183, "गों": 3184, "घोष": 3185, "जैन": 3186, "टी": 3187, "ण,": 3188, "दु": 3189, "दृ": 3190, "दार": 3191, "नदिया": 3192, "पत्": 3193, "पड़ा": 3194, "भर": 3195, "भु": 3196, "मू": 3197, "रह": 3198, "लै": 3199, "शक": 3200, "श्री": 3201, "सभी": 3202, "सैन": 3203, "समाज": 3204, "्ञ": 3205, "१५": 3206, "२००": 3207, "४७": 3208, "threat": 3209, "anag": 3210, "ines,": 3211, "institution": 3212, "erc": 3213, "then": 3214, "rest": 3215, "reco": 3216, "reduced": 3217, "dist": 3218, "alth": 3219, "around": 3220, "ed.": 3221, "tow": 3222, "lies": 3223, "urther": 3224, "स्त": 3225, "olving": 3226, "सेवा": 3227, "ोंने": 3228, "left": 3229, "प्रकार": 3230, "प्रदेश": 3231, "प्रशासन": 3232, "प्रभु": 3233, "था,": 3234, "थान": 3235, "une": 3236, "ross": 3237, "ivity": 3238, "dely": 3239, "defe": 3240, "about": 3241, "ability": 3242, "where": 3243, "six": 3244, "widely": 3245, "तिहा": 3246, "न्त": 3247, "ments": 3248, "plac": 3249, "जाती": 3250, "co-": 3251, "earli": 3252, "apon": 3253, "पाद": 3254, "पालि": 3255, "acter": 3256, "शास्त्र": 3257, "economy.": 3258, "wealth": 3259, "weapon": 3260, "उत्पाद": 3261, "किये": 3262, "इसकी": 3263, "कार्य": 3264, "शासित": 3265, "होते": 3266, "ograph": 3267, "year.": 3268, "धर्मों": 3269, "स्थाप": 3270, "century.": 3271, "language,": 3272, "languages.": 3273, "cultures": 3274, "१९६": 3275, "१९९": 3276, "amental": 3277, "system,": 3278, "system.": 3279, "युद्ध": 3280, "ंधु": 3281, "क्षेत्रीय": 3282, "उत्तरी": 3283, "foreign": 3284, "rising": 3285, "लिये": 3286, "प्राप्त": 3287, "जिसके": 3288, "जिसमें": 3289, "जिसने": 3290, "There": 3291, "group": 3292, "बड़ी": 3293, "populous": 3294, "io,": 3295, "दोनों": 3296, "सिंधु": 3297, "strong": 3298, "urbanisation": 3299, "न्होंने": 3300, "सीमा": 3301, "hood": 3302, "present": 3303, "बहुत": 3304, "culture.": 3305, "cities": 3306, "ission": 3307, "16.": 3308, "time": 3309, "उनके": 3310, "right": 3311, "supported": 3312, "अवशेष": 3313, "अवधि": 3314, "जबकि": 3315, "thought": 3316, "January": 3317, "following": 3318, "local": 3319, "third-largest": 3320, "आगमन": 3321, "व्यापार": 3322, "change": 3323, "colonial": 3324, "छोड़कर": 3325, "industr": 3326, "remaining": 3327, "तीसरी": 3328, "कृषि": 3329, "कहते": 3330, "प्रभाव": 3331, "consider": 3332, "character": 3333, "speak": 3334, "१९५०": 3335, "increasingly": 3336, "significant": 3337, "आन्दोलन": 3338, "शील": 3339, "global": 3340, "literacy": 3341, "cattle": 3342, "fundamental": 3343, "अरब": 3344, "अनेक": 3345, "दृष्ट": 3346, "नदियाँ": 3347, "मूल": 3348, "recogn": 3349, "तिहास": 3350, "पालिका": 3351, "\".": 3352, "\"భర": 3353, "(0.": 3354, "-0": 3355, "-k": 3356, "-year": 3357, "-पूर्व": 3358, "-లా": 3359, "-sc": 3360, "-majority": 3361, "-धीरे": 3362, "-ga": 3363, "-ఢిల్లీ": 3364, "-sty": 3365, "01,": 3366, "14%": 3367, "12.": 3368, "22": 3369, "29": 3370, "21.": 3371, "2500": 3372, "40%": 3373, "5-0": 3374, "6.": 3375, "7/": 3376, "7000": 3377, "80": 3378, "8లో": 3379, "9-": 3380, "9,000": 3381, "At": 3382, "Ach": 3383, "Aug": 3384, "Bal": 3385, "CI": 3386, "Cl": 3387, "DA": 3388, "Dal": 3389, "Dhol": 3390, "Ear": 3391, "Emer": 3392, "Fact": 3393, "Follow": 3394, "Gang": 3395, "Gond": 3396, "Har": 3397, "I,": 3398, "Im": 3399, "Iain": 3400, "Jaw": 3401, "Ko": 3402, "Kal": 3403, "Kaver": 3404, "Lat": 3405, "Lak": 3406, "Mid": 3407, "Many": 3408, "Major": 3409, "Meh": 3410, "Nar": 3411, "Nep": 3412, "Nuclear": 3413, "Nomen": 3414, "Network": 3415, "NDA": 3416, "Old": 3417, "P.": 3418, "Po": 3419, "Pr": 3420, "Par": 3421, "Pri": 3422, "Pres": 3423, "Pall": 3424, "Part": 3425, "Pers": 3426, "Res": 3427, "Ram": 3428, "So": 3429, "Sim": 3430, "Sultanate": 3431, "Sabh": 3432, "To": 3433, "Technolog": 3434, "UPA": 3435, "V.": 3436, "Vaj": 3437, "Valle": 3438, "Vallis": 3439, "Zoro": 3440, "ah": 3441, "aic": 3442, "aem": 3443, "ail": 3444, "aim": 3445, "aci": 3446, "ahar": 3447, "affect": 3448, "bis": 3449, "bul": 3450, "bri": 3451, "ble": 3452, "bant": 3453, "beral": 3454, "buc": 3455, "cy": 3456, "cat": 3457, "car": 3458, "ces": 3459, "cum": 3460, "cil": 3461, "cae": 3462, "came": 3463, "cheet": 3464, "dre": 3465, "dense": 3466, "equ": 3467, "eigh": 3468, "eously": 3469, "ebant": 3470, "f.": 3471, "fra": 3472, "fac": 3473, "foun": 3474, "fall": 3475, "fe,": 3476, "found": 3477, "flower": 3478, "gin": 3479, "gent": 3480, "han": 3481, "hun": 3482, "hot": 3483, "hous": 3484, "iebant": 3485, "jay": 3486, "juris": 3487, "know": 3488, "ler": 3489, "lal": 3490, "les,": 3491, "lement": 3492, "law": 3493, "my": 3494, "mal": 3495, "mand": 3496, "mut": 3497, "mns": 3498, "ner": 3499, "nic": 3500, "nom": 3501, "na,": 3502, "next": 3503, "network": 3504, "oeconom": 3505, "pp": 3506, "pat": 3507, "pec": 3508, "pet": 3509, "ple": 3510, "put": 3511, "past": 3512, "push": 3513, "ring": 3514, "rom": 3515, "rang": 3516, "rarum": 3517, "rorum": 3518, "ranges": 3519, "rgar": 3520, "s;": 3521, "sil": 3522, "sus": 3523, "sist": 3524, "sch": 3525, "sap": 3526, "slow": 3527, "somet": 3528, "sunt,": 3529, "tre": 3530, "tic": 3531, "ty.": 3532, "treat": 3533, "table": 3534, "ued": 3535, "uor": 3536, "uit": 3537, "uet": 3538, "var": 3539, "vol": 3540, "valle": 3541, "voted": 3542, "went": 3543, "wing": 3544, "writ": 3545, "women": 3546, "wana,": 3547, "would": 3548, "ze": 3549, "zon": 3550, "ārat": 3551, "ँचा": 3552, "ंस्कृ": 3553, "अहि": 3554, "आर": 3555, "आते": 3556, "आदि": 3557, "आदर्श": 3558, "इन": 3559, "इंदि": 3560, "इतिहास": 3561, "ई,": 3562, "ईस्ट": 3563, "उसे": 3564, "उच्च": 3565, "ऊपर": 3566, "कम": 3567, "कों": 3568, "कश्": 3569, "खने": 3570, "गध": 3571, "ग़": 3572, "गोल": 3573, "घा": 3574, "चौ": 3575, "चला": 3576, "चोल": 3577, "जै": 3578, "जार": 3579, "जमा": 3580, "टल": 3581, "डी": 3582, "णी": 3583, "ण्": 3584, "तरा": 3585, "तीय": 3586, "तमिल": 3587, "थम": 3588, "दुन": 3589, "धु": 3590, "धार": 3591, "न,": 3592, "नव": 3593, "पि": 3594, "फा": 3595, "बू": 3596, "बदल": 3597, "भक्ति": 3598, "म्या": 3599, "मस्वरूप": 3600, "मगध": 3601, "यत": 3602, "यि": 3603, "यों": 3604, "रता": 3605, "रिक": 3606, "रही": 3607, "रचना": 3608, "लों": 3609, "वृ": 3610, "वरी": 3611, "शस्त्र": 3612, "स,": 3613, "सत": 3614, "सो": 3615, "सतर": 3616, "सर्व": 3617, "सवी": 3618, "हरा": 3619, "ातार": 3620, "ामस्वरूप": 3621, "ुस्तान": 3622, "ैली": 3623, "२१": 3624, "ం;": 3625, "ంక": 3626, "ంకా": 3627, "అణ": 3628, "అంత": 3629, "అంట": 3630, "అన్ని": 3631, "అప్ప": 3632, "అమె": 3633, "అక్షరాస్యత": 3634, "ఇదే": 3635, "ఇండ": 3636, "ఇక్క": 3637, "ఇటీ": 3638, "ఈశ": 3639, "ఈస్": 3640, "ఎడ": 3641, "ఎల": 3642, "ఏప్ర": 3643, "ఐరో": 3644, "ఐక్య": 3645, "ఒలం": 3646, "క,": 3647, "కాత": 3648, "కను": 3649, "కనుక": 3650, "కంటే": 3651, "కబడ్డ": 3652, "ఖో": 3653, "ఖని": 3654, "గత": 3655, "గంగ": 3656, "గ్రా": 3657, "చద": 3658, "చయ": 3659, "చూ": 3660, "చవి": 3661, "చించిన": 3662, "చిత్ర": 3663, "చుకోవడ": 3664, "జీ": 3665, "జో": 3666, "జ్": 3667, "జమ్మ": 3668, "జిక,": 3669, "టక": 3670, "ట్ర": 3671, "టన్": 3672, "టలు": 3673, "టాన్": 3674, "ట్‌": 3675, "టోర": 3676, "ఠభూ": 3677, "డైన": 3678, "ఢా": 3679, "ణులు": 3680, "తర్": 3681, "తను": 3682, "తంలో": 3683, "తంగా": 3684, "తంత్ర": 3685, "తక్కువ": 3686, "తీర": 3687, "థ్యం": 3688, "దర్": 3689, "దగా": 3690, "దరా": 3691, "దండ": 3692, "ధీన": 3693, "నం": 3694, "నూ": 3695, "పీ": 3696, "పలు": 3697, "పిక": 3698, "పవి": 3699, "ప్ల": 3700, "పల్ల": 3701, "పడు": 3702, "పతా": 3703, "పక్క": 3704, "పడిన": 3705, "బౌ": 3706, "బంగ": 3707, "భవ": 3708, "భౌ": 3709, "భక్": 3710, "మూ": 3711, "మ్": 3712, "మాత": 3713, "మిత": 3714, "మరో": 3715, "యింది.": 3716, "యాత్ర": 3717, "యమించ": 3718, "రీ": 3719, "రిక": 3720, "రకాలు": 3721, "రచయ": 3722, "లీ": 3723, "లౌ": 3724, "లకొ": 3725, "లమె": 3726, "లస్య": 3727, "ళా": 3728, "ళిక": 3729, "ళి,": 3730, "విం": 3731, "వంత": 3732, "వరు": 3733, "వైన": 3734, "వార్": 3735, "వులు,": 3736, "వత్ర": 3737, "వనాలు": 3738, "శక": 3739, "శి": 3740, "శీ": 3741, "శై": 3742, "శో": 3743, "శకు": 3744, "శక్": 3745, "శెల": 3746, "షణ": 3747, "సన": 3748, "సీ": 3749, "సె": 3750, "సాల": 3751, "స్రా": 3752, "సమర": 3753, "సిక్": 3754, "హో": 3755, "హ్ర": 3756, "ాక": 3757, "ాను": 3758, "ాడే": 3759, "ిమాన": 3760, "ీం": 3761, "ీక్ష": 3762, "ీషు": 3763, "ీకరణ": 3764, "ుత్": 3765, "ూనది": 3766, "ే.": 3767, "ౌర": 3768, "్మా": 3769, "‌సభ": 3770, "‌కాత": 3771, "thic": 3772, "those": 3773, "th-largest": 3774, "annor": 3775, "anced": 3776, "ancient": 3777, "in,": 3778, "inis": 3779, "inci": 3780, "inated": 3781, "infer": 3782, "eras": 3783, "they": 3784, "these": 3785, "en,": 3786, "ened": 3787, "ening": 3788, "ens,": 3789, "enab": 3790, "stre": 3791, "rel": 3792, "rep": 3793, "read": 3794, "relat": 3795, "rept": 3796, "repe": 3797, "rection": 3798, "reach": 3799, "returned": 3800, "rebellion": 3801, "died": 3802, "dient": 3803, "diction": 3804, "dified": 3805, "ating": 3806, "atim": 3807, "ale": 3808, "alty,": 3809, "alliance": 3810, "aris": 3811, "aries": 3812, "ardis": 3813, "andy": 3814, "ord": 3815, "ort": 3816, "orbis": 3817, "it.": 3818, "itud": 3819, "itated": 3820, "itte": 3821, "itude": 3822, "ారి": 3823, "ofile": 3824, "Indicae": 3825, "is,": 3826, "isol": 3827, "isans": 3828, "isque": 3829, "is(en": 3830, "ico": 3831, "ics,": 3832, "icens": 3833, "espec": 3834, "ash": 3835, "asive": 3836, "associ": 3837, "ently": 3838, "entually": 3839, "entrion": 3840, "ings": 3841, "India;": 3842, "లో,": 3843, "లోయ": 3844, "లోని": 3845, "లోను": 3846, "లోమీ": 3847, "केन्द्र": 3848, "స్వీ": 3849, "స్కరణ": 3850, "స్లిం": 3851, "tober": 3852, "touch": 3853, "total": 3854, "today": 3855, "దినాలు": 3856, "ింది": 3857, "ప్రదేశ": 3858, "ప్రాయ": 3859, "ప్రసి": 3860, "ప్రత్య": 3861, "ప్రయో": 3862, "ప్రీం": 3863, "లుగా": 3864, "లుచుకోవడ": 3865, "దేశీ": 3866, "am,": 3867, "ర్పు": 3868, "ర్జాతీయ": 3869, "ర్ణం": 3870, "ర్చు": 3871, "ర్థ్యం": 3872, "ర్షణ": 3873, "నిపు": 3874, "నిడి": 3875, "నియమించ": 3876, "lio": 3877, "liberal": 3878, "life,": 3879, "urgen": 3880, "భారతం,": 3881, "భారత్‌": 3882, "భారత్,": 3883, "ly-": 3884, "lying": 3885, "emer": 3886, "uminis": 3887, "स्ति": 3888, "vers": 3889, "verbo": 3890, "काश": 3891, "held": 3892, "193": 3893, "19th": 3894, "adv": 3895, "adwe": 3896, "adven": 3897, "న్నీ": 3898, "న్నై": 3899, "గాన్ని": 3900, "यास": 3901, "ribut": 3902, "iled": 3903, "ilding": 3904, "కు,": 3905, "level": 3906, "est-": 3907, "estic": 3908, "रान": 3909, "प्रथम": 3910, "प्रकाश": 3911, "प्रयास": 3912, "isting": 3913, "విలు": 3914, "విమాన": 3915, "విశ్": 3916, "విదేశీ": 3917, "constitut": 3918, "క్టోర": 3919, "Their": 3920, "una": 3921, "ung": 3922, "uni": 3923, "unres": 3924, "unitary": 3925, "united": 3926, "ాతం": 3927, "ాతి": 3928, "ాత్మా": 3929, "res,": 3930, "res.": 3931, "raec": 3932, "raid": 3933, "racy.": 3934, "ता,": 3935, "utan": 3936, "utra": 3937, "sel": 3938, "sediment": 3939, "దేశం.": 3940, "cept": 3941, "ate.": 3942, "exerc": 3943, "existing": 3944, "chain": 3945, "forti": 3946, "fortable": 3947, "ter-ga": 3948, "terrarum": 3949, "साल": 3950, "साक्ष": 3951, "सामान": 3952, "साहित": 3953, "सांस्कृ": 3954, "ime": 3955, "imo": 3956, "imes": 3957, "impl": 3958, "imperi": 3959, "immediately": 3960, "ము,": 3961, "ముడి": 3962, "ముస్లిం": 3963, "ellat": 3964, "supre": 3965, "superi": 3966, "cts": 3967, "ండ్": 3968, "ినీ": 3969, "ably": 3970, "what": 3971, "స్తులు": 3972, "స్తారు": 3973, "తిరు": 3974, "due": 3975, "duo": 3976, "duction": 3977, "परि": 3978, "परिण": 3979, "quia": 3980, "ంతర": 3981, "ానీ": 3982, "ాన్య": 3983, "iron": 3984, "विशा": 3985, "विशेष": 3986, "विरो": 3987, "विभाज": 3988, "वियत": 3989, "करते": 3990, "overran": 3991, "model": 3992, "संपूर्ण": 3993, "పుకో": 3994, "పుతూ": 3995, "being": 3996, "begin": 3997, "ంటి": 3998, "స్థా": 3999, "స్థావర": 4000, "न्धु": 4001, "ంలో,": 4002, "సంస్కరణ": 4003, "భారతదేశం.": 4004, "contra": 4005, "contains": 4006, "contribut": 4007, "area.": 4008, "mental": 4009, "plural": 4010, "ड़ो": 4011, "భావిస్త": 4012, "భాగాన్ని": 4013, "ante": 4014, "pert": 4015, "जाब": 4016, "mega": 4017, "ంగా,": 4018, "కిలోమీ": 4019, "వాదం": 4020, "సాహ": 4021, "సామా": 4022, "cost": 4023, "ends": 4024, "ender": 4025, "ended": 4026, "comfortable": 4027, "centre": 4028, "appro": 4029, "aputra": 4030, "పావ": 4031, "పాడు": 4032, "పాంతర": 4033, "पात": 4034, "पास": 4035, "पांड": 4036, "पाँच": 4037, "ae,": 4038, "uda": 4039, "2018": 4040, "accoun": 4041, "across": 4042, "aval": 4043, "aved": 4044, "avira": 4045, "ure.": 4046, "substant": 4047, "hibian": 4048, "spot": 4049, "sphere": 4050, "spread": 4051, "idence": 4052, "ార్థ": 4053, "वाली": 4054, "वायु": 4055, "पूरे": 4056, "కూడి": 4057, "కూడుకొ": 4058, "కోట్ల": 4059, "జాతి": 4060, "జాతులు,": 4061, "రాజు": 4062, "atedly": 4063, "निभा": 4064, "निवास": 4065, "కాహార": 4066, "కా-ఢిల్లీ": 4067, "కాపాడు": 4068, "క్రి": 4069, "చ్చే": 4070, "నేరే": 4071, "మొగలు": 4072, "दक्षिण-पूर्व": 4073, "2003": 4074, "larger": 4075, "iger": 4076, "देखा": 4077, "ంచిన": 4078, "దుగా": 4079, "మాట్ల": 4080, "Asians": 4081, "lowing": 4082, "तीन": 4083, "हिस्": 4084, "region.": 4085, "regione": 4086, "regions.": 4087, "సియాలో": 4088, "ressive": 4089, "formation": 4090, "forms.": 4091, "west.": 4092, "कारी": 4093, "lands,": 4094, "जिन्हें": 4095, "होने": 4096, "నాథ": 4097, "latter": 4098, "shy": 4099, "share": 4100, "shadwe": 4101, "south,": 4102, "south.": 4103, "గుబా": 4104, "యాళ": 4105, "వచ్చని": 4106, "continued": 4107, "north-": 4108, "northwest.": 4109, "try": 4110, "trad": 4111, "धर्म,": 4112, "వే.": 4113, "వేద": 4114, "వేల": 4115, "्राट": 4116, "ence.": 4117, "extre": 4118, "extant": 4119, "extends": 4120, "mercat": 4121, "बाल": 4122, "కాలే": 4123, "డిస్": 4124, "assical": 4125, "assass": 4126, "dhu,": 4127, "ourish": 4128, "portant": 4129, "government,": 4130, "governments": 4131, "लेकिन": 4132, "लेखन": 4133, "ద్రా": 4134, "శాసన": 4135, "దేశాలను": 4136, "ruling": 4137, "rule,": 4138, "Britanni": 4139, "CEE": 4140, "book": 4141, "features": 4142, "feguard": 4143, "flan": 4144, "flood": 4145, "fluminis": 4146, "flourish": 4147, "ान,": 4148, "ందింది.": 4149, "systems": 4150, "रीबी": 4151, "fici": 4152, "nonviolent": 4153, "ंत्रिक": 4154, "सम्राट": 4155, "చెప్": 4156, "చెంద": 4157, "చెందు": 4158, "చెన్నై": 4159, "inequal": 4160, "स्वरु": 4161, "election.": 4162, "elections.": 4163, "18th": 4164, "Anti": 4165, "Ancient": 4166, "decl": 4167, "decades": 4168, "declin": 4169, "decidu": 4170, "long-": 4171, "peace": 4172, "publica": 4173, "that,": 4174, "annis": 4175, "annum": 4176, "ological": 4177, "ologically": 4178, "company": 4179, "Constitut": 4180, "prevent": 4181, "महासागर": 4182, "తులతో": 4183, "మతాలు": 4184, "మతము": 4185, "1962": 4186, "1991,": 4187, "subcontinentis": 4188, "Pakistania": 4189, "ఎన్నుకో": 4190, "ఎన్నుకుంట": 4191, "కేతిక": 4192, "పర్యాయ": 4193, "పరీక్ష": 4194, "పరిపాలన": 4195, "మీదగా": 4196, "మే.": 4197, "సుప్రీం": 4198, "arum,": 4199, "ప్రపంచములో": 4200, "river,": 4201, "rivers,": 4202, "until": 4203, "భాషా": 4204, "భాషలను": 4205, "appa,": 4206, "appear": 4207, "appellat": 4208, "రాజ్యంగా": 4209, "years;": 4210, "అధికారం": 4211, "साम्राज्यों": 4212, "British-sty": 4213, "17th": 4214, "7,517": 4215, "marshy": 4216, "Buddha": 4217, "Buddhismus": 4218, "Thail": 4219, "civil": 4220, "త్రి": 4221, "దాయంలో": 4222, "వారి": 4223, "వర్ష": 4224, "వర్తి": 4225, "సభను": 4226, "therers,": 4227, "ergy": 4228, "orient": 4229, "orians": 4230, "స్థానం": 4231, "స్థానాలను": 4232, "ప్రాంతీయ": 4233, "ప్రాంతాల్లో": 4234, "పేరు,": 4235, "मुख्य": 4236, "పార్టీ,": 4237, "Islands,": 4238, "artisans": 4239, "legifer": 4240, "supplant": 4241, "religiones": 4242, "BCE.": 4243, "Plain": 4244, "having": 4245, "पुरु": 4246, "लगातार": 4247, "బాదు": 4248, "రెండవ": 4249, "రెండో": 4250, "వలన": 4251, "వలస": 4252, "1975,": 4253, "క్రీ.పూ.": 4254, "power.": 4255, "claim": 4256, "serving": 4257, "सिन्धु": 4258, "devast": 4259, "devicens": 4260, "2014": 4261, "Union": 4262, "eval": 4263, "eventually": 4264, "mainly": 4265, "role": 4266, "పోయింది.": 4267, "మిస్తు": 4268, "isation,": 4269, "ప్రభుత్వాన్ని": 4270, "స్త్రీలు": 4271, "సాంకేతిక": 4272, "हिंदुस्तान": 4273, "non-Congress": 4274, "non-violence": 4275, "non-co-": 4276, "forest,": 4277, "forests,": 4278, "humans": 4279, "notable": 4280, "notably": 4281, "लोक": 4282, "लोगों": 4283, "ular,": 4284, "every": 4285, "multis": 4286, "ward": 4287, "तृत": 4288, "అతిపెద్ద": 4289, "జనతా": 4290, "జనవరి": 4291, "జరిగే": 4292, "బడింది.": 4293, "బ్ది": 4294, "మనదేశం": 4295, "మహి": 4296, "మహాత్మా": 4297, "వరీ": 4298, "వుతుంది.": 4299, "వుదినాలు": 4300, "వెల్ల": 4301, "ముఖ్యంగా": 4302, "ultaneously": 4303, "2023": 4304, "Indo-European": 4305, "Indo-Gang": 4306, "అయినా,": 4307, "Himalayas,": 4308, "Euras": 4309, "poin": 4310, "pore": 4311, "चलने": 4312, "चालु": 4313, "states": 4314, "status": 4315, "highly": 4316, "largely": 4317, "large-sc": 4318, "Civiliz": 4319, "coll": 4320, "growth": 4321, "monsoon": 4322, "గినది.": 4323, "లేదు": 4324, "display": 4325, "attract": 4326, "attuor": 4327, "aliisque": 4328, "ప్రస్తుతము": 4329, "క్కను": 4330, "हुए,": 4331, "हुए।": 4332, "medieval": 4333, "సాధించిన": 4334, "coastal": 4335, "coastline": 4336, "కాంగ్రెస్": 4337, "కాలంలో,": 4338, "स्वतन्त्र": 4339, "country,": 4340, "Plate.": 4341, "క్రీడా": 4342, "క్రీడలు": 4343, "క్రీడలలో": 4344, "host": 4345, "presence": 4346, "कुलीन": 4347, "बहुमत": 4348, "सदन": 4349, "सदस": 4350, "expans": 4351, "expanding": 4352, "commerci": 4353, "culture,": 4354, "30,000": 4355, "Reg": 4356, "Republic": 4357, "cities,": 4358, "citiz": 4359, "ethical": 4360, "ethnic": 4361, "historians": 4362, "membra": 4363, "द्रो": 4364, "కల్లో": 4365, "గోదా": 4366, "భూభాగం": 4367, "భూటాన్": 4368, "మానం:": 4369, "యోగి": 4370, "రంగంలో": 4371, "archaic": 4372, "issima": 4373, "ప్రతిపక్ష": 4374, "విస్తీ": 4375, "consum": 4376, "dependent": 4377, "సినిమాలు": 4378, "later,": 4379, "China,": 4380, "26న": 4381, "Arav": 4382, "Modi": 4383, "efly": 4384, "facta": 4385, "nationalist": 4386, "उनका": 4387, "उनकी": 4388, "शहरों": 4389, "regist": 4390, "्रीका": 4391, "support.": 4392, "5.8%": 4393, "All": 4394, "Although": 4395, "Alliance": 4396, "desc": 4397, "design": 4398, "far-": 4399, "safeguard": 4400, "आकर्ष": 4401, "वेद": 4402, "वेश": 4403, "ఉపయోగి": 4404, "గణతంత్ర": 4405, "ఢిల్లీ,": 4406, "నెలకొ": 4407, "బ్రిటీ": 4408, "మాత్రమే": 4409, "యుగ": 4410, "సైనిక": 4411, "సమాజ": 4412, "animals": 4413, "involved": 4414, "office": 4415, "ప్రజలు": 4416, "विस्तृत": 4417, "संघर्ष": 4418, "సంస్కృత": 4419, "plains,": 4420, "సామర్థ్యం": 4421, "ackbuc": 4422, "dominion": 4423, "species.": 4424, "setting": 4425, "settlement": 4426, "పట్టణాలు,": 4427, "ప్పటికినీ": 4428, "literat": 4429, "సింధూనది": 4430, "democracy.": 4431, "సరిహద్దుగా": 4432, "धीरे-धीरे": 4433, "ప్రముఖమైన": 4434, "Sea": 4435, "Sea.": 4436, "camera": 4437, "princ": 4438, "पहली": 4439, "मीर": 4440, "षाण": 4441, "defined": 4442, "diversity.": 4443, "मैदानों": 4444, "Guj": 4445, "borne": 4446, "borders": 4447, "creating": 4448, "creativity": 4449, "five-year": 4450, "heredit": 4451, "temper": 4452, "tempore": 4453, "well-": 4454, "अपनी": 4455, "अंग्रेजी": 4456, "मनु": 4457, "ोषण,": 4458, "చైనా,": 4459, "చైనాను": 4460, "తూర్పు": 4461, "పండుగలు": 4462, "రూపాంతర": 4463, "independent": 4464, "differ": 4465, "diffused": 4466, "ప్రజాదర": 4467, "headed": 4468, "term.": 4469, "త్వానికి": 4470, "committe": 4471, "occupy": 4472, "occupation,": 4473, "రైల్వేశాఖ": 4474, "transformed": 4475, "ఒకటిగా": 4476, "పాలనలో": 4477, "culturam": 4478, "ప్రపంచంలోని": 4479, "నిర్వహించింది.": 4480, "coalition,": 4481, "historical": 4482, "courts.": 4483, "సముద్రం,": 4484, "సముద్రతీర": 4485, "प्रारंभिक": 4486, "సౌకర్యాలలో": 4487, "స్వాతంత్ర్యం": 4488, "Jainism": 4489, "ंस,": 4490, "आगे": 4491, "१८५": 4492, "stead": 4493, "administration": 4494, "exported": 4495, "अधिराज्य": 4496, "structure": 4497, "...": 4498, "Bhārat": 4499, "Ghats,": 4500, "North": 4501, "Northeast": 4502, "Oceano": 4503, "Rajiv": 4504, "Stat": 4505, "Sindhu,": 4506, "capita": 4507, "hymns": 4508, "potent": 4509, "single": 4510, "winds": 4511, "wildlife": 4512, "पेक्ष": 4513, "सूचना": 4514, "२०१": 4515, "నాయకత్వ": 4516, "మలయాళ": 4517, "లక్షణ": 4518, "సూచించిన": 4519, "హాకీ": 4520, "ిస్తారు.": 4521, "original": 4522, "లోక్‌సభ": 4523, "కులాలు,": 4524, "కుంటూ": 4525, "కుంటారు.": 4526, "septentrion": 4527, "astrian": 4528, "against": 4529, "elites": 4530, "elites,": 4531, "भाजपा": 4532, "extensively": 4533, "उत्तर-पश्चिम": 4534, "మేనని": 4535, "రాజ్యాలుగా": 4536, "వారసత్వ": 4537, "సభ్యు": 4538, "సభ్యులు": 4539, "పూర్తిగా": 4540, "Himalayas.": 4541, "పాకిస్థాన్,": 4542, "Plateau,": 4543, "crust,": 4544, "architecture,": 4545, "consists": 4546, "भूमिका": 4547, "शहरीकरण": 4548, "ఆధారపడిన": 4549, "బ్రిటిష్": 4550, "బ్రిటిషు": 4551, "democratic": 4552, "పశ్చిమ": 4553, "పశ్చిమాన": 4554, "employed": 4555, "Terra": 4556, "lasted": 4557, "make": 4558, "paye": 4559, "विजयन": 4560, "Indonesia.": 4561, "वर्णित": 4562, "markets.": 4563, "आधारित": 4564, "development": 4565, "producer": 4566, "legislature": 4567, "influence": 4568, "13th": 4569, "Country": 4570, "Deccan": 4571, "Greek": 4572, "Maldiv": 4573, "October": 4574, "Quae": 4575, "Shastri": 4576, "Temple": 4577, "Vijay": 4578, "blackbuc": 4579, "building": 4580, "biodiversity": 4581, "climatic": 4582, "eliguntur": 4583, "fere,": 4584, "gradient": 4585, "gained": 4586, "hubs": 4587, "layer": 4588, "margins": 4589, "migration": 4590, "mammals,": 4591, "ochistan": 4592, "small": 4593, "summer": 4594, "ximately": 4595, "अफ्रीका": 4596, "उसके": 4597, "थे।": 4598, "न्याया": 4599, "पंजाब": 4600, "बंगाल": 4601, "ष्ण": 4602, "ఇంగ్లీషు": 4603, "ఎన్నికల్లో": 4604, "కిందకు": 4605, "గెలుచుకోవడ": 4606, "చిరు": 4607, "టైటి": 4608, "టర్లకు": 4609, "పార్లమె": 4610, "మౌర్య": 4611, "సహస్రా": 4612, "సార్వత్ర": 4613, "హైదరా": 4614, "thorn": 4615, "introduced": 4616, "standardis": 4617, "Indico.": 4618, "ప్రారంభించ": 4619, "amphibian": 4620, "ర్‌ల": 4621, "adopted": 4622, "प्रचलित": 4623, "ాయుత": 4624, "విద్యుత్": 4625, "conducted": 4626, "respon": 4627, "railways,": 4628, "separat": 4629, "supercontinent": 4630, "quoque": 4631, "राजाओं": 4632, "పురుషు": 4633, "స్థితి": 4634, "సంకీర్ణ": 4635, "antiqua": 4636, "కూడుకుని": 4637, "కోల్‌కాత": 4638, "नियंत्र": 4639, "निरपेक्ष": 4640, "నేపాల్,": 4641, "extinct": 4642, "పాలించారు.": 4643, "religious": 4644, "రాజ్యాంగం": 4645, "numerum": 4646, "జనాభాతో": 4647, "multi-": 4648, "ఉత్తరాన": 4649, "జనగణన": 4650, "బడతారు.": 4651, "deducitur,": 4652, "ప్రతిపాదనకు": 4653, "తెలుగు,": 4654, "సమాఖ్య.": 4655, "కోర్టులు": 4656, "ఏర్పడ్డాయి.": 4657, "Gupta": 4658, "victories": 4659, "indigenous": 4660, "severely": 4661, "Ashoka": 4662, "Desert,": 4663, "Lankan": 4664, "కార్యక్రమాలు": 4665, "ఆఫ్ఘనిస్తాన్": 4666, "Brahmaputra": 4667, "Myanmar,": 4668, "Meridiana": 4669, "Nicobar": 4670, "loose-k": 4671, "tradition": 4672, "इस्लाम": 4673, "జరుపుకుంటారు.": 4674, "బంగ్లాదేశ్‌": 4675, "affair": 4676, "cleared": 4677, "edicts": 4678, "एवम": 4679, "पत्ति": 4680, "threatened": 4681, "anagara": 4682, "towns": 4683, "earliest": 4684, "स्थापित": 4685, "16.6%": 4686, "characteristic": 4687, "speaking": 4688, "-లాహో": 4689, "Achaem": 4690, "August": 4691, "Balochistan": 4692, "CIA": 4693, "Classical": 4694, "Dholavira": 4695, "Early": 4696, "Emergency,": 4697, "Factbook": 4698, "Following": 4699, "Gondwana,": 4700, "Harappa,": 4701, "Jawahar": 4702, "Kosi": 4703, "Lakshadwe": 4704, "Middle": 4705, "Mehrgar": 4706, "Post": 4707, "Profile": 4708, "Parlament": 4709, "Pallav": 4710, "Simultaneously": 4711, "Sabha,": 4712, "Vajpaye": 4713, "Valley": 4714, "Zoroastrian": 4715, "bulk": 4716, "briefly": 4717, "cheetah": 4718, "drew": 4719, "flowering": 4720, "hunter-ga": 4721, "hotspot": 4722, "jurisdiction": 4723, "known": 4724, "laws": 4725, "patron": 4726, "pastoral": 4727, "sistent": 4728, "sapi": 4729, "sometimes": 4730, "volcan": 4731, "इंदिरा": 4732, "कश्मीर": 4733, "ग़रीबी": 4734, "दुनिया": 4735, "అంతర్జాతీయ": 4736, "అమెరిక": 4737, "ఇండో": 4738, "ఈశాన్య": 4739, "ఈస్ట్": 4740, "ఎలక్టోర": 4741, "ఏప్రిల్": 4742, "ఐరోపా": 4743, "ఖనిజాలు": 4744, "జమ్మూ": 4745, "ట్రో": 4746, "ఢాకా-ఢిల్లీ": 4747, "తర్వాత": 4748, "పీఠభూ": 4749, "పిక్‌": 4750, "పవిత్ర": 4751, "పతాక": 4752, "పక్కన": 4753, "బౌద్ధ": 4754, "బంగారు": 4755, "రచయిత": 4756, "లౌక": 4757, "శెలవుదినాలు": 4758, "సమరం": 4759, "annorum": 4760, "inferi": 4761, "relative": 4762, "repeatedly": 4763, "reached": 4764, "isolation": 4765, "especially": 4766, "touchability": 4767, "ప్రసిద్ధి": 4768, "ప్రయోజన": 4769, "నిపుణులు": 4770, "నిడివి": 4771, "భారత్‌లో": 4772, "unresolved": 4773, "fortified": 4774, "साक्षरता": 4775, "साहित्य": 4776, "सांस्कृतिक": 4777, "implement": 4778, "supreme": 4779, "superior": 4780, "తిరుగుబా": 4781, "परिणामस्वरूप": 4782, "विशाल": 4783, "विरोध": 4784, "विभाजित": 4785, "beginnings": 4786, "స్థావరాలు": 4787, "megadiverse": 4788, "కిలోమీటర్లకు": 4789, "సామాజిక,": 4790, "approximately": 4791, "substantially": 4792, "కూడుకొని": 4793, "కాపాడుకుంటూ": 4794, "నేరేడు": 4795, "మాట్లాడే": 4796, "mercatori": 4797, "assassinated": 4798, "Britanniarum": 4799, "చెప్పుకో": 4800, "చెందాయి.": 4801, "చెందుతున్న": 4802, "स्वरुप": 4803, "Antiqu": 4804, "deciduous": 4805, "ఎన్నుకోబడతారు.": 4806, "పర్యాయాలు": 4807, "British-style": 4808, "supplanted": 4809, "पुरुष": 4810, "claiming": 4811, "devicensimo": 4812, "Indo-Gangetic": 4813, "चालुक्यों": 4814, "large-scale": 4815, "Civilization": 4816, "स्वतन्त्रता": 4817, "आकर्षित": 4818, "ప్రజాదరణ": 4819, "Bhārata": 4820, "సూచించినట్లు": 4821, "विजयनगर": 4822, "Vijayanagara": 4823, "blackbuck": 4824, "గెలుచుకోవడం": 4825, "సహస్రాబ్ది": 4826, "సార్వత్రిక": 4827, "standardised": 4828, "కోల్‌కాతా": 4829, "loose-knit": 4830, "Achaemen": 4831, "Dholavira,": 4832, "Jawaharlal": 4833, "Lakshadweep": 4834, "Mehrgarh": 4835, "Simultaneously,": 4836, "hunter-gatherers,": 4837, "ఎలక్టోరల్": 4838, "ఢాకా-ఢిల్లీ-లాహో": 4839, "తిరుగుబాటు": 4840, "-आ": 4841, "28": 4842, "26%": 4843, "36": 4844, "300": 4845, "36%": 4846, "4,": 4847, "46%": 4848, "43%": 4849, "6th": 4850, "64%": 4851, "74.": 4852, "900": 4853, "As": 4854, "Ass": 4855, "Bi": 4856, "Between": 4857, "Dem": 4858, "Dev": 4859, "Gr": 4860, "Jamm": 4861, "Languag": 4862, "Min": 4863, "Non": 4864, "Treat": 4865, "ares": 4866, "bi": 4867, "bur": 4868, "bly": 4869, "bro": 4870, "bel": 4871, "bour": 4872, "cin": 4873, "cris": 4874, "called": 4875, "dr": 4876, "dest": 4877, "fre": 4878, "fish": 4879, "further": 4880, "gas": 4881, "hal": 4882, "kat": 4883, "lut": 4884, "mor": 4885, "mit": 4886, "mace": 4887, "oct": 4888, "phar": 4889, "pract": 4890, "son": 4891, "sal": 4892, "sec": 4893, "sect": 4894, "tan": 4895, "test": 4896, "ues": 4897, "uent": 4898, "ufact": 4899, "veh": 4900, "ंट": 4901, "ंश": 4902, "अग": 4903, "अन्त": 4904, "आत": 4905, "आय": 4906, "आस": 4907, "आंद": 4908, "आर्थ": 4909, "उठ": 4910, "उद": 4911, "उभरा": 4912, "उन्होंने": 4913, "ऊँच": 4914, "ऊँचा": 4915, "एँ": 4916, "एवं": 4917, "कं": 4918, "कल": 4919, "कटि": 4920, "कंप": 4921, "ग्री": 4922, "चि": 4923, "चली": 4924, "जल": 4925, "जु": 4926, "जू": 4927, "जन्": 4928, "जंग": 4929, "जहाँ": 4930, "ठार": 4931, "डि": 4932, "तट": 4933, "तब": 4934, "तो": 4935, "दशक": 4936, "धानी": 4937, "नर": 4938, "नौ": 4939, "नदी": 4940, "नये": 4941, "नही": 4942, "पै": 4943, "पीय": 4944, "पहु": 4945, "पटल": 4946, "पठार": 4947, "फि": 4948, "फ्रा": 4949, "फैली": 4950, "बडी": 4951, "भि": 4952, "भरी": 4953, "मे": 4954, "म्र": 4955, "मिक": 4956, "महि": 4957, "मही": 4958, "यद्वीप": 4959, "यहाँ": 4960, "रत्": 4961, "रक्षा": 4962, "ल,": 4963, "लौ": 4964, "वल": 4965, "वै": 4966, "शत": 4967, "श्रे": 4968, "शिय": 4969, "शक्ति": 4970, "सह": 4971, "सों": 4972, "सित": 4973, "सरे": 4974, "हन": 4975, "हर": 4976, "ीकरण": 4977, "ोच्च": 4978, "१०": 4979, "२४": 4980, "२६": 4981, "three": 4982, "enced": 4983, "energy": 4984, "recent": 4985, "reven": 4986, "dise": 4987, "ats": 4988, "ator": 4989, "arter": 4990, "ors.": 4991, "ital": 4992, "itter": 4993, "ities": 4994, "ise": 4995, "ises": 4996, "ising": 4997, "ice": 4998, "केवल": 4999, "omic": 5000, "lied": 5001, "lived": 5002, "lief": 5003, "living": 5004, "live": 5005, "lihood": 5006, "र्गत": 5007, "ly,": 5008, "embly": 5009, "का,": 5010, "कास": 5011, "कालीन": 5012, "कांश": 5013, "नेता": 5014, "नेपाल": 5015, "lex": 5016, "प्रगति": 5017, "प्रत्य": 5018, "थाई": 5019, "ute": 5020, "utical": 5021, "sex": 5022, "seats": 5023, "ived": 5024, "deleg": 5025, "ceed": 5026, "exchange": 5027, "chos": 5028, "सामाज": 5029, "परमाण": 5030, "side": 5031, "sia,": 5032, "विध": 5033, "विद्रो": 5034, "विभि": 5035, "विकास": 5036, "करता": 5037, "करती": 5038, "राजधानी": 5039, "संयुक्त": 5040, "संप्रभु": 5041, "belief": 5042, "income": 5043, "न्दू": 5044, "areas": 5045, "anted": 5046, "meas": 5047, "ending": 5048, "project": 5049, "पाया": 5050, "2019": 5051, "access": 5052, "द्वि": 5053, "वाँ": 5054, "वाज": 5055, "वाला": 5056, "पूरा": 5057, "economy,": 5058, "stituent": 5059, "ated.": 5060, "निवेश": 5061, "2001": 5062, "2009": 5063, "देव": 5064, "हिन्दू": 5065, "उत्थान": 5066, "किन्तु": 5067, "इसने": 5068, "porter": 5069, "जिसे": 5070, "होती": 5071, "ought": 5072, "osing": 5073, "osition": 5074, "राज्यसभा": 5075, "ally.": 5076, "trade": 5077, "स्थाई": 5078, "merch": 5079, "portion": 5080, "cultural": 5081, "ruled": 5082, "१९४७": 5083, "सामने": 5084, "bodi": 5085, "Hindu,": 5086, "1,000": 5087, "action": 5088, "neigh": 5089, "ल्प": 5090, "reasing": 5091, "क्षेत्रों": 5092, "decis": 5093, "decade": 5094, "comprising": 5095, "world.": 5096, "Constituent": 5097, "pollut": 5098, "1965": 5099, "1999.": 5100, "जनवरी": 5101, "countri": 5102, "हुआ,": 5103, "appoin": 5104, "applied": 5105, "17.": 5106, "प्रायद्वीप": 5107, "speci": 5108, "जिसकी": 5109, "Buddhist": 5110, "Buddhism,": 5111, "थी,": 5112, "पुन": 5113, "1971": 5114, "1974": 5115, "1971,": 5116, "सिख": 5117, "सिंह": 5118, "2011,": 5119, "वर्षों": 5120, "evol": 5121, "maintain": 5122, "चुकी": 5123, "जीत": 5124, "बढ़ने": 5125, "state,": 5126, "लोकता": 5127, "व्यक्ति": 5128, "Common": 5129, "obstruct": 5130, "बना।": 5131, "बनाने": 5132, "बनाई।": 5133, "मध्यम": 5134, "ance,": 5135, "2023.": 5136, "निर्भर": 5137, "Islam,": 5138, "teen": 5139, "बेटे": 5140, "बहुमूल": 5141, "commerce": 5142, "Sikhs,": 5143, "०००": 5144, "production": 5145, "Arab": 5146, "ronic": 5147, "tribal": 5148, "म्बे": 5149, "ोलन": 5150, "intervent": 5151, "regul": 5152, "vene": 5153, "involving": 5154, "rapid": 5155, "signed": 5156, "संघीय": 5157, "3.8": 5158, "Sept": 5159, "rate,": 5160, "न्नति": 5161, "पार्टियों": 5162, "country's": 5163, "second-largest": 5164, "मोहन": 5165, "1951,": 5166, "territories": 5167, "Jainism,": 5168, "US$2,": 5169, "manufact": 5170, "रोपीय": 5171, "administrat": 5172, "subsequently": 5173, "generated": 5174, "अधिकांश": 5175, "agriculture.": 5176, "industri": 5177, "remained": 5178, "makes": 5179, "मार्": 5180, "यूरोपीय": 5181, "प्रतिशत": 5182, "विज्ञ": 5183, "Christianity,": 5184, "policy": 5185, "पुराना": 5186, "producing": 5187, "influenced": 5188, "परंपरागत": 5189, "क्रम": 5190, "पहाड़ी": 5191, "organised": 5192, "organisation": 5193, "जिनके": 5194, "स्थानीय": 5195, "census,": 5196, "drop": 5197, "goods": 5198, "nominal": 5199, "poverty": 5200, "village": 5201, "घोषणा": 5202, "रहे": 5203, "सैन्य": 5204, "सेवाओं": 5205, "defeated.": 5206, "placed": 5207, "कार्यपालिका": 5208, "ographic": 5209, "strongly": 5210, "right.": 5211, "cattle.": 5212, "दृष्टि": 5213, "जैसे": 5214, "सर्वोच्च": 5215, "liberalisation": 5216, "सामान्य": 5217, "हिस्सों": 5218, "declared": 5219, "लोकसभा": 5220, "States,": 5221, "२०११": 5222, "न्यायालय": 5223, "पुरुषों": 5224, "361": 5225, "74.04%": 5226, "Assembly": 5227, "Bihar": 5228, "Jammu": 5229, "Languages": 5230, "Non-": 5231, "broad": 5232, "belong": 5233, "half": 5234, "maceutical": 5235, "pharmaceutical": 5236, "practic": 5237, "sector": 5238, "अगस्त": 5239, "आसपास": 5240, "आंदोलन": 5241, "आर्थिक": 5242, "उदय": 5243, "ऊँची": 5244, "ऊँचाई": 5245, "जलवायु": 5246, "जून": 5247, "जन्म": 5248, "जंगलों": 5249, "नहीं": 5250, "पहुँच": 5251, "महिला": 5252, "revenues": 5253, "delegates": 5254, "chosen": 5255, "सामाजिक": 5256, "परमाणु": 5257, "विद्रोह": 5258, "विभिन्न": 5259, "neighbour": 5260, "Commonwealth": 5261, "बहुमूल्य": 5262, "intervention": 5263, "industrial": 5264, "\"గ": 5265, "\"Indi": 5266, "\"India": 5267, "\"భారతదేశం": 5268, "\"popul": 5269, "\"river,": 5270, "\"నేరేడు": 5271, "',": 5272, "'.": 5273, "'the": 5274, "'Terra": 5275, "(-": 5276, "(/": 5277, "(B": 5278, "(P": 5279, "(Ι": 5280, "(ఆ": 5281, "(ఉ": 5282, "(ట": 5283, "(బ": 5284, "(య": 5285, "(ర": 5286, "(భారత": 5287, "(भारत": 5288, "(సా": 5289, "(తా": 5290, "(గి": 5291, "(5.": 5292, "(3.": 5293, "(8.": 5294, "(prov": 5295, "(आधिकारिक": 5296, "(Old": 5297, "(ఇదే": 5298, "(శక": 5299, "(CEE": 5300, "(17.": 5301, "):": 5302, "-5": 5303, "-7": 5304, "-h": 5305, "-l": 5306, "-n": 5307, "-r": 5308, "-फ": 5309, "-ఆ": 5310, "-ఇ": 5311, "-in": 5312, "-దేశ": 5313, "-19": 5314, "-ow": 5315, "-sh": 5316, "-Pakistan": 5317, "-रूप": 5318, "-चीन": 5319, "-साथ": 5320, "-ti": 5321, "-गंगा": 5322, "-టె": 5323, "-rich": 5324, "-div": 5325, "-origin": 5326, "-growing": 5327, "-मुस्लिम": 5328, "-elected": 5329, "-day": 5330, "-president,": 5331, "-छोटे": 5332, "-वैदिक": 5333, "-weapon": 5334, "-tre": 5335, "-wing": 5336, "-ఖో": 5337, "-దండ": 5338, "-rel": 5339, "-existing": 5340, "-पाँच": 5341, "-rule,": 5342, "-design": 5343, "-borne": 5344, "-speaking": 5345, "-pastoral": 5346, "-lived": 5347, "-producing": 5348, ".७": 5349, ".ఇ": 5350, ".ఈ": 5351, ".ఏ": 5352, ".కి": 5353, ".మీ": 5354, "/)": 5355, "/G": 5356, "0,": 5357, "01": 5358, "09": 5359, "0-19": 5360, "120": 5361, "1000": 5362, "15,": 5363, "1500": 5364, "13.": 5365, "142": 5366, "11%": 5367, "25": 5368, "2n": 5369, "250": 5370, "230": 5371, "23%": 5372, "25%": 5373, "31": 5374, "34": 5375, "3000": 5376, "31,": 5377, "30%": 5378, "31.": 5379, "32,": 5380, "39%": 5381, "46": 5382, "48": 5383, "4th": 5384, "45.8%": 5385, "52": 5386, "5th": 5387, "59-": 5388, "55.8%": 5389, "6)": 5390, "64": 5391, "65": 5392, "68": 5393, "600": 5394, "6500": 5395, "601,": 5396, "70": 5397, "7th": 5398, "7లో": 5399, "74%": 5400, "75,": 5401, "7).": 5402, "72%": 5403, "740": 5404, "7517": 5405, "8th": 5406, "87,": 5407, "82,": 5408, "85.": 5409, "81-": 5410, "83,": 5411, "83.8": 5412, "8-7": 5413, "9,": 5414, "97": 5415, "9th": 5416, "9000": 5417, "93,": 5418, "Ab": 5419, "Af": 5420, "Ak": 5421, "Ap": 5422, "Ar": 5423, "Az": 5424, "Adh": 5425, "Atal": 5426, "BB": 5427, "BS": 5428, "Ba": 5429, "Be": 5430, "Bo": 5431, "Br": 5432, "Bed": 5433, "Bas": 5434, "Bir": 5435, "Boun": 5436, "Bib": 5437, "Bio": 5438, "Butan": 5439, "B/G": 5440, "C,": 5441, "CN": 5442, "Co": 5443, "Cor": 5444, "Che": 5445, "C's": 5446, "Crit": 5447, "Chi": 5448, "Char": 5449, "Clim": 5450, "Crow": 5451, "D.": 5452, "DN": 5453, "Dis": 5454, "Dic": 5455, "Dom": 5456, "Domin": 5457, "El": 5458, "Ep": 5459, "Ev": 5460, "Ex": 5461, "Eth": 5462, "Econ": 5463, "Esc": 5464, "Eti": 5465, "Fl": 5466, "Fo": 5467, "Fed": 5468, "Fic": 5469, "Ful": 5470, "Four": 5471, "Further": 5472, "Ga": 5473, "Gan": 5474, "Gen": 5475, "Gow": 5476, "Gover": 5477, "God": 5478, "Govern": 5479, "Gold": 5480, "Graec": 5481, "H.": 5482, "HZ": 5483, "Hu": 5484, "Hom": 5485, "Hell": 5486, "I.": 5487, "IN": 5488, "IU": 5489, "Ire": 5490, "Iun": 5491, "II,": 5492, "Iuda": 5493, "Jhar": 5494, "Just": 5495, "June": 5496, "Juda": 5497, "K.": 5498, "Kr": 5499, "Kut": 5500, "La": 5501, "Li": 5502, "Lal": 5503, "Ling": 5504, "Long": 5505, "Lok": 5506, "Lef": 5507, "Lord": 5508, "Litter": 5509, "Man": 5510, "Mor": 5511, "Mit": 5512, "Mong": 5513, "May": 5514, "Mare": 5515, "Mod": 5516, "Mari": 5517, "Mara": 5518, "Na": 5519, "No": 5520, "Nag": 5521, "Narm": 5522, "New": 5523, "Noted": 5524, "Ox": 5525, "Ori": 5526, "Oeconomic": 5527, "Pa": 5528, "Pe": 5529, "Pan": 5530, "Pill": 5531, "Phi": 5532, "Public": 5533, "Pali": 5534, "Pandy": 5535, "Ra": 5536, "Ri": 5537, "Rom": 5538, "Rak": 5539, "Rid": 5540, "Rig": 5541, "Rann": 5542, "SI": 5543, "Son": 5544, "Sat": 5545, "Set": 5546, "Sang": 5547, "Sund": 5548, "Ty": 5549, "Tap": 5550, "Teth": 5551, "Tash": 5552, "Tiger": 5553, "Uni": 5554, "V;": 5555, "Va": 5556, "Vin": 5557, "Ved": 5558, "Way": 5559, "Wild": 5560, "Yam": 5561, "a;": 5562, "af": 5563, "athe": 5564, "aiv": 5565, "aid": 5566, "afl": 5567, "ahead": 5568, "bɦ": 5569, "ben": 5570, "bar": 5571, "band": 5572, "bet": 5573, "bans": 5574, "big": 5575, "bod": 5576, "bition": 5577, "bust": 5578, "bade": 5579, "bird": 5580, "bond": 5581, "bility": 5582, "bar,": 5583, "brorum": 5584, "blowing": 5585, "cu": 5586, "cer": 5587, "cal": 5588, "cas": 5589, "cing": 5590, "cli": 5591, "cus": 5592, "cation": 5593, "cres": 5594, "cra": 5595, "cab": 5596, "care": 5597, "ca,": 5598, "call": 5599, "ces,": 5600, "cence": 5601, "ces.": 5602, "cunt": 5603, "capp": 5604, "cust": 5605, "cert": 5606, "could": 5607, "caval": 5608, "cceed": 5609, "d;": 5610, "da": 5611, "dat": 5612, "dol": 5613, "dus": 5614, "dra": 5615, "date": 5616, "dated": 5617, "dens": 5618, "drough": 5619, "daw": 5620, "dry": 5621, "dates": 5622, "down": 5623, "e;": 5624, "eing": 5625, "e's": 5626, "eper": 5627, "eking": 5628, "eius": 5629, "eis,": 5630, "eographic": 5631, "e-president,": 5632, "ful": 5633, "fem": 5634, "fle": 5635, "fut": 5636, "fel": 5637, "fab": 5638, "fare": 5639, "fav": 5640, "fill": 5641, "fig": 5642, "fire": 5643, "flat": 5644, "fence": 5645, "fts": 5646, "fell": 5647, "fically": 5648, "foss": 5649, "fuit": 5650, "fash": 5651, "f-rule,": 5652, "go": 5653, "gli": 5654, "ghe": 5655, "gment": 5656, "gig": 5657, "god": 5658, "grain": 5659, "graph": 5660, "gender": 5661, "gressive": 5662, "ha": 5663, "ham": 5664, "hinc": 5665, "hori": 5666, "hund": 5667, "hin.": 5668, "i.": 5669, "idi": 5670, "ied": 5671, "iic": 5672, "iation": 5673, "iant": 5674, "iff": 5675, "iarum": 5676, "iya": 5677, "iuris": 5678, "ily-": 5679, "ires.": 5680, "ifici": 5681, "ji": 5682, "ju": 5683, "jour": 5684, "just": 5685, "jya": 5686, "jured": 5687, "join": 5688, "kent": 5689, "kill": 5690, "khar": 5691, "kening": 5692, "ls": 5693, "lu": 5694, "lar": 5695, "lem": 5696, "lap": 5697, "lav": 5698, "lation,": 5699, "lack": 5700, "loy": 5701, "length": 5702, "lped": 5703, "losing": 5704, "ms": 5705, "mat": 5706, "mas": 5707, "ming": 5708, "mum": 5709, "mus": 5710, "may": 5711, "mant": 5712, "mud": 5713, "mary": 5714, "moun": 5715, "mass": 5716, "mens": 5717, "must": 5718, "mense": 5719, "mission": 5720, "men,": 5721, "nin": 5722, "nat": 5723, "nas": 5724, "nul": 5725, "nut": 5726, "nant": 5727, "noun": 5728, "nos": 5729, "na.": 5730, "ncre": 5731, "nearly": 5732, "nomen": 5733, "native": 5734, "nam,": 5735, "naval": 5736, "oor": 5737, "oli": 5738, "oist": 5739, "os,": 5740, "os.": 5741, "oog": 5742, "ove": 5743, "ocean": 5744, "pan": 5745, "pus": 5746, "piv": 5747, "pain": 5748, "pill": 5749, "pris": 5750, "pite": 5751, "pau": 5752, "pared": 5753, "posed": 5754, "prise": 5755, "panding": 5756, "paci": 5757, "piebant": 5758, "pit.": 5759, "piled": 5760, "praec": 5761, "paved": 5762, "position": 5763, "paid": 5764, "phin.": 5765, "pires.": 5766, "rʌ": 5767, "rent": 5768, "ram": 5769, "run": 5770, "ration,": 5771, "round": 5772, "rional": 5773, "rush": 5774, "render": 5775, "sw": 5776, "san": 5777, "sar": 5778, "sed": 5779, "sit": 5780, "sul": 5781, "sem": 5782, "she": 5783, "sim": 5784, "sci": 5785, "swi": 5786, "sac": 5787, "sence": 5788, "sunt": 5789, "southeast": 5790, "slid": 5791, "sar,": 5792, "sheet": 5793, "sandy": 5794, "saved": 5795, "sought": 5796, "t̪": 5797, "tion": 5798, "tad": 5799, "tle": 5800, "tut": 5801, "ts,": 5802, "tch": 5803, "tment": 5804, "tes.": 5805, "tell": 5806, "tled": 5807, "tta": 5808, "ting,": 5809, "train": 5810, "tently": 5811, "tiger": 5812, "tally.": 5813, "ua": 5814, "uous": 5815, "uvi": 5816, "uarum": 5817, "vo": 5818, "vis": 5819, "vul": 5820, "vult": 5821, "vary": 5822, "voc": 5823, "vals": 5824, "vigin": 5825, "vives": 5826, "vasive": 5827, "viron": 5828, "wat": 5829, "wal": 5830, "wet": 5831, "wil": 5832, "wel": 5833, "will": 5834, "winter": 5835, "weri": 5836, "wet,": 5837, "xal": 5838, "xed": 5839, "xur": 5840, "y;": 5841, "yed": 5842, "ymon": 5843, "yond": 5844, "yense": 5845, "yguard": 5846, "yalty,": 5847, "ymum": 5848, "zed": 5849, "zes": 5850, "zones": 5851, "zed.": 5852, "zoog": 5853, "ús": 5854, "ājya": 5855, "ɑː": 5856, "ˈbɦ": 5857, "ί)": 5858, "δο": 5859, "νδο": 5860, "ँकि": 5861, "ंथ": 5862, "ंसा": 5863, "ंतिक": 5864, "ंतु": 5865, "ंटे": 5866, "ंमार": 5867, "ंबू": 5868, "ंरिक": 5869, "अश": 5870, "अस": 5871, "अक्": 5872, "अराज": 5873, "असं": 5874, "अंद": 5875, "अत्या": 5876, "असफल": 5877, "अस्ति": 5878, "अद्वि": 5879, "अ-वैदिक": 5880, "आज": 5881, "आम": 5882, "आता": 5883, "आजा": 5884, "आया।": 5885, "आवास": 5886, "आंतर": 5887, "इन्ह": 5888, "इच्": 5889, "इत्या": 5890, "ई;": 5891, "ईस्": 5892, "ईसवी": 5893, "ईरान": 5894, "उतर": 5895, "उल्": 5896, "उद्ध": 5897, "उष्ण": 5898, "उभरी": 5899, "उन्नति": 5900, "ऋग": 5901, "ऋष": 5902, "ऑफ़": 5903, "ओस,": 5904, "औप": 5905, "औसत": 5906, "कथा": 5907, "कला": 5908, "क्रा": 5909, "कम्": 5910, "कन्न": 5911, "क-रूप": 5912, "खर": 5913, "खी": 5914, "खे": 5915, "खदे": 5916, "खगोल": 5917, "गए": 5918, "गह": 5919, "गै": 5920, "गौ": 5921, "गढ़": 5922, "घट": 5923, "घु": 5924, "घोड़": 5925, "घरों": 5926, "घरान": 5927, "च,": 5928, "चर": 5929, "चो": 5930, "चले": 5931, "चंद्र": 5932, "चन्द्र": 5933, "छह": 5934, "छु": 5935, "जड़": 5936, "जटि": 5937, "ज्ञ": 5938, "जंबू": 5939, "जगह": 5940, "टू": 5941, "टान,": 5942, "टका,": 5943, "ठित": 5944, "डिया": 5945, "डच,": 5946, "ढा": 5947, "ण:": 5948, "तल": 5949, "तों": 5950, "तगा": 5951, "तियाँ": 5952, "तदु": 5953, "तवाँ": 5954, "द,": 5955, "दक्": 5956, "दियों": 5957, "दड़ो": 5958, "धे": 5959, "धो": 5960, "धिक": 5961, "धित": 5962, "धम्": 5963, "धिकार": 5964, "नई": 5965, "नै": 5966, "नवी": 5967, "नकारी": 5968, "नकल": 5969, "नदियों": 5970, "पक": 5971, "पद": 5972, "प्य": 5973, "परा": 5974, "पराज": 5975, "पति": 5976, "पनी": 5977, "पल्": 5978, "पमान": 5979, "पब्": 5980, "पिय": 5981, "पतन": 5982, "पन्न": 5983, "पदा": 5984, "पत्य": 5985, "पड़ो": 5986, "पोषण,": 5987, "फु": 5988, "फले": 5989, "बम": 5990, "बह": 5991, "बु": 5992, "बने": 5993, "बस्ति": 5994, "भे": 5995, "भौ": 5996, "भ्र": 5997, "भजन": 5998, "भदेव": 5999, "मठ": 6000, "मण": 6001, "मद्": 6002, "मंग": 6003, "मले": 6004, "मपु": 6005, "मबे": 6006, "मजब": 6007, "मज़": 6008, "मन्तु": 6009, "मंदि": 6010, "यं": 6011, "यर": 6012, "यस": 6013, "यें": 6014, "यता": 6015, "यहा": 6016, "यद्य": 6017, "यदा": 6018, "यपालिका": 6019, "यशक्ति": 6020, "रसा": 6021, "रक्ष": 6022, "रचा": 6023, "रखने": 6024, "र-मुस्लिम": 6025, "रखी": 6026, "लब": 6027, "लना": 6028, "लिक": 6029, "लदी": 6030, "लम्बे": 6031, "वत": 6032, "व्र": 6033, "वों": 6034, "विक": 6035, "शै": 6036, "शब्": 6037, "शस्त": 6038, "शकारी": 6039, "शोषण,": 6040, "षण": 6041, "ष्य": 6042, "सृ": 6043, "सौ": 6044, "सक्ष": 6045, "समा": 6046, "सहि": 6047, "सदी": 6048, "सवीं": 6049, "सकता": 6050, "सहित": 6051, "सशस्त्र": 6052, "हद": 6053, "ह्": 6054, "हड़": 6055, "हद्": 6056, "हरू": 6057, "हर्ष": 6058, "ात": 6059, "ाया।": 6060, "ाचार": 6061, "ायि": 6062, "िक्ष": 6063, "िल्": 6064, "ीं": 6065, "ीत": 6066, "ीक्ष": 6067, "ुता": 6068, "ुत्": 6069, "ूत": 6070, "ूदी": 6071, "ूले": 6072, "े।": 6073, "ोक": 6074, "ोण": 6075, "ोने": 6076, "ोत्": 6077, "ौज": 6078, "ौर": 6079, "्द": 6080, "्ला": 6081, "्थी": 6082, "्मिल": 6083, "्वेद": 6084, "०६": 6085, "१३": 6086, "१७": 6087, "१२०": 6088, "१४०": 6089, "१२००": 6090, "१२१": 6091, "१०००": 6092, "२.": 6093, "२८": 6094, "२२.": 6095, "३२": 6096, "३६": 6097, "४.": 6098, "५४": 6099, "६००": 6100, "६४७": 6101, "६०६": 6102, "८५": 6103, "ంజ": 6104, "ంతి,": 6105, "ం\",": 6106, "అర": 6107, "అల": 6108, "అస్": 6109, "అది": 6110, "అన్న": 6111, "అరు": 6112, "అక్ష": 6113, "అంది": 6114, "అద్ద": 6115, "అధి": 6116, "అలం": 6117, "అంద": 6118, "అమల": 6119, "అరే": 6120, "అంటే": 6121, "అంక": 6122, "అధీన": 6123, "అశో": 6124, "ఆగ": 6125, "ఆలో": 6126, "ఆదేశ": 6127, "ఆవి": 6128, "ఆతి": 6129, "ఆక్ర": 6130, "ఆనా": 6131, "ఆయా": 6132, "ఆడు": 6133, "ఆధ్య": 6134, "ఆదాయ": 6135, "ఆవల": 6136, "ఆగ్": 6137, "ఆణి": 6138, "ఆచార": 6139, "ఆసియా": 6140, "ఆక్షరాస్యత": 6141, "ఆటలు": 6142, "ఆనం": 6143, "ఆలస్య": 6144, "ఆసియాలో": 6145, "ఇ-": 6146, "ఇయ": 6147, "ఇన్": 6148, "ఇను": 6149, "ఇము": 6150, "ఇతి": 6151, "ఇంది": 6152, "ఇతరు": 6153, "ఇప్పటిక": 6154, "ఇందు": 6155, "ఇంకా": 6156, "ఇతను": 6157, "ఇంటి": 6158, "ఇచ్చే": 6159, "ఉర్": 6160, "ఉద్": 6161, "ఉపా": 6162, "ఉండి": 6163, "ఉండు": 6164, "ఉనిక": 6165, "ఉష్ణ": 6166, "ఋతు": 6167, "ఎమ": 6168, "ఎదు": 6169, "ఎగు": 6170, "ఎల్ల": 6171, "ఎంతో": 6172, "ఎగువ": 6173, "ఏక": 6174, "ఏడ": 6175, "ఏడు": 6176, "ఏటా": 6177, "ఏకత్వ": 6178, "ఏళ్ళ": 6179, "ఐదు": 6180, "ఒక్": 6181, "ఒరి": 6182, "ఒలిం": 6183, "ఒడిస్": 6184, "ఓడ": 6185, "ఓటర్": 6186, "ఔట్‌": 6187, "కిం": 6188, "కలు": 6189, "కర్": 6190, "కని": 6191, "కాయ": 6192, "కరా": 6193, "కంట": 6194, "కార్": 6195, "కష్ట": 6196, "కట్ట": 6197, "కమైన": 6198, "కమీ": 6199, "కలలో": 6200, "క్యం": 6201, "కమల": 6202, "కలుగు": 6203, "కమేన": 6204, "కెట్": 6205, "కర్‌": 6206, "కత్తా": 6207, "కానీ": 6208, "కవరీ": 6209, "ఖిక": 6210, "ఖగో": 6211, "ఖర్చు": 6212, "ఖాతం": 6213, "గీ": 6214, "గృ": 6215, "గ్ర": 6216, "గర్": 6217, "గించ": 6218, "గతి": 6219, "గల్": 6220, "గులు": 6221, "గింది.": 6222, "గలి": 6223, "గి,": 6224, "గలు,": 6225, "గమన": 6226, "గమించ": 6227, "గనులు,": 6228, "గర్,": 6229, "గౌర": 6230, "ఘన": 6231, "ఘు": 6232, "ఘట్ట": 6233, "ఘోర": 6234, "ఘిక,": 6235, "ఘర్షణ": 6236, "చా": 6237, "చో": 6238, "చ్": 6239, "చము": 6240, "చిన": 6241, "చింది.": 6242, "చూడ": 6243, "చిత": 6244, "చక్ర": 6245, "చట్ట": 6246, "చీ,": 6247, "చులు,": 6248, "చీర": 6249, "చర్,": 6250, "చ.కి": 6251, "ఛాయుత": 6252, "జల": 6253, "జె": 6254, "జై": 6255, "జౌ": 6256, "జ్ర": 6257, "జిన": 6258, "జంత": 6259, "జాన": 6260, "జైన": 6261, "జపా": 6262, "జిత": 6263, "జ్‌": 6264, "జీ,": 6265, "జెండ": 6266, "జవహ": 6267, "జ్యం": 6268, "జిల్ల": 6269, "జెట్": 6270, "ఞాన": 6271, "టన": 6272, "టో": 6273, "టస్": 6274, "ట్య": 6275, "టిన": 6276, "టాయి": 6277, "టంలో": 6278, "టం,": 6279, "టచే": 6280, "ట్రా": 6281, "టంతో": 6282, "టమూ": 6283, "ఠీ;": 6284, "డ్ర": 6285, "డాల": 6286, "డ్య": 6287, "డింది.": 6288, "డ్చ": 6289, "డ్ల": 6290, "డాలు,": 6291, "డ్‌": 6292, "డానికి": 6293, "డించింది.": 6294, "డబు": 6295, "డమ్": 6296, "ఢవి": 6297, "ణే": 6298, "ణిక": 6299, "ణించ": 6300, "ణదారులు,": 6301, "ణుల": 6302, "త,": 6303, "తార": 6304, "తాయ": 6305, "తాయి.": 6306, "తదు": 6307, "తనా": 6308, "తత్వ": 6309, "తక్కు": 6310, "తగ్": 6311, "తమై": 6312, "తలం": 6313, "తమ్య": 6314, "తదేశపు": 6315, "తవర్ష": 6316, "తత్వానికి": 6317, "థమ": 6318, "థి": 6319, "థాత": 6320, "థాన": 6321, "థార్": 6322, "దశ": 6323, "దస": 6324, "దూ": 6325, "దృ": 6326, "దీయ": 6327, "దాన": 6328, "దులు": 6329, "దైన": 6330, "దారు": 6331, "దం,": 6332, "దులు,": 6333, "దగ్": 6334, "దగినది.": 6335, "దక్కను": 6336, "ధర": 6337, "ధా": 6338, "ధు": 6339, "ధాల": 6340, "ధిన": 6341, "ధరి": 6342, "ధం,": 6343, "ధనా": 6344, "ధిల్ల": 6345, "న,": 6346, "నృ": 6347, "నై": 6348, "నో": 6349, "నాల": 6350, "న్య": 6351, "నలు": 6352, "నర్": 6353, "నవి": 6354, "నంలో": 6355, "నసా": 6356, "నడు": 6357, "నీ,": 6358, "నలలో": 6359, "ననీ": 6360, "నాలతో": 6361, "నవచ్చు.": 6362, "నబడిన": 6363, "నప్పటికినీ": 6364, "నదులు": 6365, "పక": 6366, "పబ": 6367, "పస": 6368, "పి": 6369, "పది": 6370, "పిన": 6371, "పింది.": 6372, "పంలో": 6373, "పూడ": 6374, "పిత": 6375, "పరాజ": 6376, "పచ్చ": 6377, "పత్య": 6378, "పట్": 6379, "పించింది.": 6380, "పబడ": 6381, "పం:": 6382, "పకళ": 6383, "పటం": 6384, "పిస్త": 6385, "పస్,": 6386, "పిక్": 6387, "పవనాలు": 6388, "పౌర": 6389, "పండ్": 6390, "పటంలో": 6391, "ఫు": 6392, "ఫ్ర": 6393, "ఫర్": 6394, "ఫరా": 6395, "ఫ్ట": 6396, "ఫిక్": 6397, "బల": 6398, "బై": 6399, "బొ": 6400, "బ్ర": 6401, "బాల": 6402, "బండ": 6403, "బంగా": 6404, "బిన్న": 6405, "బడ్": 6406, "బ్రా": 6407, "బ్యా": 6408, "బద్ధం": 6409, "భ్య": 6410, "భిం": 6411, "భంగ": 6412, "భదాయ": 6413, "భజిత": 6414, "మ.": 6415, "మయ": 6416, "మో": 6417, "మార": 6418, "మిం": 6419, "మని": 6420, "మిక": 6421, "మాయ": 6422, "మరా": 6423, "మిన": 6424, "మంత": 6425, "మంలో": 6426, "మలి": 6427, "మాలు,": 6428, "మ్‌": 6429, "మి,": 6430, "మలు,": 6431, "మాల్": 6432, "మించిన": 6433, "మణి": 6434, "మిత్ర": 6435, "మస్,": 6436, "మికి": 6437, "మంచి": 6438, "మసాల": 6439, "మద్రా": 6440, "మంజ": 6441, "యం": 6442, "యి": 6443, "యస్": 6444, "యాలు": 6445, "యము": 6446, "యిన": 6447, "యులు": 6448, "యం,": 6449, "యం:": 6450, "యంతో": 6451, "యనులు,": 6452, "యింది": 6453, "యంలో,": 6454, "యథాత": 6455, "ర,": 6456, "రొ": 6457, "రలో": 6458, "రద్": 6459, "రత్": 6460, "రంగా": 6461, "రక్ష": 6462, "రమైన": 6463, "రవే": 6464, "రవీ": 6465, "రించిన": 6466, "రం.": 6467, "రీ;": 6468, "రక్షరాస్యత": 6469, "రాలు.": 6470, "రారి": 6471, "రకు,": 6472, "రాతి": 6473, "రతాయ": 6474, "రబద్ధం": 6475, "ల,": 6476, "లిక": 6477, "లిన": 6478, "లైన": 6479, "లకాల": 6480, "లీ,": 6481, "లబె": 6482, "లపై": 6483, "లహా": 6484, "లమానం:": 6485, "లఘు": 6486, "లబై": 6487, "లభ్య": 6488, "ళల": 6489, "ళు": 6490, "ళులు,": 6491, "ళూరు": 6492, "ళవిం": 6493, "వస": 6494, "వూ": 6495, "వపు": 6496, "వులు": 6497, "వలి": 6498, "వతం": 6499, "వస్తు": 6500, "వద్ద": 6501, "వస్థానంలో": 6502, "వదిన": 6503, "వాయు": 6504, "వనాథ": 6505, "వజ్ర": 6506, "వన్య": 6507, "వమి,": 6508, "శే": 6509, "శాల": 6510, "శంలో": 6511, "శ్రా": 6512, "శిల్": 6513, "శించే": 6514, "శాతం": 6515, "శరద్": 6516, "షి": 6517, "షే": 6518, "షన్": 6519, "షులు": 6520, "షం.": 6521, "షకాహార": 6522, "సొ": 6523, "సాలు": 6524, "సగా": 6525, "సాయ": 6526, "సిన": 6527, "సల్": 6528, "సభా": 6529, "సైన": 6530, "సవా": 6531, "సీ,": 6532, "సత్య": 6533, "సమి": 6534, "సాయుత": 6535, "సలహా": 6536, "హె": 6537, "హొ": 6538, "హిం": 6539, "హర్": 6540, "హాయ": 6541, "హస్త": 6542, "హపు": 6543, "హాలు,": 6544, "హక్కు": 6545, "హ్మ": 6546, "హ్వ": 6547, "ా)": 6548, "ాంబ": 6549, "ాశ్ర": 6550, "ాము.": 6551, "ానిస్తాన్": 6552, "ాదాయంలో": 6553, "ాంతి,": 6554, "ాధిన": 6555, "ామని": 6556, "ి:": 6557, "ిని": 6558, "ిపె": 6559, "ిలే": 6560, "ిరంగ": 6561, "ిళ్ళ": 6562, "ిటన్": 6563, "ిశ్రా": 6564, "ీలో": 6565, "ీకృ": 6566, "ీకులు": 6567, "ీ-దండ": 6568, "ును": 6569, "ుల్": 6570, "ువు": 6571, "ునిక": 6572, "ుర్య": 6573, "ుడైన": 6574, "ుళూరు": 6575, "ూ,": 6576, "ూ—": 6577, "ూలా": 6578, "ూదులు,": 6579, "ృతంగా": 6580, "ె,": 6581, "ెస్": 6582, "ెర్": 6583, "ెన్న": 6584, "ెల్": 6585, "ెనే": 6586, "ెలు.": 6587, "ెక్కను": 6588, "ేత": 6589, "ేది": 6590, "ేకా": 6591, "ే),": 6592, "ేష్": 6593, "ే...": 6594, "ేకమైన": 6595, "ేననీ": 6596, "ేయులు": 6597, "ైక": 6598, "ైస్త": 6599, "ైపో": 6600, "ైవరు": 6601, "ో,": 6602, "ోంది.": 6603, "ోక్ష": 6604, "ోత్ర": 6605, "ోద్య": 6606, "్;": 6607, "్లో": 6608, "్తదేశపు": 6609, "ṇar": 6610, "‌కు": 6611, "‌టిక": 6612, "‌ఫర్": 6613, "–2004": 6614, "—in": 6615, "—Hindu": 6616, "thus": 6617, "tholog": 6618, "thas,": 6619, "an,": 6620, "an;": 6621, "anat": 6622, "aning": 6623, "ans,": 6624, "anim": 6625, "any,": 6626, "anistan": 6627, "anism,": 6628, "another": 6629, "init": 6630, "inet": 6631, "inate": 6632, "ins.": 6633, "inction": 6634, "inque": 6635, "incial": 6636, "inscript": 6637, "innit": 6638, "initi": 6639, "inet,": 6640, "infra": 6641, "inens,": 6642, "inaries": 6643, "information": 6644, "instead": 6645, "ini.": 6646, "eram": 6647, "erly": 6648, "era,": 6649, "erunt": 6650, "erial": 6651, "theca": 6652, "onic": 6653, "onom": 6654, "only": 6655, "onset": 6656, "en:": 6657, "ene": 6658, "enu": 6659, "enli": 6660, "ende": 6661, "ensi": 6662, "ens.": 6663, "enac": 6664, "encomp": 6665, "enas,": 6666, "endit": 6667, "enistic": 6668, "encro": 6669, "enius": 6670, "enhouse": 6671, "enbur": 6672, "ences.": 6673, "environ": 6674, "sting": 6675, "stable": 6676, "stage": 6677, "story": 6678, "stamp": 6679, "stressed": 6680, "stics,": 6681, "stiff": 6682, "real": 6683, "report": 6684, "refl": 6685, "reement": 6686, "refin": 6687, "reve": 6688, "recomm": 6689, "reject": 6690, "restant": 6691, "recondit": 6692, "represent": 6693, "retreat": 6694, "remental": 6695, "replaced": 6696, "re-elected": 6697, "recus": 6698, "reiic": 6699, "did": 6700, "dili": 6701, "diut": 6702, "dici": 6703, "dific": 6704, "dicl": 6705, "dique": 6706, "diers,": 6707, "divide": 6708, "direction": 6709, "dicer": 6710, "at.": 6711, "atum": 6712, "atol": 6713, "atop": 6714, "atical": 6715, "atque": 6716, "atite": 6717, "atives": 6718, "atio,": 6719, "atarum,": 6720, "al,": 6721, "alis": 6722, "ales": 6723, "alli": 6724, "alid": 6725, "alibus": 6726, "alised": 6727, "allowing": 6728, "Inde": 6729, "Indu": 6730, "Institut": 6731, "Instead": 6732, "Insul": 6733, "arat": 6734, "arent": 6735, "arri": 6736, "ars,": 6737, "ary,": 6738, "arsh": 6739, "arts": 6740, "aria": 6741, "aribus": 6742, "arbans": 6743, "arcation": 6744, "ard;": 6745, "arji": 6746, "arenas,": 6747, "edul": 6748, "ando": 6749, "anded": 6750, "andra": 6751, "andson": 6752, "or,": 6753, "oration": 6754, "orse": 6755, "ority": 6756, "orta": 6757, "orders": 6758, "oruit": 6759, "it,": 6760, "itan": 6761, "itant": 6762, "itorum": 6763, "itas,": 6764, "itants": 6765, "itsel": 6766, "itate.": 6767, "itime": 6768, "ారణంగా": 6769, "ారమ్‌": 6770, "often": 6771, "ofenac": 6772, "Indici": 6773, "Indicam": 6774, "ioned": 6775, "ionis(en": 6776, "ision": 6777, "island": 6778, "isset": 6779, "ాలని": 6780, "ాలే.": 6781, "ాలన్నీ": 6782, "ాలెక్కను": 6783, "ాలేకా": 6784, "icum": 6785, "ica,": 6786, "icuous": 6787, "escence": 6788, "asse": 6789, "asim": 6790, "ass.": 6791, "asants": 6792, "्रमण": 6793, "ented": 6794, "entire": 6795, "entes,": 6796, "entral": 6797, "entered": 6798, "ential": 6799, "entments": 6800, "entissima": 6801, "entiation": 6802, "entrional": 6803, "entalis": 6804, "ारी": 6805, "ारे": 6806, "ingest": 6807, "inga,": 6808, "ingual": 6809, "India:": 6810, "Indiam": 6811, "India-Pakistan": 6812, "లోన్": 6813, "లోకాల": 6814, "లోపం": 6815, "oming": 6816, "oms.": 6817, "omni": 6818, "omically": 6819, "స్లో": 6820, "స్వే": 6821, "స్లే": 6822, "స్టా": 6823, "స్టే": 6824, "స్వర్ణ": 6825, "స్టలు": 6826, "స్వతం": 6827, "toad": 6828, "toler": 6829, "ecog": 6830, "ecked": 6831, "ecima": 6832, "ecologically": 6833, "ेंद्र": 6834, "్యులు": 6835, "్యంలో": 6836, "ous,": 6837, "oured": 6838, "న్,": 6839, "న్మార్": 6840, "న్సీ": 6841, "న్లుగా": 6842, "ది,": 6843, "దిర్": 6844, "దిరి": 6845, "దికి": 6846, "దిగ్": 6847, "దిభాగం": 6848, "దిగువ": 6849, "ింపు": 6850, "ింసాయుత": 6851, "దే.": 6852, "దేమాత": 6853, "ప్రమా": 6854, "ప్రయా": 6855, "ప్రఖ్య": 6856, "ప్రదేశాల": 6857, "ప్రణా": 6858, "ప్రార్థ": 6859, "ప్రగతి": 6860, "ప్రథమ": 6861, "దేశిక": 6862, "దేశము": 6863, "దేశరాజకీయ": 6864, "దేశాన్ని": 6865, "దేశమంత": 6866, "దేశాధిన": 6867, "्यजी": 6868, "amen": 6869, "amend": 6870, "am),": 6871, "ambition": 6872, "ర్ఘ": 6873, "ర్టి": 6874, "ర్కొ": 6875, "ర్తా": 6876, "ర్సిం": 6877, "ర్లు.": 6878, "ర్జాలు": 6879, "ర్భవ": 6880, "ర్జె": 6881, "నివా": 6882, "నిచ్చ": 6883, "నియా": 6884, "నిస్తు": 6885, "నివార": 6886, "నియో": 6887, "నిధి": 6888, "నివి.": 6889, "నివల్ల": 6890, "నిలిచ": 6891, "నిరక్షరాస్యత": 6892, "నిలబె": 6893, "నిషే": 6894, "lide": 6895, "lifer": 6896, "liari": 6897, "like": 6898, "lipp": 6899, "lidified": 6900, "భార్తదేశపు": 6901, "ur,": 6902, "ur.": 6903, "urarum": 6904, "urred": 6905, "భారత,": 6906, "భారతంలో,": 6907, "ul,": 6908, "ula": 6909, "ulis": 6910, "ulum": 6911, "ulsing": 6912, "ulgation": 6913, "ulatim": 6914, "र्चा": 6915, "र्तगा": 6916, "भारतवर्ष": 6917, "भारत-चीन": 6918, "em,": 6919, "ems": 6920, "emper": 6921, "empor": 6922, "empt": 6923, "embo": 6924, "em(en": 6925, "umine": 6926, "umped": 6927, "ete": 6928, "etan": 6929, "etate": 6930, "etry": 6931, "etiam": 6932, "etnam,": 6933, "etymon": 6934, "स्वर्ण": 6935, "olae": 6936, "olas,": 6937, "olars,": 6938, "olitan": 6939, "verse": 6940, "verant": 6941, "verunt,": 6942, "काली": 6943, "काव्य": 6944, "काफ़": 6945, "कांग्रेस": 6946, "hewing": 6947, "helped": 6948, "ికులు": 6949, "ికం,": 6950, "ికాక": 6951, "ాలుగా": 6952, "ాలున్నాయి.": 6953, "1920": 6954, "1930": 6955, "1935": 6956, "1901": 6957, "ada": 6958, "aden": 6959, "adhi": 6960, "administer": 6961, "added": 6962, "adually": 6963, "advent": 6964, "advers": 6965, "adjoin": 6966, "adverse": 6967, "న్నత": 6968, "న్నా,": 6969, "గాంచిన": 6970, "గాయి": 6971, "यायि": 6972, "rial": 6973, "rime": 6974, "rific": 6975, "ribes": 6976, "rigation": 6977, "riors.": 6978, "ils": 6979, "ilar": 6980, "iles": 6981, "ille": 6982, "iles,": 6983, "illeg": 6984, "ilitated": 6985, "ilingual": 6986, "सेल्": 6987, "सेमी": 6988, "सेपिय": 6989, "usa": 6990, "use": 6991, "using": 6992, "usive": 6993, "usitat": 6994, "usively": 6995, "ation.": 6996, "atione": 6997, "atione.": 6998, "ationibus": 6999, "नेहरू": 7000, "కుండ": 7001, "కునే": 7002, "కుడి": 7003, "కుడు": 7004, "కుమార్": 7005, "కులను": 7006, "కులం": 7007, "కుమారు": 7008, "కుడ్య": 7009, "కుదిర్": 7010, "కుర్తా": 7011, "ley": 7012, "legen": 7013, "leaf": 7014, "estate": 7015, "estim": 7016, "कीय": 7017, "नानी": 7018, "नाशकारी": 7019, "रा,": 7020, "प्रथा": 7021, "प्रसार": 7022, "प्रमाण": 7023, "प्रदू": 7024, "प्रदेशों": 7025, "प्रशस्त": 7026, "ాయతి": 7027, "ాయల్": 7028, "ాయకార": 7029, "ాయీలు": 7030, "ists,": 7031, "isters,": 7032, "విడ": 7033, "విడి": 7034, "విధాన": 7035, "విస్తు": 7036, "విశాఖ": 7037, "విజన్": 7038, "వినాయ": 7039, "విఫల": 7040, "విజ్": 7041, "వితంలో": 7042, "విశి": 7043, "వివాదం": 7044, "విభజిత": 7045, "విశే": 7046, "విసభా": 7047, "conqu": 7048, "consp": 7049, "constit": 7050, "conserv": 7051, "consequent": 7052, "conifer": 7053, "క్,": 7054, "క్నాల": 7055, "క్‌టిక": 7056, "They": 7057, "unde": 7058, "unct": 7059, "uncom": 7060, "unpre": 7061, "unlin": 7062, "unconstitutional": 7063, "unrest": 7064, "untouchability": 7065, "undevicensimo": 7066, "unanim": 7067, "ాత్మ": 7068, "ress,": 7069, "resour": 7070, "resistan": 7071, "residu": 7072, "resurgen": 7073, "respublica": 7074, "resentments": 7075, "raw": 7076, "rach": 7077, "raco": 7078, "rather": 7079, "ragi": 7080, "raising": 7081, "ताम्र": 7082, "तापमान": 7083, "root": 7084, "rogation": 7085, "ro-pastoral": 7086, "royalty,": 7087, "utarent": 7088, "se,": 7089, "seu": 7090, "seen": 7091, "seas,": 7092, "seven": 7093, "seals": 7094, "seals,": 7095, "seafl": 7096, "seeking": 7097, "astal": 7098, "astring": 7099, "क्न": 7100, "ను,": 7101, "నులు": 7102, "నున్న": 7103, "iving": 7104, "ives,": 7105, "deforest": 7106, "deep": 7107, "defence": 7108, "deposition": 7109, "deems": 7110, "రా.": 7111, "రామన": 7112, "రాటం": 7113, "రాణించ": 7114, "రామాయ": 7115, "రాసిన": 7116, "ceper": 7117, "celer": 7118, "cepit.": 7119, "ate,": 7120, "agos": 7121, "age,": 7122, "age.": 7123, "agement": 7124, "agnit": 7125, "agnos": 7126, "agreement": 7127, "agro-pastoral": 7128, "exe": 7129, "exstit": 7130, "excl": 7131, "experi": 7132, "exstant": 7133, "except": 7134, "exporter": 7135, "chay": 7136, "chall": 7137, "chine": 7138, "chose": 7139, "chart": 7140, "child": 7141, "chili": 7142, "chains": 7143, "chived": 7144, "checked": 7145, "ford": 7146, "force": 7147, "foray": 7148, "forces": 7149, "forbade": 7150, "tery": 7151, "tered": 7152, "terris": 7153, "terraco": 7154, "ियां": 7155, "Indians.": 7156, "Indian-ow": 7157, "साद": 7158, "सामु": 7159, "साफ़": 7160, "सातवाँ": 7161, "ims": 7162, "imper": 7163, "imae": 7164, "imitated": 7165, "important": 7166, "immense": 7167, "ముద్ర": 7168, "ముత్య": 7169, "ములు.": 7170, "ముందు": 7171, "elite": 7172, "elaribus": 7173, "elagos": 7174, "sui": 7175, "suae": 7176, "suff": 7177, "suorum": 7178, "succeed": 7179, "ctuar": 7180, "ండర్": 7181, "ండ్రా": 7182, "ండమస్,": 7183, "ండ్యులు": 7184, "िकोण": 7185, "ద్వై": 7186, "ద్దిభాగం": 7187, "ద్విసభా": 7188, "abad": 7189, "abant": 7190, "absol": 7191, "abatic": 7192, "abjured": 7193, "above": 7194, "absence": 7195, "aboration": 7196, "abulum": 7197, "white": 7198, "whims": 7199, "స్తాయి.": 7200, "స్తానీ": 7201, "స్తాంబ": 7202, "స్తూ,": 7203, "ించి": 7204, "ించుకు": 7205, "ించవచ్చు.": 7206, "ించుకోవడ": 7207, "ించబడింది.": 7208, "తిరి": 7209, "తిశ్ర": 7210, "త్త": 7211, "త్తల": 7212, "ల్లో": 7213, "ల్స్": 7214, "ల్తా": 7215, "ghari": 7216, "ghten": 7217, "ghanistan": 7218, "cia": 7219, "ciously": 7220, "cies;": 7221, "cietate": 7222, "angan,": 7223, "duae": 7224, "duod": 7225, "परंतु": 7226, "परीक्ष": 7227, "qui": 7228, "quam": 7229, "quart": 7230, "quattuor": 7231, "quinque": 7232, "quando": 7233, "quentissima": 7234, "sie": 7235, "sible": 7236, "size": 7237, "sizes": 7238, "माने": 7239, "मात्र": 7240, "माला": 7241, "मालदी": 7242, "ంతల": 7243, "ంతై": 7244, "ానెట్": 7245, "opy": 7246, "open": 7247, "opolitan": 7248, "రి,": 7249, "రి.": 7250, "రిట్ల": 7251, "రిట్లు": 7252, "ంగల": 7253, "irent": 7254, "irreg": 7255, "irrigation": 7256, "parere": 7257, "paralle": 7258, "parks": 7259, "parlament": 7260, "वित": 7261, "विदे": 7262, "विधान": 7263, "विरु": 7264, "विधि": 7265, "विघट": 7266, "विनाशकारी": 7267, "त्र,": 7268, "त्रपात": 7269, "त्रीकरण": 7270, "ere.": 7271, "overlap": 7272, "ected": 7273, "ectively": 7274, "ections": 7275, "mores": 7276, "moving": 7277, "mohan": 7278, "mobility": 7279, "modated": 7280, "రు,": 7281, "రుగా": 7282, "రుష్": 7283, "రుచులు,": 7284, "त्मा": 7285, "त्थान": 7286, "त्मिक": 7287, "राजशा": 7288, "राजगु": 7289, "राजघरान": 7290, "राजनै": 7291, "संबर": 7292, "संबो": 7293, "संपदा": 7294, "संरक्ष": 7295, "संविधान": 7296, "పులి": 7297, "పుతో": 7298, "పుత్ర": 7299, "పులా": 7300, "పుష్": 7301, "పునర్": 7302, "పురి.": 7303, "ayi": 7304, "ayana,": 7305, "aysia,": 7306, "beach": 7307, "beyond": 7308, "ంటుంది.": 7309, "ంటరీ": 7310, "ంటో,": 7311, "incremental": 7312, "incolae": 7313, "స్థలు": 7314, "స్థాయి": 7315, "స్థూలా": 7316, "rite": 7317, "rition,": 7318, "ritual": 7319, "ritsar,": 7320, "ित,": 7321, "कोई": 7322, "तिरि": 7323, "न्तर": 7324, "न्मार": 7325, "సం.": 7326, "సంక్ర": 7327, "సంధి": 7328, "సందర్": 7329, "సంస్థలు": 7330, "భారతదేశం,": 7331, "content": 7332, "contain": 7333, "contempor": 7334, "are:": 7335, "areas,": 7336, "area;": 7337, "frame": 7338, "frug": 7339, "ment.": 7340, "mentioned": 7341, "ples": 7342, "plann": 7343, "plenius": 7344, "plete": 7345, "ड़े": 7346, "ड़िया": 7347, "భాజపా": 7348, "భావిస్తు": 7349, "ైనెర్": 7350, "antly": 7351, "ants,": 7352, "percent": 7353, "perman": 7354, "peratures": 7355, "permut": 7356, "perpet": 7357, "percept": 7358, "persistent": 7359, "pervasive": 7360, "sojour": 7361, "solidified": 7362, "जावा": 7363, "जाते": 7364, "जातीय": 7365, "जानव": 7366, "mely": 7367, "meaning": 7368, "కితా": 7369, "కిమీ": 7370, "వాద": 7371, "వాటి": 7372, "వాదన": 7373, "వాటిలో": 7374, "వామిత్ర": 7375, "సామీ": 7376, "సాఫ్ట": 7377, "సానియా": 7378, "క్షిక": 7379, "క్షంగా": 7380, "క్షం:": 7381, "core": 7382, "coher": 7383, "cosm": 7384, "codified": 7385, "codili": 7386, "endra": 7387, "which,": 7388, "commodated": 7389, "complete": 7390, "ఉన్నాయి": 7391, "ఉన్నారు": 7392, "ఉన్నట్లు": 7393, "ఉన్నతంగా": 7394, "ారు,": 7395, "cent-sh": 7396, "aped": 7397, "apparere": 7398, "proper": 7399, "prope": 7400, "provide": 7401, "proclaiming": 7402, "proposed": 7403, "టి.": 7404, "పాండి": 7405, "పాండ్యులు": 7406, "పాక్షిక": 7407, "पा,": 7408, "पाषाण": 7409, "हाला": 7410, "aequal": 7411, "aevo": 7412, "aedific": 7413, "udal": 7414, "20th": 7415, "20s.": 7416, "acy.": 7417, "accompan": 7418, "acceper": 7419, "accommodated": 7420, "avum": 7421, "aveng": 7422, "avari": 7423, "avarsh": 7424, "avor,": 7425, "ure-l": 7426, "illance": 7427, "subcontin": 7428, "subject": 7429, "subduct": 7430, "subtropical": 7431, "subord": 7432, "subdue": 7433, "subduction": 7434, "subsistent": 7435, "akti": 7436, "akening": 7437, "hi,": 7438, "higar": 7439, "highe": 7440, "ota": 7441, "ote": 7442, "otal": 7443, "spire": 7444, "spok": 7445, "शाली": 7446, "gence": 7447, "geny,": 7448, "genetic": 7449, "id,": 7450, "ided": 7451, "तरिक्ष": 7452, "हैं-": 7453, "ंगिक": 7454, "ंग्ला": 7455, "ార్క్‌టిక": 7456, "ishna,": 7457, "minority": 7458, "वाम": 7459, "वाह": 7460, "वाले": 7461, "ష్టి": 7462, "ష్టు": 7463, "ష్టమైన": 7464, "ష్ట్యా": 7465, "ితంగా": 7466, "ితం,": 7467, "ిత్యం": 7468, "ితే,": 7469, "parts": 7470, "parties": 7471, "parties.": 7472, "partner": 7473, "economies": 7474, "economically": 7475, "नीक": 7476, "नीव": 7477, "नीति": 7478, "ity.": 7479, "एकत्रीकरण": 7480, "కోసం": 7481, "కోడు": 7482, "కోవార": 7483, "కోవడ": 7484, "కోటి.": 7485, "జాతి,": 7486, "రాజు.": 7487, "రాజధా": 7488, "der's": 7489, "derately": 7490, "derives": 7491, "derecog": 7492, "deriving": 7493, "northeast": 7494, "Indorum": 7495, "निस्तान": 7496, "కావడ": 7497, "కాగా,": 7498, "కాకుండ": 7499, "క్రైస్త": 7500, "నేయ": 7501, "నేసియా": 7502, "నేరుగా": 7503, "ప్రాజా": 7504, "ప్రాముఖ్య": 7505, "ప్రాసె": 7506, "ప్రాణుల": 7507, "ప్రాబల": 7508, "ప్రాదేశిక": 7509, "दक्षिणी": 7510, "2000": 7511, "2001,": 7512, "2008,": 7513, "2005-0": 7514, "2007).": 7515, "primo": 7516, "priori": 7517, "igai": 7518, "octo": 7519, "ocrat": 7520, "occur": 7521, "देखने": 7522, "वर्तन": 7523, "ంచే": 7524, "ట్టూ": 7525, "ట్టారు.": 7526, "ట్టుకు": 7527, "ట్టు.": 7528, "ట్టెల": 7529, "దువు": 7530, "దుస్తులు": 7531, "మామి": 7532, "మాదిరి": 7533, "మాండమస్,": 7534, "्यावर्त": 7535, "्यात्मिक": 7536, "భారతీయులు": 7537, "భారతీయుల": 7538, "భారతీయుడైన": 7539, "Asiatic": 7540, "lowered": 7541, "तीव्र": 7542, "भाष": 7543, "भाबर": 7544, "regionis": 7545, "weigh": 7546, "weakening": 7547, "उत्तरा": 7548, "उत्पत्ति": 7549, "उत्पन्न": 7550, "किसी": 7551, "लाल": 7552, "लावी": 7553, "लाया।": 7554, "लाओस,": 7555, "लीपी": 7556, "लीं।": 7557, "वीर": 7558, "పే,": 7559, "పేస్,": 7560, "పేదర": 7561, "సిద్ధ": 7562, "సిగ్": 7563, "సిద్ధం": 7564, "్లను": 7565, "भारतीय-आ": 7566, "forms": 7567, "forms,": 7568, "west;": 7569, "westerly": 7570, "कारक": 7571, "कारों": 7572, "शासक": 7573, "शासकों": 7574, "शासकीय": 7575, "Hindus": 7576, "becoming": 7577, "land.": 7578, "landed": 7579, "landown": 7580, "landmas": 7581, "porrect": 7582, "जिन्ह": 7583, "जिन्होंने": 7584, "होमो": 7585, "నాటి": 7586, "నాడు": 7587, "నామాలు": 7588, "లి;": 7589, "లియా": 7590, "లిసింది.": 7591, "లిథిక": 7592, "లియం,": 7593, "లివిజన్": 7594, "alluvi": 7595, "lating": 7596, "latitud": 7597, "latitude": 7598, "osa,": 7599, "osome": 7600, "osite": 7601, "मुम्": 7602, "मुक्त": 7603, "मुंह": 7604, "harsh": 7605, "ptive": 7606, "ption.": 7607, "show": 7608, "shared": 7609, "short": 7610, "shares": 7611, "southwest,": 7612, "southwesterly": 7613, "ubi": 7614, "किया;": 7615, "भीमबे": 7616, "रू,": 7617, "्टवे": 7618, "గుతో": 7619, "గుప్": 7620, "గుత్తా": 7621, "గునవి": 7622, "తోష్ణ": 7623, "యా;": 7624, "యావత్": 7625, "వ్యయంతో": 7626, "వచ్చి,": 7627, "ద్ధాలు": 7628, "ద్ధి,": 7629, "ద్ధలతో,": 7630, "ల్లింది.": 7631, "ల్లాయి.": 7632, "ల్లయిన": 7633, "ల్లీ-దండ": 7634, "జాతీయవాదం": 7635, "జాతీయాదాయంలో": 7636, "north,": 7637, "north.": 7638, "north;": 7639, "minister;": 7640, "రాష్ట్రపు": 7641, "రాష్ట్రాలు,": 7642, "రాష్ట్రానికి": 7643, "రాష్ట్రపత": 7644, "governed": 7645, "governing": 7646, "trough": 7647, "ni,": 7648, "nium": 7649, "nized.": 7650, "years,": 7651, "धर्मनिरपेक्ष": 7652, "మైనవి.": 7653, "వేర్,": 7654, "వేత్తల": 7655, "ాన్స్,": 7656, "ాన్-ఇ": 7657, "्राम": 7658, "భారతదేశము": 7659, "భారతదేశమే.": 7660, "త్వం": 7661, "త్వాలు": 7662, "త్వంలో": 7663, "త్వరలో": 7664, "ruction": 7665, "ruptive": 7666, "िमंड": 7667, "inclusive": 7668, "Congress,": 7669, "beration": 7670, "mers": 7671, "meridi": 7672, "synon": 7673, "syncre": 7674, "बाजार": 7675, "बांटे": 7676, "बांग्ला": 7677, "ఒకటో": 7678, "కొక్క": 7679, "కొంక": 7680, "కొనసా": 7681, "కొలమానం:": 7682, "కొద్దిభాగం": 7683, "కొత్త": 7684, "కాలపరి": 7685, "కాలాల్లో": 7686, "డిగించ": 7687, "డు.": 7688, "డుంబ": 7689, "డు\".": 7690, "తరతర": 7691, "తరించింది.": 7692, "పాలకులు": 7693, "పాలయింది": 7694, "పాలిటన్": 7695, "పాలకులను": 7696, "assing": 7697, "asslands": 7698, "sociis": 7699, "socially": 7700, "socio-": 7701, "dhya": 7702, "dhamm": 7703, "viet": 7704, "viarum": 7705, "view": 7706, "relied": 7707, "relief": 7708, "reliquia": 7709, "पूर्वी": 7710, "ports,": 7711, "portfo": 7712, "Chrom": 7713, "Cheras": 7714, "Chronic": 7715, "Chandra": 7716, "Cholas,": 7717, "Chota": 7718, "food": 7719, "foederal": 7720, "languages,": 7721, "तक,": 7722, "तकनीक": 7723, "लेकर": 7724, "చేసు": 7725, "చేసే": 7726, "చేత,": 7727, "చేర,": 7728, "తం:": 7729, "తాజ్‌": 7730, "శాశ్": 7731, "శాకాహార": 7732, "్‌వేర్,": 7733, "దేశాలకు": 7734, "దేశాలతో": 7735, "దేశాలకూ": 7736, "దేశాల్లో": 7737, "ండి:": 7738, "Congress's": 7739, "licet": 7740, "ruler": 7741, "rulers": 7742, "rulers,": 7743, "सामना": 7744, "continental": 7745, "Britann": 7746, "feudal": 7747, "flung": 7748, "floruit": 7749, "had,": 7750, "hadur": 7751, "ibangan,": 7752, "టువంటి": 7753, "పారిశ్రా": 7754, "పంచుకుంట": 7755, "పంచె,": 7756, "పంచాయతి": 7757, "1946": 7758, "1949.": 7759, "1948లో": 7760, "शासनकाल": 7761, "Hindu-majority": 7762, "వ్యవహార": 7763, "వ్యవసాయ": 7764, "systemate": 7765, "system's": 7766, "systematic": 7767, "1,200": 7768, "1,01,": 7769, "ffs;": 7770, "ralian": 7771, "तेज": 7772, "तेज़ी": 7773, "रीतिरि": 7774, "enslav": 7775, "50,000": 7776, "Embra": 7777, "Empires.": 7778, "actional": 7779, "eastward": 7780, "fictic": 7781, "neoli": 7782, "neem,": 7783, "nonnul": 7784, "ल्वों": 7785, "समर्थ": 7786, "समग्र": 7787, "सम्मिल": 7788, "చెంది": 7789, "చెందింది.": 7790, "చెట్టు.": 7791, "ణాటక": 7792, "ణాసియాలో": 7793, "దా:": 7794, "దాటే": 7795, "దాబాదు": 7796, "దాటిన": 7797, "ిన్నె": 7798, "ineunt": 7799, "erves;": 7800, "న్నిస్లో": 7801, "स्वशासित": 7802, "स्वयं": 7803, "ellum": 7804, "elections,": 7805, "180": 7806, "1848": 7807, "1885.": 7808, "1820s.": 7809, "Any": 7810, "Anno": 7811, "Angli": 7812, "butaries": 7813, "domestic": 7814, "dome's": 7815, "domitorum": 7816, "decreasing": 7817, "decentral": 7818, "longe": 7819, "longum": 7820, "longitude": 7821, "longest-": 7822, "peep": 7823, "peasants": 7824, "publicum": 7825, "annos": 7826, "annually": 7827, "annexe": 7828, "ologic": 7829, "मानना": 7830, "मानसू": 7831, "मानता,": 7832, "comprom": 7833, "complex": 7834, "composite": 7835, "world,": 7836, "Conserv": 7837, "Convent": 7838, "preexisting": 7839, "pre-existing": 7840, "prepared": 7841, "preyed": 7842, "polling": 7843, "प्ति": 7844, "प्पा,": 7845, "महाभारत": 7846, "महाजन": 7847, "महापुरा": 7848, "महाकाव्य": 7849, "महात्मा": 7850, "महावीर": 7851, "ంబే),": 7852, "కారం": 7853, "డ్,": 7854, "డ్స్": 7855, "డ్మిం": 7856, "తులకాల": 7857, "తురుష్": 7858, "తుడు\".": 7859, "పెట్రో": 7860, "మతాల": 7861, "మతం,": 7862, "మతాలు,": 7863, "మతాలతో": 7864, "మతాలకు": 7865, "మతస్తులు": 7866, "మార్కెట్": 7867, "హిందీ": 7868, "హిందీ,": 7869, "హిందీ;": 7870, "enges": 7871, "1960": 7872, "1967": 7873, "1962,": 7874, "1962.": 7875, "1966,": 7876, "1964,": 7877, "1996": 7878, "1998": 7879, "1996,": 7880, "1998లో": 7881, "नाम,": 7882, "नाम:": 7883, "नामों": 7884, "స్తుంది.": 7885, "వ్యవస్థ)": 7886, "వ్యవస్థ,": 7887, "వ్యవస్థల": 7888, "వ్యవస్థగా": 7889, "వ్యవస్థకు": 7890, "వ్యవస్థీకరణ": 7891, "వ్యవస్థకు,": 7892, "ia(en": 7893, "ंड,": 7894, "जनशील": 7895, "increase": 7896, "subcontinent.": 7897, "subcontinentem": 7898, "subcontinent's": 7899, "Pakistan,": 7900, "Pakistan's": 7901, "Pakistaniam": 7902, ",000,000": 7903, "council": 7904, "risen": 7905, "risks": 7906, "लिप्य": 7907, "ఎన్నుకొ": 7908, "కృష్": 7909, "కృష్ణ": 7910, "కృష్టమైన": 7911, "దక్షణాసియాలో": 7912, "పరమైన": 7913, "పర్యా": 7914, "పరచింది.": 7915, "పరమో": 7916, "పరోక్ష": 7917, "పరిధి": 7918, "పరిపాలించ": 7919, "పరిశో": 7920, "పరిస్థితి": 7921, "పరిఢవి": 7922, "మీదుగా": 7923, "మీర్జాలు": 7924, "మేరో": 7925, "మేరకు,": 7926, "మేళవిం": 7927, "మేషన్": 7928, "మధ్య,": 7929, "మధ్యకాలంలో": 7930, "మధ్యవర్తి": 7931, "మధ్యల,": 7932, "సును": 7933, "సు),": 7934, "సుదీ": 7935, "సుమారు": 7936, "సుల్తా": 7937, "ప్రపంచదేశాలలో": 7938, "ప్రధానమంత్ర": 7939, "rivers": 7940, "river-borne": 7941, "భాష,": 7942, "భాషలు,": 7943, "భాషలలో": 7944, "భాషా,": 7945, "భాషలు.": 7946, "భాషలతో,": 7947, "రాజ్యాలను": 7948, "రాజ్యసమి": 7949, "largest.": 7950, "అధికారి": 7951, "అధికారాలు": 7952, "అధికారంలో": 7953, "అధికారాన్ని": 7954, "Empire;": 7955, "172": 7956, "17;": 7957, "1754": 7958, "1765": 7959, "afterward": 7960, "maritime": 7961, "roughly": 7962, "चीन,": 7963, "रेशिय": 7964, "ष्टाचार": 7965, "ementer": 7966, "प्राप्ति": 7967, "Buddha.": 7968, "Buddhismus,": 7969, "civili": 7970, "civium": 7971, "civiliz": 7972, "gramm": 7973, "granted": 7974, "grandson": 7975, "grasslands": 7976, "setback": 7977, "आध्यात्मिक": 7978, "गया,": 7979, "जोदड़ो": 7980, "थी-पाँच": 7981, "కరించింది.": 7982, "కరమేనని": 7983, "కరంతై": 7984, "ట్కా": 7985, "వారిగా": 7986, "వర్ధిల్ల": 7987, "ానికి,": 7988, "ద్దులు": 7989, "స్థానాలు": 7990, "స్థానమైన": 7991, "స్థానం.": 7992, "స్థానే...": 7993, "ప్రాంతాల": 7994, "ప్రాంతాలతో": 7995, "ప్రాంతాలకు": 7996, "పేరుతో": 7997, "పేరుమీదుగా": 7998, "populo": 7999, "popular": 8000, "population,": 8001, "6%,": 8002, "Islands": 8003, "rates": 8004, "rating": 8005, "यहूदी": 8006, "artifici": 8007, "artists,": 8008, "limited": 8009, "legraph": 8010, "legacy.": 8011, "साथ,": 8012, "साथ-साथ": 8013, "द्धि": 8014, "included": 8015, "includes": 8016, "included.": 8017, "religion.": 8018, "religionem": 8019, "religionum": 8020, "religions.": 8021, "religionum,": 8022, "Plasse": 8023, "havira": 8024, "rict": 8025, "ricam": 8026, "upon": 8027, "upper": 8028, "upsur": 8029, "दिया,": 8030, "पुड़ा": 8031, "पुर्तगा": 8032, "लगती": 8033, "लगे।": 8034, "అయింది.": 8035, "అయితే,": 8036, "బాగా": 8037, "బాబ్": 8038, "బాంబే),": 8039, "రోడ్ల": 8040, "రోధాల": 8041, "రెండుకో": 8042, "లాంటి": 8043, "లాగృ": 8044, "లాభదాయ": 8045, "వలను": 8046, "వలెనే": 8047, "1972,": 8048, "under,": 8049, "underwent": 8050, "began.": 8051, "క్రీ.": 8052, "రైలు.": 8053, "ibus;": 8054, "మార్గం": 8055, "మార్గము": 8056, "మార్గంలో": 8057, "మార్గాలలో": 8058, "మార్గాలను": 8059, "మార్గాలే.": 8060, "హిందూ,": 8061, "హిందూస్తాన్": 8062, "హిందూస్తానీ": 8063, "powers": 8064, "close": 8065, "clans,": 8066, "class.": 8067, "cedented": 8068, "ferae": 8069, "greenhouse": 8070, "iores": 8071, "numeral": 8072, "served,": 8073, "servants": 8074, "सिन": 8075, "सियस": 8076, "urbibus": 8077, "2010.": 8078, "2010,": 8079, "वर्षा": 8080, "Asia's": 8081, "Mahab": 8082, "Mahat": 8083, "Maxim": 8084, "Mahan": 8085, "Maoist": 8086, "Machine": 8087, "Mahavira": 8088, "Under": 8089, "Untouchability": 8090, "evolved": 8091, "evolving": 8092, "evidence": 8093, "habitant": 8094, "mainland": 8095, "mainstre": 8096, "scene": 8097, "चुका": 8098, "चुनौ": 8099, "पारसी": 8100, "पार्थी": 8101, "बढ़ते": 8102, "ఇతరదేశాలను": 8103, "ఇతరదేశాలకు": 8104, "పోటీ": 8105, "పోతూ": 8106, "పోలో,": 8107, "పోర్చు": 8108, "పోషకాహార": 8109, "పోస్టలు": 8110, "పోరాటం": 8111, "మిగి": 8112, "వహించింది.": 8113, "వహిస్త": 8114, "వహించే": 8115, "వహించి": 8116, "state.": 8117, "state:": 8118, "state's": 8119, "ised,": 8120, "outpost": 8121, "output": 8122, "emerge": 8123, "emerging": 8124, "ించినవే.": 8125, "ically,": 8126, "ismus.": 8127, "ismus—in": 8128, "సాంఘిక,": 8129, "हिंद,": 8130, "हिंदी": 8131, "non-economic": 8132, "non-Muslim": 8133, "non-European": 8134, "non-tradit": 8135, "forests": 8136, "పార్టీల": 8137, "పార్టీలు": 8138, "పార్టీగా": 8139, "పార్టీకి": 8140, "పార్టీలతో": 8141, "5,42": 8142, "coral": 8143, "correction": 8144, "glaci": 8145, "humped": 8146, "humid,": 8147, "militants": 8148, "nota": 8149, "notiss": 8150, "ईसाई": 8151, "व्युत्": 8152, "throughout": 8153, "strung": 8154, "ularities": 8155, "त्वों": 8156, "urban;": 8157, "urbanam": 8158, "derness": 8159, "epic": 8160, "eping": 8161, "epics,": 8162, "multum": 8163, "multae": 8164, "multitud": 8165, "multilingual": 8166, "obsequ": 8167, "tailed": 8168, "ti,": 8169, "war.": 8170, "warmer": 8171, "warriors.": 8172, "बीसवी": 8173, "बीसवीं": 8174, "बनाया": 8175, "बनाई;": 8176, "मध्यकाल": 8177, "मध्ययुग": 8178, "मध्यकालीन": 8179, "ంద్రనాథ": 8180, "అతివేగంగా": 8181, "అతిముఖ్యమైన": 8182, "అతిశీ": 8183, "ఉత్సాహ": 8184, "ఉత్కృష్టమైన": 8185, "ఉంటూ": 8186, "ఉంటాయి": 8187, "గిపోయింది.": 8188, "జరిగింది.": 8189, "జరిగాయి": 8190, "పూణే": 8191, "పట్టాలు": 8192, "పట్టును": 8193, "పట్టాలెక్కను": 8194, "బెల్": 8195, "బెట్కా": 8196, "మన.": 8197, "మనమే": 8198, "మనదేశంలో": 8199, "మనోర": 8200, "మహల్": 8201, "మహేష్": 8202, "వరకూ": 8203, "వుని": 8204, "వున్నా,": 8205, "వుంటుంది.": 8206, "వెబ్": 8207, "వంటలు": 8208, "వంటలకు": 8209, "వంటకాలు": 8210, "ుకుంది.": 8211, "insurgen": 8212, "్రెడ్,": 8213, "నిర్మించ": 8214, "నిర్వాహ": 8215, "నిర్మిస్తు": 8216, "నిర్మించిన": 8217, "1950s,": 8218, "leads": 8219, "విధి": 8220, "విధంగా": 8221, "విధించిన": 8222, "భాగం,": 8223, "భాగం.": 8224, "భాగస్వా": 8225, "భాగే,": 8226, "భాగమేనని": 8227, "2022": 8228, "2024": 8229, "2022,": 8230, "Indo-Islamic": 8231, "million-": 8232, "newly": 8233, "పెద్దగా": 8234, "పెద్దపులి": 8235, "ప్పించుకోవడ": 8236, "అయినప్పటికీ,": 8237, "అయినప్పటికినీ": 8238, "తరువాత,": 8239, "1.3": 8240, "1.4": 8241, "1.7%": 8242, "Sanscrit": 8243, "khand": 8244, "kingly": 8245, "nologue": 8246, "poetry": 8247, "चलते": 8248, "चाहा": 8249, "बंधीय": 8250, "states.": 8251, "states:": 8252, "statuet": 8253, "statús": 8254, "learned": 8255, "निर्धार": 8256, "निर्वाह": 8257, "Islam.": 8258, "राष्ट्रवादी": 8259, "राष्ट्रपि": 8260, "राष्ट्रपति": 8261, "basin": 8262, "basin.": 8263, "basin,": 8264, "canon": 8265, "canals,": 8266, "canalled": 8267, "canopy": 8268, "create": 8269, "creverunt,": 8270, "cold": 8271, "grown": 8272, "litus": 8273, "little": 8274, "monke": 8275, "montan": 8276, "pending": 8277, "tea": 8278, "teak": 8279, "teach": 8280, "telegraph": 8281, "ustralian": 8282, "इंडस": 8283, "इंडोने": 8284, "गणित,": 8285, "तुलना": 8286, "बेसिन": 8287, "सरदार": 8288, "सीधे": 8289, "ఎక్కువైపో": 8290, "ఏర్పాటు": 8291, "ఏర్పరచింది.": 8292, "కలిగిన": 8293, "కలిగి,": 8294, "గరలో": 8295, "గ్గులు": 8296, "గ్డమ్": 8297, "టికంటే": 8298, "బహిరంగ": 8299, "బహాయీలు": 8300, "మంత్రుల": 8301, "లేనివి.": 8302, "సింహపు": 8303, "సరిస్తూ,": 8304, "సంగమ": 8305, "ీనములో": 8306, "ీనోద్య": 8307, "disband": 8308, "discontent": 8309, "disruptive": 8310, "attinens,": 8311, "ali,": 8312, "aliam,": 8313, "aliensi": 8314, "aliquando": 8315, "్రిద్ధి": 8316, "్రిచెట్టు.": 8317, "ప్రస్తుత": 8318, "క్కలు": 8319, "modern-day": 8320, "controlled": 8321, "medio": 8322, "medicin": 8323, "సాధించింది.": 8324, "సాధారణంగా": 8325, "coast;": 8326, "coasts": 8327, "coasts.": 8328, "కాంగ్రెసే": 8329, "harata": 8330, "మొదటిది": 8331, "మొదటిసార": 8332, "కేంద్రాల్లో": 8333, "కేంద్రీకృ": 8334, "దక్షిణదిగ్": 8335, "Plate,": 8336, "క్రీడ:": 8337, "క్రీడల": 8338, "ప్రభుత్వంలో": 8339, "ప్రభుత్వాలన్నీ": 8340, "ప్రభుత్వంచే": 8341, "emerged,": 8342, "emerged.": 8343, "स्थितियों": 8344, "Gandhi,": 8345, "Gandhi.": 8346, "Gandhian": 8347, "2,09": 8348, "2.9%": 8349, "Bengaliensi": 8350, "away": 8351, "demarcation": 8352, "fires,": 8353, "fixed": 8354, "final": 8355, "कुषाण": 8356, "कुपोषण,": 8357, "टेन": 8358, "सारी": 8359, "essential": 8360, "expressed": 8361, "expendit": 8362, "expanded": 8363, "coal-rich": 8364, "coalescence": 8365, "centralised,": 8366, "party;": 8367, "culture;": 8368, "majority.": 8369, "Sanskrit.": 8370, "Sikh,": 8371, "Sikhism": 8372, "Sikhismus—in": 8373, "Bharat,": 8374, "Bharatae": 8375, "Bharatiya": 8376, "Bharatavarsh": 8377, "Eastern": 8378, "Relig": 8379, "Rebellion": 8380, "author": 8381, "caste,": 8382, "ethos.": 8383, "ethically,": 8384, "membrorum": 8385, "गुट": 8386, "गुफा": 8387, "दिसंबर": 8388, "द्रिक": 8389, "ब्रह्": 8390, "रुत्थान": 8391, "ఇండియాలో": 8392, "క్యులు,": 8393, "క్యారమ్‌": 8394, "కల్పే": 8395, "కల్గి": 8396, "కల్పించ": 8397, "కల్పం": 8398, "కల్పుతూ": 8399, "గోర్": 8400, "గోళిక": 8401, "గోధు": 8402, "గోడుంబ": 8403, "పతి,": 8404, "భూపతి,": 8405, "మైంది.": 8406, "మైతే": 8407, "మైత్రి": 8408, "మైథి": 8409, "మైదాన": 8410, "మానవుని": 8411, "యోచన": 8412, "యోరారి": 8413, "రంగం": 8414, "రంగాల": 8415, "రంగాల్లో": 8416, "రంగము,": 8417, "వతాలతో": 8418, "శ్లోకాల": 8419, "ుకోవచ్చని": 8420, "్మదీయ": 8421, "recte": 8422, "archip": 8423, "issime": 8424, "ాలోయ": 8425, "ాలలోను": 8426, "ాలనుండి": 8427, "ప్రతినిధి": 8428, "1980": 8429, "1984": 8430, "1980.": 8431, "1988.": 8432, "1984.": 8433, "1989,": 8434, "విస్తారు.": 8435, "విస్తరించిన": 8436, "విస్తృతంగా": 8437, "consciously": 8438, "ంగ్లేయులు": 8439, "करना,": 8440, "produced": 8441, "Indus;": 8442, "Indus'.": 8443, "క్రమంగా": 8444, "work.": 8445, "works,": 8446, "సినిమాలు,": 8447, "China.": 8448, "శాస్త్రం": 8449, "millennio": 8450, "Company,": 8451, "वंशज": 8452, "वंशों": 8453, "सरकारें": 8454, "सरकारों": 8455, "సరిహద్దులు": 8456, "సంగీత": 8457, "సంగీతము": 8458, "సంగీతంలో": 8459, "Mughals": 8460, "అత్యధికంగా": 8461, "16;": 8462, "16th": 8463, "1652": 8464, "26,": 8465, "263": 8466, "2600": 8467, "Moderately": 8468, "Nationalis": 8469, "current": 8470, "curtailed": 8471, "nationalism.": 8472, "trial": 8473, "tribes": 8474, "tributaries": 8475, "times": 8476, "भूटान,": 8477, "म्भ": 8478, "ोलों": 8479, "internal": 8480, "intermit": 8481, "intervals": 8482, "regis": 8483, "regio,": 8484, "army": 8485, "rainfall": 8486, "identity,": 8487, "peoples,": 8488, "support,": 8489, "numbers": 8490, "numbers,": 8491, "Europe.": 8492, "गणराज्य,": 8493, "Bengal.": 8494, "Bengal;": 8495, "Muslim-majority": 8496, "पाकिस्तान,": 8497, "0.7": 8498, "Centred": 8499, "Cambodi": 8500, "Cameram": 8501, "course": 8502, "desuet": 8503, "despite": 8504, "farther": 8505, "farmers": 8506, "faraway": 8507, "various": 8508, "variations": 8509, "varied,": 8510, "अंतरिक्ष": 8511, "अवसाद": 8512, "आक्रमण": 8513, "शेखर": 8514, "ఆధునిక": 8515, "ఆధీనములో": 8516, "ఉపరాష్ట్రపత": 8517, "గణితం,": 8518, "ట్లకు": 8519, "ణి;": 8520, "తెలిసింది.": 8521, "తెప్పించుకోవడ": 8522, "తిక,": 8523, "దీనికి": 8524, "దీన్ని": 8525, "దీవులు,": 8526, "దీపావ": 8527, "దీనివల్ల": 8528, "దారులు": 8529, "ధిపత్య": 8530, "నెహ్ర": 8531, "నెమలి": 8532, "నెరవే": 8533, "నెహ్వ": 8534, "నడిపిస్త": 8535, "భిన్నత్వాలు": 8536, "మెట్రో": 8537, "మెహర్": 8538, "మూడవ": 8539, "మూడే.": 8540, "యుద్ధం": 8541, "యు.ఏ": 8542, "యునై": 8543, "యుద్ధాలు": 8544, "రహదారు": 8545, "రహదారులు": 8546, "లంక,": 8547, "వైశాల": 8548, "వైపులా": 8549, "సైతం": 8550, "సముచిత": 8551, "సమాచార": 8552, "animalium": 8553, "invasive": 8554, "invalid": 8555, "officially": 8556, "केंद्र-": 8557, "केंद्रीय": 8558, "केंद्रित": 8559, "ometrorum": 8560, "స్వాధీన": 8561, "ప్రజలకు": 8562, "est.?": 8563, "प्रारम्भ": 8564, "executives": 8565, "signing": 8566, "संघठित": 8567, "సంస్కృతులతో": 8568, "plain,": 8569, "plain.": 8570, "plains.": 8571, "endemism": 8572, "endemism.": 8573, "ప్రాచ్య": 8574, "ప్రాచుర్య": 8575, "landslide": 8576, "రాష్ట్రపతి,": 8577, "రాష్ట్రపతిచే": 8578, "dominions,": 8579, "अनुयायि": 8580, "మొదలగువ": 8581, "మొదలవుతుంది.": 8582, "మొదలగునవి": 8583, "settled": 8584, "settling": 8585, "జాబీ;": 8586, "diverse,": 8587, "diverse.": 8588, "రెండువైపులా": 8589, "scriben": 8590, "పట్టణాల": 8591, "పట్టణాలు": 8592, "పట్టణాలను": 8593, "బెంగాల్": 8594, "బెంగుళూరు": 8595, "literary": 8596, "इंडिया)": 8597, "इंडिया,": 8598, "इंडिया।": 8599, "ఏర్పడే": 8600, "ఏర్పడిన": 8601, "ఏర్పడింది.": 8602, "బహుమతి": 8603, "బహుభాషా,": 8604, "మంత్రిత్వ": 8605, "మంత్రివర్గ": 8606, "సింధ్;": 8607, "ब्रिटेन": 8608, "ఇండియా,": 8609, "millennium,": 8610, "Company's": 8611, "సరిహద్దున": 8612, "సరిహద్దులలో": 8613, "సరిహద్దులను": 8614, "BJP,": 8615, "peninsula": 8616, "Andaman,": 8617, "Andamanense": 8618, "422.": 8619, "421-": 8620, "cam,": 8621, "cameras": 8622, "fted": 8623, "ft-h": 8624, "following,": 8625, "followed,": 8626, "nuclear-weapon": 8627, "rationibus": 8628, "tection": 8629, "tectonic": 8630, "technological": 8631, "technology,": 8632, "veillance": 8633, "vastorum": 8634, "गानिस्तान": 8635, "मीक": 8636, "मील": 8637, "लिया।": 8638, "republic.": 8639, "republic;": 8640, "old.": 8641, "सेना,": 8642, "सेनाओं": 8643, "defining": 8644, "definition": 8645, "definita": 8646, "1947;": 8647, "मिलता": 8648, "पार्टियां": 8649, "caste-rel": 8650, "people.": 8651, "8.6%": 8652, "9.39%": 8653, "Project": 8654, "Proclaiming": 8655, "Progressive": 8656, "Prolifer": 8657, "Protection": 8658, "ai,": 8659, "achment": 8660, "border": 8661, "creatae": 8662, "geograph": 8663, "geologically": 8664, "geologic": 8665, "here.": 8666, "locis": 8667, "locations": 8668, "sole": 8669, "solum": 8670, "sollem": 8671, "soldiers,": 8672, "sultanate,": 8673, "sultanate's": 8674, "temples": 8675, "vice-president,": 8676, "vicerunt": 8677, "well,": 8678, "well.": 8679, "खाड़ी": 8680, "गतिमान": 8681, "गतिशील": 8682, "फ़िल्": 8683, "भगत": 8684, "मतभे": 8685, "मतलब": 8686, "मोदी": 8687, "मोर्चा": 8688, "वन्यजी": 8689, "ందని": 8690, "ందరో": 8691, "ందువల్ల": 8692, "అనునది": 8693, "అనుమతి": 8694, "అనువైన": 8695, "అనుసరిస్తూ,": 8696, "కళి": 8697, "కళలు,": 8698, "కళలు.": 8699, "గేజి": 8700, "గేయం:": 8701, "గలుపు": 8702, "చైనాతో": 8703, "టెడ్": 8704, "టెక్నాల": 8705, "టెలివిజన్": 8706, "టెన్నిస్లో": 8707, "తనలో": 8708, "నీతి,": 8709, "పతకం": 8710, "పొందింది.": 8711, "పొడిగించ": 8712, "పద్ధతులు": 8713, "పద్ధతులతో": 8714, "పండుగలు,": 8715, "మర)": 8716, "మరెన్న": 8717, "మర్రిచెట్టు.": 8718, "రూపంలో": 8719, "రూపొందింది.": 8720, "ళ్లను": 8721, "వృక్షం:": 8722, "సరఫరా": 8723, "సరమైతే": 8724, "సారాల": 8725, "సారస్వత": 8726, "సారవంత": 8727, "సారస్వతం": 8728, "సర్వస": 8729, "indica,": 8730, "indicia": 8731, "ondrial": 8732, "diffusa": 8733, "directives,": 8734, "empire's": 8735, "1951": 8736, "1956": 8737, "1957,": 8738, "several": 8739, "severity": 8740, "నుండి,": 8741, "movement.": 8742, "movements.": 8743, "సంఖ్యా": 8744, "సంఖ్యలో": 8745, "సంఖ్యాక": 8746, "plants": 8747, "commission": 8748, "commutarent": 8749, "కూడినది.": 8750, "occupies": 8751, "transmission": 8752, "translating": 8753, "transactional": 8754, "श्विक": 8755, "ఒకటిగా,": 8756, "society": 8757, "societies": 8758, "society,": 8759, "society.": 8760, "societatis": 8761, "చేయబడింది.": 8762, "చేయలేదు": 8763, "చేయిస్తారు.": 8764, "చేయటంతో": 8765, "చేయడానికి": 8766, "cultura": 8767, "culturae": 8768, "culturally": 8769, "1853": 8770, "1858.": 8771, "1857.": 8772, "1858,": 8773, "1857లో": 8774, "తున్నారు.": 8775, "తున్నప్పటికీ,": 8776, "తున్నవార్": 8777, "ప్రపంచంలోనే": 8778, "అధికారికంగా": 8779, "gradual": 8780, "gradatim": 8781, "ప్రాంతాలు.": 8782, "habet,": 8783, "habet.": 8784, "habet:": 8785, "habetur": 8786, "kingdoms.": 8787, "Islamicam": 8788, "Islamicae": 8789, "కాంగ్రెసును": 8790, "history": 8791, "historically": 8792, "court,": 8793, "courts,": 8794, "నడిపించి,": 8795, "నడిపించటం": 8796, "నడిపించాలనే": 8797, "నడిపించవచ్చని": 8798, "నడిపించటమూ": 8799, "సముద్రం": 8800, "జాబితాలో": 8801, "Nehru,": 8802, "అభిప్రాయ": 8803, "తమిళం,": 8804, "తమిళం.": 8805, "తమిళం;": 8806, "తమిళనాడు": 8807, "శతాబ్దం,": 8808, "సౌకర్యాలు": 8809, "సౌకర్యము.": 8810, "సౌకర్యవంత": 8811, "10th": 8812, "1010": 8813, "10,000,000": 8814, "6,500": 8815, "7%.": 8816, "Amritsar,": 8817, "US$100": 8818, "US$64": 8819, "adi,": 8820, "adic": 8821, "adiunct": 8822, "adirach": 8823, "famine": 8824, "fames.": 8825, "famines,": 8826, "family-": 8827, "maniam": 8828, "management": 8829, "ंसक": 8830, "गठित": 8831, "दूर": 8832, "फलस्वरुप": 8833, "मौसम": 8834, "मंत्रिमंड": 8835, "रोम": 8836, "व्यापर": 8837, "व्यापक": 8838, "शिल्प": 8839, "१८४०": 8840, "१८८५": 8841, "thereby": 8842, "steeper": 8843, "steatite": 8844, "administration,": 8845, "istic,": 8846, "exports": 8847, "exporting": 8848, "changes,": 8849, "changes.": 8850, "जातियता": 8851, "generation": 8852, "generibus": 8853, "भागवत": 8854, "लीन।": 8855, "देशों,": 8856, "legislation,": 8857, "अधिपत्य": 8858, "colonia": 8859, "coloniz": 8860, "अंतर्गत": 8861, "script,": 8862, "scripts": 8863, "scripture": 8864, "बौद्धिक": 8865, "structurarum": 8866, "1-740": 8867, "1-8-7": 8868, "7.9%": 8869, "7.5%": 8870, "9%)": 8871, "Ashtad": 8872, "Bhutan": 8873, "Bhakti": 8874, "Desai": 8875, "Ghats.": 8876, "Ghats;": 8877, "Lancam,": 8878, "Ocean,": 8879, "Rajya": 8880, "Rajput": 8881, "Still": 8882, "States": 8883, "Sinu": 8884, "Sinas": 8885, "balanced": 8886, "capital": 8887, "hydro": 8888, "hyayi": 8889, "housie": 8890, "hominum": 8891, "keeping": 8892, "lines": 8893, "lineages": 8894, "maiores": 8895, "potestate": 8896, "pottery": 8897, "riches": 8898, "singulis": 8899, "ugnant": 8900, "winning": 8901, "wildlife,": 8902, "बोला": 8903, "बोस,": 8904, "बोडिया": 8905, "र्यन": 8906, "लंका": 8907, "सुखदे": 8908, "सुभाष": 8909, "सुदूर": 8910, "सूत्रपात": 8911, "२०२१": 8912, "అని,": 8913, "కలదు": 8914, "కలకత్తా": 8915, "కలగలుపు": 8916, "జిత్": 8917, "జిస్లే": 8918, "టాగోర్": 8919, "నాయకుల": 8920, "నగరాలు": 8921, "నగరాలు,": 8922, "నగరాలనే": 8923, "నగరాలనుండి": 8924, "న్యాయవ్యవస్థలో": 8925, "న్యాయవ్యవస్థ,": 8926, "న్యాయస్థానమైన": 8927, "పంపిన": 8928, "పంజాబీ;": 8929, "పదవి": 8930, "పదవి.": 8931, "పదార్థ": 8932, "పక్షం": 8933, "పక్షి:": 8934, "మ్మ.": 8935, "మ్మదాబాదు": 8936, "ర్యన్,": 8937, "లక్ష.": 8938, "లక్షల": 8939, "వరి.": 8940, "సూచన": 8941, "సూరత్": 8942, "హాసాల": 8943, "ిల్లు.": 8944, "reform,": 8945, "reform;": 8946, "reforms": 8947, "reforms,": 8948, "diviti": 8949, "education,": 8950, "originally": 8951, "itur.": 8952, "స్లామ్": 8953, "ప్రకారం,": 8954, "libera": 8955, "eticam),": 8956, "स्तरों": 8957, "ushered": 8958, "rocked": 8959, "septem": 8960, "septima": 8961, "ముంబాయి": 8962, "ద్వీపే,": 8963, "cidentalibus": 8964, "माना,": 8965, "operation,": 8966, "विश्वपटल": 8967, "राजवंश,": 8968, "సంఘం": 8969, "సంఘము.": 8970, "సంఘర్షణ": 8971, "సంప్రదాయాలను": 8972, "సంవత్సారాల": 8973, "plate,": 8974, "plateau": 8975, "province": 8976, "provincial": 8977, "provided": 8978, "పాక్,": 8979, "पूर्णतः": 8980, "Indoe": 8981, "Indos,": 8982, "Indoi,": 8983, "primi": 8984, "primam": 8985, "prima,": 8986, "primary": 8987, "तीसरा": 8988, "south-west": 8989, "south-western": 8990, "south-west,": 8991, "south-east.": 8992, "వచ్చినవారి": 8993, "వచ్చినది,": 8994, "రాష్ట్రాలు:": 8995, "రాష్ట్రాలుగా,": 8996, "extension": 8997, "extensive": 8998, "कृषकों": 8999, "उत्तर-पूर्व": 9000, "उत्तर-पश्चिमी": 9001, "కార్యనిర్వాహ": 9002, "1991లో": 9003, "వ్యవస్థలోని": 9004, "పరిశ్రమ.": 9005, "మేనకల": 9006, "ప్రధానమంత్రిని": 9007, "వారసత్వాన్ని": 9008, "వారసత్వానికి": 9009, "వర్గాలు": 9010, "వర్గీకరణ": 9011, "వర్గాలలోను": 9012, "స్థానంలో,": 9013, "దక్షిణాదికి": 9014, "బాద్,": 9015, "ఆర్థిక,": 9016, "taxes": 9017, "taxation": 9018, "taxes,": 9019, "taxpay": 9020, "ఉత్తర,": 9021, "పూర్వం": 9022, "పూర్వపు": 9023, "period.": 9024, "Indo-Australian": 9025, "agriculturalium": 9026, "సాధించగా,": 9027, "సాధించగలి": 9028, "సాధించాము.": 9029, "సాధించిపె": 9030, "పాకిస్తాన్,": 9031, "పాకిస్తాన్తో": 9032, "పాకిస్థాన్కు": 9033, "దక్షిణాన,": 9034, "Plateau.": 9035, "mid-millennium": 9036, "mid-1st": 9037, "mid-19th": 9038, "mid-20th": 9039, "commercialisation": 9040, "crustal": 9041, "members": 9042, "architectural": 9043, "architecture.": 9044, "consistit.": 9045, "consistently": 9046, "సంగీతం.": 9047, "भूमि,": 9048, "saeculum,": 9049, "ఆధారిత": 9050, "ఆధారాలు.": 9051, "సామ్రాజ్యం": 9052, "endemic,": 9053, "endemic.": 9054, "endemics": 9055, "బెంగాలీ;": 9056, "democratiae": 9057, "democratia.": 9058, "సర్వీసును": 9059, "స్వతంత్రం": 9060, "అభివృద్ధి,": 9061, "Delhi,": 9062, "Populi.": 9063, "Singh,": 9064, "पर्वतश्रे": 9065, "पर्वतमाला": 9066, "చరిత్రలో": 9067, "employing": 9068, "employment": 9069, "కుటుంబాలు": 9070, "కుటుంబాలకు": 9071, "establishment": 9072, "consolidation": 9073, "consolidate": 9074, "consolidated": 9075, "consolidations": 9076, "Bangladesh.": 9077, "Bangladesham": 9078, "Terram": 9079, "War.": 9080, "average": 9081, "herbal": 9082, "herds": 9083, "lasting": 9084, "survives": 9085, "surveillance": 9086, "ty-n": 9087, "texts": 9088, "texts,": 9089, "textiles,": 9090, "कहलाया।": 9091, "त्याग": 9092, "बनीं।": 9093, "यूनानी": 9094, "यूरेशिय": 9095, "strident": 9096, "strike": 9097, "प्रभावित": 9098, "consiliari": 9099, "reserve": 9100, "reserves,": 9101, "reservatis": 9102, "chartered": 9103, "करोड़,": 9104, "संबंधों": 9105, "plays": 9106, "पालना": 9107, "speed": 9108, "Indonesiam": 9109, "भाषाओं": 9110, "Christianismus": 9111, "Christianitas,": 9112, "१९५१": 9113, "१९७१": 9114, "१९७५": 9115, "१९७७": 9116, "companies,": 9117, "companies.": 9118, "policies": 9119, "policies,": 9120, "पुराने": 9121, "classical": 9122, "classes.": 9123, "linguis": 9124, "linguarum": 9125, "linguarum,": 9126, "significat.": 9127, "legislative": 9128, "आन्दोलनों": 9129, "परंपराओं": 9130, "100,000": 9131, "359-": 9132, "545": 9133, "546)": 9134, "70%,": 9135, "70%),": 9136, "Council": 9137, "Declar": 9138, "Greeks": 9139, "GDP,": 9140, "Malaysia,": 9141, "Occidentalibus": 9142, "PAL": 9143, "Quattuor": 9144, "Shaiv": 9145, "Shekhar": 9146, "Temperatures": 9147, "Tibet,": 9148, "Tibetan": 9149, "Tibeticam),": 9150, "Vietnam,": 9151, "blurred": 9152, "beset": 9153, "biosphere": 9154, "backdrop": 9155, "cropp": 9156, "crocodili": 9157, "critical": 9158, "critically": 9159, "climate": 9160, "driving": 9161, "drift": 9162, "drive": 9163, "eligitur.": 9164, "effects": 9165, "effectum": 9166, "effectively": 9167, "fast-growing": 9168, "grazed": 9169, "holding": 9170, "ipation": 9171, "ipue": 9172, "margins.": 9173, "migrating": 9174, "mammals": 9175, "nationes": 9176, "near-div": 9177, "ochondrial": 9178, "pura": 9179, "ranks": 9180, "summary": 9181, "tingit": 9182, "taker": 9183, "taken": 9184, "taking": 9185, "अफगानिस्तान": 9186, "उसने": 9187, "क्रयशक्ति": 9188, "क्योंकि": 9189, "चेर": 9190, "थे,": 9191, "न्यायपालिका": 9192, "पंथी": 9193, "पहाड़": 9194, "रिपब्": 9195, "हारना": 9196, "हार्द": 9197, "అవతరించింది.": 9198, "అవరోధాల": 9199, "అవసరమైతే": 9200, "అహింసాయుత": 9201, "అహ్మదీయ": 9202, "అహమ్మదాబాదు": 9203, "అవి,": 9204, "అవినీతి,": 9205, "ఆక్రమించిన": 9206, "ఆక్రమణదారులు,": 9207, "ఆక్రమించుకు": 9208, "ఆహారం": 9209, "ఆహారం.": 9210, "ఆహార్యం": 9211, "ఇవ్వ": 9212, "ఇవన్నీ": 9213, "ఇవికాక": 9214, "ఇంగ్లండు": 9215, "ఉండగా,": 9216, "ఉండటం": 9217, "ఉండటం,": 9218, "ఎన్నికలలో": 9219, "కథనాలతో": 9220, "కథక్,": 9221, "కథకళి": 9222, "కూచి": 9223, "కిందట": 9224, "గెలిచ": 9225, "చుట్టూ": 9226, "టైగర్": 9227, "తలల": 9228, "తేది": 9229, "తేలిక": 9230, "తులు;": 9231, "పర్వదిన": 9232, "పర్షి": 9233, "పర్వతాలతో": 9234, "పార్సీ": 9235, "ఫలం:": 9236, "ఫలితంగా": 9237, "బియా": 9238, "బిజిన": 9239, "బియస్": 9240, "బుక్": 9241, "బునిస్తు": 9242, "భరతనా": 9243, "మౌఖిక": 9244, "మారుమూ": 9245, "లెక్కలు": 9246, "లెందరో": 9247, "లెజిస్లే": 9248, "వంశంలో": 9249, "వందేమాత": 9250, "సమశీ": 9251, "సమయంలో,": 9252, "సమష్టి": 9253, "సహాయకార": 9254, "సేవ": 9255, "సార్క్": 9256, "హైకోర్టులు": 9257, "్వస్త్ర": 9258, "introduction": 9259, "styles,": 9260, "stands": 9261, "reference": 9262, "referred": 9263, "referring": 9264, "orogeny,": 9265, "itia,": 9266, "enterprise": 9267, "దినాలకు": 9268, "ప్రారంభమైన": 9269, "ర్ణంతో": 9270, "adopting": 9271, "प्रचलन": 9272, "విద్యను": 9273, "condita,": 9274, "conditae": 9275, "conduct,": 9276, "respectively": 9277, "separated": 9278, "delta": 9279, "superfici": 9280, "abhinc": 9281, "త్తాక,": 9282, "opposed": 9283, "oppugnant": 9284, "moisture-l": 9285, "संगम": 9286, "संगीत": 9287, "संग्राम": 9288, "संसदीय": 9289, "పురుషులు": 9290, "పుట్టాయి.": 9291, "పుట్టిని": 9292, "పుట్టిల్లు.": 9293, "ంటున్నది.": 9294, "ంటున్నారు.": 9295, "స్థిరమైన": 9296, "సంకీర్ణం": 9297, "సంబంధాలు": 9298, "సంబంధించిన": 9299, "antiquis": 9300, "వాహనాలు": 9301, "వాహనంలో": 9302, "processes": 9303, "కూడుకున్నది.": 9304, "particular": 9305, "particular,": 9306, "participation": 9307, "partition.": 9308, "partitioned": 9309, "కోల్పోతూ": 9310, "నేపాలీ;": 9311, "occidente,": 9312, "occidentali": 9313, "occidente;": 9314, "किनारे": 9315, "जिनका": 9316, "లిచారు.": 9317, "allis.": 9318, "shook": 9319, "shores,": 9320, "shores.": 9321, "గుర్తించింది.": 9322, "గుర్తింపు": 9323, "గుర్తించవచ్చు.": 9324, "వ్యాపారం": 9325, "వ్యాపారవేత్తల": 9326, "extinction": 9327, "ఒకేఒక": 9328, "ఒకేమాదిరి": 9329, "కొన్ని:": 9330, "videlicet": 9331, "religiosa,": 9332, "చేసింది.ఢాకా-ఢిల్లీ-లాహో": 9333, "१९८०": 9334, "१९८४": 9335, "१९८९": 9336, "Hindustania(en": 9337, "దాదాపుగా": 9338, "cause": 9339, "causing": 9340, "cause.": 9341, "predominate": 9342, "predominates": 9343, "predominantly": 9344, "కారణంగా,": 9345, "जनतांत्रिक": 9346, "untur,": 9347, "appellate": 9348, "appellatione.": 9349, "appellabant": 9350, "markedly": 9351, "వర్ణించబడింది.": 9352, "suppressed": 9353, "supplying": 9354, "రోడ్డుకు": 9355, "1977;": 9356, "1977లో": 9357, "హిందూదేశం,": 9358, "numerous": 9359, "devotion": 9360, "devotional": 9361, "devotion,": 9362, "habitats.": 9363, "జనాభాలో": 9364, "ఉత్తరాదిన": 9365, "జనగణమన.": 9366, "బడతాయి.": 9367, "మహాభారతం,": 9368, "మహాసముద్రం,": 9369, "మహాసముద్రం": 9370, "శ్రీశై": 9371, "శ్రీరామన": 9372, "శ్రీలంక,": 9373, "Himalayan-origin": 9374, "Civilisation": 9375, "Civilisation,": 9376, "deducitur.": 9377, "కలిసివస్తు": 9378, "hodiernum": 9379, "hodiernorum": 9380, "hodierni,": 9381, "ప్రతిపాదనల్లో": 9382, "currency,": 9383, "currency.": 9384, "currency": 9385, "factors": 9386, "renewal": 9387, "renewed": 9388, "renewable": 9389, "ఉపఖండం": 9390, "ఉపఖండపు": 9391, "ఉపఖండములో": 9392, "తెలుగు;": 9393, "వైవిధ్యం": 9394, "వైవిధ్యమైనది.": 9395, "వైవిధ్యమైనవి.": 9396, "సమాఖ్యలు": 9397, "ప్రజలచే": 9398, "సంస్కృతిలో": 9399, "కోర్టులు,": 9400, "కోర్టు,": 9401, "కోర్టులకు": 9402, "పేర్కొన్నాయి.": 9403, "పేర్కొనవచ్చు.": 9404, "పేర్కొంటున్నారు.": 9405, "violenta": 9406, "violence;": 9407, "మొదలైనవి": 9408, "మొదలైనవి.": 9409, "మొదలైనటువంటి": 9410, "సింధులోయ": 9411, "సింధుాలోయ": 9412, "promised": 9413, "promulgation": 9414, "promote": 9415, "Guptas,": 9416, "victory": 9417, "अंग्रेज़ी:": 9418, "చారిత్రకంగా": 9419, "పొందినది.": 9420, "పద్ధతి:": 9421, "పద్ధతిలో": 9422, "indigenous,": 9423, "ప్రజాస్వామ్య,": 9424, "territorio": 9425, "territorial": 9426, "territoriis": 9427, "నిర్వహణలో": 9428, "స్వాతంత్ర్యానికి": 9429, "शिक्षाओं": 9430, "Ashoka,": 9431, "Lanka": 9432, "కంపెనీపై": 9433, "జన్మనిచ్చ": 9434, "జన్మస్థానం.": 9435, "జన్మదినాలకు": 9436, "libertatis": 9437, "liberties.": 9438, "libertate,": 9439, "rocky": 9440, "ముంబైలో": 9441, "ద్వీపం.": 9442, "ద్వీప-దేశ": 9443, "ద్వీపకల్పం": 9444, "సంవత్సరం": 9445, "సంవత్సరాల": 9446, "సంవత్సరాలలో": 9447, "కార్యక్రమాలలో": 9448, "సాంప్రదాయికమైన": 9449, "Indo-Aryan-speaking": 9450, "సామ్రాజ్యాలు": 9451, "సామ్రాజ్యం,": 9452, "బెంగాలీ.": 9453, "ఆఫ్ఘానిస్తాన్": 9454, "Brahmanism,": 9455, "Front,": 9456, "Meridiana,": 9457, "Nicobar,": 9458, "Persianised": 9459, "Tamil.": 9460, "loosely-": 9461, "sovereignty,": 9462, "sovereignty": 9463, "sovereignty.": 9464, "इस्लामीक": 9465, "छोटे-छोटे": 9466, "दर्शन": 9467, "ఇస్లామాబాద్:": 9468, "ఇస్లామాబాద్-టె": 9469, "కన్నడ,": 9470, "కన్నడ;": 9471, "కన్నడం,": 9472, "జరుపుకునే": 9473, "బంగ్లాదేశ్,": 9474, "ళ్ళు": 9475, "హిమాలయాలు,": 9476, "प्रौद्योगिकी,": 9477, "వాణిజ్యపరంగా": 9478, "కాశ్మీర్": 9479, "కాశ్మీరు": 9480, "కాశ్మీరీ;": 9481, "నాగరికత.": 9482, "నాగరికతకు": 9483, "క్యాలెండర్)": 9484, "క్యాలెండర్:": 9485, "04%,": 9486, "1250": 9487, "121,01,": 9488, "15న": 9489, "62359-": 9490, "autem": 9491, "autonom": 9492, "goods,": 9493, "ideas": 9494, "ideological": 9495, "lateque": 9496, "nominated": 9497, "poverty,": 9498, "passes": 9499, "passages": 9500, "villages": 9501, "ग्रंथ": 9502, "घोषित": 9503, "दुसरे": 9504, "पड़ा।": 9505, "भरत": 9506, "लैंगिक": 9507, "लैंड,": 9508, "शक,": 9509, "श्रीमद्": 9510, "श्रीलंका": 9511, "सैनिक": 9512, "institutionalised": 9513, "distance,": 9514, "distinction": 9515, "प्रशासनिक": 9516, "प्रभुत्वों": 9517, "unei,": 9518, "defeat": 9519, "whereas": 9520, "sixth": 9521, "places,": 9522, "शास्त्र,": 9523, "शास्त्रीय": 9524, "wealthy": 9525, "weapons": 9526, "उत्पादन": 9527, "कार्यकाल": 9528, "१९९१": 9529, "१९९८": 9530, "groups": 9531, "groupings": 9532, "urbanisation.": 9533, "hooded": 9534, "right-wing": 9535, "following:": 9536, "localised": 9537, "व्यापारिक": 9538, "industry": 9539, "industry.": 9540, "प्रभावशाली": 9541, "considered": 9542, "दृष्टिकोण": 9543, "recognition": 9544, "recognised": 9545, "\"భరతవర్ష": 9546, "\"భరతుడు\".": 9547, "(0.36%": 9548, "(0.9%)": 9549, "14%,": 9550, "12.2%": 9551, "12.6%,": 9552, "21.4%": 9553, "5-07": 9554, "6.0%": 9555, "7/17;": 9556, "7/16;": 9557, "80,000": 9558, "Attingit": 9559, "Dal,": 9560, "Dalhousie": 9561, "Immediately": 9562, "Important": 9563, "Iainismus,": 9564, "Iainismus.": 9565, "Kalinga,": 9566, "Kalibangan,": 9567, "Kaveri": 9568, "Kaveri,": 9569, "Latin": 9570, "Latine": 9571, "Narasim": 9572, "Narendra": 9573, "Nepal": 9574, "Nepaliam,": 9575, "Networks": 9576, "Prima": 9577, "Primus": 9578, "President": 9579, "President,": 9580, "Party,": 9581, "Party;": 9582, "Persica": 9583, "Persicum": 9584, "Reserves;": 9585, "Ramsar": 9586, "Ramayana,": 9587, "Societate": 9588, "Soviet": 9589, "Technological": 9590, "Technologiae": 9591, "affected": 9592, "affection": 9593, "carrion": 9594, "equator": 9595, "eighteen": 9596, "eighty-n": 9597, "f.;": 9598, "fragment": 9599, "faces": 9600, "facilitated": 9601, "founding": 9602, "founder's": 9603, "foundations": 9604, "gentry": 9605, "gentium": 9606, "houses": 9607, "houses:": 9608, "iebant,": 9609, "mytholog": 9610, "mystics,": 9611, "males.": 9612, "malnut": 9613, "mandating": 9614, "mandate.": 9615, "mutata": 9616, "nerable": 9617, "nomine": 9618, "nomadic": 9619, "networks": 9620, "oeconomia": 9621, "oeconomiarum": 9622, "range": 9623, "range,": 9624, "silt": 9625, "silver": 9626, "suscepit.": 9627, "suspending": 9628, "scholars,": 9629, "slowly,": 9630, "trees": 9631, "treatment": 9632, "varna,": 9633, "varna.": 9634, "valley,": 9635, "valley.": 9636, "writing,": 9637, "written": 9638, "zebu": 9639, "zone.": 9640, "zontally.": 9641, "अहिंसा": 9642, "अहिंसक": 9643, "आरंभ": 9644, "आर्यावर्त": 9645, "इतिहासकारों": 9646, "ऊपरी": 9647, "गोलिक": 9648, "घाट": 9649, "घाटी": 9650, "चौथी-पाँच": 9651, "चला,": 9652, "चोलों": 9653, "जारी": 9654, "ण्ड": 9655, "तराई": 9656, "नवगठित": 9657, "फायदा": 9658, "बूत": 9659, "बदलती": 9660, "म्यांमार": 9661, "म्यान्मार": 9662, "रही।": 9663, "रचनाकाल": 9664, "वृहद्": 9665, "वृद्धि": 9666, "सतपुड़ा": 9667, "सोने": 9668, "सोवियत": 9669, "ంకాగా": 9670, "అణు": 9671, "అణ్వస్త్ర": 9672, "అంటారు.": 9673, "అంటార్క్‌టిక": 9674, "అన్నిటికంటే": 9675, "అప్పటి": 9676, "అప్పిలే": 9677, "ఇక్కడ": 9678, "ఇక్కడి": 9679, "ఇటీవల": 9680, "ఇటీవలి": 9681, "ఎడమ": 9682, "ఎడారి": 9683, "ఐక్యరాజ్యసమి": 9684, "ఒలంపిక్‌": 9685, "ఒలంపిక్": 9686, "కనుమలు": 9687, "కనుమలు,": 9688, "కబడ్డీ,": 9689, "కబడ్డీలో": 9690, "ఖో-ఖో": 9691, "గంగ,": 9692, "గంగోత్ర": 9693, "గ్రామ": 9694, "గ్రాండ్": 9695, "చదరంగంలో": 9696, "చదరంగము,": 9697, "చూసింది.": 9698, "చూపబడ": 9699, "చవితి,": 9700, "చవిచూసింది.": 9701, "చిత్రాలు": 9702, "చిత్రకళ": 9703, "జీవితంలో": 9704, "జోక్యం": 9705, "జోన్లుగా": 9706, "టన్‌": 9707, "ట్‌బాల": 9708, "తక్కువ.": 9709, "దర్శకు": 9710, "దండయాత్ర": 9711, "నూటన": 9712, "ప్లానెట్": 9713, "ప్లగ్గులు": 9714, "పల్లవులు,": 9715, "పల్లెల్": 9716, "పడుతుంది.": 9717, "పడుతున్నారు.": 9718, "భవించినవే.": 9719, "భౌగోళిక": 9720, "భౌతిక,": 9721, "భక్తి,": 9722, "భక్తిశ్ర": 9723, "మాతృ": 9724, "మితో": 9725, "మితికి": 9726, "యాత్రికులు": 9727, "రీతులు": 9728, "రకాలు.": 9729, "రకాలుగా": 9730, "ళాఖాతం": 9731, "ళికలు": 9732, "వింద్": 9733, "వరుసగా": 9734, "శిలాగృ": 9735, "శైలీ": 9736, "శకుంతల": 9737, "శక్తిగా": 9738, "శక్తులు;": 9739, "సెర్టి": 9740, "సిక్కు": 9741, "సిక్కులు": 9742, "హ్రాన్-ఇ": 9743, "<0x00>": 9744, "<0x01>": 9745, "<0x02>": 9746, "<0x03>": 9747, "<0x04>": 9748, "<0x05>": 9749, "<0x06>": 9750, "<0x07>": 9751, "<0x08>": 9752, "<0x09>": 9753, "<0x0A>": 9754, "<0x0B>": 9755, "<0x0C>": 9756, "<0x0D>": 9757, "<0x0E>": 9758, "<0x0F>": 9759, "<0x10>": 9760, "<0x11>": 9761, "<0x12>": 9762, "<0x13>": 9763, "<0x14>": 9764, "<0x15>": 9765, "<0x16>": 9766, "<0x17>": 9767, "<0x18>": 9768, "<0x19>": 9769, "<0x1A>": 9770, "<0x1B>": 9771, "<0x1C>": 9772, "<0x1D>": 9773, "<0x1E>": 9774, "<0x1F>": 9775, "<0x20>": 9776, "<0x21>": 9777, "<0x22>": 9778, "<0x23>": 9779, "<0x24>": 9780, "<0x25>": 9781, "<0x26>": 9782, "<0x27>": 9783, "<0x28>": 9784, "<0x29>": 9785, "<0x2A>": 9786, "<0x2B>": 9787, "<0x2C>": 9788, "<0x2D>": 9789, "<0x2E>": 9790, "<0x2F>": 9791, "<0x30>": 9792, "<0x31>": 9793, "<0x32>": 9794, "<0x33>": 9795, "<0x34>": 9796, "<0x35>": 9797, "<0x36>": 9798, "<0x37>": 9799, "<0x38>": 9800, "<0x39>": 9801, "<0x3A>": 9802, "<0x3B>": 9803, "<0x3C>": 9804, "<0x3D>": 9805, "<0x3E>": 9806, "<0x3F>": 9807, "<0x40>": 9808, "<0x41>": 9809, "<0x42>": 9810, "<0x43>": 9811, "<0x44>": 9812, "<0x45>": 9813, "<0x46>": 9814, "<0x47>": 9815, "<0x48>": 9816, "<0x49>": 9817, "<0x4A>": 9818, "<0x4B>": 9819, "<0x4C>": 9820, "<0x4D>": 9821, "<0x4E>": 9822, "<0x4F>": 9823, "<0x50>": 9824, "<0x51>": 9825, "<0x52>": 9826, "<0x53>": 9827, "<0x54>": 9828, "<0x55>": 9829, "<0x56>": 9830, "<0x57>": 9831, "<0x58>": 9832, "<0x59>": 9833, "<0x5A>": 9834, "<0x5B>": 9835, "<0x5C>": 9836, "<0x5D>": 9837, "<0x5E>": 9838, "<0x5F>": 9839, "<0x60>": 9840, "<0x61>": 9841, "<0x62>": 9842, "<0x63>": 9843, "<0x64>": 9844, "<0x65>": 9845, "<0x66>": 9846, "<0x67>": 9847, "<0x68>": 9848, "<0x69>": 9849, "<0x6A>": 9850, "<0x6B>": 9851, "<0x6C>": 9852, "<0x6D>": 9853, "<0x6E>": 9854, "<0x6F>": 9855, "<0x70>": 9856, "<0x71>": 9857, "<0x72>": 9858, "<0x73>": 9859, "<0x74>": 9860, "<0x75>": 9861, "<0x76>": 9862, "<0x77>": 9863, "<0x78>": 9864, "<0x79>": 9865, "<0x7A>": 9866, "<0x7B>": 9867, "<0x7C>": 9868, "<0x7D>": 9869, "<0x7E>": 9870, "<0x7F>": 9871, "<0x80>": 9872, "<0x81>": 9873, "<0x82>": 9874, "<0x83>": 9875, "<0x84>": 9876, "<0x85>": 9877, "<0x86>": 9878, "<0x87>": 9879, "<0x88>": 9880, "<0x89>": 9881, "<0x8A>": 9882, "<0x8B>": 9883, "<0x8C>": 9884, "<0x8D>": 9885, "<0x8E>": 9886, "<0x8F>": 9887, "<0x90>": 9888, "<0x91>": 9889, "<0x92>": 9890, "<0x93>": 9891, "<0x94>": 9892, "<0x95>": 9893, "<0x96>": 9894, "<0x97>": 9895, "<0x98>": 9896, "<0x99>": 9897, "<0x9A>": 9898, "<0x9B>": 9899, "<0x9C>": 9900, "<0x9D>": 9901, "<0x9E>": 9902, "<0x9F>": 9903, "<0xA0>": 9904, "<0xA1>": 9905, "<0xA2>": 9906, "<0xA3>": 9907, "<0xA4>": 9908, "<0xA5>": 9909, "<0xA6>": 9910, "<0xA7>": 9911, "<0xA8>": 9912, "<0xA9>": 9913, "<0xAA>": 9914, "<0xAB>": 9915, "<0xAC>": 9916, "<0xAD>": 9917, "<0xAE>": 9918, "<0xAF>": 9919, "<0xB0>": 9920, "<0xB1>": 9921, "<0xB2>": 9922, "<0xB3>": 9923, "<0xB4>": 9924, "<0xB5>": 9925, "<0xB6>": 9926, "<0xB7>": 9927, "<0xB8>": 9928, "<0xB9>": 9929, "<0xBA>": 9930, "<0xBB>": 9931, "<0xBC>": 9932, "<0xBD>": 9933, "<0xBE>": 9934, "<0xBF>": 9935, "<0xC0>": 9936, "<0xC1>": 9937, "<0xC2>": 9938, "<0xC3>": 9939, "<0xC4>": 9940, "<0xC5>": 9941, "<0xC6>": 9942, "<0xC7>": 9943, "<0xC8>": 9944, "<0xC9>": 9945, "<0xCA>": 9946, "<0xCB>": 9947, "<0xCC>": 9948, "<0xCD>": 9949, "<0xCE>": 9950, "<0xCF>": 9951, "<0xD0>": 9952, "<0xD1>": 9953, "<0xD2>": 9954, "<0xD3>": 9955, "<0xD4>": 9956, "<0xD5>": 9957, "<0xD6>": 9958, "<0xD7>": 9959, "<0xD8>": 9960, "<0xD9>": 9961, "<0xDA>": 9962, "<0xDB>": 9963, "<0xDC>": 9964, "<0xDD>": 9965, "<0xDE>": 9966, "<0xDF>": 9967, "<0xE0>": 9968, "<0xE1>": 9969, "<0xE2>": 9970, "<0xE3>": 9971, "<0xE4>": 9972, "<0xE5>": 9973, "<0xE6>": 9974, "<0xE7>": 9975, "<0xE8>": 9976, "<0xE9>": 9977, "<0xEA>": 9978, "<0xEB>": 9979, "<0xEC>": 9980, "<0xED>": 9981, "<0xEE>": 9982, "<0xEF>": 9983, "<0xF0>": 9984, "<0xF1>": 9985, "<0xF2>": 9986, "<0xF3>": 9987, "<0xF4>": 9988, "<0xF5>": 9989, "<0xF6>": 9990, "<0xF7>": 9991, "<0xF8>": 9992, "<0xF9>": 9993, "<0xFA>": 9994, "<0xFB>": 9995, "<0xFC>": 9996, "<0xFD>": 9997, "<0xFE>": 9998, "<0xFF>": 9999}, "merges": [["t", "h"], ["a", "n"], ["i", "n"], ["e", "r"], ["th", "e"], ["o", "n"], ["e", "n"], ["s", "t"], ["r", "e"], ["d", "i"], ["a", "t"], ["a", "l"], ["I", "n"], ["a", "r"], ["e", "d"], ["an", "d"], ["్", "ర"], ["o", "r"], ["i", "t"], ["ా", "ర"], ["o", "f"], ["In", "di"], ["i", "on"], ["i", "s"], ["ా", "ల"], ["i", "c"], ["e", "s"], ["a", "s"], ["्", "र"], ["en", "t"], ["ा", "र"], ["in", "g"], ["Indi", "a"], ["ల", "ో"], ["क", "े"], ["o", "m"], ["స", "్"], ["t", "o"], ["e", "c"], ["े", "ं"], ["్", "య"], ["o", "u"], ["म", "ें"], ["న", "్"], ["ద", "ి"], ["ి", "ం"], ["ద", "ే"], ["ప", "్ర"], ["ల", "ు"], ["దే", "శ"], ["्", "य"], ["a", "m"], ["ర", "్"], ["న", "ి"], ["l", "i"], ["భ", "ార"], ["u", "r"], ["భార", "త"], ["u", "l"], ["र", "्"], ["l", "y"], ["ह", "ै"], ["भ", "ार"], ["भार", "त"], ["e", "m"], ["u", "m"], ["e", "t"], ["स", "्"], ["o", "l"], ["v", "er"], ["क", "ा"], ["h", "e"], ["ి", "క"], ["ాల", "ు"], ["1", "9"], ["a", "d"], ["న్", "న"], ["గ", "ా"], ["य", "ा"], ["0", "0"], ["r", "i"], ["i", "l"], ["स", "े"], ["ది", "."], ["u", "s"], ["at", "ion"], ["न", "े"], ["ो", "ं"], ["క", "ు"], ["l", "e"], ["e", "st"], ["क", "ी"], ["न", "ा"], ["र", "ा"], ["प", "्र"], ["ా", "య"], ["i", "st"], ["थ", "ा"], ["వ", "ి"], ["c", "on"], ["క", "్"], ["T", "he"], ["u", "n"], ["ా", "త"], ["re", "s"], ["r", "a"], ["त", "ा"], ["औ", "र"], ["r", "o"], ["u", "t"], ["s", "e"], ["b", "y"], ["a", "st"], ["क", "्"], ["న", "ు"], ["దేశ", "ం"], ["i", "v"], ["s", ","], ["d", "e"], ["ర", "ా"], ["c", "e"], ["్", "ట"], ["at", "e"], ["a", "g"], ["e", "x"], ["c", "h"], ["f", "or"], ["t", "er"], ["ि", "या"], ["Indi", "an"], ["स", "ा"], ["i", "m"], ["మ", "ు"], ["e", "l"], ["s", "u"], ["c", "t"], ["ం", "డ"], ["ి", "న"], ["ि", "क"], ["ద", "్"], ["ీ", "య"], ["a", "b"], ["'", "s"], ["क्", "ष"], ["o", "w"], ["w", "h"], ["స్", "త"], ["ిం", "చ"], ["త", "ి"], ["త", "్"], ["ల", "్"], ["g", "h"], ["on", "g"], ["w", "as"], ["c", "i"], ["an", "g"], ["er", "n"], ["d", "u"], ["प", "र"], ["है", "।"], ["q", "u"], ["ul", "t"], ["s", "i"], ["w", "i"], ["म", "ा"], ["ం", "త"], ["ా", "న"], ["o", "p"], ["ర", "ి"], ["i", "es"], ["ం", "గ"], ["i", "r"], ["p", "ar"], ["व", "ि"], ["क", "र"], ["त", "्र"], ["er", "e"], ["o", "ver"], ["ec", "t"], ["wi", "th"], ["m", "o"], ["s", "."], ["ర", "ు"], ["त", "्"], ["रा", "ज"], ["स", "ं"], ["ी", "य"], ["ప", "ు"], ["a", "in"], ["a", "y"], ["ह", "ु"], ["ు", "లు"], ["b", "e"], ["ం", "ట"], ["in", "c"], ["స్", "థ"], ["ిం", "ది."], ["ాయ", "ి"], ["r", "it"], ["ि", "त"], ["ic", "al"], ["क", "ो"], ["त", "ि"], ["न", "्"], ["ం", "లో"], ["స", "ం"], ["భారత", "దేశం"], ["con", "t"], ["a", "re"], ["f", "r"], ["m", "ent"], ["p", "l"], ["ड", "़"], ["ic", "h"], ["భ", "ా"], ["ై", "న"], ["is", "m"], ["an", "t"], ["p", "er"], ["s", "o"], ["ాయి", "."], ["g", "ion"], ["y", ","], ["ज", "ा"], ["ూ", "డ"], ["ou", "th"], ["m", "e"], ["ం", "గా"], ["ం", "ది."], ["క", "ి"], ["వ", "ా"], ["స", "ా"], ["క్", "ష"], ["a", ","], ["c", "o"], ["e", "ar"], ["en", "d"], ["iv", "e"], ["wh", "ich"], ["c", "om"], ["ఉ", "న్న"], ["ార", "ు"], ["c", "ent"], ["ec", "on"], ["a", "p"], ["p", "ro"], ["त", "था"], ["ట", "ి"], ["ధ", "ిక"], ["ప", "ా"], ["प", "ा"], ["ह", "ा"], ["it", "s"], ["a", "e"], ["u", "d"], ["fr", "om"], ["2", "0"], ["a", "c"], ["h", "as"], ["द", "्"], ["India", "'s"], ["a", "v"], ["u", "re"], ["్", "చ"], ["il", "l"], ["su", "b"], ["a", "k"], ["h", "i"], ["o", "t"], ["s", "p"], ["श", "ा"], ["g", "en"], ["i", "d"], ["त", "र"], ["है", "ं"], ["ं", "ग"], ["ar", "y"], ["ార", "్"], ["is", "h"], ["ou", "n"], ["m", "in"], ["व", "ा"], ["ar", "g"], ["l", "d"], ["प", "ू"], ["ि", "ण"], ["క", "ూడ"], ["ష", "్ట"], ["ి", "త"], ["par", "t"], ["econ", "om"], ["न", "ी"], ["it", "y"], ["ए", "क"], ["ం", ","], ["క", "ో"], ["జ", "ాత"], ["र्", "व"], ["రా", "జ"], ["d", "er"], ["n", "or"], ["w", "ere"], ["an", "s"], ["st", "it"], ["at", "ed"], ["In", "d"], ["min", "ist"], ["द", "क्ष"], ["न", "ि"], ["క", "ా"], ["క", "్ర"], ["చ", "్చ"], ["న", "ే"], ["మ", "ొ"], ["ప్ర", "ా"], ["दक्ष", "िण"], ["2", "00"], ["f", "ter"], ["l", "arg"], ["p", "ri"], ["i", "g"], ["o", "c"], ["द", "े"], ["व", "र्"], ["ం", "చ"], ["ట", "్ట"], ["ద", "ు"], ["మ", "ా"], ["्य", "ा"], ["భారత", "ీయ"], ["र्", "म"], ["A", "si"], ["l", "ow"], ["ं", "द"], ["त", "ी"], ["भ", "ा"], ["ह", "ि"], ["re", "gion"], ["am", "e"], ["a", "j"], ["w", "e"], ["w", "or"], ["उ", "त्"], ["क", "ि"], ["ल", "ा"], ["ल", "ी"], ["व", "ी"], ["ప", "ే"], ["స", "ి"], ["్", "ల"], ["India", ","], ["भारत", "ीय"], ["res", "s"], ["for", "m"], ["o", "d"], ["w", "est"], ["इ", "स"], ["क", "ार"], ["in", "to"], ["00", "0"], ["शा", "स"], ["H", "in"], ["b", "ec"], ["i", "re"], ["l", "and"], ["p", "or"], ["ज", "ि"], ["ह", "ो"], ["న", "ా"], ["ల", "ి"], ["er", "al"], ["al", "l"], ["ou", "gh"], ["ారు", "."], ["stit", "ut"], ["l", "at"], ["o", "s"], ["म", "ु"], ["over", "n"], ["राज", "्य"], ["h", "ar"], ["p", "t"], ["s", "h"], ["s", "outh"], ["u", "b"], ["क", "िया"], ["द", "ी"], ["भ", "ी"], ["र", "ू"], ["्", "ट"], ["గ", "ు"], ["త", "ో"], ["య", "ా"], ["ర", "ై"], ["వ", "్య"], ["వ", "ాత"], ["వ", "చ్చ"], ["al", "ly"], ["రా", "ష్ట"], ["ద్", "ధ"], ["ల్", "ల"], ["cont", "in"], ["జాత", "ీయ"], ["nor", "th"], ["minist", "er"], ["రాష్ట", "్ర"], ["g", "overn"], ["t", "r"], ["श", "्"], ["el", "ect"], ["n", "i"], ["o", "g"], ["y", "ear"], ["ध", "र्म"], ["మ", "ైన"], ["వ", "ే"], ["ా", "న్"], ["an", "y"], ["es", ","], ["्र", "ा"], ["ou", "s"], ["భారత", "దేశ"], ["త్", "వ"], ["ంత", "్ర"], ["a", "."], ["e", ","], ["r", "u"], ["u", "ag"], ["ि", "म"], ["en", "ce"], ["स्", "था"], ["ex", "t"], ["ang", "uag"], ["inc", "l"], ["C", "ong"], ["b", "er"], ["m", "er"], ["p", "ire"], ["s", "y"], ["ब", "ा"], ["అ", "ధిక"], ["ఒ", "క"], ["క", "ొ"], ["క", "ాల"], ["ఖ", "్య"], ["డ", "ి"], ["డ", "ు"], ["త", "ర"], ["ప", "ాల"], ["as", "s"], ["ాలు", ","], ["so", "ci"], ["हैं", "।"], ["d", "h"], ["u", "c"], ["v", "i"], ["re", "li"], ["ou", "r"], ["ist", "an"], ["cent", "ur"], ["पू", "र्व"], ["por", "t"], ["govern", "ment"], ["C", "h"], ["f", "o"], ["l", "anguag"], ["त", "क"], ["ल", "े"], ["ఉ", "ంది."], ["చ", "ే"], ["త", "ం"], ["త", "ా"], ["ద", "్ర"], ["ధ", "్య"], ["శ", "ా"], ["్", "‌"], ["ిం", "ద"], ["దేశ", "ాల"], ["ండ", "ి"], ["pri", "me"], ["Cong", "ress"], ["c", "ult"], ["l", "ic"], ["r", "ul"], ["y", "."], ["१", "९"], ["am", "ent"], ["सा", "म"], ["bec", "ame"], ["contin", "ent"], ["B", "rit"], ["C", "E"], ["b", "o"], ["f", "e"], ["f", "l"], ["h", "ad"], ["i", "b"], ["m", "ill"], ["ा", "न"], ["ం", "ది"], ["ట", "ు"], ["ప", "ార"], ["ప", "ంచ"], ["st", "em"], ["ని", "కి"], ["19", "4"], ["ఉన్న", "ాయి."], ["दे", "श"], ["aj", "or"], ["शास", "न"], ["Hin", "du"], ["stitut", "ion"], ["వ్య", "వ"], ["sy", "stem"], ["1", ","], ["f", "f"], ["r", "al"], ["t", "s"], ["त", "े"], ["य", "ु"], ["र", "ी"], ["en", "s"], ["re", "at"], ["क्ष", "े"], ["ub", "lic"], ["5", "0"], ["E", "m"], ["a", "ct"], ["e", "ast"], ["f", "ic"], ["n", "e"], ["n", "on"], ["ं", "ध"], ["ं", "त्र"], ["ल", "्"], ["स", "म"], ["చ", "ె"], ["ణ", "ా"], ["ద", "ా"], ["ి", "న్న"], ["ీ", ","], ["ె", "ండ"], ["in", "e"], ["er", "v"], ["re", "as"], ["es", "."], ["న్", "ని"], ["ur", "ing"], ["स्", "व"], ["us", "ed"], ["im", "al"], ["el", "l"], ["ులు", ","], ["భారతదేశం", "లో"], ["elect", "ion"], ["क्षे", "त्र"], ["1", "8"], ["A", "n"], ["b", "ut"], ["d", "om"], ["d", "ec"], ["g", "an"], ["l", "ed"], ["l", "ong"], ["p", "e"], ["p", "ublic"], ["क", "ृ"], ["ढ", "़"], ["ी", "न"], ["th", "at"], ["an", "n"], ["ol", "og"], ["मा", "न"], ["com", "p"], ["wor", "ld"], ["उत्", "तर"], ["C", "on"], ["S", "outh"], ["c", "a"], ["m", "ajor"], ["p", "re"], ["p", "ol"], ["अ", "न"], ["प", "्"], ["म", "ि"], ["म", "हा"], ["ం", "బ"], ["క", "ార"], ["డ", "్"], ["త", "ు"], ["ధ", "ాన"], ["ప", "ె"], ["మ", "త"], ["మ", "ార్"], ["వ", "ీ"], ["హ", "ింద"], ["en", "g"], ["19", "6"], ["19", "9"], ["ना", "म"], ["స్త", "ు"], ["కూడ", "ా"], ["మొ", "ద"], ["fo", "re"], ["వ్యవ", "స్థ"], ["P", "ak"], ["i", "a"], ["ं", "ड"], ["ज", "न"], ["inc", "reas"], ["sub", "continent"], ["Pak", "istan"], [",", "000"], ["c", "oun"], ["o", "-"], ["r", "is"], ["t", "w"], ["ज", "्य"], ["ल", "ि"], ["ఎ", "న్న"], ["క", "ృ"], ["క", "ే"], ["త", "్య"], ["ద", "క్ష"], ["ప", "ర"], ["ప", "రి"], ["మ", "ీ"], ["మ", "ే"], ["మ", "ధ్య"], ["స", "ు"], ["ి", ","], ["ar", "um"], ["India", "."], ["ప్ర", "పంచ"], ["ప్ర", "ధాన"], ["ur", "al"], ["et", "we"], ["ri", "ver"], ["ation", "al"], ["un", "t"], ["हु", "आ"], ["భా", "ష"], ["ap", "p"], ["రాజ", "్య"], ["larg", "est"], ["रू", "प"], ["year", "s"], ["्रा", "ज्य"], ["అధిక", "ార"], ["साम", "्राज्य"], ["Brit", "ish"], ["Em", "pire"], ["tw", "o"], ["etwe", "en"], ["1", "7"], ["7", ","], ["B", "ud"], ["a", "fter"], ["e", "."], ["f", "ir"], ["m", "ar"], ["r", "ough"], ["च", "िम"], ["च", "ीन"], ["प", "श्"], ["ब", "्"], ["र", "े"], ["ष", "्ट"], ["ै", "द"], ["it", "ion"], ["em", "ent"], ["प्र", "ा"], ["ies", ","], ["sp", "ec"], ["econom", "ic"], ["जि", "स"], ["Bud", "dh"], ["fir", "st"], ["पश्", "चिम"], ["T", "h"], ["c", "iv"], ["g", "r"], ["o", "se"], ["p", "op"], ["s", "et"], ["आ", "ध"], ["ग", "या"], ["ज", "ो"], ["थ", "ी"], ["ब", "से"], ["ब", "ड़"], ["स", "बसे"], ["క", "ర"], ["జ", "ా"], ["ట", "్"], ["త", "్ర"], ["ద", "ాయ"], ["ప", "్"], ["వ", "ార"], ["వ", "ర్"], ["స", "భ"], ["ా", "నికి"], ["th", "er"], ["er", "g"], ["్ర", "ా"], ["or", "i"], ["or", "um"], ["as", ","], ["्र", "े"], ["om", "e"], ["క్", "కు"], ["ాత", "్ర"], ["దేశం", "లో"], ["ద్", "ద"], ["ang", "es"], ["స్థ", "ాన"], ["ప్రా", "ంత"], ["పే", "రు"], ["मु", "ख"], ["పార", "్ట"], ["దక్ష", "ి"], ["pop", "ul"], ["6", "%"], ["I", "s"], ["b", "etween"], ["i", "an"], ["o", "k"], ["r", "at"], ["य", "ह"], ["di", "ver"], ["ar", "t"], ["li", "m"], ["का", "ल"], ["le", "g"], ["सा", "थ"], ["su", "p"], ["द्", "ध"], ["incl", "ud"], ["reli", "gion"], [")", ","], ["A", "fter"], ["B", "CE"], ["P", "l"], ["h", "av"], ["p", "ow"], ["r", "ic"], ["u", "p"], ["ओ", "ं"], ["द", "िया"], ["प", "ु"], ["ल", "ग"], ["అ", "య"], ["బ", "ా"], ["ర", "ో"], ["ర", "ెండ"], ["ల", "ా"], ["వ", "ల"], ["th", "is"], ["లు", ","], ["li", "ament"], ["19", "7"], ["un", "der"], ["ించ", "ింది."], ["par", "liament"], ["mo", "st"], ["हु", "ई"], ["be", "gan"], ["जा", "ता"], ["gen", "eral"], ["క్ర", "ీ"], ["రై", "లు"], ["बा", "द"], ["ib", "us"], ["మార్", "గ"], ["హింద", "ూ"], ["pow", "er"], ["B", "y"], ["c", "l"], ["c", "ed"], ["f", "er"], ["g", "re"], ["i", "o"], ["n", "um"], ["s", "erv"], ["द", "ो"], ["स", "ि"], ["ar", "i"], ["ur", "b"], ["था", "।"], ["de", "v"], ["ct", "ion"], ["20", "1"], ["वर्", "ष"], ["Asi", "a"], ["west", "ern"], ["M", "a"], ["U", "n"], ["e", "v"], ["h", "ab"], ["m", "ain"], ["r", "ol"], ["s", "c"], ["च", "ु"], ["ज", "ी"], ["त", "िक"], ["प", "ार"], ["ब", "ढ़"], ["श", "ता"], ["ఆ", "ర్"], ["ఇ", "తర"], ["జ", "నా"], ["త", "రు"], ["ప", "ో"], ["భ", "ు"], ["మ", "ి"], ["ల", "కు"], ["వ", "హ"], ["ష", "్"], ["st", "ate"], ["it", "at"], ["it", "ary"], ["is", "ed"], ["is", "ation"], ["ాల", "్"], ["ou", "t"], ["ప్ర", "భు"], ["em", "erg"], ["स्", "कृ"], ["స్త", "్ర"], ["ించ", "ిన"], ["qu", "e"], ["ical", "ly"], ["ism", "us"], ["సా", "ం"], ["ंग", "ा"], ["ंग", "्रे"], ["हि", "ंद"], ["వచ్చ", "ింది."], ["non", "-"], ["fore", "st"], ["ब्", "दी"], ["క్కు", "వ"], ["పార్ట", "ీ"], ["शता", "ब्दी"], ["4", "%"], ["5", ","], ["c", "or"], ["d", "uring"], ["g", "l"], ["h", "um"], ["m", "il"], ["n", "ot"], ["ई", "सा"], ["ध", "्य"], ["म", "ैद"], ["ल", "ो"], ["व", "्य"], ["श", "िया"], ["th", "rough"], ["in", "ce"], ["st", "r"], ["di", "t"], ["ul", "ar"], ["स्", "ता"], ["प्र", "मुख"], ["त्", "व"], ["ism", ","], ["bo", "th"], ["urb", "an"], ["स्ता", "न"], ["C", "om"], ["H", "imal"], ["I", "t"], ["d", "ern"], ["e", "p"], ["e", "ver"], ["m", "ult"], ["o", "b"], ["t", "a"], ["t", "i"], ["w", "ar"], ["त", "ृ"], ["ब", "ी"], ["ब", "ना"], ["म", "ध्य"], ["व", "ं"], ["ो", "ड़"], ["ం", "."], ["ం", "ద్ర"], ["అ", "తి"], ["ఉ", "త్"], ["ఉ", "ంట"], ["గ", "ి"], ["జ", "న"], ["జ", "రి"], ["ప", "ూ"], ["ప", "ట్ట"], ["బ", "డ"], ["బ", "ె"], ["బ", "్"], ["మ", "న"], ["మ", "హ"], ["ల", "లో"], ["వ", "ర"], ["వ", "ు"], ["వ", "ె"], ["వ", "ంట"], ["శ", "్ర"], ["ు", "కు"], ["an", "ce"], ["in", "s"], ["er", "s"], ["er", "ed"], ["్ర", "ె"], ["it", "ed"], ["స్", "కృ"], ["్య", "ం"], ["ని", "ర్"], ["स्", "थ"], ["19", "50"], ["le", "ad"], ["వి", "ధ"], ["ro", "w"], ["ము", "ఖ్య"], ["ult", "an"], ["न्", "ह"], ["భా", "గ"], ["per", "i"], ["20", "2"], ["Ind", "o-"], ["north", "ern"], ["mill", "ion"], ["ne", "w"], ["పె", "ద్ద"], ["increas", "ed"], ["ప్", "ప"], ["అయ", "ిన"], ["తరు", "వాత"], ["Himal", "ay"], ["0", "%"], ["1", "."], ["E", "ur"], ["S", "ans"], ["e", "h"], ["k", "h"], ["k", "ing"], ["l", "am"], ["n", "olog"], ["p", "o"], ["अ", "ध"], ["च", "ल"], ["च", "ा"], ["प", "ना"], ["ब", "ंध"], ["ि", "य"], ["the", "ir"], ["st", "at"], ["li", "fe"], ["है", ","], ["le", "ar"], ["रा", "ष्ट"], ["ag", "ric"], ["ab", "le"], ["hi", "gh"], ["नि", "र्"], ["larg", "e"], ["सम", "य"], ["world", "'s"], ["Is", "lam"], ["includ", "ing"], ["राष्ट", "्र"], ["agric", "ult"], ["C", "iv"], ["G", "and"], ["S", "i"], ["b", "as"], ["c", "an"], ["c", "re"], ["c", "ol"], ["d", "ed"], ["d", "ing"], ["g", "row"], ["l", "it"], ["m", "on"], ["m", "any"], ["n", "ed"], ["p", "end"], ["s", "ince"], ["t", "e"], ["u", "st"], ["u", "res"], ["u", "de"], ["v", "ed"], ["इ", "ंड"], ["ग", "ण"], ["त", "ु"], ["ब", "े"], ["स", "र"], ["स", "ी"], ["అ", "నే"], ["ఇ", "ది"], ["ఎ", "క్కువ"], ["ఏ", "ర్"], ["క", "లి"], ["గ", "ర"], ["గ", "్"], ["గ", "ిన"], ["ట", "ిక"], ["న", "ాలు"], ["బ", "హ"], ["మ", "ంత్ర"], ["ల", "ే"], ["స", "ిం"], ["స", "రి"], ["స", "ంగ"], ["ి", "ల్ల"], ["ీ", "న"], ["er", "a"], ["the", "ast"], ["di", "s"], ["at", "t"], ["al", "i"], ["్ర", "ి"], ["it", "ical"], ["India", "e"], ["ec", "h"], ["ప్ర", "స్తు"], ["ప్ర", "దాయ"], ["ad", "e"], ["con", "stitution"], ["క్", "క"], ["స్త", "ాన్"], ["ci", "al"], ["ంగ", "్రె"], ["mo", "dern"], ["सं", "स्कृ"], ["हु", "ए"], ["be", "en"], ["cont", "rol"], ["me", "di"], ["సా", "ధ"], ["co", "ast"], ["పా", "కి"], ["కా", "ంగ్రె"], ["har", "at"], ["కాల", "ంలో"], ["soci", "al"], ["ంది", "న"], ["स्व", "त"], ["pol", "itical"], ["प्", "त"], ["మొద", "టి"], ["coun", "tr"], ["ఎన్న", "ో"], ["కే", "ంద్ర"], ["దక్షి", "ణ"], ["Pl", "ate"], ["hav", "e"], ["క్రీ", "డ"], ["ప్రభు", "త్వ"], ["emerg", "ed"], ["mil", "itary"], ["स्थ", "ित"], ["Gand", "hi"], ["2", ","], ["2", "."], ["B", "eng"], ["a", "w"], ["a", "ce"], ["d", "em"], ["f", "i"], ["f", "in"], ["h", "o"], ["i", "al"], ["k", "rit"], ["l", "ing"], ["m", "id"], ["p", "res"], ["r", "y"], ["ए", "शिया"], ["क", "ु"], ["ट", "ि"], ["ट", "े"], ["ब", "हु"], ["स", "द"], ["स", "ार"], ["er", "s,"], ["en", "ni"], ["it", "e"], ["es", "s"], ["ार", "ा"], ["om", "in"], ["ol", "low"], ["ex", "p"], ["mo", "re"], ["co", "al"], ["com", "mer"], ["cent", "ral"], ["द्", "वी"], ["part", "y"], ["ig", "n"], ["किया", "।"], ["uc", "lear"], ["cult", "ure"], ["major", "ity"], ["अन", "्य"], ["प्रा", "चीन"], ["Sans", "krit"], ["Si", "kh"], ["ech", "nolog"], ["द्वी", "प"], ["3", "0"], ["B", "harat"], ["E", "ast"], ["G", "anges"], ["M", "u"], ["R", "e"], ["a", "u"], ["c", "it"], ["c", "ast"], ["c", "ru"], ["e", "th"], ["h", "ist"], ["k", "ed"], ["m", "em"], ["n", "o"], ["o", ","], ["t", "ro"], ["u", "ally"], ["y", "a"], ["ग", "ु"], ["ग", "ंगा"], ["त", "न"], ["द", "ि"], ["द", "्र"], ["ध", "ान"], ["ब", "्र"], ["य", "े"], ["र", "ु"], ["व", "ारा"], ["०", "०"], ["ం", ":"], ["అ", "త్య"], ["ఇ", "ండి"], ["క", "్య"], ["క", "ీయ"], ["క", "ల్"], ["గ", "ల"], ["గ", "ో"], ["చ", "ిన్న"], ["ణ", "ం"], ["ప", "ై"], ["ప", "తి"], ["భ", "ూ"], ["మ", "ై"], ["మ", "ాన"], ["య", "ో"], ["ర", "ంగ"], ["ర", "వా"], ["ల", "ను"], ["ల", "తో"], ["వ", "త"], ["శ", "్"], ["ష", "ు"], ["ా", ","], ["ు", "కో"], ["్", "మ"], ["er", "t"], ["re", "ct"], ["di", "an"], ["al", "so"], ["ar", "ch"], ["is", "s"], ["ాల", "ో"], ["ాల", "లో"], ["ాల", "ను"], ["ప్ర", "తి"], ["र्", "थ"], ["19", "8"], ["ation", ","], ["ने", "तृ"], ["వి", "స్త"], ["con", "s"], ["de", "pend"], ["ag", "e"], ["ండ", "ు"], ["gh", "al"], ["मा", "ण"], ["ంగ", "్ల"], ["कर", "ना"], ["are", "d"], ["pro", "du"], ["రాజ", "కీయ"], ["Ind", "us"], ["క్ర", "మ"], ["ंद", "्र"], ["wor", "k"], ["वी", "ं"], ["సి", "ని"], ["form", "ed"], ["इस", "के"], ["lat", "er"], ["Ch", "in"], ["languag", "e"], ["శా", "స్త్ర"], ["mill", "enni"], ["194", "7,"], ["यु", "ग"], ["ca", "used"], ["parliament", "ary"], ["జనా", "భా"], ["Com", "p"], ["वं", "श"], ["ultan", "ate"], ["सर", "कार"], ["సరి", "హ"], ["సంగ", "ీ"], ["Mu", "ghal"], ["అత్య", "ధిక"], ["రవా", "ణా"], ["नेतृ", "त्व"], ["1", "6"], ["2", "6"], ["5", "00"], ["A", "ra"], ["M", "o"], ["M", "us"], ["N", "ational"], ["W", "est"], ["c", "ur"], ["e", "f"], ["f", "act"], ["h", "m"], ["n", "ational"], ["r", "on"], ["t", "ri"], ["t", "im"], ["उ", "न"], ["उ", "प"], ["ग", "र"], ["त", "ार"], ["ध", "ी"], ["भ", "ू"], ["म", "्"], ["ल", "य"], ["श", "ह"], ["ह", "ी"], ["ो", "ल"], ["th", "an"], ["in", "ter"], ["the", "m"], ["re", "d"], ["re", "g"], ["ar", "m"], ["ic", "a"], ["्र", "ी"], ["ing", ","], ["am", "m"], ["ri", "gh"], ["ation", "s"], ["ना", "व"], ["ra", "in"], ["se", "qu"], ["ate", "ly"], ["ow", "ever"], ["पा", "कि"], ["द्", "वारा"], ["id", "ent"], ["pe", "op"], ["हुआ", "।"], ["sup", "port"], ["num", "ber"], ["Eur", "op"], ["गण", "राज्य"], ["Beng", "al"], ["Mus", "lim"], ["owever", ","], ["पाकि", "स्तान"], [")", "."], ["-", "largest"], ["0", "."], ["5", "."], ["A", "l"], ["B", "J"], ["C", "ent"], ["C", "am"], ["I", "ts"], ["c", "our"], ["d", "es"], ["d", "am"], ["f", "ar"], ["i", "am"], ["i", "ally"], ["n", "ing"], ["n", "ow"], ["p", "en"], ["r", "en"], ["s", "a"], ["s", "ome"], ["u", "ch"], ["v", "en"], ["v", "ing"], ["v", "ari"], ["ं", "भ"], ["अ", "ं"], ["अ", "व"], ["आ", "क"], ["ई", "।"], ["ज", "ब"], ["ज", "़"], ["व", "े"], ["श", "े"], ["ु", "न"], ["ం", "ధ"], ["ఆ", "ధ"], ["ఉ", "ప"], ["క", "ాలు"], ["గ", "ణ"], ["జ", "్య"], ["ట", "్ల"], ["ఢ", "ిల్ల"], ["ణ", "ి"], ["త", "ె"], ["త", "ిక"], ["ద", "ం"], ["ద", "ీ"], ["ద", "ార"], ["ధ", "ి"], ["న", "ె"], ["న", "డి"], ["ప", "ించ"], ["బ", "్రి"], ["భ", "ిన్న"], ["మ", "ె"], ["మ", "ూడ"], ["మ", "ాత్ర"], ["య", "ు"], ["ర", "హ"], ["ల", "ం"], ["వ", "ై"], ["స", "ై"], ["స", "ము"], ["స", "ింది."], ["స", "మా"], ["హ", "ార"], ["ా", "వర"], ["ీ", ";"], ["th", "ough"], ["an", "imal"], ["in", "v"], ["ed", ","], ["it", "y,"], ["of", "fic"], ["के", "ंद्र"], ["om", "et"], ["స్", "య"], ["స్", "వా"], ["ec", "ut"], ["్య", "ాయ"], ["ప్ర", "జ"], ["ప్ర", "ము"], ["లు", "."], ["am", "ong"], ["ad", "es"], ["il", "d"], ["est", "."], ["प्र", "ार"], ["వి", "విధ"], ["ra", "p"], ["ex", "ecut"], ["ద్", "దు"], ["si", "g"], ["ంత", "ో"], ["ir", "d"], ["वि", "स्"], ["कर", "ने"], ["राज", "नी"], ["सं", "घ"], ["సం", "స్కృ"], ["pl", "ain"], ["जा", "ना"], ["సా", "మ"], ["ear", "ly"], ["end", "em"], ["ac", "k"], ["oun", "d"], ["ిత", "్ర"], ["కో", "ర్"], ["ప్రా", "చ"], ["పే", "ర్"], ["land", "s"], ["south", "ern"], ["ద్ధ", "ి"], ["రాష్ట్ర", "పతి"], ["स्था", "पना"], ["incl", "ude"], ["vi", "ol"], ["centur", "y,"], ["శా", "ఖ"], ["east", "ern"], ["An", "dam"], ["dom", "in"], ["अन", "ु"], ["డ్", "డ"], ["మొద", "ల"], ["लि", "ए"], ["spec", "ies"], ["set", "t"], ["गया", "।"], ["జా", "బ"], ["దేశంలో", "ని"], ["diver", "se"], ["రెండ", "ు"], ["sc", "ri"], ["चु", "नाव"], ["ఆర్", "ధిక"], ["ాల్", "లో"], ["పట్ట", "ణ"], ["బె", "ంగ"], ["ప్ప", "టిక"], ["lit", "er"], ["इंड", "िया"], ["ఏర్", "ప"], ["బహ", "ు"], ["మంత్ర", "ి"], ["సిం", "ధ"], ["स्वत", "ंत्र"], ["dem", "oc"], ["ब्र", "ि"], ["ఇండి", "యా"], ["millenni", "um"], ["Comp", "any"], ["సరిహ", "ద్దు"], ["धी", "रे"], ["BJ", "P"], ["pen", "ins"], ["ప్రము", "ఖ"], ["Andam", "an"], ["3", "."], ["4", "2"], ["E", "n"], ["J", "an"], ["S", "e"], ["c", "am"], ["d", "le"], ["e", "an"], ["f", "t"], ["f", "ollow"], ["i", "li"], ["n", "uclear"], ["p", "r"], ["r", "ation"], ["r", "ate"], ["s", "econ"], ["s", "ity"], ["t", "ect"], ["t", "echnolog"], ["v", "e"], ["v", "ent"], ["v", "ast"], ["v", "ement"], ["ख", "्या"], ["ग", "ा"], ["ण", "ा"], ["द", "्य"], ["प", "ह"], ["म", "ी"], ["ल", "िया"], ["ष", "ा"], ["ा", "नी"], ["re", "e"], ["re", "public"], ["ed", "eral"], ["में", ","], ["स्", "त्र"], ["ol", "d"], ["से", "ना"], ["क्", "ति"], ["de", "fin"], ["wh", "o"], ["सं", "ख्या"], ["न्", "न"], ["ive", "ly"], ["econom", "y"], ["region", "al"], ["कार", "ण"], ["194", "7"], ["Con", "stitution"], ["मि", "ल"], ["जन", "संख्या"], ["popul", "ation"], ["diver", "sity"], ["पार", "्ट"], ["hum", "an"], ["मैद", "ान"], ["व्य", "व"], ["countr", "y"], ["fi", "ed"], ["cast", "e"], ["sequ", "ent"], ["peop", "le"], ["Europ", "ean"], ["राजनी", "तिक"], ["secon", "d"], ["8", "."], ["9", "."], ["D", "uring"], ["G", "u"], ["N", "eh"], ["P", "un"], ["P", "ro"], ["a", "i"], ["a", "ch"], ["b", "or"], ["b", "ian"], ["c", "reat"], ["c", "up"], ["d", "ent"], ["e", "w"], ["f", "ive"], ["g", "e"], ["h", "at"], ["h", "ere"], ["i", "gh"], ["j", "ab"], ["l", "oc"], ["o", "y"], ["o", "od"], ["o", "ther"], ["s", "ol"], ["s", "ultanate"], ["t", "em"], ["v", "ic"], ["w", "ay"], ["w", "ell"], ["ँ", "च"], ["ं", "प"], ["अ", "प"], ["अ", "ंग्रे"], ["ख", "ा"], ["ग", "ति"], ["च", "्"], ["द", "ा"], ["फ", "़"], ["भ", "ग"], ["म", "त"], ["म", "न"], ["म", "ो"], ["र", "ों"], ["व", "न"], ["स", "ल्"], ["ै", "न"], ["ो", "ष"], ["ం", "ద"], ["ం", "దు"], ["అ", "భ"], ["అ", "ను"], ["క", "ళ"], ["క", "ీ"], ["గ", "ే"], ["గ", "లు"], ["గ", "ంగా"], ["చ", "ార"], ["చ", "ైన"], ["ట", "ీ"], ["ట", "ె"], ["త", "న"], ["త", "ూ"], ["త", "మి"], ["థ", "ిక"], ["న", "ీ"], ["ప", "త"], ["ప", "ొ"], ["ప", "ద్ధ"], ["ప", "ండు"], ["మ", "ర"], ["మ", "్య"], ["ర", "ూ"], ["ళ", "్ల"], ["వ", "డ"], ["వ", "ృ"], ["వ", "త్"], ["శ", "తా"], ["స", "ర"], ["స", "ౌ"], ["స", "ార"], ["స", "ర్"], ["ి", "మ"], ["ు", "."], ["ు", "ంది."], ["్", ","], ["th", "ird"], ["in", "di"], ["in", "depend"], ["on", "d"], ["en", "se"], ["di", "ff"], ["di", "rect"], ["at", "a"], ["at", "ic"], ["at", "es"], ["al", "s"], ["al", "le"], ["ion", "al"], ["ాల", "తో"], ["om", "en"], ["స్", "వాత"], ["స్", "వత"], ["ou", "theast"], ["ప్ర", "జా"], ["्य", "ों"], ["ని", "క"], ["li", "d"], ["li", "g"], ["र्", "ष"], ["em", "pire"], ["ol", "ved"], ["he", "ad"], ["19", "5"], ["న్న", "ాయి."], ["గా", ","], ["प्र", "धान"], ["se", "ver"], ["ను", "క"], ["ను", "ండి"], ["de", "gre"], ["ce", "an"], ["ter", "m"], ["ter", "rit"], ["िक", "ार"], ["wh", "ose"], ["త్", "వా"], ["త్", "తం"], ["ల్", "వే"], ["ang", "ered"], ["mo", "vement"], ["సం", "ఖ్య"], ["pl", "ant"], ["ड़", "ा"], ["end", "angered"], ["com", "m"], ["కూడ", "ిన"], ["మొ", "త్తం"], ["ig", "in"], ["oc", "cup"], ["low", "er"], ["సి", "యా"], ["इस", "ी"], ["os", "ed"], ["राज्य", "ों"], ["రై", "ల్వే"], ["tr", "ans"], ["श्", "व"], ["భారతదేశ", "ానికి"], ["ఒక", "టి"], ["పాల", "న"], ["soci", "et"], ["చే", "య"], ["దేశాల", "లో"], ["cult", "ur"], ["ff", "ect"], ["election", ","], ["18", "5"], ["महा", "द्वीप"], ["తు", "న్న"], ["ris", "e"], ["ప్రపంచ", "ంలో"], ["అధికార", "ిక"], ["spec", "ies,"], ["gr", "ad"], ["बड़", "े"], ["కర", "్య"], ["ప్రాంత", "ాలు"], ["మార్గ", "ాలు"], ["Un", "ited"], ["hab", "et"], ["ismus", ","], ["ंग्रे", "स"], ["gl", "ish"], ["జరి", "గిన"], ["వంట", "ి"], ["నిర్", "వహ"], ["king", "dom"], ["Islam", "ic"], ["cre", "ated"], ["అనే", "క"], ["ఎక్కువ", "గా"], ["ప్రస్తు", "తం"], ["संस्कृ", "ति"], ["కాంగ్రె", "సు"], ["टि", "श"], ["coal", "ition"], ["hist", "or"], ["तन", "त"], ["उप", "महाद्वीप"], ["Cent", "ral"], ["cour", "t"], ["शे", "ष"], ["దార", "ులు,"], ["నడి", "పించ"], ["సము", "ద్ర"], ["प्रार", "ंभ"], ["execut", "ive"], ["జాబ", "ిత"], ["चुनाव", "ों"], ["ब्रि", "टिश"], ["penins", "ular"], ["En", "glish"], ["व्यव", "स्था"], ["Neh", "ru"], ["Pun", "jab"], ["सल्", "तनत"], ["అభ", "ి"], ["తమి", "ళ"], ["శతా", "బ్"], ["సౌ", "కర్య"], ["స్వాత", "ంత్ర"], ["degre", "es"], ["1", "0"], ["2", "%"], ["3", "%"], ["6", ","], ["7", "%"], ["A", "m"], ["A", "ct"], ["A", "fr"], ["J", "ain"], ["S", "$"], ["U", "S$"], ["W", "or"], ["a", "di"], ["c", "ess"], ["f", "am"], ["f", "ederal"], ["g", "reat"], ["j", "ect"], ["m", "an"], ["n", "al"], ["ं", "स"], ["अ", "र्थ"], ["आ", "ग"], ["ओ", "र"], ["ग", "ठ"], ["त", "ः"], ["द", "ू"], ["फ", "ल"], ["ब", "न"], ["ब", "ौ"], ["म", "ौ"], ["म", "ंत्र"], ["र", "ो"], ["व", "्या"], ["श", "ि"], ["श", "ु"], ["ो", "ग"], ["१", "८"], ["th", "ere"], ["on", "es"], ["st", "e"], ["st", "ru"], ["ion", "s,"], ["र्", "ण"], ["स्", "ट"], ["ad", "minist"], ["की", "।"], ["ist", "ic"], ["un", "d"], ["क्", "त"], ["ex", "port"], ["ch", "ang"], ["su", "ch"], ["क्ष", "ा"], ["du", "ced"], ["मा", "लय"], ["जा", "ति"], ["sub", "sequent"], ["gen", "er"], ["भा", "ग"], ["हि", "मालय"], ["ली", "न"], ["os", "s"], ["देश", "ों"], ["थी", "।"], ["बड़", "ा"], ["leg", "is"], ["gre", "w"], ["बी", "च"], ["न्ह", "ें"], ["अध", "ि"], ["निर्", "माण"], ["agricult", "ure"], ["bas", "ed"], ["col", "on"], ["अं", "त"], ["rap", "h"], ["अनु", "सार"], ["scri", "pt"], ["Afr", "ica"], ["Wor", "ld"], ["बौ", "द्ध"], ["stru", "ct"], ["(", "en"], [".", "."], [".", "n"], ["1", "-"], ["5", "5"], ["7", "."], ["9", "%"], ["A", "sh"], ["B", "h"], ["B", "ang"], ["C", ".n"], ["D", "es"], ["D", "ra"], ["D", "el"], ["G", "hat"], ["H", "owever,"], ["L", "an"], ["N", "or"], ["O", "cean"], ["P", "op"], ["R", "aj"], ["S", "t"], ["S", "in"], ["S", "ing"], ["S", "ri"], ["S", "outheast"], ["b", "al"], ["c", "y,"], ["c", "ap"], ["f", "our"], ["g", "a"], ["g", "i"], ["h", "y"], ["h", "ou"], ["h", "omin"], ["i", ","], ["i", "um"], ["k", "e"], ["k", "s"], ["l", "in"], ["l", "ish"], ["l", "ine"], ["l", "ades"], ["m", "a"], ["m", "un"], ["m", "uch"], ["n", "s"], ["n", "it"], ["o", "."], ["p", "ical"], ["p", "ot"], ["r", "ich"], ["s", "s"], ["s", "ing"], ["t", "ed"], ["t", "ur"], ["t", "y,"], ["u", "g"], ["u", "ar"], ["u", "li"], ["w", "in"], ["w", "on"], ["w", "ild"], ["y", "an"], ["क", "ॉ"], ["च", "ना"], ["छ", "ोड़"], ["त", "म"], ["द", "र"], ["द", "ल"], ["न", "ों"], ["प", "े"], ["प", "र्व"], ["ब", "र"], ["ब", "ो"], ["र", "्य"], ["ल", "ं"], ["स", "ु"], ["स", "ू"], ["२", "०"], ["అ", "ని"], ["ఆ", "ఫ"], ["క", "ం"], ["క", "ల"], ["చ", "రి"], ["జ", "ి"], ["జ", "న్"], ["ట", "ం"], ["ట", "ా"], ["డ", "ే"], ["ణ", "ంగా"], ["ద", "న"], ["ద", "్య"], ["న", "ాయ"], ["న", "గర"], ["న", "్యాయ"], ["ప", "ం"], ["ప", "ద"], ["ప", "శ"], ["ప", "క్ష"], ["ప", "ాత్ర"], ["మ", "ల"], ["మ", "లు"], ["మ", "ించ"], ["మ", "్మ"], ["ర", "ే"], ["ర", "్య"], ["ర", "కాల"], ["ల", "క్ష"], ["వ", "రి"], ["స", "ూ"], ["హ", "ా"], ["ి", "స్త"], ["ి", "ల్"], ["ు", "ల"], ["ో", "ర"], ["in", "du"], ["er", "i"], ["on", "e"], ["st", "ant"], ["re", "form"], ["re", "main"], ["di", "v"], ["al", "s,"], ["ed", "uc"], ["or", "igin"], ["it", "as"], ["it", "ur"], ["it", "ect"], ["of", "f"], ["ion", ","], ["ాల", "కు"], ["es", "e"], ["లో", "క్"], ["స్", ","], ["స్", "లా"], ["ec", "ul"], ["ప్ర", "కార"], ["లు", "గు"], ["li", "ber"], ["li", "ance"], ["em", "pl"], ["et", "ic"], ["et", "work"], ["स्", "तर"], ["ిక", ","], ["ిక", "త"], ["ిక", "ి"], ["ిక", "్"], ["या", "।"], ["us", "h"], ["కు", "ల"], ["కు", "ంట"], ["కు", "టు"], ["est", "ab"], ["వి", "."], ["con", "so"], ["res", "ult"], ["ro", "c"], ["se", "pt"], ["ast", "ri"], ["ను", "లు,"], ["iv", "es"], ["రా", "స్య"], ["ag", "ain"], ["ag", "o."], ["im", "a"], ["ము", "."], ["ము", "లో"], ["ము", "ంబ"], ["el", "it"], ["ద్", "వీ"], ["ow", "n"], ["తి", ","], ["ci", "ent"], ["ci", "dent"], ["du", "ct"], ["qu", "ae"], ["qu", "od"], ["मा", "ज"], ["मा", "ना"], ["op", "er"], ["वि", "श्व"], ["राज", "वंश"], ["ంట", "ే"], ["స్థ", "ాన్"], ["సం", "ఘ"], ["సం", "ప్రదాయ"], ["సం", "వత్"], ["pl", "ate"], ["so", "on"], ["క్ష", "రాస్య"], ["pro", "v"], ["టి", "లో"], ["పా", "క్"], ["ure", ","], ["पू", "र्ण"], ["Ind", "o"], ["pri", "m"], ["वर्", "ग"], ["वर्", "त"], ["ంచ", "ి"], ["ती", "स"], ["भा", "ज"], ["Hin", "di"], ["हो", "ता"], ["south", "-"], ["రై", "ళ్ల"], ["వాత", "ావర"], ["వచ్చ", "ిన"], ["minister", "."], ["రాష్ట్ర", "ాల"], ["రాష్ట్ర", "ాలు"], ["వే", "గంగా"], ["ous", "ly"], ["భారతదేశ", "పు"], ["a.", "C.n"], ["ext", "ens"], ["vi", "dian"], ["languag", "es"], ["ले", "ट"], ["rul", "e"], ["rul", "e."], ["చె", "ందిన"], ["कृ", "ष"], ["ann", "o"], ["उत्तर", "-"], ["प्", "लेट"], ["కార", "్య"], ["eng", "th"], ["199", "1"], ["వ్యవస్థ", "లో"], ["పర", "ంగా"], ["పరి", "శ్ర"], ["మే", "న"], ["ప్రధాన", "మంత్రి"], ["unt", ","], ["రాజ్య", "ాలు"], ["civ", "itas"], ["आध", "ुन"], ["కర", "ణ"], ["ట్", "లు"], ["వార", "స"], ["వర్", "గ"], ["సభ", "్య"], ["స్థాన", "ంలో"], ["దక్షి", "ణా"], ["BCE", ","], ["दिया", "।"], ["लग", "भग"], ["బా", "ద్"], ["serv", "ed"], ["201", "1"], ["बढ़", "ती"], ["ఆర్", "థిక"], ["సాం", "ప్రదాయ"], ["हिंद", "ू"], ["cor", "ding"], ["मैद", "ानी"], ["ta", "x"], ["ఉత్", "తర"], ["ఉంట", "ాయి."], ["పూ", "."], ["పూ", "ర్"], ["lead", "er"], ["lead", "ing"], ["ముఖ్య", "మైన"], ["భాగ", "ం"], ["peri", "od"], ["Indo-", "A"], ["Himalay", "as"], ["बंध", "न"], ["िय", "ों"], ["राष्ट्र", "ीय"], ["agricult", "ural"], ["grow", "ing"], ["సాధ", "ించ"], ["పాకి", "స్తాన్"], ["పాకి", "స్థాన్"], ["దక్షిణ", "ాన"], ["Plate", "au"], ["mid", "-"], ["commer", "cial"], ["cru", "st"], ["mem", "ber"], ["tro", "pical"], ["गु", "प्त"], ["పై", "గా"], ["arch", "itect"], ["cons", "ist"], ["సిని", "మా"], ["సంగీ", "తం"], ["West", "ern"], ["भू", "मि"], ["शह", "री"], ["righ", "ts"], ["ident", ","], ["Cam", "era"], ["sa", "ecul"], ["ज़", "ी"], ["ఆధ", "ార"], ["ఢిల్ల", "ీ"], ["బ్రి", "టి"], ["మూడ", "ు"], ["మాత్ర", "ం"], ["రహ", "దారులు,"], ["స్వా", "మ్య"], ["विस्", "तार"], ["సామ", "్రా"], ["endem", "ic"], ["ప్రాచ", "ీన"], ["బెంగ", "ాల"], ["democ", "rat"], ["द्य", "ोग"], ["సర్", "వీ"], ["స్వత", "ంత్ర"], ["kingdom", "s"], ["జాబిత", "ా"], ["అభి", "వృ"], ["శతాబ్", "దం"], ["Bang", "lades"], ["Dra", "vidian"], ["Del", "hi"], ["Pop", "uli"], ["Sing", "h"], ["mun", "di"], ["tur", "ned"], ["कॉ", "ंग्रेस"], ["पर्व", "त"], ["ఆఫ", "్"], ["చరి", "త్ర"], ["పశ", "్చ"], ["empl", "oy"], ["కుటు", "ంబ"], ["estab", "lish"], ["conso", "lid"], ["result", "ing"], ["క్షరాస్య", "త"], ["వాతావర", "ణం"], ["a.C.n", "."], ["आधुन", "िक"], ["Banglades", "h"], ["4", "."], ["A", "c"], ["T", "er"], ["W", "ar"], ["a", "ver"], ["b", "ill"], ["d", "s"], ["h", "er"], ["i", "z"], ["k", "et"], ["l", "ast"], ["m", "ak"], ["m", "ade"], ["p", "ed"], ["p", "ay"], ["r", "ural"], ["s", "ur"], ["t", "y"], ["t", "en"], ["t", "al"], ["t", "ext"], ["u", "al"], ["आ", "न्"], ["क", "ह"], ["क", "ता"], ["त", "्य"], ["त", "्या"], ["ध", "ि"], ["ब", "नी"], ["भ", "रा"], ["म", "ार"], ["य", "ू"], ["ल", "िम"], ["स", "फल"], ["४", "०"], ["in", "fl"], ["st", "ri"], ["st", "ian"], ["di", "sp"], ["at", "ive"], ["or", "ies"], ["ion", "."], ["्य", "ता"], ["स्", "लिम"], ["ri", "stian"], ["il", "e"], ["il", "ity"], ["est", ","], ["प्र", "ति"], ["प्र", "भा"], ["con", "si"], ["res", "erv"], ["ra", "ct"], ["ex", "ter"], ["ch", "ar"], ["Indian", "s"], ["el", "op"], ["wh", "en"], ["पर", "ंप"], ["वि", "ज"], ["कर", "ण"], ["कर", "ोड़"], ["सं", "बंध"], ["ain", "s"], ["pl", "ay"], ["ड़", "ी"], ["pro", "tect"], ["पा", "ल"], ["sp", "e"], ["हैं", ","], ["Ind", "ones"], ["वर्", "ण"], ["भा", "षा"], ["मु", "स्लिम"], ["elect", "ed"], ["ni", "fic"], ["Ch", "ristian"], ["१९", "५"], ["१९", "७"], ["ंध", "ी"], ["long", "er"], ["comp", "an"], ["pol", "ic"], ["मि", "ला"], ["196", "5,"], ["increas", "ing"], ["Pakistan", "."], ["mar", "ket"], ["Buddh", "ism"], ["पश्चिम", "ी"], ["Th", "ese"], ["आध", "ार"], ["पु", "रा"], ["हुई", "।"], ["cl", "ass"], ["दो", "ल"], ["dev", "elop"], ["po", "st"], ["अध", "िक"], ["ling", "u"], ["mid", "dle"], ["कु", "छ"], ["Sanskrit", ","], ["produ", "c"], ["Chin", "a"], ["sig", "nific"], ["technolog", "y"], ["गा", "ंधी"], ["च्", "च"], ["direct", "ly"], ["प्रधान", "मंत्र"], ["Am", "ong"], ["great", "er"], ["गठ", "बंधन"], ["शु", "रू"], ["legis", "lat"], ["Ac", "cording"], ["bill", "ion"], ["आन्", "दोल"], ["infl", "u"], ["disp", "ut"], ["exter", "nal"], ["परंप", "रा"], ["प्रधानमंत्र", "ी"], ["\"", ","], ["(", "వె"], [".", "పూ."], ["1", "3"], ["1", "00"], ["1", "200"], ["3", "5"], ["4", "0"], ["4", "00"], ["5", "4"], ["5", "17"], ["7", "0%"], ["B", "N"], ["B", "ra"], ["B", "ay"], ["C", "oun"], ["D", "P"], ["D", "ec"], ["F", "ron"], ["G", "ree"], ["G", "DP"], ["I", "S"], ["K", "as"], ["M", "al"], ["M", "yan"], ["M", "eri"], ["N", "ic"], ["O", "c"], ["P", "A"], ["P", "er"], ["Q", "u"], ["S", "h"], ["S", "he"], ["T", "am"], ["T", "em"], ["T", "har"], ["T", "ib"], ["V", "i"], ["a", "ir"], ["b", "l"], ["b", "u"], ["b", "es"], ["b", "ra"], ["b", "ir"], ["b", "ell"], ["b", "io"], ["b", "ack"], ["c", "ro"], ["c", "rit"], ["c", "y."], ["c", "ens"], ["c", "lim"], ["d", "ar"], ["d", "ri"], ["d", "ay"], ["d", "rain"], ["e", "ign"], ["e", "lig"], ["e", "ffect"], ["f", "ast"], ["f", "ere"], ["g", "ar"], ["g", "ation"], ["g", "ra"], ["g", "ain"], ["g", "av"], ["g", "uar"], ["h", "en"], ["h", "is"], ["h", "ol"], ["h", "ub"], ["i", "p"], ["i", "us"], ["i", "ra"], ["i", "du"], ["i", "qu"], ["i", "ae"], ["i", "a."], ["i", "fer"], ["j", "o-"], ["k", "il"], ["l", "o"], ["l", "ay"], ["l", "ament"], ["l", "oss"], ["m", "arg"], ["m", "ig"], ["m", "amm"], ["n", "ation"], ["n", "un"], ["n", "ear"], ["n", "ame"], ["o", "ch"], ["p", "ur"], ["r", "an"], ["r", "ion"], ["s", "m"], ["s", "um"], ["s", "over"], ["t", "ing"], ["t", "ra"], ["t", "ak"], ["u", "e"], ["v", "el"], ["x", "im"], ["अ", "फ"], ["इ", "स्"], ["उ", "स"], ["ऋ", "तु"], ["क", "्र"], ["क", "्यों"], ["ग", "त"], ["ग", "ई।"], ["च", "े"], ["च", "ार"], ["छ", "ो"], ["ज", "लो"], ["थ", "े"], ["द", "र्"], ["न", "्या"], ["प", "ं"], ["प", "ी"], ["प", "हा"], ["ब", "ार"], ["ब", "ंगा"], ["भ", "्यता"], ["य", "न"], ["र", "ि"], ["र", "हा"], ["ल", "ु"], ["व", ","], ["व", "ैद"], ["श", "ी"], ["ष", "्"], ["स", "भा"], ["स", "भ्यता"], ["ह", "ार"], ["ह", "ित"], ["ि", "की"], ["ौ", "द्योग"], ["ం", "భ"], ["అ", "వ"], ["అ", "హ"], ["అ", "వి"], ["ఆ", "క్రమ"], ["ఆ", "హార"], ["ఇ", "వ"], ["ఇ", "వి"], ["ఇ", "ంగ్ల"], ["ఇ", "స్లా"], ["ఉ", "ండ"], ["ఎ", "న్ని"], ["క", "థ"], ["క", "ూ"], ["క", "న్న"], ["క", "త్వ"], ["క", "ింద"], ["ఖ", "ండ"], ["గ", "ె"], ["చ", "న"], ["చ", "ి"], ["చ", "ు"], ["చ", "ాల"], ["జ", "ాలు"], ["జ", "రు"], ["జ", "ంబ"], ["ట", "ే"], ["ట", "ై"], ["ట", "ర్"], ["డ", "ిన"], ["త", "ల"], ["త", "ే"], ["త", "రా"], ["త", "ము"], ["త", "ులు"], ["ద", "ర"], ["న", "ది"], ["ప", "ర్"], ["ప", "ార్"], ["ఫ", "ల"], ["బ", "ి"], ["బ", "ు"], ["బ", "్‌"], ["బ", "ంగ్ల"], ["బ", "ంధ"], ["బ", "డ్డ"], ["భ", "ర"], ["మ", "ౌ"], ["మ", "ాలు"], ["మ", "తి"], ["మ", "ారు"], ["మ", "ంది"], ["య", "ాలో"], ["ల", "ె"], ["ల", "ిం"], ["ళ", "్"], ["వ", "ం"], ["వ", "ల్ల"], ["స", "మ"], ["స", "హ"], ["స", "ే"], ["స", "ులు"], ["స", "ార్"], ["హ", "ై"], ["హ", "ిమ"], ["ా", "దేశ"], ["ా", "ంగ"], ["ా", "పార"], ["ి", "గా"], ["ీ", "ర"], ["ీ", "లు"], ["ు", "కొ"], ["ూ", "రు"], ["ె", "ల"], ["ె", "ట్"], ["ే", ","], ["్", "వ"], ["th", "or"], ["an", "a,"], ["an", "ni"], ["in", "."], ["in", "tro"], ["en", "act"], ["st", "y"], ["st", "an"], ["st", "and"], ["re", "fer"], ["re", "cor"], ["di", "ern"], ["di", "ment"], ["at", "is"], ["at", "ures"], ["al", "ong"], ["ar", ","], ["ar", "a"], ["and", ","], ["and", "ing"], ["or", "o"], ["or", "y"], ["or", "al"], ["or", "gan"], ["it", "a"], ["it", "i"], ["ార", "ంభ"], ["Indi", "ra"], ["Indi", "co"], ["Indi", "ca"], ["ion", "s"], ["ాల", "య"], ["ాల", "నే"], ["ాల", "ెండ"], ["es", ":"], ["es", ";"], ["ent", "er"], ["to", "ok"], ["్య", "ా"], ["ou", "p"], ["ou", "ld"], ["ది", "న"], ["ప్ర", "ారంభ"], ["దేశ", "పు"], ["దేశ", "ానికి"], ["am", "p"], ["ర్", ","], ["ర్", "ణ"], ["ర్", "త"], ["ర్", "‌"], ["ని", "స్తాన్"], ["li", "um"], ["ur", "is"], ["ur", "ya"], ["భారత", "్"], ["um", ","], ["et", ","], ["he", "et"], ["ాలు", "."], ["19", "00"], ["ad", "op"], ["న్న", "ది."], ["న్న", "ారు."], ["గా", "ంధ"], ["il", "way"], ["కు", "లు"], ["प्र", "चल"], ["प्र", "णा"], ["प्र", "ौद्योग"], ["ాయ", "ు"], ["వి", "ధ్య"], ["వి", "భిన్న"], ["వి", "ద్య"], ["con", "dit"], ["con", "duct"], ["un", "ion"], ["ాత", "ో"], ["res", "p"], ["ra", "ilway"], ["se", "par"], ["ను", "ంచి"], ["దేశం", "గా"], ["de", "l"], ["ag", "es"], ["ag", "o,"], ["ch", "anges"], ["िया", "ँ"], ["सा", "गर"], ["su", "per"], ["ద్", "వార"], ["ab", "h"], ["ించ", "ే"], ["ించ", "ి,"], ["తి", "గా"], ["త్", "తా"], ["ci", "lium"], ["qu", "o"], ["qu", "al"], ["si", "an"], ["op", "p"], ["ies", "."], ["वि", "वा"], ["with", "in"], ["mo", "ist"], ["राज", "ा"], ["सं", "ग"], ["सं", "सद"], ["పు", "రు"], ["పు", "ట్ట"], ["ంట", "ు"], ["స్థ", "ి"], ["न्", "त्र"], ["न्", "तु"], ["न्", "द्र"], ["సం", "కీ"], ["సం", "బంధ"], ["pl", "ace"], ["ism", "."], ["ant", "s"], ["ant", "iqu"], ["వా", "హ"], ["వా", "ణి"], ["ఉన్న", "ారు."], ["pro", "cess"], ["పా", "టు"], ["పా", "దన"], ["हा", "ँ"], ["ure", "d"], ["ot", "ed"], ["gen", "cy,"], ["वा", "स"], ["वा", "दी"], ["కూడ", "ుకు"], ["part", "ic"], ["part", "ition"], ["కో", "ల్"], ["der", "s"], ["नि", "य"], ["नि", "र"], ["కా", "శ్"], ["నే", "పాల"], ["మొ", "ట్ట"], ["200", "4"], ["oc", "cident"], ["మా", "బాద్"], ["र्म", "ण"], ["Asi", "an"], ["Asi", "a,"], ["Asi", "a."], ["ंद", "ि"], ["region", "s"], ["कि", "न"], ["ress", "ed"], ["west", ","], ["bec", "ome"], ["जि", "न"], ["నా", "గర"], ["లి", "చ"], ["all", "ed"], ["all", "is"], ["sh", "o"], ["किया", ","], ["గు", "వ"], ["గు", "ర్త"], ["వ్య", "ాపార"], ["వచ్చ", "ు."], ["ద్ధ", "ం"], ["minister", "s."], ["మైన", "ది."], ["ాన్", "ని"], ["स्था", "न"], ["ext", "in"], ["ఒక", "ే"], ["కొ", "న్ని"], ["పాల", "ించ"], ["పాల", "ిత"], ["ass", "ert"], ["uc", "itur"], ["vi", "de"], ["reli", "gi"], ["centur", "y"], ["centur", "ies"], ["centur", "ies,"], ["చే", "సింది."], ["१९", "८"], ["CE", ","], ["Hindu", "ism"], ["Hindu", "ism,"], ["Hindu", "stan"], ["यु", "क्त"], ["east", "."], ["ल्", "ली"], ["దా", "పు"], ["దా", "దాపు"], ["स्व", "रूप"], ["భారతదేశంలో", "ని"], ["election", "s"], ["मान", "व"], ["comp", "osed"], ["Con", "cilium"], ["ca", "us"], ["pre", "domin"], ["కార", "ణంగా"], ["డ్", "డు"], ["తు", "ంది."], ["పె", "నీ"], ["వీ", "టిలో"], ["जन", "ता"], ["subcontinent", ","], ["కే", "వల"], ["unt", "ur"], ["భాష", "లు"], ["app", "ell"], ["రాజ్య", "ాంగ"], ["Empire", "."], ["mar", "ked"], ["जिस", "का"], ["Th", "is"], ["civ", "itat"], ["आध", "िकार"], ["వర్", "ణ"], ["art", ","], ["sup", "p"], ["religion", "s"], ["రో", "డ్డు"], ["197", "7"], ["parliament", "."], ["హిందూ", "దేశం"], ["num", "er"], ["dev", "ot"], ["Ma", "urya"], ["hab", "itat"], ["जी", "वन"], ["बढ़", "कर"], ["జనా", "భ"], ["ష్", "ణ"], ["itat", "um"], ["సాం", "స్కృ"], ["gl", "ob"], ["str", "ength"], ["mult", "i"], ["ఉత్", "తరా"], ["ఉంట", "ుంది."], ["జన", "గణ"], ["బడ", "త"], ["బడ", "ిన"], ["మహ", "ా"], ["వె", "బ్‌"], ["శ్ర", "ీ"], ["ుకు", "ంట"], ["1950", ","], ["తరువాత", "ి"], ["Himalay", "an"], ["Civ", "il"], ["Civ", "itatum"], ["ded", "ucitur"], ["కలి", "సి"], ["కలి", "గి"], ["నాలు", "గు"], ["లే", "దా"], ["constitution", "al"], ["संस्कृ", "त"], ["medi", "ately"], ["కేంద్ర", "పాలిత"], ["ప్రభుత్వ", "ం"], ["ho", "diern"], ["pres", "ident,"], ["ry", "an"], ["प्राचीन", "तम"], ["cru", "cial"], ["दि", "ल्ली"], ["క్య", "ాలెండ"], ["లతో", ","], ["ుకో", "వడ"], ["ప్రతి", "పాదన"], ["శాస్త్ర", "ీయ"], ["శాస్త్ర", "ం,"], ["Ara", "bian"], ["Mo", "hen"], ["cur", "ren"], ["fact", "or"], ["hm", "ir"], ["tim", "e,"], ["them", "."], ["arm", "ies"], ["ning", "s"], ["ren", "ew"], ["vari", "is"], ["आक", "र्मण"], ["ఉప", "ఖండ"], ["తె", "లుగు"], ["వై", "విధ్య"], ["సై", "టు"], ["సమా", "ఖ్య"], ["offic", "ial"], ["omet", "res"], ["ప్రజ", "ల"], ["సంస్కృ", "తి"], ["ిత్ర", "క"], ["కోర్", "ట"], ["కోర్", "టు"], ["పేర్", "లు"], ["పేర్", "కొ"], ["viol", "ent"], ["viol", "ence"], ["మొదల", "ైన"], ["ప్పటిక", "ీ,"], ["liter", "ac"], ["ఏర్ప", "డ్డ"], ["బహు", "ళ"], ["సింధ", "ు"], ["स्वतंत्र", "ता"], ["Jan", "ata"], ["ili", "z"], ["pr", "om"], ["पह", "ले"], ["old", "est"], ["पार्ट", "ी"], ["Gu", "pt"], ["vic", "t"], ["अप", "ने"], ["अंग्रे", "ज़ी"], ["చార", "ిత్రక"], ["పత", "కాలు"], ["పొ", "ందిన"], ["పద్ధ", "తి"], ["indi", "gen"], ["independ", "ence"], ["ప్రజా", "స్వామ్య"], ["sever", "e"], ["నుక", "టి"], ["territ", "ori"], ["త్వా", "న్ని"], ["grad", "ually"], ["నిర్వహ", "ణ"], ["Punjab", ","], ["స్వాతంత్ర", "్య"], ["अर्थ", "व्यवस्था"], ["मौ", "र्य"], ["शि", "क्षा"], ["अंत", "तः"], ["55", ",000"], ["Ash", "ok"], ["Des", "ert"], ["Lan", "k"], ["hou", "se"], ["homin", "es"], ["लं", "बे"], ["కం", "పెనీ"], ["జన్", "మ"], ["educ", "ation"], ["ప్రకార", "ం"], ["liber", "t"], ["roc", "k"], ["ముంబ", "ై"], ["ద్వీ", "ప"], ["oper", "ation"], ["సంప్రదాయ", "ాలు"], ["సంవత్", "సర"], ["वर्त", "मान"], ["రైళ్ల", "ను"], ["కార్య", "క్రమ"], ["పరిశ్ర", "మలు"], ["దక్షిణా", "సియా"], ["సాంప్రదాయ", "ిక"], ["leader", ","], ["Indo-A", "ryan"], ["saecul", "o"], ["సామ్రా", "జ్య"], ["బెంగాల", "ీ"], ["సర్వీ", "సులు"], ["అభివృ", "ద్ధి"], ["ఆఫ్", "ఘ"], ["establish", "ed"], ["protect", "ed"], ["disput", "es"], ["(వె", "నుకటి"], ["Bra", "hm"], ["Fron", "t"], ["IS", "BN"], ["Kas", "hmir"], ["Myan", "mar"], ["Meri", "dian"], ["Nic", "ob"], ["Per", "sian"], ["Tam", "il"], ["bir", "th"], ["bell", "ion"], ["cens", "us"], ["dar", "o,"], ["gav", "e"], ["guar", "d"], ["jo-", "daro,"], ["kil", "ometres"], ["lo", "ose"], ["nun", "c"], ["sover", "eign"], ["tra", "dit"], ["इस्", "ला"], ["छो", "टे"], ["जलो", "ढ़"], ["दर्", "श"], ["वैद", "िक"], ["ఇస్లా", "మాబాద్"], ["కన్న", "డ"], ["చాల", "ా"], ["జరు", "పు"], ["జంబ", "ూ"], ["బంగ్ల", "ాదేశ"], ["ళ్", "ళ"], ["హిమ", "ాలయ"], ["enact", "ed"], ["recor", "ded"], ["గాంధ", "ీ"], ["प्रणा", "ली"], ["प्रौद्योग", "िकी"], ["ద్వార", "ా"], ["विवा", "द"], ["వాణి", "జ్య"], ["కాశ్", "మీ"], ["మొట్ట", "మొదటి"], ["నాగర", "ికత"], ["కేవల", "ం"], ["civitat", "ibus"], ["आधिकार", "िक"], ["సాంస్కృ", "తిక"], ["వెబ్‌", "సైటు"], ["క్యాలెండ", "ర్"], ["Mohen", "jo-daro,"], [".", "१"], ["0", "4%"], ["1", "%"], ["1", "2"], ["1", "5"], ["1", "st"], ["3", ","], ["5", "%"], ["6", "2"], ["8", "%"], ["8", ","], ["a", "ut"], ["a", "ff"], ["c", "le"], ["c", "att"], ["d", "ro"], ["e", "di"], ["f", "low"], ["f", "und"], ["g", "n"], ["g", "ood"], ["h", "owever,"], ["i", "de"], ["l", "ate"], ["n", "omin"], ["o", "in"], ["p", "over"], ["p", "ass"], ["t", "ain"], ["u", ","], ["u", "ary"], ["v", "ill"], ["ं", "ह"], ["ं", "।"], ["ं", "तर"], ["अ", "र"], ["अ", "ने"], ["अ", "भी"], ["अ", "लग"], ["अ", "पना"], ["उ", "न्हें"], ["ए", "व"], ["क", "ई"], ["ख", "न"], ["ग", "ई"], ["ग", "्र"], ["ग", "ों"], ["घ", "ोष"], ["ज", "ैन"], ["ट", "ी"], ["ण", ","], ["द", "ु"], ["द", "ृ"], ["द", "ार"], ["न", "दिया"], ["प", "त्"], ["प", "ड़ा"], ["भ", "र"], ["भ", "ु"], ["म", "ू"], ["र", "ह"], ["ल", "ै"], ["श", "क"], ["श", "्री"], ["स", "भी"], ["स", "ैन"], ["स", "माज"], ["्", "ञ"], ["१", "५"], ["२", "००"], ["४", "७"], ["th", "reat"], ["an", "ag"], ["in", "es,"], ["in", "stitution"], ["er", "c"], ["the", "n"], ["re", "st"], ["re", "co"], ["re", "duced"], ["di", "st"], ["al", "th"], ["ar", "ound"], ["ed", "."], ["to", "w"], ["li", "es"], ["ur", "ther"], ["स्", "त"], ["ol", "ving"], ["से", "वा"], ["ों", "ने"], ["le", "ft"], ["प्र", "कार"], ["प्र", "देश"], ["प्र", "शासन"], ["प्र", "भु"], ["था", ","], ["था", "न"], ["un", "e"], ["ro", "ss"], ["iv", "ity"], ["de", "ly"], ["de", "fe"], ["ab", "out"], ["ab", "ility"], ["wh", "ere"], ["si", "x"], ["wi", "dely"], ["ति", "हा"], ["न्", "त"], ["ment", "s"], ["pl", "ac"], ["जा", "ती"], ["co", "-"], ["ear", "li"], ["ap", "on"], ["पा", "द"], ["पा", "लि"], ["ac", "ter"], ["शा", "स्त्र"], ["econom", "y."], ["we", "alth"], ["we", "apon"], ["उत्", "पाद"], ["कि", "ये"], ["इस", "की"], ["कार", "्य"], ["शास", "ित"], ["हो", "ते"], ["og", "raph"], ["year", "."], ["धर्म", "ों"], ["स्था", "प"], ["centur", "y."], ["languag", "e,"], ["languag", "es."], ["cult", "ures"], ["१९", "६"], ["१९", "९"], ["ament", "al"], ["system", ","], ["system", "."], ["यु", "द्ध"], ["ंध", "ु"], ["क्षेत्र", "ीय"], ["उत्तर", "ी"], ["fore", "ign"], ["ris", "ing"], ["लि", "ये"], ["प्रा", "प्त"], ["जिस", "के"], ["जिस", "में"], ["जिस", "ने"], ["Th", "ere"], ["gr", "oup"], ["बड़", "ी"], ["popul", "ous"], ["io", ","], ["दो", "नों"], ["सि", "ंधु"], ["str", "ong"], ["urban", "isation"], ["न्ह", "ोंने"], ["सी", "मा"], ["ho", "od"], ["pres", "ent"], ["बहु", "त"], ["culture", "."], ["cit", "ies"], ["iss", "ion"], ["16", "."], ["tim", "e"], ["उन", "के"], ["righ", "t"], ["support", "ed"], ["अव", "शेष"], ["अव", "धि"], ["जब", "कि"], ["though", "t"], ["Jan", "uary"], ["follow", "ing"], ["loc", "al"], ["third", "-largest"], ["आग", "मन"], ["व्या", "पार"], ["chang", "e"], ["colon", "ial"], ["छोड़", "कर"], ["indu", "str"], ["remain", "ing"], ["तीस", "री"], ["कृष", "ि"], ["कह", "ते"], ["प्रभा", "व"], ["consi", "der"], ["char", "acter"], ["spe", "ak"], ["१९५", "०"], ["increasing", "ly"], ["signific", "ant"], ["आन्दोल", "न"], ["शी", "ल"], ["glob", "al"], ["literac", "y"], ["catt", "le"], ["fund", "amental"], ["अर", "ब"], ["अने", "क"], ["दृ", "ष्ट"], ["नदिया", "ँ"], ["मू", "ल"], ["reco", "gn"], ["तिहा", "स"], ["पालि", "का"], ["\"", "."], ["\"", "భర"], ["(", "0."], ["-", "0"], ["-", "k"], ["-", "year"], ["-", "पूर्व"], ["-", "లా"], ["-", "sc"], ["-", "majority"], ["-", "धीरे"], ["-", "ga"], ["-", "ఢిల్లీ"], ["-", "sty"], ["0", "1,"], ["1", "4%"], ["1", "2."], ["2", "2"], ["2", "9"], ["2", "1."], ["2", "500"], ["4", "0%"], ["5", "-0"], ["6", "."], ["7", "/"], ["7", "000"], ["8", "0"], ["8", "లో"], ["9", "-"], ["9", ",000"], ["A", "t"], ["A", "ch"], ["A", "ug"], ["B", "al"], ["C", "I"], ["C", "l"], ["D", "A"], ["D", "al"], ["D", "hol"], ["E", "ar"], ["E", "mer"], ["F", "act"], ["F", "ollow"], ["G", "ang"], ["G", "ond"], ["H", "ar"], ["I", ","], ["I", "m"], ["I", "ain"], ["J", "aw"], ["K", "o"], ["K", "al"], ["K", "aver"], ["L", "at"], ["L", "ak"], ["M", "id"], ["M", "any"], ["M", "ajor"], ["M", "eh"], ["N", "ar"], ["N", "ep"], ["N", "uclear"], ["N", "omen"], ["N", "etwork"], ["N", "DA"], ["O", "ld"], ["P", "."], ["P", "o"], ["P", "r"], ["P", "ar"], ["P", "ri"], ["P", "res"], ["P", "all"], ["P", "art"], ["P", "ers"], ["R", "es"], ["R", "am"], ["S", "o"], ["S", "im"], ["S", "ultanate"], ["S", "abh"], ["T", "o"], ["T", "echnolog"], ["U", "PA"], ["V", "."], ["V", "aj"], ["V", "alle"], ["V", "allis"], ["Z", "oro"], ["a", "h"], ["a", "ic"], ["a", "em"], ["a", "il"], ["a", "im"], ["a", "ci"], ["a", "har"], ["a", "ffect"], ["b", "is"], ["b", "ul"], ["b", "ri"], ["b", "le"], ["b", "ant"], ["b", "eral"], ["b", "uc"], ["c", "y"], ["c", "at"], ["c", "ar"], ["c", "es"], ["c", "um"], ["c", "il"], ["c", "ae"], ["c", "ame"], ["c", "heet"], ["d", "re"], ["d", "ense"], ["e", "qu"], ["e", "igh"], ["e", "ously"], ["e", "bant"], ["f", "."], ["f", "ra"], ["f", "ac"], ["f", "oun"], ["f", "all"], ["f", "e,"], ["f", "ound"], ["f", "lower"], ["g", "in"], ["g", "ent"], ["h", "an"], ["h", "un"], ["h", "ot"], ["h", "ous"], ["i", "ebant"], ["j", "ay"], ["j", "uris"], ["k", "now"], ["l", "er"], ["l", "al"], ["l", "es,"], ["l", "ement"], ["l", "aw"], ["m", "y"], ["m", "al"], ["m", "and"], ["m", "ut"], ["m", "ns"], ["n", "er"], ["n", "ic"], ["n", "om"], ["n", "a,"], ["n", "ext"], ["n", "etwork"], ["o", "econom"], ["p", "p"], ["p", "at"], ["p", "ec"], ["p", "et"], ["p", "le"], ["p", "ut"], ["p", "ast"], ["p", "ush"], ["r", "ing"], ["r", "om"], ["r", "ang"], ["r", "arum"], ["r", "orum"], ["r", "anges"], ["r", "gar"], ["s", ";"], ["s", "il"], ["s", "us"], ["s", "ist"], ["s", "ch"], ["s", "ap"], ["s", "low"], ["s", "omet"], ["s", "unt,"], ["t", "re"], ["t", "ic"], ["t", "y."], ["t", "reat"], ["t", "able"], ["u", "ed"], ["u", "or"], ["u", "it"], ["u", "et"], ["v", "ar"], ["v", "ol"], ["v", "alle"], ["v", "oted"], ["w", "ent"], ["w", "ing"], ["w", "rit"], ["w", "omen"], ["w", "ana,"], ["w", "ould"], ["z", "e"], ["z", "on"], ["ā", "rat"], ["ँ", "चा"], ["ं", "स्कृ"], ["अ", "हि"], ["आ", "र"], ["आ", "ते"], ["आ", "दि"], ["आ", "दर्श"], ["इ", "न"], ["इ", "ंदि"], ["इ", "तिहास"], ["ई", ","], ["ई", "स्ट"], ["उ", "से"], ["उ", "च्च"], ["ऊ", "पर"], ["क", "म"], ["क", "ों"], ["क", "श्"], ["ख", "ने"], ["ग", "ध"], ["ग", "़"], ["ग", "ोल"], ["घ", "ा"], ["च", "ौ"], ["च", "ला"], ["च", "ोल"], ["ज", "ै"], ["ज", "ार"], ["ज", "मा"], ["ट", "ल"], ["ड", "ी"], ["ण", "ी"], ["ण", "्"], ["त", "रा"], ["त", "ीय"], ["त", "मिल"], ["थ", "म"], ["द", "ुन"], ["ध", "ु"], ["ध", "ार"], ["न", ","], ["न", "व"], ["प", "ि"], ["फ", "ा"], ["ब", "ू"], ["ब", "दल"], ["भ", "क्ति"], ["म", "्या"], ["म", "स्वरूप"], ["म", "गध"], ["य", "त"], ["य", "ि"], ["य", "ों"], ["र", "ता"], ["र", "िक"], ["र", "ही"], ["र", "चना"], ["ल", "ों"], ["व", "ृ"], ["व", "री"], ["श", "स्त्र"], ["स", ","], ["स", "त"], ["स", "ो"], ["स", "तर"], ["स", "र्व"], ["स", "वी"], ["ह", "रा"], ["ा", "तार"], ["ा", "मस्वरूप"], ["ु", "स्तान"], ["ै", "ली"], ["२", "१"], ["ం", ";"], ["ం", "క"], ["ం", "కా"], ["అ", "ణ"], ["అ", "ంత"], ["అ", "ంట"], ["అ", "న్ని"], ["అ", "ప్ప"], ["అ", "మె"], ["అ", "క్షరాస్యత"], ["ఇ", "దే"], ["ఇ", "ండ"], ["ఇ", "క్క"], ["ఇ", "టీ"], ["ఈ", "శ"], ["ఈ", "స్"], ["ఎ", "డ"], ["ఎ", "ల"], ["ఏ", "ప్ర"], ["ఐ", "రో"], ["ఐ", "క్య"], ["ఒ", "లం"], ["క", ","], ["క", "ాత"], ["క", "ను"], ["క", "నుక"], ["క", "ంటే"], ["క", "బడ్డ"], ["ఖ", "ో"], ["ఖ", "ని"], ["గ", "త"], ["గ", "ంగ"], ["గ", "్రా"], ["చ", "ద"], ["చ", "య"], ["చ", "ూ"], ["చ", "వి"], ["చ", "ించిన"], ["చ", "ిత్ర"], ["చ", "ుకోవడ"], ["జ", "ీ"], ["జ", "ో"], ["జ", "్"], ["జ", "మ్మ"], ["జ", "ిక,"], ["ట", "క"], ["ట", "్ర"], ["ట", "న్"], ["ట", "లు"], ["ట", "ాన్"], ["ట", "్‌"], ["ట", "ోర"], ["ఠ", "భూ"], ["డ", "ైన"], ["ఢ", "ా"], ["ణ", "ులు"], ["త", "ర్"], ["త", "ను"], ["త", "ంలో"], ["త", "ంగా"], ["త", "ంత్ర"], ["త", "క్కువ"], ["త", "ీర"], ["థ", "్యం"], ["ద", "ర్"], ["ద", "గా"], ["ద", "రా"], ["ద", "ండ"], ["ధ", "ీన"], ["న", "ం"], ["న", "ూ"], ["ప", "ీ"], ["ప", "లు"], ["ప", "ిక"], ["ప", "వి"], ["ప", "్ల"], ["ప", "ల్ల"], ["ప", "డు"], ["ప", "తా"], ["ప", "క్క"], ["ప", "డిన"], ["బ", "ౌ"], ["బ", "ంగ"], ["భ", "వ"], ["భ", "ౌ"], ["భ", "క్"], ["మ", "ూ"], ["మ", "్"], ["మ", "ాత"], ["మ", "ిత"], ["మ", "రో"], ["య", "ింది."], ["య", "ాత్ర"], ["య", "మించ"], ["ర", "ీ"], ["ర", "ిక"], ["ర", "కాలు"], ["ర", "చయ"], ["ల", "ీ"], ["ల", "ౌ"], ["ల", "కొ"], ["ల", "మె"], ["ల", "స్య"], ["ళ", "ా"], ["ళ", "ిక"], ["ళ", "ి,"], ["వ", "ిం"], ["వ", "ంత"], ["వ", "రు"], ["వ", "ైన"], ["వ", "ార్"], ["వ", "ులు,"], ["వ", "త్ర"], ["వ", "నాలు"], ["శ", "క"], ["శ", "ి"], ["శ", "ీ"], ["శ", "ై"], ["శ", "ో"], ["శ", "కు"], ["శ", "క్"], ["శ", "ెల"], ["ష", "ణ"], ["స", "న"], ["స", "ీ"], ["స", "ె"], ["స", "ాల"], ["స", "్రా"], ["స", "మర"], ["స", "ిక్"], ["హ", "ో"], ["హ", "్ర"], ["ా", "క"], ["ా", "ను"], ["ా", "డే"], ["ి", "మాన"], ["ీ", "ం"], ["ీ", "క్ష"], ["ీ", "షు"], ["ీ", "కరణ"], ["ు", "త్"], ["ూ", "నది"], ["ే", "."], ["ౌ", "ర"], ["్", "మా"], ["‌", "సభ"], ["‌", "కాత"], ["th", "ic"], ["th", "ose"], ["th", "-largest"], ["an", "nor"], ["an", "ced"], ["an", "cient"], ["in", ","], ["in", "is"], ["in", "ci"], ["in", "ated"], ["in", "fer"], ["er", "as"], ["the", "y"], ["the", "se"], ["en", ","], ["en", "ed"], ["en", "ing"], ["en", "s,"], ["en", "ab"], ["st", "re"], ["re", "l"], ["re", "p"], ["re", "ad"], ["re", "lat"], ["re", "pt"], ["re", "pe"], ["re", "ction"], ["re", "ach"], ["re", "turned"], ["re", "bellion"], ["di", "ed"], ["di", "ent"], ["di", "ction"], ["di", "fied"], ["at", "ing"], ["at",
[...]
